<pad>	0
<unk>	0
<s>	0
</s>	0
<2en>	0
<2km>	0
▁	-2.34454
,	-3.68358
.	-3.85385
▁the	-4.0543
▁and	-4.58539
▁to	-4.61614
▁of	-4.66814
។	-4.68838
s	-4.75836
-	-5.0935
▁a	-5.20301
▁in	-5.22038
▁is	-5.30227
:	-5.35609
▁និង	-5.41679
▁for	-5.56206
▁The	-5.75695
)	-5.81132
▁(	-5.82329
និង	-5.89141
▁with	-5.92576
▁that	-6.03121
▁you	-6.0833
▁on	-6.20753
ing	-6.23843
?	-6.26362
’	-6.26914
▁are	-6.30861
/	-6.33701
▁be	-6.39536
▁can	-6.40762
▁it	-6.41706
▁I	-6.41774
ដែល	-6.46437
នៃ	-6.48693
▁as	-6.49229
▁will	-6.51023
▁at	-6.563
▁by	-6.57399
▁from	-6.57997
សម្រាប់	-6.58881
▁or	-6.60047
▁have	-6.68477
▁your	-6.72407
នេះ	-6.73504
▁បាន	-6.75376
ed	-6.76003
▁ការ	-6.77126
▁this	-6.77146
របស់	-6.78486
▁has	-6.81923
▁not	-6.82688
▁ដែល	-6.83129
៖	-6.83144
▁នៅ	-6.84005
ពី	-6.90794
បាន	-6.94422
t	-6.96822
នៅក្នុង	-6.97896
▁ហើយ	-6.98445
▁/	-6.98828
▁Cambodia	-6.99561
;	-7.0129
▁“	-7.01429
ដោយ	-7.02398
▁A	-7.04185
▁1	-7.12429
▁an	-7.13485
នៅ	-7.16115
'	-7.16535
▁ឬ	-7.16671
e	-7.1683
▁។	-7.17012
▁we	-7.17146
ក្នុង	-7.172
d	-7.17339
▁ជា	-7.20532
▁all	-7.20811
”	-7.2129
ឬ	-7.21402
មាន	-7.22349
!	-7.24123
▁more	-7.24517
▁មាន	-7.2549
ហើយ	-7.26182
C	-7.297
▁was	-7.31721
របស់អ្នក	-7.32035
▁3	-7.32495
mm	-7.33583
ការ	-7.34026
▁In	-7.34027
▁which	-7.34781
ដើម្បី	-7.35747
▁"	-7.35981
"	-7.36379
មួយ	-7.36737
▁also	-7.37249
▁ដោយ	-7.37688
ជា	-7.40089
▁2	-7.40412
▁-	-7.40642
កម្ពុជា	-7.4203
គឺ	-7.43686
▁It	-7.44405
▁|	-7.45149
ជាមួយ	-7.45248
▁ក្នុង	-7.45525
▁their	-7.45856
▁អ្នក	-7.47012
ទៅ	-7.48258
2	-7.49641
▁លោក	-7.49826
er	-7.50406
S	-7.50466
y	-7.50587
▁new	-7.51459
m	-7.52044
▁high	-7.52451
▁but	-7.54268
ly	-7.54712
▁គឺ	-7.55528
▁This	-7.56534
▁one	-7.56858
▁ដើម្បី	-7.57656
▁our	-7.58776
▁its	-7.58796
ដែលមាន	-7.59416
D	-7.59454
▁they	-7.60053
▁10	-7.60435
▁4	-7.62186
▁time	-7.62323
▁5	-7.62354
នឹង	-7.6319
អ្នក	-7.63313
▁នេះ	-7.6424
A	-7.64646
▁so	-7.65501
V	-7.67444
ត្រូវបាន	-7.68171
▁S	-7.68547
▁other	-7.69861
លើ	-7.7025
▁like	-7.70787
in	-7.70987
ថា	-7.71469
▁China	-7.71619
▁–	-7.71655
a	-7.71712
▁នឹង	-7.73339
▁use	-7.74484
ចំនួន	-7.75308
al	-7.75939
វា	-7.76345
%	-7.76592
▁over	-7.76668
▁របស់	-7.77243
▁C	-7.7889
▁សម្រាប់	-7.79174
x	-7.79295
▁about	-7.79664
ស	-7.8085
▁his	-7.82622
▁should	-7.83028
(	-7.83725
▁than	-7.84004
ដល់	-7.84745
▁2021	-7.84892
▁if	-7.84986
▁do	-7.85136
▁he	-7.85151
▁been	-7.86191
អាច	-7.86299
com	-7.86889
▁must	-7.87249
▁into	-7.87342
▁នៃ	-7.87505
▁We	-7.87811
▁who	-7.88525
▁up	-7.88934
▁P	-7.8957
▁when	-7.90493
នៅលើ	-7.90667
4	-7.90993
n	-7.91071
ជាមួយនឹង	-7.91296
▁យើង	-7.91802
ក្នុងការ	-7.92349
ទេ	-7.93142
ទាំងអស់	-7.93301
▁ទៅ	-7.93878
▁T	-7.94185
▁used	-7.9421
▁ប៉ុន្តែ	-7.95141
▁ត្រូវ	-7.95666
T	-7.95962
▁them	-7.96965
▁If	-7.97073
▁after	-7.97244
▁products	-7.97477
W	-7.98066
ថ្មី	-7.98443
▁តើ	-7.99023
3	-7.99599
▁6	-7.99648
ជាច្រើន	-7.99721
r	-7.99876
▁people	-8.00297
ផលិតផល	-8.00759
▁វា	-8.01027
▁B	-8.012
ប្រតិបត្តិការ	-8.02515
G	-8.02552
▁very	-8.02594
▁១	-8.02663
▁ពី	-8.02875
ដូចជា	-8.0328
▁development	-8.04068
▁my	-8.04957
ខ្ពស់	-8.04962
o	-8.05019
របស់យើង	-8.05486
▁For	-8.06125
▁water	-8.06348
▁need	-8.06433
▁there	-8.06608
▁ឆ្នាំ	-8.07
▁LED	-8.07471
▁only	-8.07737
ជាង	-8.0798
▁out	-8.0833
▁may	-8.0858
▁*	-8.08849
▁through	-8.09287
ក	-8.0931
g	-8.0978
ឱ្យ	-8.1079
es	-8.11148
L	-8.11223
▁market	-8.11402
ក្រុមហ៊ុន	-8.11562
▁make	-8.11905
▁គឺជា	-8.11935
▁8	-8.11937
▁Royal	-8.1204
▁no	-8.12685
▁+	-8.1269
▁most	-8.1323
▁quality	-8.13239
លោក	-8.13426
តាម	-8.1363
▁២	-8.13642
▁system	-8.13878
▁And	-8.1388
▁first	-8.14119
▁such	-8.14362
▁&	-8.14368
នូវ	-8.15294
ប្រព័ន្ធ	-8.15331
▁years	-8.1545
▁H	-8.15839
1	-8.15904
▁12	-8.16257
▁good	-8.16563
▁You	-8.1678
▁មិន	-8.1712
B	-8.17208
▁20	-8.17213
ចំពោះ	-8.17227
i	-8.17484
▁7	-8.17997
មិន	-8.18523
កម្មវិធី	-8.18617
th	-8.18932
អំពី	-8.1908
ឧបករណ៍	-8.19303
▁many	-8.19381
នោះ	-8.19987
▁any	-8.20638
M	-8.20983
យើង	-8.21041
▁៣	-8.22066
re	-8.22157
▁Ministry	-8.22322
://	-8.22362
▁អាច	-8.22782
▁because	-8.23464
ល្អ	-8.237
▁work	-8.23957
▁two	-8.24116
ការងារ	-8.24118
▁some	-8.2414
▁Penh	-8.24251
▁D	-8.24744
▁well	-8.24769
▁these	-8.24792
P	-8.24828
▁Phnom	-8.25043
),	-8.2522
▁ថា	-8.25278
▁Cambodian	-8.25466
▁ដូច្នេះ	-8.25642
H	-8.26822
រ	-8.26826
▁were	-8.27061
▁To	-8.27292
F	-8.27305
គឺជា	-8.27817
ប្រើប្រាស់	-8.28232
p	-8.28278
»	-8.2842
ទឹក	-8.28546
...	-8.29978
របស់ពួកគេ	-8.30107
បច្ចេកវិទ្យា	-8.30136
▁public	-8.30749
▁year	-8.30898
ដំណើរការ	-8.31145
▁during	-8.31211
▁R	-8.31225
▁E	-8.3125
▁us	-8.31577
ផ្សេងទៀត	-8.31847
▁ហ៊ុន	-8.31945
▁M	-8.32099
▁My	-8.32119
ផងដែរ។	-8.32242
ខ្ញុំ	-8.32399
▁me	-8.33087
▁shall	-8.33601
E	-8.33813
▁F	-8.33966
ម៉ាស៊ីន	-8.34336
▁machine	-8.34644
▁G	-8.34896
▁National	-8.35724
k	-8.35739
or	-8.35804
▁He	-8.36083
▁what	-8.36181
▁best	-8.36548
▁national	-8.36614
▁ត្រូវបាន	-8.3678
.”	-8.37072
▁before	-8.37662
ប	-8.37739
ផ្នែក	-8.37773
ត្រូវ	-8.37999
c	-8.38154
▁production	-8.39059
▁Do	-8.392
ធ្វើ	-8.39256
បន្ថែម	-8.3926
ទាំងនេះ	-8.39751
▁health	-8.40185
K	-8.41024
ទីផ្សារ	-8.41049
▁support	-8.41085
▁ក្រុមហ៊ុន	-8.41155
▁her	-8.41335
▁មួយ	-8.4134
ជាតិ	-8.41341
▁life	-8.41385
▁get	-8.41713
របស់អ្នក។	-8.41924
5	-8.4222
▁take	-8.42241
▁know	-8.42259
ប្រើ	-8.42329
មនុស្ស	-8.42591
▁long	-8.42748
▁ខ្ញុំ	-8.42809
▁តែ	-8.43076
▁under	-8.43132
▁said	-8.43381
▁Minister	-8.43527
▁«	-8.43538
▁without	-8.43721
ពួកគេ	-8.44194
សេដ្ឋកិច្ច	-8.44239
▁15	-8.44332
ត	-8.44408
▁power	-8.44758
អន្តរជាតិ	-8.45199
មួយចំនួន	-8.45815
▁want	-8.45849
▁His	-8.46258
ឧស្សាហកម្ម	-8.46699
ន	-8.47492
▁small	-8.47756
▁No	-8.47916
▁company	-8.48098
▁Hun	-8.48391
របស់ខ្លួន	-8.48571
ផងដែរ	-8.48624
▁different	-8.4916
▁•	-8.49403
▁ensure	-8.49825
នៃការ	-8.50062
▁ក៏	-8.50092
ឆ្នាំ	-8.50277
▁world	-8.50397
w	-8.50702
ច្រើន	-8.50752
▁L	-8.50862
“	-8.50886
ពាណិជ្ជកម្ម	-8.51152
▁U	-8.51155
តម្លៃ	-8.51453
▁day	-8.51552
ទេ។	-8.51676
ប្រកបដោយ	-8.51975
▁៤	-8.52866
▁»	-8.52952
▁while	-8.53311
▁30	-8.53431
ម	-8.53798
▁help	-8.54025
▁million	-8.54066
៥	-8.54383
▁design	-8.54429
▁50	-8.54664
▁every	-8.54851
▁made	-8.5514
▁international	-8.55269
តាមរយៈ	-8.55374
ប្រភេទ	-8.55432
▁product	-8.55693
▁between	-8.55869
ល	-8.55896
▁had	-8.55922
អាជីវកម្ម	-8.55943
▁៥	-8.56376
▁how	-8.56579
▁នៅក្នុង	-8.56954
▁គេ	-8.57176
▁process	-8.57459
ថាមពល	-8.57658
ធំ	-8.57819
មក	-8.57996
▁data	-8.58341
6	-8.58686
▁service	-8.58699
▁economic	-8.58915
▁technology	-8.59031
▁ដល់	-8.59222
v	-8.59343
▁business	-8.59468
▁information	-8.59472
▁government	-8.59546
▁find	-8.59771
៕	-8.59781
▁steel	-8.60092
គ្រប់គ្រង	-8.60648
▁ធ្វើ	-8.60887
▁N	-8.60911
ព័ត៌មាន	-8.60941
).	-8.61196
▁100	-8.61489
បន្ទាប់ពី	-8.61942
to	-8.62422
▁light	-8.62464
▁land	-8.62494
h	-8.62567
X	-8.629
▁see	-8.62965
ភាព	-8.63116
ដែលបាន	-8.6325
▁All	-8.63495
▁កម្ពុជា	-8.64022
បង្កើត	-8.64324
ហិរញ្ញវត្ថុ	-8.64448
▁would	-8.64529
ទី	-8.64563
កំពុង	-8.64586
▁control	-8.65392
8	-8.65442
▁9	-8.65488
១	-8.65495
រចនាសម្ព័ន្ធ	-8.6589
R	-8.65936
▁even	-8.66086
ចិន	-8.66134
b	-8.66684
ទាំង	-8.66748
]	-8.66932
▁within	-8.66976
▁food	-8.67392
on	-8.6741
▁growth	-8.67423
▁then	-8.67756
ផ្ទាល់ខ្លួន	-8.67899
ការប្រើប្រាស់	-8.68277
▁ឯកឧត្តម	-8.68299
▁just	-8.68918
ក្រុម	-8.69317
▁provide	-8.69445
▁លើ	-8.69662
ឯកសារ	-8.69685
▁As	-8.69775
ទិញ	-8.69824
ic	-8.6994
▁ព្រះ	-8.69972
▁price	-8.69972
N	-8.7009
▁go	-8.70217
▁Government	-8.70257
able	-8.70456
បន្ត	-8.70461
▁order	-8.70699
▁With	-8.70753
▁free	-8.70801
▁same	-8.70855
▁material	-8.70911
▁ពេល	-8.70945
an	-8.71276
ផ្លូវ	-8.71311
7	-8.71633
▁right	-8.71659
រវាង	-8.71776
ក៏	-8.71943
▁now	-8.71986
▁including	-8.72055
▁How	-8.72149
▁នោះ	-8.72253
តែ	-8.72288
▁him	-8.72346
▁K	-8.7256
ទទួលបាន	-8.7275
▁am	-8.72781
បង្ហាញ	-8.72852
▁way	-8.72931
▁ប្រសិនបើ	-8.72946
▁three	-8.73144
▁Previous	-8.73221
▁Sen	-8.73342
▁per	-8.73492
ការពារ	-8.73676
▁សែន	-8.73911
l	-8.73946
▁where	-8.73958
ង	-8.74184
▁project	-8.74392
នេះ។	-8.74579
នៅពេល	-8.74772
I	-8.74896
▁ទេ	-8.75205
▁៖	-8.75771
▁កម្មវិធី	-8.75883
ion	-8.75923
▁using	-8.75928
▁Next	-8.75997
▁large	-8.76087
en	-8.76116
▁days	-8.76194
ខ្លាំង	-8.76227
២	-8.7644
របស់ខ្ញុំ	-8.76558
▁24	-8.76798
▁What	-8.76835
▁19	-8.76917
ខ្សែ	-8.7696
▁agricultural	-8.77169
▁each	-8.77878
us	-8.77947
ដី	-8.77985
▁ជាមួយនឹង	-8.78619
▁មក	-8.78803
▁http	-8.79008
▁O	-8.79718
▁New	-8.79829
ដាក់	-8.79938
▁18	-8.8012
យក	-8.80367
▁ទាំង	-8.80454
▁those	-8.80487
▁factory	-8.80652
▁Samdech	-8.8107
▁$	-8.81103
▁°	-8.81147
តំបន់	-8.8123
ផលិត	-8.81472
▁temperature	-8.81534
គម្រោង	-8.81653
▁V	-8.81711
សម្រាប់ការ	-8.81961
▁being	-8.8205
ទិន្នន័យ	-8.82236
▁financial	-8.82443
▁When	-8.82591
ការផ្លាស់ប្តូរ	-8.82649
▁ពួក	-8.82668
▁Co	-8.82742
រហូតដល់	-8.82845
សេវាកម្ម	-8.8288
រថយន្ត	-8.82985
ត្រួតពិនិត្យ	-8.83059
▁Can	-8.83194
▁both	-8.83456
ពីរ	-8.8378
▁size	-8.84023
The	-8.84072
10	-8.84104
+	-8.84154
ដែក	-8.84286
▁11	-8.84293
-19	-8.84426
J	-8.8466
ដូច	-8.84682
▁investment	-8.84834
▁back	-8.84982
▁students	-8.85032
▁online	-8.85081
ers	-8.85445
▁services	-8.85455
ប៉ុន្តែ	-8.85508
▁etc	-8.85583
▁easy	-8.85589
▁important	-8.856
សុវត្ថិភាព	-8.85641
▁Khmer	-8.85681
▁W	-8.86046
▁ជាមួយ	-8.86164
▁number	-8.86219
▁equipment	-8.86247
ល្អបំផុត	-8.86424
f	-8.86649
ឲ្យ	-8.8667
▁សូម	-8.86932
ពិសេស	-8.86951
▁១០	-8.8696
សម្ភារៈ	-8.87024
៣	-8.87092
គាត់	-8.87123
កំដៅ	-8.8724
របស់គាត់	-8.8727
អាមេរិក	-8.87299
ពណ៌	-8.876
ណាមួយ	-8.87809
▁due	-8.87836
u	-8.87905
▁1.	-8.87976
▁គាត់	-8.88208
▁ថ្ងៃ	-8.88281
▁industry	-8.88378
លេខ	-8.88434
▁much	-8.88498
▁ឱ្យ	-8.88647
សកម្មភាព	-8.88705
▁display	-8.8914
ចូល	-8.89186
▁៦	-8.89208
▁16	-8.89496
▁Is	-8.89675
▁materials	-8.89695
ធ្វើការ	-8.90029
▁X	-8.90168
បំផុត	-8.9026
▁ដូចជា	-8.9027
▁An	-8.90287
▁[	-8.90331
▁glass	-8.90376
▁low	-8.90608
▁law	-8.90639
លក់	-8.90686
ផ្សេងៗ	-8.90721
▁social	-8.90979
▁ប្រព័ន្ធ	-8.91061
▁sector	-8.9118
▁customers	-8.91491
ទំនាក់ទំនង	-8.91628
*	-8.91859
▁does	-8.9189
▁area	-8.91931
ទីក្រុង	-8.9198
▁future	-8.92033
▁key	-8.92144
▁great	-8.92325
ទំហំ	-8.92416
st	-8.92423
▁បន្ទាប់ពី	-8.92611
▁ក្រុម	-8.92812
ផ្សព្វផ្សាយ	-8.92835
▁could	-8.93058
កាត់	-8.93096
▁14	-8.93244
គំរូ	-8.9329
▁own	-8.93299
កញ្ចក់	-8.93332
ពន្លឺ	-8.93334
ចេញពី	-8.93461
របស់វា	-8.93534
កន្លែង	-8.93538
cm	-8.93676
វីដេអូ	-8.93734
ប្រសិទ្ធភាព	-8.93995
▁ពណ៌	-8.9406
រាជរដ្ឋាភិបាល	-8.94452
▁various	-8.94748
ផលិតកម្ម	-8.94951
១៩	-8.94969
▁ដែលជា	-8.95131
▁home	-8.95154
▁hours	-8.95308
▁global	-8.95336
ថ្ងៃ	-8.9535
▁needs	-8.9543
▁improve	-8.95448
បញ្ហា	-8.95515
អតិថិជន	-8.95728
▁Bitcoin	-8.95767
▁de	-8.95886
៤	-8.95992
▁ឧបករណ៍	-8.96077
▁2022	-8.96225
▁research	-8.96374
▁ម	-8.96381
▁place	-8.96468
ផ្លាស់ប្តូរ	-8.96565
ធ្វើឱ្យ	-8.96806
បើក	-8.96822
ml	-8.96826
▁On	-8.96865
អ្នកប្រើប្រាស់	-8.96914
O	-8.96942
ទីតាំង	-8.97007
អាហារ	-8.97009
▁better	-8.97372
▁event	-8.97493
ផ្ទះ	-8.97531
▁ដ៏	-8.97645
▁around	-8.97648
▁full	-8.97786
▁ខែ	-8.97815
ចាប់ផ្តើម	-8.97874
ថ្ម	-8.97952
▁High	-8.98003
▁according	-8.98072
បច្ចេកទេស	-8.98125
▁change	-8.98175
▁Mr	-8.982
▁citizens	-8.98205
▁part	-8.98299
គ្មាន	-8.98538
▁construction	-8.98576
វិញ	-8.98695
▁against	-8.98766
ដូច្នេះ	-8.98767
▁25	-8.98861
▁buy	-8.99075
ដំបូង	-8.99348
▁COVID	-8.99457
ធម្មតា	-8.99521
យ៉ាង	-8.99601
▁បន្ទាប់	-8.9977
ឡើងវិញ	-8.99907
▁2.	-8.99919
ឌីជីថល	-8.99959
▁ៗ	-9.00107
▁Prime	-9.00114
▁children	-9.00566
▁set	-9.00658
ដ៏	-9.0081
▁តាម	-9.00824
កម្រិត	-9.0097
▁type	-9.0099
តម្រូវការ	-9.01024
▁down	-9.01065
ation	-9.01088
▁ប្រភេទ	-9.01449
ចេញ	-9.01541
▁re	-9.01651
នៅកម្ពុជា	-9.0203
ជំនាញ	-9.02056
ច្បាប់	-9.0221
▁40	-9.02481
នោះទេ	-9.02495
ដែលអាច	-9.0257
▁ប្រទេស	-9.02613
▁working	-9.02691
ស៊ី	-9.02703
▁Q	-9.02917
ណា	-9.02944
▁ព័ត៌មាន	-9.02955
▁By	-9.03026
▁management	-9.03149
▁supply	-9.03186
▁case	-9.03348
▁Android	-9.03674
ទៅកាន់	-9.03685
ពេលវេលា	-9.03809
▁2020	-9.04032
▁So	-9.04166
▁trade	-9.04268
▁ចំនួន	-9.04272
▁she	-9.04454
ប្រេង	-9.04539
ប្រទេស	-9.04623
កំណត់	-9.04644
▁13	-9.04872
▁energy	-9.05119
—	-9.05293
▁There	-9.0549
▁body	-9.05706
▁non	-9.05786
▁surface	-9.0581
▁protection	-9.05811
សិក្សា	-9.05845
▁open	-9.05974
▁ជាពិសេស	-9.06019
ឈ្មោះ	-9.06084
▁countries	-9.06087
គុណភាព	-9.06104
▁here	-9.06228
▁ស	-9.06256
▁color	-9.06284
▁After	-9.06438
ដើម	-9.06705
ឡើង	-9.06816
▁air	-9.06821
um	-9.06893
▁available	-9.07046
គ្នា	-9.07069
▁application	-9.071
▁top	-9.07206
▁video	-9.07279
▁stated	-9.07357
▁60	-9.07454
▁ម៉ោង	-9.07499
▁un	-9.07682
▁2017	-9.07863
▁security	-9.07869
យ	-9.07984
▁International	-9.08039
រូបភាព	-9.08098
▁Kingdom	-9.08245
ខ្លះ	-9.08446
▁family	-9.08584
នាង	-9.08651
▁authorities	-9.08702
▁human	-9.08871
▁Our	-9.08879
▁digital	-9.08951
បំពង់	-9.09599
▁don	-9.0982
▁increase	-9.09982
បន្ថែមទៀត	-9.10006
▁oil	-9.1003
▁still	-9.1008
▁មុន	-9.10102
មើល	-9.10206
ខ្យល់	-9.10299
▁They	-9.10389
▁ប្រសិនបើអ្នក	-9.10787
▁God	-9.10866
▁meet	-9.10898
it	-9.10953
▁screen	-9.1098
▁since	-9.11215
ស្ថានភាព	-9.11262
▁But	-9.11278
ជ្រើសរើស	-9.11382
▁Ye	-9.11698
Y	-9.11817
▁2019	-9.1182
▁Instagram	-9.11853
រោងចក្រ	-9.11938
&	-9.11955
ve	-9.12077
គេហទំព័រ	-9.12161
▁study	-9.12263
បច្ចុប្បន្ន	-9.12287
ស្តង់ដារ	-9.12308
▁ឲ្យ	-9.12361
▁game	-9.12514
▁enhance	-9.12563
មុន	-9.12687
▁J	-9.127
the	-9.13059
▁Z	-9.13177
▁experience	-9.13278
▁ទំហំ	-9.13557
▁Model	-9.13636
កុមារ	-9.13682
រឿង	-9.13731
បរិស្ថាន	-9.1374
▁●	-9.13776
▁However	-9.1378
▁local	-9.13782
▁safety	-9.13797
▁ទី	-9.13817
ត្រូវការ	-9.1403
ខ្មែរ	-9.1425
ភាគច្រើន	-9.14403
▁next	-9.14406
▁2018	-9.14444
▁become	-9.14567
▁ASEAN	-9.14653
▁At	-9.14666
អាលុយមីញ៉ូម	-9.14831
នានា	-9.14849
▁content	-9.14885
▁ល្ងាច	-9.14944
▁បើ	-9.14949
វិទ្យាសាស្ត្រ	-9.15051
ក្នុងរយៈពេល	-9.15106
▁University	-9.15195
ផ្តល់	-9.15282
▁parts	-9.15384
ance	-9.15435
▁p	-9.15454
អនុវត្ត	-9.15541
Z	-9.15639
ត្រឹមត្រូវ	-9.15878
▁name	-9.15912
▁Bank	-9.15931
▁ម៉ាស៊ីន	-9.15965
ក្នុងស្រុក	-9.15972
គាំទ្រ	-9.15975
▁continue	-9.1601
សីតុណ្ហភាព	-9.16014
▁legal	-9.16029
▁projects	-9.16067
ស្វែងរក	-9.16376
▁country	-9.16389
▁special	-9.16541
ខាងក្រៅ	-9.16593
▁cooperation	-9.16599
▁រាល់	-9.16604
▁x	-9.1661
▁performance	-9.16721
▁strong	-9.16921
9	-9.17021
▁៨	-9.17142
▁~	-9.17183
▁following	-9.17183
▁0	-9.1726
▁Chinese	-9.17266
▁result	-9.17283
រយៈពេល	-9.17289
▁ផលិតផល	-9.17401
ព្រះ	-9.17406
ការគ្រប់គ្រង	-9.17412
គ្រួសារ	-9.17567
▁hand	-9.17595
▁#	-9.17614
ផ្គត់ផ្គង់	-9.17686
អាចត្រូវបាន	-9.17711
ខ្លួន	-9.17734
▁https	-9.17785
▁always	-9.17791
▁ប្រទេសចិន	-9.17911
ពិភពលោក	-9.17924
បណ្តាញ	-9.17984
▁head	-9.17998
▁end	-9.18005
រៀបចំ	-9.18142
▁access	-9.18167
▁companies	-9.18217
▁education	-9.18295
៨	-9.18332
de	-9.18425
▁times	-9.18437
20	-9.18474
ប្រាក់	-9.18563
▁current	-9.18686
▁Re	-9.18729
▁last	-9.18751
▁ឡើង	-9.18791
យកចិត្តទុកដាក់	-9.18861
▁ខ្ញុំនឹង	-9.18867
សង្គម	-9.18927
and	-9.18935
អ	-9.19035
▁PCB	-9.19036
ធម្មជាតិ	-9.19095
ដៃ	-9.1925
▁Excellency	-9.19271
នីមួយៗ	-9.19335
cambodia	-9.19389
ប្រហែល	-9.19392
▁តម្លៃ	-9.19485
ម្នាក់	-9.19706
▁ដូច	-9.1979
▁December	-9.19817
▁amount	-9.1985
▁test	-9.1992
ៈ	-9.20056
គោលដៅ	-9.20073
▁real	-9.20075
▁ភាព	-9.20217
▁money	-9.20394
វ	-9.20423
▁training	-9.20423
ដោយស្វ័យប្រវត្តិ	-9.20432
ប្រឆាំងនឹង	-9.20433
▁CNC	-9.20441
កម្លាំង	-9.20488
▁report	-9.20513
is	-9.206
មូលដ្ឋាន	-9.20696
▁cutting	-9.20707
12	-9.20721
ទាប	-9.20951
▁community	-9.21044
▁ប្រើ	-9.21083
▁range	-9.21094
▁King	-9.21097
ដោយសារតែ	-9.21125
▁៧	-9.21192
j	-9.21268
រដ្ឋាភិបាល	-9.21362
៦	-9.21447
ដែលជា	-9.21483
សំខាន់	-9.21487
▁ដោយសារ	-9.21516
▁rate	-9.2159
ខ្លួនឯង	-9.21871
0000	-9.21897
▁main	-9.21966
ដឹកជញ្ជូន	-9.22044
តូច	-9.22047
▁come	-9.22072
ជិត	-9.22135
▁rice	-9.22464
សុខភាព	-9.22498
▁cost	-9.22644
អគ្គិសនី	-9.22873
▁ក្នុងការ	-9.2306
▁policy	-9.23112
តែមួយ	-9.23366
ព្រឹត្តិការណ៍	-9.23403
▁official	-9.23526
te	-9.23526
អេក្រង់	-9.23533
ហ្គេម	-9.23548
ដែរ	-9.23708
ដែលត្រូវបាន	-9.23899
▁province	-9.23981
▁team	-9.24273
មុខ	-9.24277
ត្រជាក់	-9.24291
▁value	-9.24519
កុំព្យូទ័រ	-9.24617
ក្បាល	-9.24642
▁too	-9.24929
▁post	-9.24931
ជីវិត	-9.25001
▁give	-9.25076
▁pressure	-9.25215
▁resistance	-9.25303
▁upon	-9.2535
=	-9.25396
បញ្ចូល	-9.25587
ant	-9.25592
le	-9.25666
▁account	-9.25705
បិទ	-9.25823
▁...	-9.25837
▁News	-9.25865
▁export	-9.2592
▁reduce	-9.25977
ឆ្លងកាត់	-9.26027
ដំណោះស្រាយ	-9.26084
▁និងការ	-9.26123
ពេញលេញ	-9.26213
មុនពេល	-9.26305
▁essential	-9.26334
▁Preah	-9.26345
ចូលចិត្ត	-9.26358
▁bought	-9.26472
▁100%	-9.26514
▁តាមរយៈ	-9.26532
▁billion	-9.26602
▁found	-9.26682
ៗ	-9.26695
▁users	-9.26714
z	-9.26723
▁21	-9.26868
▁especially	-9.2688
ll	-9.27001
▁17	-9.27063
ពេល	-9.27186
▁peace	-9.27315
▁customer	-9.27327
▁manufacturers	-9.27363
▁contact	-9.27365
▁workers	-9.27392
▁pm	-9.27497
▁site	-9.27524
កសិកម្ម	-9.27568
▁ភ្នំពេញ	-9.27585
▁plan	-9.27618
បន្ទះ	-9.27751
▁foreign	-9.27933
▁among	-9.28053
▁plastic	-9.28117
អ្វីដែល	-9.28118
▁clean	-9.28129
អាន	-9.28132
▁level	-9.28167
▁>	-9.28296
▁នាក់	-9.28311
មិនមាន	-9.2843
▁keep	-9.28581
សហគមន៍	-9.286
▁Please	-9.28674
▁start	-9.28754
▁offer	-9.28806
ar	-9.28822
▁city	-9.28865
▁3.	-9.28993
របស់ក្រុមហ៊ុន	-9.29113
ចុងក្រោយ	-9.29309
▁These	-9.2932
▁prices	-9.29409
សរុប	-9.2948
▁choose	-9.296
▁ដុល្លារ	-9.29665
រដ្ឋ	-9.29694
▁មនុស្ស	-9.29727
▁capacity	-9.29829
ត្រូវបានគេ	-9.29997
គំនិត	-9.30181
▁US	-9.30258
នោះទេ។	-9.30348
▁building	-9.30351
ចូលទៅក្នុង	-9.30577
▁card	-9.3062
▁program	-9.30729
សត្វ	-9.30746
▁ក៏ដូចជា	-9.30777
▁bag	-9.30921
▁រាជរដ្ឋាភិបាល	-9.31036
▁January	-9.31095
▁YouTube	-9.31175
▁500	-9.31193
ករណី	-9.31203
▁requirements	-9.3128
50	-9.31311
▁natural	-9.31365
ស្បែក	-9.31732
▁ទទួល	-9.31772
▁heat	-9.31828
▁demand	-9.31928
ity	-9.31929
▁Machine	-9.32028
▁another	-9.32118
ក៏ដោយ	-9.32178
មួយដែល	-9.32228
▁200	-9.32257
▁protect	-9.32454
▁possible	-9.32694
ទៅនឹង	-9.32699
▁standard	-9.32825
▁ដោយសារតែ	-9.32853
ឈើ	-9.3294
▁Product	-9.3296
▁speed	-9.33033
សូម	-9.33124
▁Techo	-9.33243
សាកល្បង	-9.3325
▁face	-9.33301
អភិវឌ្ឍន៍	-9.33305
▁heart	-9.33354
▁skills	-9.33389
30	-9.33437
ចំណុច	-9.33475
▁Power	-9.3364
▁iPhone	-9.33642
▁rights	-9.33737
▁Windows	-9.33877
យ៉ាងខ្លាំង	-9.3428
▁complete	-9.34344
▁further	-9.34369
▁include	-9.34506
▁infrastructure	-9.34552
ទទួល	-9.34557
▁prevent	-9.34631
▁layer	-9.34706
▁November	-9.34732
នៅពេលដែល	-9.34859
សាធារណៈ	-9.34932
កាត់បន្ថយ	-9.34932
ចូលរួម	-9.35
▁school	-9.35042
▁Google	-9.35123
▁ពួកគេ	-9.35173
▁higher	-9.35261
▁line	-9.35379
▁across	-9.35408
▁total	-9.35428
_	-9.35499
▁areas	-9.35518
ថ្មី។	-9.35717
▁man	-9.35814
និយាយ	-9.35829
គេ	-9.35884
សមត្ថភាព	-9.35892
▁added	-9.35995
ness	-9.36059
ដ	-9.36143
ទៅលើ	-9.36207
▁ខណៈ	-9.36536
el	-9.36578
▁វាត្រូវបាន	-9.36712
មិនអាច	-9.36752
▁state	-9.37019
ប្រមាណ	-9.37076
ment	-9.37138
▁treatment	-9.37177
▁professional	-9.37271
▁នៅពេលដែល	-9.37395
▁Home	-9.37559
▁officials	-9.37563
▁sell	-9.37804
▁four	-9.37809
▁past	-9.37861
▁efficiency	-9.37882
ទូរស័ព្ទ	-9.37935
▁processing	-9.38024
▁One	-9.38044
▁making	-9.38067
▁PVC	-9.3808
▁May	-9.38103
▁According	-9.38136
▁technical	-9.3814
▁មុន៖	-9.38246
កាន់តែ	-9.38342
▁phone	-9.38348
ត្រី	-9.38351
man	-9.38359
▁device	-9.38426
▁play	-9.38487
▁months	-9.38662
▁Y	-9.38911
អា	-9.39009
▁Why	-9.39073
▁website	-9.39101
▁Dr	-9.39288
មុខងារ	-9.39327
ប្រជាជន	-9.39401
▁required	-9.39416
ក្រោម	-9.39582
▁Mac	-9.39703
▁avoid	-9.39713
Q	-9.39746
co	-9.3979
ប្រជាពលរដ្ឋ	-9.39898
ការអភិវឌ្ឍ	-9.39925
កូន	-9.39949
▁ខ្លួន	-9.40024
▁រោងចក្រ	-9.40038
40	-9.40118
▁plans	-9.40156
▁suitable	-9.40227
▁sure	-9.40228
កា	-9.40294
▁things	-9.40358
▁off	-9.40381
៧	-9.40528
▁green	-9.40551
▁មម	-9.40926
▁meeting	-9.41068
▁apply	-9.41215
kg	-9.41294
▁០	-9.4133
ក្រណាត់	-9.41339
ដោយប្រើ	-9.41354
na	-9.41388
▁house	-9.41605
លេង	-9.41611
▁operation	-9.41623
▁Health	-9.41779
មកពី	-9.41831
▁others	-9.41839
▁present	-9.41847
▁22	-9.41848
ទាំងមូល	-9.41863
ស្រាវជ្រាវ	-9.41869
up	-9.41893
▁ទៀត	-9.42238
▁often	-9.42259
▁led	-9.42335
▁គ្មាន	-9.42396
▁until	-9.42499
សម្ពាធ	-9.42515
▁let	-9.42598
▁today	-9.42675
▁structure	-9.42731
ដូចគ្នា	-9.4279
▁អ្នកអាច	-9.42859
▁promote	-9.42875
▁visit	-9.42933
▁white	-9.4313
អ្នកផ្គត់ផ្គង់	-9.43147
បញ្ចប់	-9.43179
▁She	-9.43237
កំពូល	-9.43298
▁Lord	-9.43303
ive	-9.43365
▁Factory	-9.43366
ប្រសិនបើ	-9.43376
▁look	-9.43482
ទទួលយក	-9.43658
ច្រើនជាង	-9.43661
ច	-9.43718
▁mobile	-9.43725
ទៀត	-9.43738
ជួយ	-9.4375
ចាប់អារម្មណ៍	-9.43846
សំខាន់ៗ	-9.43927
▁ជាង	-9.43975
▁series	-9.4401
▁institutions	-9.44176
▁military	-9.44195
15	-9.44215
▁review	-9.44216
ការត្រួតពិនិត្យ	-9.44357
▁AC	-9.4437
▁think	-9.44386
អេ	-9.44439
geeks	-9.44447
▁car	-9.44576
ជម្រើស	-9.44606
គ្រប់គ្រាន់	-9.44614
▁above	-9.44809
▁create	-9.4488
▁គម្រោង	-9.45026
▁Pro	-9.45028
▁media	-9.45114
▁period	-9.45131
▁metal	-9.45138
▁put	-9.45152
ry	-9.4527
ខាងលើ	-9.45295
▁anti	-9.45374
ក្រដាស	-9.4538
ការរចនា	-9.45549
ទំនិញ	-9.45589
▁addition	-9.45622
▁youth	-9.45623
▁និយាយ	-9.45627
ត្រូវតែ	-9.45653
ប្រកាស	-9.45715
កាន់តែច្រើន	-9.45771
វិជ្ជាជីវៈ	-9.45839
▁learn	-9.45911
▁effect	-9.46065
រក្សា	-9.4607
▁stability	-9.46077
▁less	-9.46106
▁weight	-9.46177
▁Ltd	-9.46211
សម្រាប់អ្នក	-9.46234
របស់យើង។	-9.46255
ប្រអប់	-9.46265
ដោយសារ	-9.46325
របស់ពួកគេ។	-9.46457
▁ផ្លូវ	-9.46496
▁daily	-9.46558
រាងកាយ	-9.46607
▁បន្ថែម	-9.46747
▁court	-9.46765
សហរដ្ឋអាមេរិក	-9.46774
▁private	-9.46802
យុវជន	-9.46816
លទ្ធផល	-9.46818
▁នៅពេល	-9.46903
▁environment	-9.46977
▁ខែធ្នូ	-9.47013
ផ្ទៃ	-9.47096
▁few	-9.47161
▁Kampong	-9.47236
ប៉ុណ្ណោះ	-9.47284
ក្រោយ	-9.47363
ដ៏អស្ចារ្យ	-9.47464
ខេត្ត	-9.47506
▁civil	-9.47519
60	-9.4755
ព្យាបាល	-9.47568
▁measures	-9.47668
▁old	-9.47683
▁កំពុង	-9.47768
ទូទៅ	-9.47799
▁skin	-9.48014
▁2014	-9.48033
▁4.	-9.48036
▁ancient	-9.48101
ធនាគារ	-9.48161
▁check	-9.4824
អាកាសធាតុ	-9.48262
ដោយឥតគិតថ្លៃ	-9.48283
កាបូប	-9.48297
បុរស	-9.48328
សា	-9.48477
▁‘	-9.48517
▁គ្នា	-9.48588
▁able	-9.4869
▁យ៉ាង	-9.488
បុរាណ	-9.48926
ate	-9.48955
▁side	-9.48991
▁Free	-9.49087
▁live	-9.49153
▁group	-9.49164
បំពេញ	-9.49342
កង់	-9.49367
▁Development	-9.49416
▁ទោះបីជា	-9.4945
▁women	-9.49477
▁២០	-9.49492
គោលនយោបាយ	-9.49596
▁little	-9.49628
ton	-9.49709
▁major	-9.49726
▁strength	-9.49726
▁pay	-9.49735
ia	-9.49817
pcs	-9.49912
▁១០០	-9.49951
ពលរដ្ឋ	-9.49985
សាកលវិទ្យាល័យ	-9.50012
▁brand	-9.50019
▁បន្ទាប់មក	-9.50177
▁purpose	-9.50232
▁care	-9.50264
at	-9.50266
et	-9.50322
យុទ្ធសាស្ត្រ	-9.50374
▁form	-9.50388
org	-9.5045
១០	-9.5046
11	-9.50468
និងការ	-9.50468
▁night	-9.50481
▁problem	-9.50489
▁party	-9.50565
វិនិយោគ	-9.50587
est	-9.50629
▁mind	-9.50664
ថ្នាក់	-9.50679
▁ខ្ញុំមាន	-9.50688
/?	-9.50821
▁via	-9.50974
ជើង	-9.50993
ទៅជា	-9.51054
ភ្លើង	-9.51067
▁five	-9.5107
ទាំងនោះ	-9.51133
បទពិសោធន៍	-9.51218
▁recommend	-9.51329
សារ	-9.51345
▁ក្រុមហ៊ុនផលិត	-9.51365
▁សម្ភារៈ	-9.51462
ស្ត្រី	-9.51502
នយោបាយ	-9.51521
▁standards	-9.51568
▁second	-9.51578
▁systems	-9.51632
▁platform	-9.51666
ទាក់ទងនឹង	-9.51698
ការអនុវត្ត	-9.51733
▁example	-9.51744
▁economy	-9.51833
▁based	-9.52068
ចិត្ត	-9.52135
▁យក	-9.52146
un	-9.5223
៩	-9.52239
មេ	-9.52249
សញ្ញា	-9.52326
▁lot	-9.52432
▁comes	-9.52486
ផ្ទាល់	-9.52493
អ្វី	-9.52524
▁say	-9.52551
▁types	-9.52589
សៀវភៅ	-9.52691
▁World	-9.52709
▁person	-9.52715
▁ឈ្មោះ	-9.52721
ទាំងពីរ	-9.52768
▁sustainable	-9.52787
ជាក់លាក់	-9.52802
រស់នៅ	-9.52844
▁love	-9.52878
▁going	-9.53004
▁week	-9.53123
▁United	-9.53229
@	-9.53241
ថ្មីៗ	-9.53345
▁IP	-9.53383
▁activities	-9.53422
ផ្សេងទៀត។	-9.53437
▁fabric	-9.53503
as	-9.53514
កើនឡើង	-9.53518
រឹង	-9.53555
សិស្ស	-9.53572
លើសពី	-9.53678
មាស	-9.53712
▁conditions	-9.53719
កីឡា	-9.53722
គណនី	-9.53747
▁battery	-9.53758
min	-9.54013
អនុញ្ញាតឱ្យ	-9.54033
▁self	-9.54036
▁black	-9.54108
ឌី	-9.54258
អ្នកអាច	-9.54268
បោះពុម្ព	-9.54308
បង្កើន	-9.54334
▁De	-9.54343
អង្គការ	-9.54371
▁300	-9.54414
▁issues	-9.54429
ដោយគ្មាន	-9.54455
▁personal	-9.5449
ផ្ទុក	-9.54602
រៀន	-9.54649
ស្ងួត	-9.54722
ទំនើប	-9.54814
ជី	-9.54855
▁problems	-9.54975
▁cases	-9.55077
នី	-9.55089
▁article	-9.55092
ចង់	-9.55173
ដោយផ្ទាល់	-9.55283
16	-9.5529
▁ចិន	-9.55313
▁role	-9.55369
▁fish	-9.55432
▁never	-9.55433
▁Best	-9.55516
▁effective	-9.55517
▁clear	-9.55604
ផែនការ	-9.55654
អេឡិចត្រូនិច	-9.55715
▁means	-9.5573
age	-9.55824
▁ព្រោះ	-9.55859
▁១២	-9.55931
▁short	-9.5596
▁single	-9.55968
▁provides	-9.55982
▁point	-9.5602
▁achieve	-9.56032
▁នាទី	-9.561
▁តំបន់	-9.5613
100	-9.56168
ជ	-9.56185
▁popular	-9.56215
▁Province	-9.56222
ur	-9.56507
▁October	-9.56641
ផ្សេងៗគ្នា	-9.5665
រួមមាន	-9.5673
term	-9.56884
▁កុំ	-9.5711
បុគ្គលិក	-9.57146
បញ្ជូន	-9.57276
▁farmers	-9.57285
▁**	-9.5729
គ្រប់	-9.57414
▁app	-9.57489
▁ខែវិច្ឆិកា	-9.57585
បែបនេះ	-9.57652
តា	-9.57688
ra	-9.57734
▁designed	-9.57754
▁monitor	-9.57767
▁ចំពោះ	-9.57772
ch	-9.57852
ស្រទាប់	-9.57876
▁show	-9.57971
▁ភាគរយ	-9.57973
▁below	-9.5799
less	-9.58076
របស់ខ្ញុំ។	-9.58079
▁knowledge	-9.58099
ពាក្យ	-9.58113
▁did	-9.58138
ថ្នាំ	-9.58156
អារម្មណ៍	-9.58179
▁challenges	-9.5825
▁1,	-9.58557
ជំនួយ	-9.58589
▁Day	-9.58599
▁profound	-9.58643
មាតិកា	-9.58644
ផ្សិត	-9.58701
▁ក	-9.58725
▁មើល	-9.58769
របស់លោក	-9.58801
▁software	-9.58813
ធាតុ	-9.58879
▁away	-9.58892
គួរតែ	-9.59
–	-9.59107
ម៉ាក	-9.59152
ដា	-9.59226
▁says	-9.59259
រួមគ្នា	-9.59267
តាមដាន	-9.59274
▁ចិត្ត	-9.59351
▁address	-9.5949
▁sales	-9.59542
កែច្នៃ	-9.59664
បានទេ	-9.59718
▁already	-9.59867
▁tax	-9.59947
▁gas	-9.5998
▁several	-9.59993
▁simple	-9.60002
▁hot	-9.60071
▁crucial	-9.60222
▁President	-9.604
អាស៊ាន	-9.60524
▁along	-9.6054
ងាយស្រួល	-9.60559
25	-9.60609
ជូន	-9.60754
▁markets	-9.60778
ហេដ្ឋា	-9.60898
ភ្ជាប់	-9.60904
រចនា	-9.60965
▁ម។	-9.60989
▁called	-9.60997
របស់នាង	-9.61055
ខ្មៅ	-9.61065
▁makes	-9.61068
▁Water	-9.61077
លី	-9.61144
▁network	-9.61172
នៃព្រះរាជាណាចក្រ	-9.61299
▁July	-9.61321
▁ព្រមទាំង	-9.61362
**	-9.6139
▁modern	-9.61422
វេទិកា	-9.61478
កិច្ចព្រមព្រៀង	-9.61553
រក	-9.6159
▁នូវ	-9.61624
នេះគឺ	-9.61656
▁payment	-9.61736
▁space	-9.6177
▁benefits	-9.61781
ឡើយ។	-9.61787
▁committed	-9.6183
ang	-9.61895
year	-9.61918
0	-9.62029
▁aluminum	-9.62082
ស្	-9.62106
▁៩	-9.62173
▁together	-9.62191
▁model	-9.6223
វប្បធម៌	-9.62257
▁Size	-9.62271
kh	-9.62304
▁hard	-9.62313
▁function	-9.62334
ចាស់	-9.62361
ធ្វើដំណើរ	-9.62369
នាយករដ្ឋមន្ត្រី	-9.6239
ine	-9.62459
▁field	-9.62492
▁offers	-9.62506
រាជធានីភ្នំពេញ	-9.62527
▁members	-9.62684
ម៉ា	-9.62737
ies	-9.62853
▁រ	-9.62969
▁1000	-9.63217
២០	-9.6324
▁excellent	-9.63243
▁capital	-9.63253
▁domestic	-9.63279
▁traditional	-9.63354
▁23	-9.63381
▁board	-9.63426
▁cannot	-9.6345
▁OEM	-9.63468
កាត	-9.63488
▁June	-9.63529
▁morning	-9.63587
យ៉ាងទូលំទូលាយ	-9.6362
▁fully	-9.63671
ដើម្បីទទួលបាន	-9.63673
នៅតែ	-9.6369
▁box	-9.63734
ប្រសិនបើអ្នក	-9.63809
ទេសចរណ៍	-9.63852
កញ្ចប់	-9.63892
អូ	-9.63905
▁City	-9.63961
▁electric	-9.63996
▁film	-9.64072
▁feel	-9.64077
▁environmental	-9.64137
ma	-9.64256
▁registration	-9.6432
▁office	-9.64362
ta	-9.64502
ខាងក្នុង	-9.64597
▁budget	-9.64631
ម៉ោង	-9.64632
លុយ	-9.64642
id	-9.64773
▁Alton	-9.64826
បី	-9.64897
We	-9.6496
▁Sam	-9.65002
▁society	-9.65128
▁laser	-9.6513
ពិតប្រាកដ	-9.65251
▁method	-9.6527
▁September	-9.65392
▁continues	-9.65404
▁Your	-9.6544
▁remains	-9.65441
▁នាង	-9.6545
រី	-9.65689
លើក	-9.65734
អប់រំ	-9.65844
▁ទ្រង់	-9.65883
សិល្បៈ	-9.6589
▁share	-9.66032
នៅទីនេះ	-9.66039
▁maintain	-9.66068
០	-9.66093
▁បង្កើត	-9.66101
▁safe	-9.66187
▁saw	-9.66209
▁receive	-9.66293
ណាស់	-9.66315
):	-9.66331
ភ្នែក	-9.6647
ចាន	-9.66527
ទាំងស្រុង	-9.66527
▁month	-9.66598
per	-9.66642
▁Japan	-9.66663
▁regional	-9.66749
▁once	-9.66805
▁Technology	-9.66808
តែងតែ	-9.66848
se	-9.66883
វិស័យ	-9.66924
▁Casino	-9.67033
▁opportunities	-9.67072
▁បើក	-9.67165
ការិយាល័យ	-9.67186
▁pre	-9.6719
▁history	-9.67202
ជញ្ជាំង	-9.67257
▁អ្វី	-9.67325
▁programs	-9.67352
បរិមាណ	-9.67381
ចុះ	-9.67382
បាន។	-9.67406
▁ខែមករា	-9.67417
▁2015	-9.67444
ល្បឿន	-9.67448
ា	-9.67454
ផ្តល់នូវ	-9.67521
សម្លៀកបំពាក់	-9.67572
ទម្រង់	-9.67639
សំឡេង	-9.67667
ដែលមិន	-9.67703
០០០	-9.67873
▁groups	-9.67877
ពង្រីក	-9.68053
▁policies	-9.6809
▁Al	-9.68126
ដែរ។	-9.68139
▁strengthen	-9.68163
▁ច្រើន	-9.68166
▁interest	-9.68186
200	-9.68201
ក្នុងតំបន់	-9.68276
U	-9.68322
សេវា	-9.68371
ផលប៉ះពាល់	-9.68397
ខិតខំប្រឹងប្រែង	-9.68399
▁features	-9.68419
ជាដើម។	-9.68511
▁why	-9.68523
▁Asia	-9.68551
▁ដែលមាន	-9.68556
សមុទ្រ	-9.6857
ក្រុង	-9.68646
▁lower	-9.68745
▁really	-9.6876
▁fire	-9.68869
▁yet	-9.68894
▁អា	-9.68958
▁responsible	-9.68968
ul	-9.69062
▁Steel	-9.69178
▁26	-9.69194
នឹងត្រូវបាន	-9.69248
▁thin	-9.69294
▁goods	-9.69296
▁March	-9.69353
▁child	-9.69384
▁resources	-9.69385
▁Facebook	-9.69465
▁2013	-9.69477
សំរាប់	-9.69566
អត្ថប្រយោជន៍	-9.69594
ប្រវត្តិសាស្ត្រ	-9.6962
ary	-9.69634
សាលា	-9.69643
▁provided	-9.6965
ទ្រព្យសម្បត្តិ	-9.69679
▁ក្រោយ	-9.69685
km	-9.69692
▁please	-9.69695
▁easily	-9.69832
▁room	-9.69964
ជំងឺ	-9.70098
▁near	-9.70179
▁again	-9.70209
▁force	-9.70212
ទុក	-9.7022
▁ចេញ	-9.70276
ក្តៅ	-9.70277
ជំនួស	-9.70337
▁cause	-9.70341
កិច្ច	-9.70342
ro	-9.70369
▁Education	-9.70448
ធ្លាក់ចុះ	-9.70478
ដោះស្រាយ	-9.70516
▁beautiful	-9.70611
▁known	-9.70701
▁Over	-9.70783
មន្ត្រី	-9.70844
វិធី	-9.70877
អោយ	-9.70905
លក្ខខណ្ឌ	-9.70958
ដោយខ្លួនឯង	-9.70992
>	-9.71074
ដំឡើង	-9.7108
ការវិនិយោគ	-9.71098
▁ណា	-9.71107
យូ	-9.71118
▁industrial	-9.7118
▁regulations	-9.71299
ស្ថាប័ន	-9.7134
▁variety	-9.7134
▁ត្រូវតែ	-9.71444
▁ម៉ាណែត	-9.71472
▁លេខ	-9.71526
រុក្ខជាតិ	-9.71558
សន្តិសុខ	-9.7156
▁loss	-9.7162
▁CO	-9.71728
ចលនា	-9.71802
សមាជិក	-9.71903
▁ផ្នែក	-9.7202
▁impact	-9.72049
▁directly	-9.72051
▁USB	-9.72054
ក្នុងអំឡុងពេល	-9.72175
▁ល	-9.72188
▁28	-9.72238
▁Majesty	-9.72269
▁PC	-9.72315
មានគុណភាពខ្ពស់	-9.72414
កណ្តាល	-9.72426
▁likes	-9.72664
រន្ធ	-9.72665
▁additional	-9.7274
45	-9.72849
▁plate	-9.72909
គួរ	-9.73069
ចំណេះដឹង	-9.73084
▁potential	-9.73091
▁RFA	-9.73102
▁ផ្តល់	-9.7315
ក្រុមហ៊ុនផលិត	-9.73272
▁results	-9.73352
▁Group	-9.7336
▁produce	-9.73458
▁noted	-9.73493
បរទេស	-9.73517
ឥឡូវនេះ	-9.73518
គ្រឿង	-9.73529
ឡាស៊ែរ	-9.73579
▁bottle	-9.73672
▁red	-9.73678
ដប	-9.73759
សហគ្រាស	-9.73797
សរសេរ	-9.73814
ការសិក្សា	-9.73849
មកដល់	-9.73881
▁2016	-9.73887
▁applications	-9.7392
▁យោងតាម	-9.73975
ដក	-9.73988
▁established	-9.74086
ស្តីពី	-9.74114
▁something	-9.74154
▁ស្រុក	-9.74248
▁បង្ហាញ	-9.74304
ក្លាយជា	-9.74316
am	-9.74325
19	-9.74389
គួរឱ្យ	-9.7455
ភ្លាមៗ	-9.7458
▁understand	-9.74595
mo	-9.74599
សាងសង់	-9.7461
ចាក់	-9.7464
ក្រសួង	-9.74681
ពិតជា	-9.74752
ឧស្ម័ន	-9.74796
បច្ចុប្បន្នភាព	-9.74815
▁certain	-9.74837
▁di	-9.74844
▁computer	-9.74892
▁whether	-9.74905
▁៣០	-9.74921
▁events	-9.75056
time	-9.75071
▁wire	-9.75079
▁tourism	-9.7509
សន្តិភាព	-9.7516
▁path	-9.75207
▁might	-9.75305
▁increased	-9.75395
▁deep	-9.75419
នេះត្រូវបាន	-9.75433
គិត	-9.75445
▁climate	-9.75454
ជំរុញ	-9.75491
ពេញ	-9.75624
វត្ថុ	-9.75645
▁i	-9.75653
អាជ្ញាធរ	-9.75723
ប៉ុណ្ណោះទេ	-9.75781
ng	-9.75795
28	-9.75845
វត្ថុធាតុដើម	-9.75899
ស្អាត	-9.75919
ដើរ	-9.75925
បន្ទប់	-9.75931
▁printing	-9.7596
សាមញ្ញ	-9.75982
មានប្រសិទ្ធភាព	-9.75997
▁unique	-9.76007
ter	-9.76049
ចល័ត	-9.76088
កើតឡើង	-9.76093
#	-9.76096
▁email	-9.76159
▁close	-9.76174
ថ្លៃ	-9.76215
▁travel	-9.76233
ដឹកនាំ	-9.76361
▁Tanya	-9.76382
▁Public	-9.76422
▁documents	-9.76487
▁Apply	-9.76528
របាយការណ៍	-9.76561
▁ខណៈដែល	-9.76616
▁perfect	-9.76684
ដាំ	-9.76834
ie	-9.7684
▁80	-9.76859
▁tool	-9.76869
▁specific	-9.76884
▁implementation	-9.76988
▁kind	-9.77007
ka	-9.77052
▁job	-9.77081
▁ព្រឹក	-9.77081
▁develop	-9.77133
ក៏ដូចជា	-9.7714
▁DC	-9.77182
▁user	-9.7719
-1	-9.77198
one	-9.77225
ទ្វារ	-9.77242
▁State	-9.77245
▁August	-9.77295
រូប	-9.77322
កាស៊ីណូ	-9.77324
ការចំណាយ	-9.77339
▁leading	-9.77368
▁តើធ្វើដូចម្តេច	-9.77459
▁medical	-9.77499
▁បច្ចុប្បន្ន	-9.7757
▁looking	-9.77586
▁MP	-9.77605
ធនធាន	-9.77608
ពន្លឺព្រះអាទិត្យ	-9.77703
ម៉ូតូ	-9.77799
▁storage	-9.77893
អត្ថបទ	-9.77916
me	-9.77923
វី	-9.77947
មានការ	-9.77952
មជ្ឈមណ្ឌល	-9.78081
▁ប	-9.78085
▁ចូល	-9.78092
▁course	-9.78149
ចាប់	-9.78152
▁nearly	-9.78162
វេចខ្ចប់	-9.78192
65	-9.78201
▁necessary	-9.78246
▁គឺដើម្បី	-9.78265
បន្ទាត់	-9.78293
▁whole	-9.78308
▁dry	-9.78319
▁Bo	-9.78321
ស្រុក	-9.78337
គ	-9.78382
▁relevant	-9.78458
▁cut	-9.78487
សម្អាត	-9.78565
▁lead	-9.78615
▁manufacturer	-9.78687
°	-9.7872
អភិវឌ្ឍ	-9.78725
រកឃើញ	-9.78736
▁reach	-9.78776
▁×	-9.78822
▁ទឹក	-9.78835
អត្រា	-9.78865
▁hope	-9.78881
ជប៉ុន	-9.78945
សារធាតុ	-9.78966
em	-9.79001
▁១៥	-9.79005
ឃើញ	-9.79015
▁prohibited	-9.79039
▁received	-9.79186
▁c	-9.79206
▁Court	-9.79208
▁South	-9.7923
▁efforts	-9.79262
▁date	-9.79368
▁paper	-9.79434
ជាពិសេស	-9.7946
▁Read	-9.79578
វិធីសាស្រ្ត	-9.79596
▁devices	-9.79667
▁150	-9.79763
នឹងត្រូវ	-9.79891
▁wall	-9.79941
▁big	-9.79982
▁February	-9.79997
▁tons	-9.80021
▁fast	-9.80082
▁អ	-9.80095
▁Reap	-9.80132
រ៉ា	-9.80134
-10	-9.8016
▁call	-9.80176
▁costs	-9.80188
▁From	-9.80268
▁Party	-9.80285
ថវិកា	-9.80301
▁ឥឡូវនេះ	-9.80312
រហ័ស	-9.80333
▁allows	-9.80343
បទប្បញ្ញត្តិ	-9.8039
▁រួមទាំង	-9.80414
▁master	-9.80466
▁common	-9.80487
▁games	-9.80503
▁having	-9.80538
www	-9.80558
ខ្សែភាពយន្ត	-9.80579
▁early	-9.8063
▁attract	-9.80634
▁discuss	-9.80643
របស់អតិថិជន	-9.80707
សំណង់	-9.80798
▁ISO	-9.8081
រួម	-9.80846
▁Manet	-9.80911
▁Vietnam	-9.80947
▁road	-9.80972
ling	-9.80979
▁Siem	-9.80986
▁Li	-9.81007
of	-9.81046
ក្នុងចំណោម	-9.81078
▁packaging	-9.81119
▁drive	-9.81129
ប្រាក់ចំណូល	-9.81148
▁During	-9.81148
go	-9.8115
▁direct	-9.81174
▁ពលរដ្ឋ	-9.81223
▁solutions	-9.8123
▁political	-9.81242
day	-9.81305
ព្យាយាម	-9.81308
im	-9.81316
▁plant	-9.81329
▁5.	-9.81338
▁ក្នុងករណីមាន	-9.81358
បុគ្គល	-9.81358
▁read	-9.81376
▁បន្ត	-9.81409
ភូមិ	-9.81454
▁April	-9.81461
ជាក់ស្តែង	-9.81497
ឥណទាន	-9.81531
13	-9.81562
▁agreement	-9.81585
▁practice	-9.81606
▁police	-9.8163
▁គោលបំណងនៃ	-9.81665
end	-9.81681
▁left	-9.81707
ជាប់	-9.81716
▁send	-9.81732
ty	-9.81802
ផ្សារ	-9.81808
ឆ្លាតវៃ	-9.81911
នៅឆ្នាំ	-9.82028
▁attention	-9.82144
ឥតគិតថ្លៃ	-9.82183
▁ទីក្រុង	-9.82191
ខ្លី	-9.82214
ឡា	-9.82275
សិទ្ធិ	-9.82306
▁accord	-9.82318
ជាបន្តបន្ទាប់	-9.82342
▁bank	-9.82376
ដែលអ្នក	-9.82429
▁Law	-9.82442
▁2023,	-9.82452
មិនបាន	-9.82458
▁district	-9.82494
ដែលត្រូវ	-9.82506
ដឹងថា	-9.8259
line	-9.82666
35	-9.82739
វៀតណាម	-9.82743
របៀប	-9.82828
~	-9.82843
▁temple	-9.82847
▁45	-9.82901
ទន់	-9.8291
ការស្រាវជ្រាវ	-9.83002
▁expected	-9.8304
▁build	-9.83054
យោធា	-9.8308
▁front	-9.83101
▁solution	-9.83115
▁mainly	-9.83204
សកម្ម	-9.83251
18	-9.83258
▁ក្រោម	-9.83259
ce	-9.83331
ប្រ	-9.8338
បង្កើតឡើង	-9.83437
បរិយាកាស	-9.83449
▁Center	-9.83491
ការធ្វើតេស្ត	-9.83495
ពាក់ព័ន្ធ	-9.83572
តិច	-9.83613
ខាងក្រោម	-9.83634
▁everything	-9.83702
▁announced	-9.83715
ក៏បាន	-9.83727
we	-9.83735
▁=	-9.83763
▁property	-9.83792
It	-9.83824
▁32	-9.83857
▁ខ្សែ	-9.83877
អេឡិចត្រូនិក	-9.84002
ពាក់កណ្តាល	-9.84021
ខែ	-9.84069
នៅក្នុងតំបន់	-9.84078
▁file	-9.84087
▁credit	-9.84129
អត្រានុកូលដ្ឋាន	-9.84139
▁27	-9.84207
ting	-9.84236
▁Decree	-9.84241
គ្រាប់	-9.8426
មួយ។	-9.84275
▁អស់	-9.84313
សាច់	-9.8436
▁ហេតុអ្វីបានជា	-9.84413
ហាមឃាត់សម្រាប់	-9.84426
22	-9.84509
▁uses	-9.84518
មិនមែន	-9.8454
▁try	-9.84573
▁Type	-9.8472
▁news	-9.84724
▁Now	-9.84745
កម្មករ	-9.84755
▁AI	-9.8481
▁advanced	-9.84864
ah	-9.84886
▁related	-9.84985
▁<	-9.85032
▁helps	-9.85036
▁allow	-9.85042
▁co	-9.85071
▁damage	-9.85116
▁grow	-9.8515
▁Road	-9.85181
ស្លាប់	-9.85182
▁Air	-9.85201
out	-9.85305
▁casino	-9.85365
▁add	-9.85413
បាត់បង់	-9.85506
▁m	-9.85528
▁currently	-9.8554
▁wide	-9.85555
៣០	-9.85612
ណែនាំ	-9.85665
▁third	-9.85679
ប្រាក់រង្វាន់	-9.8569
គ្រោះថ្នាក់	-9.85736
▁emphasized	-9.85746
ផ្តល់ជូន	-9.85749
▁ចាប់	-9.85751
▁far	-9.8577
ne	-9.8579
ខ្នាតតូច	-9.85831
ជុំវិញ	-9.8585
▁methods	-9.85872
▁pipe	-9.85898
▁focus	-9.85907
▁Mo	-9.85909
គីមី	-9.85964
▁developed	-9.85971
បៃតង	-9.8604
▁បន្ទាប់៖	-9.86083
▁maintenance	-9.86124
×	-9.8615
80	-9.86158
In	-9.86191
▁សម	-9.8622
តិចជាង	-9.86351
▁station	-9.86369
▁blood	-9.8638
▁polyester	-9.86381
▁របៀប	-9.86405
▁creating	-9.86431
ស្លាក	-9.86481
▁players	-9.86507
▁ប្រធាន	-9.86546
ពាក់	-9.86569
ត្រូវបានអនុវត្ត	-9.86581
▁families	-9.86585
▁អង្គការ	-9.86589
ប្រទេសកម្ពុជា	-9.8663
▁living	-9.86739
▁fact	-9.8676
▁held	-9.86797
ទាំងអស់។	-9.86802
ung	-9.86828
▁recent	-9.87001
ដំណាំ	-9.87041
▁ខណៈពេលដែល	-9.87041
▁ដាក់	-9.87041
ចែករំលែក	-9.87048
▁More	-9.87088
▁អាចបណ្តាលឱ្យមាន	-9.87109
▁issued	-9.87188
▁learning	-9.87189
អគារ	-9.87216
▁ខេត្ត	-9.87219
រឹងមាំ	-9.87258
▁manufacturing	-9.8732
នាំចេញ	-9.87386
▁position	-9.87429
ization	-9.8748
▁ប្រកាស	-9.87493
▁៥០	-9.87543
▁significant	-9.87581
ផ្កា	-9.87606
លើកកម្ពស់	-9.87686
▁sun	-9.87748
កត្តា	-9.87779
▁អ៊ីញ	-9.87821
ច្បាស់លាស់	-9.87837
▁That	-9.87848
ជាទូទៅ	-9.87874
ឱកាស	-9.87887
▁minutes	-9.87928
ការនាំចេញ	-9.87929
▁Amazon	-9.8797
▁lost	-9.87982
ការខកខានក្នុងការ	-9.88087
li	-9.881
ការបញ្ជាទិញ	-9.88108
ី	-9.88175
▁actually	-9.88232
តូចៗ	-9.88243
▁entire	-9.88318
ជាធម្មតា	-9.88327
▁Some	-9.88359
ការគាំទ្រ	-9.88406
សក់	-9.8841
▁income	-9.88434
▁ឃើញ	-9.8851
▁everyone	-9.88549
▁eat	-9.88592
បន្តិច	-9.88599
▁អាន	-9.88773
▁Le	-9.88806
▁Material	-9.88846
▁បញ្ហា	-9.88884
ពិនិត្យមើល	-9.88913
និយាយថា	-9.88919
▁laws	-9.88933
▁និស្សិត	-9.8894
▁Car	-9.88955
បន្ទាប់	-9.89027
▁stable	-9.89028
▁2023	-9.89074
▁priority	-9.89084
▁return	-9.891
▁Number	-9.89164
▁output	-9.89165
▁ចុះ	-9.89228
បែប	-9.89333
▁installation	-9.89333
q	-9.89357
▁ដំណើរការ	-9.89388
▁បច្ចេកវិទ្យា	-9.89404
for	-9.89419
da	-9.89464
▁young	-9.89517
▁widely	-9.89529
▁points	-9.89547
▁step	-9.89616
▁General	-9.89688
▁motor	-9.89787
ធ្ងន់ធ្ងរ	-9.8988
▁Be	-9.89893
អ្នកលេង	-9.89932
▁School	-9.89954
▁អំពី	-9.89991
ម្សៅ	-9.90026
ប៊ី	-9.90035
os	-9.90037
▁meters	-9.90056
ពីការ	-9.90097
▁ទិញ	-9.90127
rs	-9.90129
▁suppliers	-9.90149
▁usually	-9.90214
▁seen	-9.90233
17	-9.90236
▁ច្បាប់	-9.90274
រូបថត	-9.90291
ទិន្នផល	-9.90317
▁men	-9.90329
▁businesses	-9.90383
ដែកអ៊ីណុក	-9.90384
ចែកចាយ	-9.90438
▁exports	-9.90537
▁center	-9.90541
▁cold	-9.90679
▁≤	-9.90683
▁Year	-9.90691
▁gold	-9.90778
ចំណាយ	-9.90829
based	-9.90834
ខាង	-9.90875
no	-9.90907
▁list	-9.90942
ប្រចាំថ្ងៃ	-9.9097
នៅក្នុងប្រទេស	-9.9099
រាល់	-9.91042
▁done	-9.91043
▁cultural	-9.91049
▁multiple	-9.91158
▁works	-9.9119
▁លានដុល្លារ	-9.91225
▁Council	-9.91231
▁strategy	-9.91231
▁ញុមចូលចិត្ត	-9.91238
កំហុស	-9.9125
ឈាម	-9.91257
▁Smart	-9.91379
▁ល្អ	-9.91435
▁general	-9.91452
ស៊េរី	-9.91476
ខ្ពស់។	-9.91499
▁Management	-9.91635
រីករាយ	-9.91642
▁expand	-9.91647
▁អ្នកជំនាញ	-9.9179
▁page	-9.91835
▁នេះគឺជា	-9.91842
KW	-9.91861
▁Failure	-9.91878
nm	-9.9188
▁delivery	-9.91906
▁Association	-9.91959
▁pump	-9.92003
▁requires	-9.92027
▁providing	-9.9204
ការព្យាបាល	-9.92052
▁នាំ	-9.92107
រង	-9.92109
ដឹង	-9.9212
ពន្ធ	-9.92178
500	-9.92198
▁Manufacturer	-9.92231
▁table	-9.92295
▁staff	-9.92366
កៅស៊ូ	-9.92439
▁sectors	-9.92596
▁experts	-9.92625
quality	-9.92695
អតិបរមា	-9.92735
នេះគឺជា	-9.9277
▁transfer	-9.92864
ដែរឬទេ	-9.92865
il	-9.92931
▁action	-9.92999
ផ្លាស្ទិច	-9.9302
▁aims	-9.9303
▁eye	-9.93082
▁release	-9.93091
▁wood	-9.93097
▁zithromax	-9.93102
▁fiber	-9.93111
នាពេលបច្ចុប្បន្ន	-9.93225
ណ	-9.93249
ឡើយ	-9.93284
មានតម្លៃ	-9.93298
រ៉ូ	-9.93301
▁heavy	-9.93368
ព	-9.93389
▁ឧទាហរណ៍	-9.93438
▁highly	-9.93443
▁investors	-9.93546
▁វិធី	-9.93577
Hz	-9.93623
អំណាច	-9.93637
▁USD	-9.93667
▁សម្តេចតេជោ	-9.93703
▁Civil	-9.93762
ផ្សាយពាណិជ្ជកម្ម	-9.93766
ចាំបាច់	-9.93834
វេជ្ជសាស្ត្រ	-9.93844
▁urban	-9.93845
ផ្លូវការ	-9.93856
14	-9.93868
▁inside	-9.93882
▁base	-9.93884
ព្រៃ	-9.9398
ឯកជន	-9.93988
លើកទឹកចិត្ត	-9.94093
▁enough	-9.94094
ពិនិត្យ	-9.9417
ខ្លាំងណាស់	-9.94191
▁ជួយ	-9.94203
កំណើន	-9.94219
▁death	-9.94241
▁studies	-9.9426
▁Deputy	-9.94342
▁least	-9.94343
ទាញយក	-9.94367
សមាសធាតុ	-9.94398
▁videos	-9.94399
▁eyes	-9.94465
ការផលិត	-9.94522
ធានា	-9.94564
▁told	-9.94596
ត្រូវបានប្រើ	-9.94597
▁Jesus	-9.94675
ដែលយើង	-9.94683
ហាង	-9.94704
▁stone	-9.94709
▁មន្ត្រី	-9.94729
▁waste	-9.9477
▁35	-9.94773
▁quickly	-9.94791
▁សមត្ថភាព	-9.94802
▁cover	-9.95044
▁បានទេ	-9.9507
▁certificate	-9.95078
▁chemical	-9.95078
▁art	-9.95107
▁degree	-9.95121
▁stainless	-9.95216
ទៅក្នុង	-9.95251
ដើម្បីធ្វើឱ្យ	-9.95269
ប្លុក	-9.95325
▁nation	-9.9533
សកល	-9.95351
វែង	-9.95353
300	-9.95417
តុលាការ	-9.95425
ម៉ែត្រ	-9.95465
▁options	-9.95485
▁soft	-9.95525
ក្នុងឆ្នាំ	-9.95603
▁90	-9.95611
▁Ta	-9.95657
▁tools	-9.9567
▁welding	-9.95719
▁ព្រឹត្តិការណ៍	-9.95737
▁Department	-9.95766
សំណួរ	-9.95776
របស់កម្ពុជា	-9.9578
ស្នើសុំ	-9.95781
▁source	-9.95822
▁Go	-9.95876
26	-9.95952
អឺរ៉ុប	-9.96031
▁tube	-9.96073
▁located	-9.96107
ផ្ដល់	-9.9611
lo	-9.96133
ទៅដល់	-9.96164
អចលនទ្រព្យ	-9.96177
នា	-9.96251
▁progress	-9.96301
▁customized	-9.96332
តាមតម្រូវការ	-9.96366
▁±	-9.96397
▁គួរ	-9.96403
-2	-9.96408
▁culture	-9.96414
▁option	-9.96423
ប្រចាំឆ្នាំ	-9.96445
▁leaders	-9.96461
▁remain	-9.96469
▁រដ្ឋាភិបាល	-9.96485
▁ខែតុលា	-9.96487
តុ	-9.96546
▁Mobile	-9.96553
▁2,	-9.96565
ក្នុងផ្ទះ	-9.96586
ya	-9.96608
បា	-9.96614
▁Land	-9.96716
▁refers	-9.96719
▁Don	-9.96793
▁Apple	-9.968
▁risk	-9.96815
បន្ទាប់មក	-9.96884
មី	-9.96904
▁f	-9.96927
▁លាន	-9.96975
▁Foreign	-9.96976
តាមអ៊ីនធឺណិត	-9.97035
▁យុវជន	-9.97063
▁door	-9.97101
មានភាព	-9.97106
▁ការពារ	-9.97118
′′	-9.97184
▁ឆ្នាំ២០២៤	-9.97232
ធុង	-9.97242
nd	-9.97297
▁Price	-9.97309
▁region	-9.97346
▁wear	-9.97454
កាន់	-9.97489
វា។	-9.97493
និស្សិត	-9.97502
▁Name	-9.97515
▁Of	-9.9755
▁[...]	-9.97555
ជួរ	-9.9756
▁powder	-9.97566
ប្រទេសចិន	-9.97596
ir	-9.97632
ល្អឥតខ្ចោះ	-9.9767
▁UV	-9.97689
វិបត្តិ	-9.97898
▁ទំព័រ	-9.97967
▁document	-9.97981
75	-9.98016
ឱ្យបាន	-9.98106
01	-9.98176
▁គ	-9.98179
រួមបញ្ចូល	-9.98184
ent	-9.98224
▁press	-9.98225
▁ago	-9.98272
ដោយមាន	-9.98301
▁book	-9.98303
▁bring	-9.98366
កម្ម	-9.98384
▁គួរតែ	-9.98399
▁admin	-9.984
ating	-9.9841
▁Make	-9.98435
▁១៩	-9.98474
▁follow	-9.98481
សិទ្ធិមនុស្ស	-9.98499
ប្រកួតប្រជែង	-9.98642
អាហារូបករណ៍	-9.98676
▁Youth	-9.98936
▁multi	-9.98943
ដំណាក់កាល	-9.98986
ថៃ	-9.98988
▁physical	-9.99002
▁longer	-9.99027
▁រដ្ឋមន្ត្រី	-9.99044
▁difficult	-9.99049
▁Thailand	-9.99061
▁enter	-9.99075
▁អាជ្ញាធរ	-9.99099
▁ការរចនា	-9.99099
▁ceremony	-9.99111
ប្រឆាំង	-9.99126
▁St	-9.99136
ជួសជុល	-9.99137
អ៊ី	-9.99166
▁ក្រសួង	-9.99174
▁70	-9.99198
បេះដូង	-9.99287
ទាក់ទាញ	-9.99288
▁ខាង	-9.99295
ធំៗ	-9.99315
▁បន្តិច	-9.99317
▁length	-9.99325
មានសារៈសំខាន់	-9.99327
▁tell	-9.99385
ក្នុងវិស័យ	-9.99385
▁enjoy	-9.99386
ជួល	-9.99444
24	-9.99523
តែមួយគត់	-9.99576
▁ឆ្នាំ២០២៣	-9.99577
រដ្ឋបាល	-9.99665
▁exchange	-9.998
▁items	-9.99808
800	-9.99833
▁request	-9.99864
▁Color	-9.99998
▁store	-10.0001
▁ម៉ែត្រ	-10.0003
he	-10.0005
លក្ខណៈ	-10.0008
▁operations	-10.0011
ក្រហម	-10.0014
▁ការប្រើប្រាស់	-10.0014
មានលក្ខណៈ	-10.0016
អត់	-10.0016
នីតិវិធី	-10.0019
▁Top	-10.0019
បញ្ជាក់	-10.0029
,”	-10.0034
▁ability	-10.0037
នៅថ្ងៃទី	-10.0039
▁flow	-10.0042
▁2024,	-10.0043
▁stop	-10.0044
ណាស់។	-10.0051
▁iron	-10.0054
▁fruit	-10.0056
▁deposit	-10.006
▁b	-10.0062
▁Every	-10.0069
▁hair	-10.0071
67	-10.0072
ចុង	-10.0073
▁blue	-10.0075
ឈប់	-10.0075
ពង្រឹង	-10.0079
ស្រាល	-10.0081
នៅក្រោម	-10.0087
កិច្ចការ	-10.0088
ឈ្នះ	-10.0089
ដែកថែប	-10.0096
▁ផ្ទះ	-10.01
▁village	-10.01
បញ្ហាប្រឈម	-10.0105
បង្ហាញពី	-10.0106
▁outside	-10.0107
▁compared	-10.0108
▁click	-10.0109
មិនទាន់	-10.011
កោសិកា	-10.0113
▁border	-10.0118
▁target	-10.0121
ព្រោះ	-10.0121
▁corrosion	-10.013
▁won	-10.0131
▁actively	-10.0136
▁decision	-10.0136
ជាមួយនឹងការ	-10.014
ងាយស្រួលក្នុងការ	-10.0141
▁Pre	-10.0143
▁outdoor	-10.0144
▁First	-10.0149
▁son	-10.0158
▁promoting	-10.0158
▁Therefore	-10.0162
ម្ចាស់	-10.0163
▁Sok	-10.0165
ទំព័រ	-10.0166
មាត់	-10.017
▁reading	-10.0174
▁Post	-10.0186
▁purchase	-10.0187
ផ្តល់ជូននូវ	-10.0189
ad	-10.019
▁choice	-10.0197
▁សាកលវិទ្យាល័យ	-10.0205
ized	-10.0207
▁District	-10.0212
▁cream	-10.0213
▁លើសពីនេះ	-10.0217
អាចត្រូវបានប្រើ	-10.022
បំបែក	-10.0222
តើ	-10.0229
▁ដង	-10.0231
ci	-10.0237
ភី	-10.0246
old	-10.0247
ជំនាញវិជ្ជាជីវៈ	-10.0251
ការធ្វើដំណើរ	-10.0251
អាក្រក់	-10.0253
▁labor	-10.0255
រូបរាង	-10.0257
land	-10.0264
▁Business	-10.0265
▁growing	-10.0266
▁Institute	-10.0266
សម	-10.0268
ê	-10.0272
ដុត	-10.0277
ចុះឈ្មោះ	-10.0282
ស្នូល	-10.0283
អាយុ	-10.0287
▁Time	-10.0292
21	-10.0299
ក្រុមប្រឹក្សា	-10.0303
▁forest	-10.0306
▁similar	-10.0306
▁Angkor	-10.0309
ប្លាស្ទិក	-10.0309
▁effectively	-10.0311
ពិត	-10.0312
ធារាសាស្ត្រ	-10.0312
▁Not	-10.0314
▁បាននិយាយថា	-10.0314
ថែទាំ	-10.0314
ទិសដៅ	-10.0316
▁voltage	-10.0316
នឹងមាន	-10.0317
▁taking	-10.0319
បាននិយាយថា	-10.032
▁communities	-10.0321
▁Assembly	-10.0321
▁throughout	-10.0324
ជួប	-10.0325
ពណ៌ស	-10.0326
▁PM	-10.0326
▁chain	-10.0327
▁mental	-10.0327
▁acid	-10.033
ទូរទស្សន៍	-10.0331
▁គ្រប់	-10.0335
ak	-10.0349
▁សេចក្តី	-10.0351
ថង់	-10.0352
កម្រិតខ្ពស់	-10.0353
ការបង្កើត	-10.0359
▁រក	-10.0366
▁words	-10.0374
▁nature	-10.0375
ថត	-10.0378
▁29	-10.0381
▁round	-10.0389
ឡាន	-10.0394
▁thing	-10.0398
▁Europe	-10.0401
▁fields	-10.0403
▁normal	-10.0406
▁partners	-10.0414
▁reported	-10.042
▁CE	-10.0421
▁កន្លែង	-10.0421
នឹងមិន	-10.0424
អំពូល	-10.0428
ian	-10.044
▁ថ្ងៃទី	-10.0443
▁spray	-10.0443
▁procedures	-10.0444
នាំចូល	-10.0449
▁LCD	-10.0451
▁boost	-10.0458
ក្រៅ	-10.0459
ពួកវា	-10.0459
▁famous	-10.0464
ជាដើម	-10.0467
ut	-10.0473
ប្រសិទ្ធភាព។	-10.0479
▁web	-10.0482
▁went	-10.0482
▁Medical	-10.0483
▁ល។	-10.0486
ជាផ្លូវការ	-10.0492
▁success	-10.0497
▁សេចក្ដី	-10.05
▁automatic	-10.0502
យ៉ាងឆាប់រហ័ស	-10.0502
តិចតួច	-10.0506
▁shape	-10.0507
▁individuals	-10.051
▁touch	-10.0519
▁explore	-10.0522
▁season	-10.0522
▁annual	-10.0523
ប៉ះពាល់ដល់	-10.0524
▁sports	-10.0526
ទទួលស្គាល់	-10.0527
▁States	-10.0533
▁ខែកក្កដា	-10.0538
▁English	-10.0542
▁download	-10.0547
របស់វា។	-10.0547
▁Russia	-10.0548
▁ស៊េរី	-10.0556
90	-10.0561
សម្រេច	-10.0562
ធី	-10.0562
di	-10.0563
ist	-10.0566
▁critical	-10.0568
▁250	-10.0569
▁raw	-10.0572
▁ង	-10.0572
600	-10.0573
ខ្សែសង្វាក់	-10.0578
▁Then	-10.058
▁components	-10.0583
ប្រភព	-10.059
▁vehicle	-10.0596
ភាសា	-10.0598
ត្រឹមតែ	-10.0601
▁save	-10.0605
▁positive	-10.0605
pa	-10.0605
▁Max	-10.0606
ភ្នំ	-10.0607
ជ័រ	-10.0607
▁highlighted	-10.0609
▁Kong	-10.0609
សូម្បីតែ	-10.061
▁400	-10.0612
គោលការណ៍	-10.0616
រង់ចាំ	-10.0619
រដ្ឋមន្ត្រី	-10.062
▁Online	-10.0621
▁Support	-10.0624
▁kinds	-10.0627
▁sent	-10.0632
▁continued	-10.0635
ថាតើ	-10.0636
▁pro	-10.0637
▁double	-10.0638
រួមទាំង	-10.0643
ជាអ្នក	-10.0648
▁approved	-10.0651
▁innovation	-10.0654
▁ខ្ញុំបានទិញ	-10.0655
▁machines	-10.0668
▁issue	-10.0673
ដើម្បីឱ្យ	-10.0679
▁ថាមពល	-10.0692
ការប្រកួតប្រជែង	-10.0695
▁rubber	-10.0695
▁cross	-10.0696
ក៏ដោយ។	-10.0698
▁2000	-10.0703
▁later	-10.0705
បោះឆ្នោត	-10.0706
▁volume	-10.0706
ប៉ុណ្ណោះ។	-10.0707
្	-10.0726
▁behind	-10.0729
▁HD	-10.0736
-20	-10.074
មូលនិធិ	-10.0743
ស្គាល់	-10.0745
38	-10.0747
យ៉ាងហោចណាស់	-10.0748
▁អនុលោមតាម	-10.075
បាញ់	-10.075
រាវ	-10.0757
▁spirit	-10.0757
រលាយ	-10.076
▁coating	-10.0762
▁changes	-10.0766
▁true	-10.0768
tic	-10.0769
យឺត	-10.077
▁បន្ទះ	-10.0772
▁sites	-10.0773
▁provinces	-10.0774
ការអប់រំ	-10.0775
▁soil	-10.0775
32	-10.0779
ការការពារ	-10.078
▁reason	-10.0781
ការផ្គត់ផ្គង់	-10.0789
▁របាយការណ៍	-10.0791
ការអភិវឌ្ឍន៍	-10.0791
▁alloy	-10.0791
▁understanding	-10.0794
▁គាំទ្រ	-10.0797
▁Supplier	-10.0797
ថេរ	-10.08
▁commercial	-10.0801
▁urged	-10.0809
▁ទទួលបាន	-10.0817
▁Many	-10.0819
▁load	-10.0823
▁convenient	-10.0831
▁ball	-10.0833
▁មុនពេល	-10.0841
▁heard	-10.0849
▁ទោះយ៉ាងណាក៏ដោយ	-10.085
▁Here	-10.0851
▁install	-10.0852
បន្ទុក	-10.0853
▁yourself	-10.0854
រក្សាទុក	-10.0857
▁square	-10.086
អ្នកជំនាញ	-10.0872
ស្រី	-10.0874
អាជីព	-10.0877
▁guide	-10.0884
នៅតាម	-10.0893
PC	-10.0902
▁parties	-10.0903
បន្លែ	-10.0907
▁require	-10.0922
▁benefit	-10.0927
▁beauty	-10.0928
គ្រឿងបន្លាស់	-10.0931
▁university	-10.0932
អនុញ្ញាតឱ្យអ្នក	-10.0933
ដ៏ល្អ	-10.0938
កសាង	-10.0944
ប្រពៃណី	-10.0952
▁នៅថ្ងៃទី	-10.0953
ខ	-10.0953
មួយទៀត	-10.0956
▁ដែលបាន	-10.0959
ដោះស្រាយបញ្ហា	-10.096
▁situation	-10.096
▁code	-10.0961
ស្វ័យប្រវត្តិ	-10.0961
▁soon	-10.0961
▁ទូរស័ព្ទ	-10.0966
ke	-10.0969
▁status	-10.0972
▁UN	-10.0972
មិនមែនជា	-10.0972
អង្គភាព	-10.0973
▁មានសិទ្ធិ	-10.0977
▁testing	-10.0978
បញ្ជី	-10.0979
▁វាគឺជា	-10.0981
▁ចង់	-10.0981
▁រយៈពេល	-10.0994
▁PP	-10.0996
▁approximately	-10.0997
▁version	-10.0998
រត់	-10.1001
▁strictly	-10.1001
ot	-10.1004
ចិញ្ចឹម	-10.1006
ដើម្បីការពារ	-10.101
យន្តហោះ	-10.1012
លើស	-10.1012
ហានិភ័យ	-10.1015
▁smart	-10.1017
▁Play	-10.1018
▁contract	-10.1021
បានចាប់ផ្តើម	-10.1028
ចរន្ត	-10.1028
▁ground	-10.1032
បងប្អូន	-10.1046
▁leave	-10.1047
▁ជីវិត	-10.105
ក់	-10.1052
មើលឃើញ	-10.1053
-3	-10.1055
ទ	-10.1056
ធ្វើឱ្យប្រសើរឡើង	-10.1067
ចាប់ពី	-10.1069
▁final	-10.1069
វាយតម្លៃ	-10.107
MM	-10.1083
▁គីឡូក្រាម	-10.1086
បង្រៀន	-10.1086
▁disease	-10.1086
▁questions	-10.109
បង្វិល	-10.1091
▁implemented	-10.1095
▁language	-10.1099
▁កំណត់	-10.11
▁cable	-10.1101
អេស	-10.1106
▁System	-10.1108
our	-10.1115
▁Light	-10.1115
▁needed	-10.1116
▁ជំនាញ	-10.1116
▁caused	-10.1116
ពហុ	-10.1117
▁និងមាន	-10.1119
be	-10.1122
ធ្មេញ	-10.1123
▁Pursu	-10.1124
00	-10.1128
▁hands	-10.113
▁1.5	-10.113
▁core	-10.1134
▁accuracy	-10.1135
▁carbon	-10.1143
▁revenue	-10.1154
▁ដែរ	-10.1157
ចរាចរណ៍	-10.1161
con	-10.1162
យើងនឹង	-10.1164
▁prepare	-10.1165
▁particularly	-10.1166
400	-10.1167
▁វិញ	-10.1168
▁ធនាគារ	-10.1168
▁matter	-10.1169
យ៉ា	-10.117
▁កញ្ញា	-10.1173
▁សេវាកម្ម	-10.1174
កសិករ	-10.118
ដើម្បីបង្កើត	-10.1181
▁ក្រុង	-10.1182
ឱសថ	-10.1183
▁តើអ្នកលក់	-10.1186
▁record	-10.1186
▁earth	-10.1195
▁analysis	-10.1202
▁largest	-10.1207
ភ្នាក់ងារ	-10.1209
▁believe	-10.1209
▁rise	-10.1211
▁original	-10.1214
88	-10.1214
ញ៉ាំ	-10.1216
▁run	-10.1218
▁crypto	-10.1224
គម្រប	-10.1226
បញ្ឈប់	-10.1226
▁Director	-10.1231
▁response	-10.1238
អស់	-10.1238
▁gain	-10.1239
ឈរ	-10.124
មធ្យម	-10.1243
▁ensuring	-10.1243
▁Twitter	-10.1244
ការកំណត់	-10.1246
បញ្ចេញ	-10.1247
▁La	-10.1247
▁turn	-10.1258
ab	-10.126
95	-10.1262
▁consumption	-10.1263
▁liquid	-10.1267
▁framework	-10.1268
▁details	-10.1272
និរន្តរភាព	-10.1274
ចម្បង	-10.1275
អនាម័យ	-10.1288
▁sale	-10.1291
▁កាល	-10.1294
CM	-10.1295
ism	-10.13
▁primary	-10.1303
ឧទាហរណ៍	-10.1311
សន្លឹក	-10.1312
▁220	-10.1315
▁electronic	-10.132
▁given	-10.1322
▁ព្រះរាជាណាចក្រ	-10.1323
▁constitute	-10.1324
▁riel	-10.1324
ដោយដៃ	-10.1333
▁Ad	-10.1334
សម្គាល់	-10.1336
▁remove	-10.1336
▁ន	-10.1339
▁forget	-10.134
បណ្តុះបណ្តាល	-10.1352
ability	-10.1356
សម្រេចបាននូវ	-10.1357
▁terms	-10.1361
▁vital	-10.1363
▁monitoring	-10.1368
ten	-10.1369
▁ក្នុងនោះ	-10.1372
សហប្រតិបត្តិការ	-10.1375
▁built	-10.138
▁សុខា	-10.138
ous	-10.1388
▁external	-10.1389
ong	-10.139
គិតថា	-10.1392
ឆ្លើយតប	-10.1394
ផ្សេងគ្នា	-10.1396
ទារក	-10.1398
ឯករាជ្យ	-10.1398
ដែលកំពុង	-10.14
▁ពិសេស	-10.1403
▁opposition	-10.1404
វិធីសាស្ត្រ	-10.1424
▁រឿង	-10.1429
ប្រហែលជា	-10.1429
▁latest	-10.1436
▁]]>	-10.1436
កិច្ចប្រជុំ	-10.1437
▁ខែកញ្ញា	-10.1439
▁គោលនយោបាយ	-10.1441
▁Since	-10.1446
▁2024	-10.1452
▁កាន់	-10.1453
▁Weight	-10.1456
ni	-10.1462
គ្រាន់តែ	-10.1464
▁clients	-10.1464
▁joint	-10.1466
សាក	-10.1467
▁levels	-10.1469
▁l	-10.1471
ga	-10.1474
ទាក់ទង	-10.1476
▁immediately	-10.1477
ត្រង់	-10.1484
▁half	-10.1485
ite	-10.1493
▁stock	-10.1494
▁strategic	-10.1495
▁began	-10.15
▁illegal	-10.1501
▁Use	-10.1505
▁precision	-10.1507
▁forward	-10.1507
▁វាជាការ	-10.1518
▁meat	-10.1523
▁តើខ្ញុំអាចរក	-10.1528
▁wants	-10.1528
វាជា	-10.1529
គន្លឹះ	-10.1532
អ្នកជំងឺ	-10.1533
▁shared	-10.1539
ការធ្វើ	-10.1541
ការដឹកជញ្ជូន	-10.1542
▁files	-10.1543
▁roller	-10.1544
▁bar	-10.1546
ទោះជាយ៉ាងណាក៏ដោយ	-10.155
▁search	-10.155
▁Good	-10.1553
▁vision	-10.1553
▁1)	-10.1554
មានអារម្មណ៍	-10.1558
អនាគត	-10.1561
នេះមាន	-10.1562
io	-10.1565
▁ពិត	-10.1567
▁risks	-10.1569
▁sample	-10.1569
១៦	-10.1573
▁App	-10.1573
មួយស្រទាប់ស្តើង	-10.1578
▁move	-10.158
▁sheet	-10.158
កូ	-10.1581
▁While	-10.1583
▁created	-10.1583
ful	-10.1584
▁partner	-10.1586
២៥	-10.1587
ដ៏ល្អបំផុត	-10.1588
▁six	-10.1589
▁doesn	-10.1594
រលក	-10.1597
▁voice	-10.1598
▁San	-10.1602
▁Let	-10.1605
ឆ្លង	-10.1607
▁អនុវត្ត	-10.1608
▁fresh	-10.1618
▁Economy	-10.1619
▁ខ្ញុំណែនាំ	-10.1622
មិនត្រឹមតែ	-10.1623
way	-10.1623
▁រួម	-10.1623
▁hotel	-10.1625
▁defense	-10.1627
▁120	-10.1629
តូ	-10.1633
▁panel	-10.1634
▁bonus	-10.1637
▁towards	-10.1638
▁rest	-10.1639
▁micro	-10.1645
រសជាតិ	-10.1648
TS	-10.1649
▁age	-10.1649
▁draft	-10.165
▁basic	-10.1651
$	-10.1651
▁Or	-10.1657
▁លើក	-10.1658
▁កូន	-10.1658
▁cryptocurrency	-10.166
led	-10.1661
ផ្តល់ឱ្យអ្នកនូវ	-10.1665
មានប្រសិទ្ធិភាព	-10.1671
ទិដ្ឋភាព	-10.1674
▁ភ្នំពេញ៖	-10.1677
ស្រឡាញ់	-10.1678
▁traffic	-10.1678
▁solid	-10.168
▁600	-10.1682
▁characteristics	-10.1689
សាលារៀន	-10.1694
▁thickness	-10.1696
▁America	-10.1701
រារាំង	-10.1702
មួយក្នុងចំណោម	-10.1707
ការប្រកួត	-10.1713
▁teachers	-10.1715
ទិដ្ឋាការ	-10.1716
បង្ហាញថា	-10.1717
គ្រប់ប្រភេទ	-10.1722
▁evidence	-10.1723
ដ៏រឹងមាំ	-10.1724
▁sign	-10.1725
08	-10.1726
ហ	-10.1728
លក្ខណៈពិសេស	-10.1728
រាង	-10.173
នៅតំបន់	-10.1731
▁កាបូប	-10.1731
រុស្ស៊ី	-10.1731
▁នាយករដ្ឋមន្ត្រី	-10.1731
ត្រា	-10.1733
▁ideal	-10.1733
▁bad	-10.1734
ក្តី	-10.1734
▁Most	-10.1739
ស្ថិតនៅក្នុង	-10.1742
▁pain	-10.1753
bo	-10.1754
▁member	-10.1756
ជាន់	-10.1757
លាយ	-10.1765
▁inquirydetail	-10.1765
ចាប់តាំងពី	-10.1767
ស្តាប់	-10.1768
ភាគហ៊ុន	-10.1769
▁American	-10.1776
លក្ខណៈសម្បត្តិ	-10.1777
ការតភ្ជាប់	-10.178
ស្បែកជើង	-10.1781
▁Long	-10.1783
អ្នកមាន	-10.1785
▁sound	-10.1786
សម្រាក	-10.1786
▁recently	-10.1793
▁watch	-10.1799
ការយល់ដឹង	-10.1801
free	-10.1802
ជាច្រើន។	-10.1802
▁scientific	-10.1804
▁connection	-10.1807
របស់ខ្លួន។	-10.1809
លម្អិត	-10.1811
▁Solar	-10.1815
▁collection	-10.1819
១៥	-10.1822
36	-10.1823
ដៃគូ	-10.1825
ក៏មាន	-10.1827
▁operating	-10.1828
លំហូរ	-10.1833
កាបូន	-10.1842
▁អ្នកស្រាវជ្រាវ	-10.1843
▁internal	-10.1845
kw	-10.1845
ម៉ូដែល	-10.1847
▁balance	-10.1852
កំណើនសេដ្ឋកិច្ច	-10.1854
▁រួច	-10.1859
ព្រំដែន	-10.1863
▁Sa	-10.1864
▁Sub	-10.1866
បញ្ជា	-10.1868
▁Committee	-10.187
▁Her	-10.1871
សរសៃ	-10.1873
▁con	-10.1876
▁reliable	-10.1881
▁PE	-10.1882
ប្រាប់	-10.1891
▁2)	-10.1897
ឈុត	-10.1899
បាល់	-10.1902
▁academic	-10.1902
ពិបាក	-10.1903
ផ្ញើ	-10.1913
▁completely	-10.1915
▁nations	-10.1915
ស្ពាន	-10.1918
▁Agriculture	-10.1919
ស្រូវ	-10.192
▁collaboration	-10.1924
អង្គុយ	-10.1924
▁filter	-10.1926
▁friends	-10.1926
▁ទុក	-10.1928
▁writing	-10.1929
▁ពីព្រោះវា	-10.1929
ភាពតានតឹង	-10.1931
របស់មនុស្ស	-10.1932
▁recovery	-10.1937
mon	-10.1939
▁២៥	-10.194
▁cleaning	-10.194
la	-10.1947
86	-10.1951
បើ	-10.1952
▁estate	-10.1956
តារាង	-10.1956
បានកើនឡើង	-10.1957
▁48	-10.1961
ti	-10.1961
▁comprehensive	-10.1961
ក្រាស់	-10.1965
▁People	-10.1968
ជន	-10.197
ការកើនឡើង	-10.1971
▁១៨	-10.1971
▁Digital	-10.1973
▁@	-10.1985
គំនូរ	-10.1987
ចម្រុះ	-10.1991
ដែលត្រូវការ	-10.1995
សុទ្ធ	-10.1997
▁friendly	-10.1997
▁numerous	-10.1999
▁valve	-10.1999
ពិចារណា	-10.2
▁image	-10.2
ជំហាន	-10.2
▁inter	-10.2002
▁រួមមាន	-10.2004
au	-10.2007
កែលម្អ	-10.2011
▁ក្នុងនាមជា	-10.2012
សេ	-10.2015
70	-10.2018
គោរព	-10.2018
បង្អួច	-10.2018
▁includes	-10.2019
▁សារ	-10.2019
▁ដឹង	-10.2023
សំណើម	-10.2023
បម្រើ	-10.2023
ដង	-10.2026
ប្តូរ	-10.2026
76	-10.2028
▁Data	-10.203
▁subject	-10.2031
▁ណាស់។	-10.2037
▁charge	-10.2037
ទ្រង់	-10.2044
▁contribute	-10.2045
?”	-10.205
▁weather	-10.2054
▁almost	-10.2056
គី	-10.2057
មានចំនួន	-10.2059
▁31	-10.2059
▁farming	-10.2073
ated	-10.2073
▁European	-10.2076
▁completed	-10.2081
▁worth	-10.2082
▁airport	-10.2087
▁came	-10.2091
▁Full	-10.2094
បំផុត។	-10.2098
ឈានដល់	-10.2099
po	-10.211
▁rates	-10.2112
▁significantly	-10.2114
▁debt	-10.2115
វិធានការ	-10.2117
▁poor	-10.2118
ប្រមូល	-10.2119
▁ក្រណាត់	-10.2126
ណូ	-10.2126
▁campaign	-10.2127
ish	-10.2128
son	-10.2129
▁សុខ	-10.2131
ចាំបាច់ណាស់។	-10.2132
▁solar	-10.2133
▁យើងនឹង	-10.2146
តំណាង	-10.2151
US	-10.2152
▁link	-10.2154
▁king	-10.2164
▁colors	-10.2174
▁ខែមិថុនា	-10.2174
▁នៅលើ	-10.2177
▁jobs	-10.218
▁filling	-10.2183
▁Finance	-10.2183
សណ្ឋាគារ	-10.2186
លទ្ធភាព	-10.2191
▁opening	-10.2191
▁communication	-10.2196
sh	-10.2198
▁Korea	-10.2199
▁មជ្ឈមណ្ឌល	-10.2201
ក្រុមការងារ	-10.2201
▁student	-10.2201
▁Company	-10.2205
▁Ms	-10.2211
ធានាថា	-10.2223
យើងមាន	-10.2233
ft	-10.2234
▁Hot	-10.2236
▁2022,	-10.2241
pe	-10.2244
▁style	-10.2244
▁សា	-10.2244
១២	-10.2245
រួច	-10.2249
▁aid	-10.225
ម៉ូទ័រ	-10.2253
កោះ	-10.2254
▁Ethereum	-10.226
អនឡាញ	-10.2267
▁blockchain	-10.2271
គួរតែត្រូវបាន	-10.2273
មន្ទីរពេទ្យ	-10.2275
▁១១	-10.2276
ពូជ	-10.2282
វាល	-10.2287
▁ផែនការ	-10.2288
ត្រូវបានធ្វើឡើង	-10.2294
ol	-10.2299
បាត	-10.23
ដ៏ធំ	-10.2304
▁increasing	-10.2307
▁greater	-10.2313
▁ខែមីនា	-10.2314
▁prior	-10.2314
29	-10.2316
កម្ពុជា។	-10.2316
▁ព្រះមហាក្សត្រ	-10.2319
light	-10.2321
xbet	-10.233
លឿន	-10.2331
▁Quality	-10.2332
▁parents	-10.2332
▁sea	-10.2335
▁trust	-10.2335
▁launched	-10.2335
▁លោកស្រី	-10.2339
▁Black	-10.2339
▁lives	-10.234
KG	-10.2341
▁sub	-10.2341
▁Part	-10.2342
ខុស	-10.2356
អាស្រ័យលើ	-10.2365
▁Kem	-10.2369
នៅជុំវិញ	-10.2371
ក៏អាច	-10.2373
▁remote	-10.2377
និមិត្តសញ្ញា	-10.2382
▁គំរូ	-10.2386
▁activity	-10.239
ផ្គត់ផ្គង់ថាមពល	-10.239
ជាងមុន	-10.2392
▁individual	-10.2395
ត្រូវបានរចនាឡើង	-10.2399
ដទៃទៀត	-10.2401
ge	-10.2403
ចង់បាន	-10.2404
▁Union	-10.2409
សារព័ត៌មាន	-10.2409
▁effects	-10.2411
▁Sun	-10.2413
23	-10.2413
▁released	-10.2415
▁tourists	-10.2417
▁GB	-10.2422
▁ការងារ	-10.2425
ted	-10.2426
▁តើអ្នក	-10.2427
▁ways	-10.2439
ខុសគ្នា	-10.244
▁យើងមាន	-10.2442
វ៉ុល	-10.2446
▁took	-10.2446
▁schools	-10.2456
use	-10.246
▁consider	-10.2462
▁affect	-10.2466
▁6.	-10.2467
▁hold	-10.2469
48	-10.247
▁nationwide	-10.2472
▁ask	-10.2472
▁promulgated	-10.2473
▁Sokha	-10.2474
ទាមទារ	-10.2477
▁former	-10.2479
);	-10.248
▁transport	-10.2484
▁enterprises	-10.2485
ដ៏សំខាន់	-10.249
▁enhancing	-10.2494
នៅទីនោះ	-10.2498
ium	-10.2503
ជាមុន	-10.2508
▁ផលិត	-10.2512
▁marketing	-10.2513
នៅខាងក្រៅ	-10.2516
▁leadership	-10.2517
ឥទ្ធិពល	-10.2526
HZ	-10.2527
▁sweet	-10.2529
សុំ	-10.253
សក្តានុពល	-10.2534
អំណោយ	-10.2539
សង្គ្រាម	-10.2539
▁paramount	-10.254
do	-10.254
▁តោន	-10.2544
ការសម្រេចចិត្ត	-10.2545
មើលទៅ	-10.2551
លំនៅដ្ឋាន	-10.2555
▁advantages	-10.2556
នៅខាងក្នុង	-10.2557
▁គ្រូបង្រៀន	-10.2562
ប្រតិបត្តិ	-10.2562
150	-10.2563
net	-10.2565
rd	-10.2569
▁Life	-10.2572
▁ញុម	-10.2574
ac	-10.2576
ហៅ	-10.2576
▁stay	-10.2576
▁someone	-10.2578
▁បញ្ជាក់	-10.258
vo	-10.2584
▁fine	-10.2585
▁bottom	-10.259
▁started	-10.2593
ស្មារតី	-10.2594
រឺ	-10.2595
▁passed	-10.2596
▁certification	-10.2596
99	-10.2603
ខាងមុខ	-10.2604
▁wish	-10.2606
▁rich	-10.2619
វិភាគ	-10.2621
▁៤០	-10.2622
▁officially	-10.2623
/#	-10.2626
ម្តងទៀត	-10.2627
▁ខែសីហា	-10.2628
▁១៣	-10.2631
សម្លាប់	-10.2635
▁previous	-10.2637
៥០	-10.2639
ល្អ។	-10.2644
men	-10.2645
▁ថ្ម	-10.2646
៤០	-10.2648
▁EU	-10.2649
▁ស្លាក	-10.2655
បារាំង	-10.2657
ប្រវែង	-10.2657
▁severe	-10.266
▁Israel	-10.2666
តាមរយៈការ	-10.2667
▁woman	-10.267
▁ថ្មី	-10.2676
▁opportunity	-10.2677
អ្នកដែល	-10.2683
របស់ប្រទេសចិន	-10.2685
▁shows	-10.2687
ek	-10.2688
▁trading	-10.2688
by	-10.2689
ការលក់	-10.269
▁Bar	-10.2692
អ្នកគាំទ្រ	-10.2692
ពួកយើង	-10.2693
66	-10.2696
▁Despite	-10.27
បរិញ្ញាបត្រ	-10.2703
▁>>	-10.2704
▁កម្លាំង	-10.2706
នេះបាន	-10.2708
if	-10.2709
▁election	-10.271
▁strengthening	-10.2712
បក្សប្រឆាំង	-10.2713
▁និងជា	-10.2716
ការពិត	-10.272
▁Description	-10.2723
si	-10.2726
ភ្នាល់	-10.2734
អ្នកប្រើ	-10.2736
▁regarding	-10.2739
▁Internet	-10.2739
▁mode	-10.2743
កាមេរ៉ា	-10.2747
សរីរាង្គ	-10.2753
ថ្នាំកូត	-10.2755
▁maximum	-10.2757
▁wind	-10.2758
▁២០២១	-10.276
ការប្រែប្រួល	-10.2763
▁១៦	-10.2764
នៃផលិតផល	-10.2765
មួយនេះ	-10.2766
▁ខែមេសា	-10.2767
▁kingdom	-10.2769
39	-10.2774
ber	-10.2784
ប៉ះ	-10.2788
គែម	-10.2788
▁Super	-10.279
សើម	-10.2792
សេះ	-10.2796
▁២៤	-10.2799
▁birth	-10.2802
▁establish	-10.2803
▁transportation	-10.2805
សមាគម	-10.2805
▁រក្សា	-10.281
▁Si	-10.281
ក្រ	-10.2813
បង្ហោះ	-10.2814
▁ទិន្នន័យ	-10.2815
eng	-10.2823
▁camera	-10.2825
▁Geeks	-10.283
▁medium	-10.283
▁visa	-10.283
ប្រធានបទ	-10.2831
▁custom	-10.2832
វាយ	-10.2835
▁importance	-10.2839
▁implement	-10.2842
▁unit	-10.2844
ទន្លេ	-10.2846
ជោគជ័យ	-10.2855
មិត្តភក្តិ	-10.2863
▁technologies	-10.2866
▁h	-10.2866
ទាញ	-10.2871
▁average	-10.2874
▁ខែឧសភា	-10.2874
▁UK	-10.2877
ការរៀបចំ	-10.2879
ខ្ពស់ជាង	-10.2889
▁music	-10.289
27	-10.289
▁Code	-10.2892
▁rising	-10.2898
▁war	-10.2905
▁ឯង	-10.2905
▁factors	-10.2905
ព្រះអម្ចាស់	-10.2905
▁mother	-10.2906
១១	-10.2906
▁ប្រាក់	-10.2907
▁River	-10.2911
▁functions	-10.2912
ដ៏ល្អឥតខ្ចោះ	-10.2915
61	-10.2919
▁Sihanouk	-10.2921
ដែលនឹង	-10.2923
▁Koh	-10.2924
▁សំដៅទៅលើ	-10.2928
▁ministry	-10.2933
proof	-10.2934
ជានិច្ច	-10.2938
រំ	-10.294
ver	-10.2941
ទៅតាម	-10.2941
▁36	-10.2944
▁resistant	-10.2947
នៅតែមាន	-10.2949
ធ្វើជា	-10.295
▁gel	-10.2952
ចុច	-10.2953
ស្ទើរតែ	-10.2955
▁11:	-10.2956
នៅតែបន្ត	-10.2964
▁taken	-10.2968
ធ្ងន់	-10.2979
អត្តសញ្ញាណ	-10.298
កំណែ	-10.2984
-4	-10.2984
▁statement	-10.2992
▁healthcare	-10.3005
▁0.5	-10.3008
តម្រង	-10.3008
ដោយមិន	-10.301
▁វាអាច	-10.3011
នេះនឹង	-10.3012
▁ប្រជាពលរដ្ឋ	-10.3012
▁ផង	-10.3013
▁Laser	-10.3014
ផល	-10.3016
អាយ	-10.3017
វិល	-10.3018
ល្បែង	-10.3019
បួន	-10.3021
▁limited	-10.3024
▁Ch	-10.3025
អ្នកនឹង	-10.3026
គ្រោងនឹង	-10.3026
មេរោគ	-10.3029
▁ម៉ូដែល	-10.3033
អ៊ីនធឺណិត	-10.3034
▁conference	-10.3035
▁reached	-10.3035
▁ដើម	-10.3035
▁Cham	-10.3037
▁moment	-10.3038
ប៉ុន្មាន	-10.3039
▁despite	-10.304
▁អេ	-10.304
▁stage	-10.3041
យុទ្ធនាការ	-10.3049
uk	-10.305
▁Before	-10.3052
▁ដំបូង	-10.3056
គុណភាពខ្ពស់	-10.3058
▁river	-10.3062
▁Test	-10.3062
▁Japanese	-10.3064
xBet	-10.3065
ខ្ញុំនឹង	-10.3066
▁select	-10.3067
ធ្វើពី	-10.3069
▁Ni	-10.307
ize	-10.307
ធំទូលាយ	-10.3073
និន្នាការ	-10.3074
▁supporting	-10.3074
▁Aluminum	-10.3075
សួរ	-10.3076
▁stress	-10.3076
របស់ចិន	-10.3082
▁serve	-10.3083
▁Once	-10.309
នំ	-10.3091
▁starting	-10.3094
កូវីដ	-10.3095
▁Un	-10.3097
កែវ	-10.31
វិជ្ជមាន	-10.3103
រ៉ែ	-10.3108
មីក្រូ	-10.3109
▁John	-10.3109
▁hour	-10.3112
ha	-10.3114
▁Although	-10.3116
ជាន់ខ្ពស់	-10.3118
▁4,	-10.3119
▁driving	-10.3123
▁ការសាកសួរលម្អិត	-10.3123
▁button	-10.3124
▁ពន្លឺ	-10.3124
▁Games	-10.3128
▁India	-10.3133
▁smooth	-10.3136
▁planning	-10.3136
▁location	-10.3138
ពីចម្ងាយ	-10.3141
បញ្ចប់ការសិក្សា	-10.3142
▁residents	-10.3144
ការទិញ	-10.3146
ហ្វ	-10.3148
▁manage	-10.315
គោលបំណង	-10.3152
ប្រតិកម្ម	-10.3154
ex	-10.3156
▁competition	-10.3158
▁g	-10.316
▁រូបភាព	-10.316
yl	-10.316
▁Products	-10.3161
▁Christ	-10.3162
ផង	-10.3164
ភ្ញៀវទេសចរ	-10.3165
▁diameter	-10.3167
▁Series	-10.3173
ការខូចខាត	-10.3175
វាអាច	-10.3176
ឆ្លុះបញ្ចាំងពី	-10.3176
ថ្ងៃនេះ	-10.3176
▁Global	-10.3177
-5	-10.3179
▁Port	-10.318
▁PTFE	-10.3185
▁Women	-10.3187
▁feature	-10.3188
ខណៈពេលដែល	-10.3192
▁dark	-10.3195
▁section	-10.3196
យើងអាច	-10.3199
ផ្តល់ឱ្យ	-10.3199
▁solve	-10.3201
▁Where	-10.3203
នាវា	-10.3206
មិនត្រូវបាន	-10.3211
▁Under	-10.3212
▁Park	-10.3215
-12	-10.3219
អាពាហ៍ពិពាហ៍	-10.322
ក្នុងមួយ	-10.322
▁30%	-10.3224
▁Human	-10.3227
▁Head	-10.3228
▁takes	-10.3232
ឡូ	-10.3232
."	-10.3234
ភ្លឺ	-10.3234
▁bags	-10.3234
68	-10.3235
អវិជ្ជមាន	-10.3238
▁tea	-10.324
▁MOQ	-10.3245
ទម្ងន់	-10.3247
ិន	-10.3248
▁handle	-10.3248
ិ	-10.3249
▁ពាន់លានដុល្លារ	-10.3252
▁strict	-10.3255
▁goals	-10.3256
▁active	-10.3256
over	-10.3261
▁rules	-10.3264
▁Red	-10.3273
▁3,	-10.3275
▁inner	-10.3277
ហើយបន្ទាប់មក	-10.328
សាច់ប្រាក់	-10.3281
▁extra	-10.3286
▁Industry	-10.3287
▁doing	-10.3296
▁organic	-10.3299
▁គ្រាន់តែ	-10.3299
▁father	-10.3299
ន់	-10.33
▁plants	-10.3303
▁urges	-10.3305
ហា	-10.3312
ខ្ញុំបាន	-10.3313
ថែរក្សា	-10.3313
ជាញឹកញាប់	-10.3314
▁ready	-10.3315
64	-10.3318
យ៉ាងដូចម្តេច	-10.3318
ok	-10.332
▁Economic	-10.3326
▁developing	-10.3328
▁Because	-10.333
ri	-10.3335
ផង។	-10.3339
ត្រឡប់មកវិញ	-10.3343
ap	-10.3344
▁appeal	-10.3344
ថ្មីមួយ	-10.3345
មេកានិច	-10.3346
ជាលើកដំបូង	-10.3351
▁ចំណែក	-10.3352
This	-10.3353
▁ទំព័រដើម	-10.3353
ប្រៀបធៀប	-10.3353
ឈានមុខគេ	-10.3354
ញ	-10.3356
▁train	-10.3357
▁បំពង់	-10.3358
▁yellow	-10.3362
ការកាត់បន្ថយ	-10.3364
▁Video	-10.3364
▁confirmed	-10.3364
▁ever	-10.3365
ទស្សនៈ	-10.3366
ចំណាប់អារម្មណ៍	-10.3367
រូបិយប័ណ្ណ	-10.3371
ធ្លាក់	-10.3373
វ៉ា	-10.3375
ប្លាស្ទិច	-10.3377
ប់	-10.3378
TP	-10.3381
▁Due	-10.3382
▁Look	-10.3385
▁provincial	-10.339
▁advance	-10.3395
រួចហើយ	-10.3397
▁Arm	-10.3397
▁Manufacturers	-10.3398
▁cash	-10.3398
តំឡើង	-10.34
នាពេលអនាគត	-10.3405
▁truth	-10.3406
បញ្ជាក់ថា	-10.3408
▁មិនមាន	-10.341
គណៈកម្មាធិការ	-10.341
ការបង្ហាញ	-10.3412
ទូទាត់	-10.3412
▁transmission	-10.3416
ប្រជាធិបតេយ្យ	-10.3419
▁ដែលអាច	-10.3419
▁កិច្ចព្រមព្រៀង	-10.3419
-7	-10.342
ៃ	-10.3424
ស្នាដៃ	-10.3427
▁goal	-10.3428
▁techniques	-10.343
ជាមូលដ្ឋាន	-10.3436
▁offering	-10.3436
tor	-10.3438
▁forces	-10.3439
▁Construction	-10.3441
▁highest	-10.3441
▁itself	-10.3444
▁50%	-10.3449
▁conducted	-10.3449
▁block	-10.345
69	-10.3454
06	-10.3454
ba	-10.3456
▁លក្ខណៈពិសេស	-10.3463
ស្រស់	-10.3469
▁ឯ	-10.3473
▁Anti	-10.3474
០០	-10.3476
▁ជួរ	-10.3476
▁height	-10.3478
▁properties	-10.3479
▁ones	-10.3479
▁considered	-10.3479
▁iOS	-10.3479
▁Plastic	-10.348
bar	-10.3481
Fi	-10.3482
លីន	-10.3486
▁generally	-10.3487
ប្រឹក្សាភិបាល	-10.3491
នៅផ្ទះ	-10.3499
▁leaves	-10.3501
ដំណើរ	-10.3506
ana	-10.3517
▁Two	-10.3517
▁ពេលវេលា	-10.352
កូរ៉េ	-10.3522
ចំពោះអ្នក	-10.3524
គ្របដណ្តប់	-10.3526
▁appearance	-10.3529
▁Fire	-10.353
▁លិខិត	-10.3537
▁fun	-10.3537
▁មុខ	-10.3539
33	-10.3539
▁identity	-10.3541
▁១៤	-10.3544
▁installed	-10.3544
▁principles	-10.3548
រយៈពេលវែង	-10.3554
▁organized	-10.3555
▁២០២០	-10.3555
top	-10.3555
▁វាជា	-10.3557
▁switch	-10.3558
98	-10.356
ម៉ូឌុល	-10.3564
ស្ថិតក្នុង	-10.3564
ag	-10.3567
▁frame	-10.3568
▁Page	-10.3569
▁efficient	-10.357
ina	-10.3573
▁Contact	-10.3574
▁Also	-10.3576
▁bilateral	-10.3579
សុខភាពសាធារណៈ	-10.3581
▁stand	-10.3583
ចុះបញ្ជី	-10.3583
▁shop	-10.3583
▁EN	-10.3586
▁continuous	-10.3592
▁Market	-10.3592
និយាយអំពី	-10.3593
វីស	-10.3594
▁states	-10.3595
▁word	-10.3597
▁prefer	-10.3604
▁commune	-10.3607
▁dust	-10.3607
ស្នាក់នៅ	-10.3608
ស្វាគមន៍	-10.3609
យុត្តិធម៌	-10.3611
07	-10.3613
ម្ហូបអាហារ	-10.3613
▁analyze	-10.3614
▁pass	-10.3617
▁signed	-10.3618
៦០	-10.3619
ការណែនាំ	-10.362
ដើម្បីធានាបាននូវ	-10.3623
▁cards	-10.3624
▁ចាប់តាំងពី	-10.3625
អប្បបរមា	-10.3629
▁ចំណុច	-10.363
▁vast	-10.3631
▁ដោយមាន	-10.3631
បឹង	-10.3631
នោះ។	-10.3632
កម្ពស់	-10.3633
ដើម្បីបង្កើន	-10.3638
▁bit	-10.364
▁TikTok	-10.3642
05	-10.3652
ឃុំ	-10.3653
▁strategies	-10.3654
▁basis	-10.3655
ស្របច្បាប់	-10.3656
ប្រាក់ចំណេញ	-10.366
អាជ្ញាប័ណ្ណ	-10.3664
▁រហូតដល់	-10.3665
ure	-10.3667
▁commitment	-10.3668
▁Each	-10.3668
▁robust	-10.368
រលោង	-10.3683
▁rose	-10.3683
ug	-10.3687
▁ម៉ោងម្តង។	-10.3693
55	-10.3694
▁រូប	-10.3694
▁adhere	-10.3698
▁prepared	-10.3702
ប្រភេទនេះ	-10.3703
▁ខែកុម្ភៈ	-10.3704
▁port	-10.371
ស៊ីឡាំង	-10.3712
▁ចូលរួម	-10.3714
▁Control	-10.3716
▁seek	-10.3718
▁Secretary	-10.3718
▁patients	-10.3718
▁steps	-10.3721
សង្កាត់	-10.3728
▁reduced	-10.3729
រួមបញ្ចូលគ្នា	-10.3731
▁produced	-10.3731
▁ការគ្រប់គ្រង	-10.3732
ដែលពួកគេ	-10.3733
▁ដី	-10.3736
▁អ្នកស្រី	-10.3739
នរណាម្នាក់	-10.374
▁—	-10.3744
ping	-10.3745
ត្រ	-10.3745
ក្រុមគ្រួសារ	-10.3746
វានឹង	-10.3749
▁កាត់	-10.375
ill	-10.3752
ជាមធ្យម	-10.3752
សមរម្យ	-10.3753
ដុល្លារ	-10.3754
▁shoes	-10.3754
▁Suppliers	-10.3756
▁(1)	-10.3756
▁mold	-10.3757
▁generation	-10.376
▁engineering	-10.376
▁comfortable	-10.377
ខូច	-10.3772
ហើយ។	-10.3773
កំណត់អត្តសញ្ញាណ	-10.3774
អស្ចារ្យ	-10.3779
អាវុធ	-10.3782
▁happy	-10.3789
និងមាន	-10.3789
▁តុលាការ	-10.379
ជាច្រើនទៀត	-10.379
▁fear	-10.3791
▁internet	-10.3792
▁signal	-10.3792
▁though	-10.3792
តុបតែង	-10.3793
សាជីវកម្ម	-10.3795
ត្រៀម	-10.3797
▁package	-10.3801
វិនិយោគិន	-10.3801
▁10%	-10.3809
▁បញ្ចូល	-10.3813
▁super	-10.3815
ត្រូវបានគេប្រើ	-10.3817
▁iPad	-10.3821
▁simply	-10.3821
▁quantity	-10.3821
▁thermal	-10.3821
AC	-10.3828
ពិន្ទុ	-10.3831
▁expansion	-10.3834
▁sleep	-10.3834
▁orders	-10.3838
នៅលើទីផ្សារ	-10.3838
ចក្រភពអង់គ្លេស	-10.384
▁perform	-10.3841
ហាក់ដូចជា	-10.3842
96	-10.3845
om	-10.3846
▁museum	-10.3847
១៤	-10.3847
▁កម្រិត	-10.3852
▁ធ្វើឱ្យ	-10.3856
ative	-10.3856
▁win	-10.3858
▁នា	-10.3859
▁Battambang	-10.386
▁automatically	-10.386
កាក់	-10.3861
izing	-10.3865
▁existing	-10.3866
▁historical	-10.3867
mer	-10.3868
យូរ	-10.3869
▁Provincial	-10.3872
គោ	-10.3873
ប្រមូលផ្តុំ	-10.3876
ប៉ា	-10.3878
▁getting	-10.3879
▁resilience	-10.3885
▁baby	-10.3885
▁powerful	-10.3886
▁កឹម	-10.3886
▁closed	-10.3887
scale	-10.3892
▁suffering	-10.3893
▁carry	-10.3894
▁Standard	-10.3895
ព្យួរ	-10.3897
▁សិស្ស	-10.3897
▁orange	-10.3899
▁cities	-10.3899
គ្រោង	-10.39
▁principle	-10.3904
▁Download	-10.3905
ជិះ	-10.3907
▁Social	-10.3908
▁electrical	-10.3912
▁drop	-10.3913
ះ	-10.3914
can	-10.3914
▁rule	-10.3915
▁activists	-10.3923
ធូលី	-10.3927
▁flat	-10.3929
▁procedure	-10.393
▁inspection	-10.3933
ប័ណ្ណ	-10.3935
▁៦០	-10.3936
មានន័យថា	-10.3945
តួនាទី	-10.3949
▁Community	-10.3951
▁authority	-10.3951
▁difference	-10.3954
02	-10.3956
▁loans	-10.3957
▁circuit	-10.3958
ever	-10.3958
▁banking	-10.396
▁Through	-10.3962
▁ករណី	-10.3963
▁ឆ្នាំ២០២២	-10.3964
ities	-10.3967
សាខា	-10.397
▁forms	-10.397
▁loan	-10.3971
និយម	-10.3972
▁ឯកសារ	-10.3977
រំពឹងថានឹង	-10.3981
▁Open	-10.3981
▁exam	-10.3982
គ្រូ	-10.3982
▁supplier	-10.3983
▁Note	-10.3985
▁ដំណើរ	-10.3986
board	-10.3991
▁vehicles	-10.3992
Re	-10.3993
▁obtain	-10.3998
▁800	-10.3998
ជាតិ។	-10.4003
▁class	-10.4003
▁improving	-10.4003
អាស៊ីត	-10.4007
ផ្ទៀងផ្ទាត់	-10.4007
ព្រះអាទិត្យ	-10.4009
▁លក់	-10.4016
អាចទទួលបាន	-10.4018
▁បេក្ខជន	-10.4022
▁regular	-10.4024
ចាប់ផ្ដើម	-10.4028
▁view	-10.4029
មា	-10.403
យន្តការ	-10.4032
79	-10.4034
Cambodia	-10.4036
all	-10.4036
▁accept	-10.4037
ខុសច្បាប់	-10.4038
42	-10.4041
▁complex	-10.4041
ទោះបីជា	-10.4046
tech	-10.405
រីកចម្រើន	-10.4057
កំណើត	-10.4058
ថ្ងៃទី	-10.4063
ើ	-10.4066
មានសុវត្ថិភាព	-10.4069
អូស្ត្រាលី	-10.407
រឿងរ៉ាវ	-10.4071
▁Ra	-10.4073
ផ្ទេរ	-10.4074
។ល។	-10.4075
▁Design	-10.4076
37	-10.4077
▁owner	-10.4077
▁Service	-10.4085
បានបង្កើត	-10.4091
63	-10.4092
▁question	-10.4093
ក្នុងកំឡុងពេល	-10.4097
▁១៧	-10.4101
▁0.1	-10.4105
ប៊ូតុង	-10.4113
▁cast	-10.4113
សេចក្ដី	-10.4114
▁វិនិយោគ	-10.4118
▁notice	-10.412
▁advantage	-10.4125
មុំ	-10.4133
▁Lu	-10.4134
រា	-10.4136
▁ក្រាម	-10.4136
អិល	-10.4138
អ្នកត្រូវ	-10.4138
▁die	-10.4139
▁Con	-10.414
ring	-10.4141
▁អ្នកគ្រប់គ្រង	-10.4147
ប្រកបដោយចីរភាព	-10.415
ការទូទាត់	-10.415
▁TV	-10.4151
អាទិភាព	-10.4154
នៅលើគេហទំព័រ	-10.4155
ដឹងពី	-10.4157
ផ្តោតលើ	-10.4161
▁Mekong	-10.4162
▁2010	-10.4167
83	-10.4169
▁3000	-10.417
ធនធានមនុស្ស	-10.4173
▁សម្ដេចតេជោ	-10.4183
▁photo	-10.4186
គួរឱ្យកត់សម្គាល់	-10.4186
▁Ka	-10.4188
78	-10.4188
ជាមួយគ្នា	-10.4191
សុខាភិបាល	-10.4192
▁នេះជា	-10.4195
ts	-10.4196
មានបញ្ហា	-10.4199
ចំណីអាហារ	-10.42
▁Food	-10.4205
▁Up	-10.4207
RS	-10.4208
▁awareness	-10.4208
បានទទួល	-10.4211
បង់ប្រាក់	-10.4211
គូ	-10.4211
ស្ថានីយ	-10.4212
▁វាមាន	-10.4215
សមស្រប	-10.4216
▁blog	-10.4217
▁electricity	-10.4217
▁Application	-10.4217
▁sky	-10.4217
ចំ	-10.4218
▁dream	-10.422
ស្លឹក	-10.422
កម្សាន្ត	-10.4225
▁ដប	-10.4225
▁BTC	-10.4232
វិទ្យាសាស្រ្ត	-10.4232
31	-10.4233
និងក្រុមហ៊ុនផលិត	-10.4233
▁places	-10.4234
▁saying	-10.4236
៧០	-10.4236
▁diseases	-10.4241
▁Thipadei	-10.4242
▁distribution	-10.4242
ចាប់ខ្លួន	-10.4242
▁បង្កើន	-10.4244
▁ប្រវែង	-10.4245
▁friend	-10.4246
ហេតុផល	-10.4247
▁NO	-10.4248
▁gift	-10.4254
▁រង្ស៊ី	-10.4256
▁industries	-10.4256
▁registry	-10.4256
▁assistance	-10.4256
▁Industrial	-10.4258
▁GPS	-10.4258
AT	-10.4259
▁lack	-10.426
IP	-10.4261
▁finish	-10.4262
ចំណាត់ថ្នាក់	-10.4263
កំរិត	-10.4265
▁Investment	-10.4269
▁reducing	-10.4269
នគរ	-10.4269
ជាច្រើនដែល	-10.4271
ical	-10.4271
▁19,	-10.4273
អក្សរ	-10.4281
▁fundamental	-10.4283
▁trend	-10.4284
▁Da	-10.4286
សភា	-10.4286
▁distance	-10.4292
ស្រា	-10.4294
ច្បាស់	-10.4297
▁drink	-10.43
▁ដែលត្រូវបាន	-10.43
មន្ទីរពិសោធន៍	-10.43
▁Set	-10.4303
▁term	-10.4303
សម្រេចបាន	-10.4303
93	-10.4307
▁ក្នុងអំឡុងពេល	-10.4308
ning	-10.4313
▁ដោយឡែក	-10.4315
ភាពយន្ត	-10.4315
:1	-10.4317
▁តាមរយៈការ	-10.4319
▁Office	-10.432
ការបណ្តុះបណ្តាល	-10.432
▁dispute	-10.4325
▁ក៏បាន	-10.4327
សិក្ខាសាលា	-10.4327
▁គិត	-10.4328
▁quick	-10.4331
▁sense	-10.4332
ឧបសគ្គ	-10.4332
▁ល្បឿន	-10.4335
យុទ្ធសាស្រ្ត	-10.434
▁pure	-10.434
នាំ	-10.4341
▁supports	-10.4343
ផ្	-10.4345
▁generations	-10.4347
ដោយផ្អែកលើ	-10.435
with	-10.4351
▁Motor	-10.4351
កាកសំណល់	-10.4352
▁Australia	-10.4354
បូម	-10.4357
▁បំផុត	-10.436
ors	-10.436
▁expressed	-10.436
សង្គ្រោះ	-10.4361
ជនជាតិ	-10.4363
▁interface	-10.4364
ញុម	-10.4364
▁playing	-10.4366
បានក្លាយជា	-10.4367
ព្រះរាជាណាចក្រ	-10.4368
▁(2)	-10.437
77	-10.4371
▁Han	-10.4372
▁window	-10.4377
កាលពី	-10.4381
ner	-10.4381
09	-10.4381
▁improved	-10.4384
▁អតិថិជន	-10.4384
▁letter	-10.4389
▁cm	-10.4391
▁administration	-10.4391
▁Glass	-10.4392
ងងឹត	-10.4392
▁សកម្មភាព	-10.4393
▁workshop	-10.4394
ប្រឡង	-10.4395
lin	-10.4398
▁ទើប	-10.4399
រូបនេះ	-10.44
ស្រស់ស្អាត	-10.4401
ជំនាន់	-10.4404
ST	-10.4409
03	-10.441
▁cell	-10.4411
▁bus	-10.4414
▁worry	-10.4418
▁included	-10.4428
▁ទំងន់	-10.4429
op	-10.443
មានប្រយោជន៍	-10.4431
ជំនឿ	-10.4434
▁en	-10.4436
94	-10.4439
sa	-10.4444
ស្របតាម	-10.4445
កុំ	-10.4445
▁claim	-10.445
ដឹក	-10.4453
កើត	-10.4456
tro	-10.4456
lu	-10.4458
នៅទូទាំង	-10.4458
AI	-10.4459
▁seven	-10.4459
▁integrity	-10.446
▁French	-10.446
ard	-10.4472
▁advertising	-10.4473
▁resolution	-10.4474
▁running	-10.4474
GB	-10.4475
▁Key	-10.4476
ធ	-10.4476
▁វិស័យ	-10.4484
▁themselves	-10.4487
▁Even	-10.4487
▁sand	-10.4488
▁funds	-10.4489
ally	-10.449
កងទ័ព	-10.4491
▁paid	-10.4493
ចំហៀង	-10.4496
▁3)	-10.4499
ការកើនឡើងនៃ	-10.45
▁applied	-10.4501
«	-10.4504
▁Are	-10.4507
▁RF	-10.4512
តាំងពី	-10.4513
ៅ	-10.4515
ផ្លូវចិត្ត	-10.4515
បាត់	-10.4515
តំណភ្ជាប់	-10.4523
▁spread	-10.4523
▁ស។	-10.4524
ឯកឧត្តម	-10.4525
▁organization	-10.4526
▁កាលពី	-10.4528
▁wisdom	-10.4529
▁fuel	-10.4532
ខួរក្បាល	-10.4537
▁ស៊ី	-10.4542
va	-10.4543
អុបទិក	-10.4544
ប្រើប្រាស់បានយូរ	-10.4545
▁ring	-10.4547
▁break	-10.4547
▁កង់	-10.4548
▁Working	-10.4549
ភ្ញៀវ	-10.4552
ពួក	-10.4556
ចាក់វ៉ាក់សាំង	-10.4556
ចំណូល	-10.4559
▁channel	-10.4562
▁ហ	-10.4564
ផ្ទះបាយ	-10.4566
▁asked	-10.4571
លិខិត	-10.4571
▁ឥឡូវ	-10.4575
▁15,	-10.4578
ទូរស័ព្ទដៃ	-10.4579
▁broken	-10.458
▁ពិនិត្យ	-10.4582
▁resource	-10.4583
▁Kim	-10.4586
▁indicator	-10.4587
▁note	-10.4587
ដែលមិនមាន	-10.4591
លុប	-10.4593
អតីត	-10.4594
China	-10.4596
▁Rainsy	-10.4598
[	-10.4599
ឃ្លាំង	-10.4599
▁RB	-10.46
▁justice	-10.46
▁organizations	-10.46
▁transparent	-10.4602
▁promotion	-10.4606
▁ក្រៅពី	-10.4609
សំបុត្រ	-10.4612
▁White	-10.4616
ព្រះមហាក្សត្រ	-10.4619
តន្ត្រី	-10.4621
▁Binance	-10.4626
▁nothing	-10.4626
បញ្ឈរ	-10.4627
នៅឯ	-10.4629
▁ជាទូទៅ	-10.463
ron	-10.463
▁Project	-10.4638
ធ្វើតេស្ត	-10.4638
▁female	-10.4639
ហិរញ្ញប្បទាន	-10.464
▁2012	-10.4642
ស៊ុម	-10.4644
▁ក្នុងរយៈពេល	-10.4647
▁setting	-10.4648
ស្ថានីយ៍	-10.4649
ឃ	-10.4649
ក្មេងស្រី	-10.4649
▁confidence	-10.465
▁22,	-10.465
▁1:	-10.4651
▁certainly	-10.4651
▁Authorities	-10.4654
▁mechanical	-10.4655
ice	-10.4656
▁reflect	-10.4657
▁ប្រអប់	-10.4659
ca	-10.4662
លួច	-10.4665
៍	-10.4667
▁rural	-10.4668
MC	-10.467
▁educational	-10.4674
▁banks	-10.4679
ការចូលរួម	-10.468
ID	-10.468
▁Item	-10.468
លោហៈ	-10.4685
▁ផ្សេង	-10.4686
បានល្អ	-10.4687
ខិតខំ	-10.4688
កៅអី	-10.4696
▁safeguard	-10.4696
▁successfully	-10.4701
ណ៍	-10.4703
▁belt	-10.4706
ិត	-10.4707
▁engine	-10.4717
សេចក្តី	-10.4723
▁expensive	-10.4724
ពេក	-10.4726
ក្ដី	-10.4728
ខ្ពស់បំផុត	-10.4729
▁supported	-10.4731
សម្រេចចិត្ត	-10.4731
ទឹកស្អាត	-10.4733
ដ៏ស្រស់ស្អាត	-10.4734
ការបោះឆ្នោត	-10.4735
មានអារម្មណ៍ថា	-10.4738
▁judgment	-10.4738
ដំបូល	-10.4739
▁និងហិរញ្ញវត្ថុ	-10.4739
▁employees	-10.474
▁bi	-10.4742
▁កញ្ចក់	-10.4745
ផ្លែឈើ	-10.4745
ការបោះពុម្ព	-10.4746
ho	-10.4747
▁អ៊ី	-10.4748
▁យ	-10.475
ក្តារ	-10.4752
ចម្លង	-10.4754
សៀគ្វី	-10.4754
▁degrees	-10.4758
▁direction	-10.4763
ទេប៉ុន្តែ	-10.4763
▁causing	-10.4767
▁Mon	-10.4767
fer	-10.4771
គឺថា	-10.4775
▁leader	-10.4777
▁fiscal	-10.4781
▁relations	-10.4785
▁fall	-10.4792
បំផ្លាញ	-10.4794
▁David	-10.4795
ខាងក្រោយ	-10.4797
▁demands	-10.4798
សម្លេង	-10.48
▁អត្ថបទ	-10.4804
que	-10.4805
រិះគន់	-10.4807
ភាគី	-10.4808
▁CAS	-10.4809
▁ក្នុងចំណោម	-10.4811
▁7,	-10.4811
▁អ្នកគួរតែ	-10.4812
▁5,	-10.4815
▁identify	-10.4818
▁productivity	-10.4824
▁Interior	-10.4824
លេខកូដ	-10.4836
ms	-10.4843
មិនត្រូវ	-10.4846
▁Bag	-10.4847
▁teaching	-10.4848
ខេត្តព្រះសីហនុ	-10.4849
ធានារ៉ាប់រង	-10.485
▁យើងបាន	-10.4851
គណបក្ស	-10.4852
oo	-10.4853
កីឡាករ	-10.4853
អំពីការ	-10.4856
▁Man	-10.4856
ច្នៃប្រឌិត	-10.4859
បត់	-10.486
▁join	-10.486
▁បិទ	-10.486
តោន	-10.4861
-6	-10.487
▁Min	-10.4872
ខេ	-10.4873
▁2023.	-10.4875
តភ្ជាប់	-10.4879
level	-10.488
▁hospital	-10.488
▁register	-10.4881
បទ	-10.4882
អាវ	-10.4887
▁Commerce	-10.4892
បេក្ខជន	-10.4893
បណ្ឌិត	-10.4895
ស្រមោល	-10.4895
ទ្វេភាគី	-10.4896
▁committee	-10.4896
▁successful	-10.4898
▁floor	-10.4898
▁ជាធម្មតា	-10.4901
▁welcome	-10.4901
នារី	-10.4902
សាច់ដុំ	-10.4904
មធ្យោបាយ	-10.4912
▁Today	-10.4914
▁guarantee	-10.4917
▁host	-10.4917
▁ព្រះរាជក្រឹត្យ	-10.4918
ធុរកិច្ច	-10.4919
▁Metal	-10.4919
នៅជិត	-10.4923
▁beyond	-10.4924
បូ	-10.4925
▁Trade	-10.4925
▁rain	-10.4926
នៅក្នុងទីផ្សារ	-10.4927
ម៉ាស៊ីនបោះពុម្ព	-10.4927
ប្រាំ	-10.4928
▁lamp	-10.4929
CA	-10.493
▁container	-10.493
ការភ្នាល់	-10.4936
ដែលមានគុណភាព	-10.494
ham	-10.4941
កិច្ចសន្យា	-10.4941
រង្វាន់	-10.4942
▁កញ្ចប់	-10.4943
▁លក្ខណៈ	-10.4944
ភេសជ្ជៈ	-10.4945
បានធ្វើ	-10.4945
▁frequency	-10.4948
នៅក្នុងអត្ថបទនេះ	-10.4948
មហាវិទ្យាល័យ	-10.4952
ពីព្រោះ	-10.4953
▁cap	-10.4954
▁Valve	-10.4955
ព័ត៌មានលម្អិត	-10.4955
អ៊ុយក្រែន	-10.4955
ផលិតផលកសិកម្ម	-10.4957
▁apps	-10.4958
▁launch	-10.4958
▁El	-10.496
▁late	-10.4962
set	-10.4963
▁coffee	-10.4967
▁either	-10.4968
▁interesting	-10.4968
ពពក	-10.4969
▁trees	-10.4969
built	-10.4973
▁rapid	-10.4976
▁update	-10.4977
កិន	-10.4979
▁ex	-10.498
▁Microsoft	-10.4982
ឡ	-10.4983
▁Me	-10.4989
▁ទេ។	-10.4991
តួ	-10.4993
ថាជា	-10.4994
DA	-10.4995
▁models	-10.4999
កិច្ចសហ	-10.5001
▁license	-10.5003
បេសកកម្ម	-10.5005
DP	-10.5008
▁equipped	-10.5011
bit	-10.5015
▁quite	-10.5016
▁២០០	-10.5018
ជាប្រចាំ	-10.5019
តម្រូវឱ្យ	-10.5021
▁Hong	-10.5024
ស្ថាបត្យកម្ម	-10.5025
▁authorized	-10.5029
lan	-10.5032
បន្ទាប់ពីការ	-10.5034
ំ	-10.5036
វ៉ាក់សាំង	-10.5037
▁Green	-10.504
▁Defense	-10.504
▁although	-10.504
▁កិច្ច	-10.504
ទទួលខុសត្រូវ	-10.504
▁Fabric	-10.5044
យល់	-10.5044
ទូលំទូលាយ	-10.505
▁lighting	-10.5054
មានសមត្ថភាព	-10.5055
កិច្ចប្រជុំកំពូល	-10.5055
CH	-10.5055
▁About	-10.5055
វិស័យកសិកម្ម	-10.5056
ear	-10.5058
▁royal	-10.5058
▁Ball	-10.5059
▁14,	-10.5059
▁got	-10.5063
▁investments	-10.5064
▁យើងអាច	-10.5068
▁grade	-10.5072
ប្រធាន	-10.5075
▁begin	-10.5076
▁ពាក្យ	-10.5079
▁សង់ទីម៉ែត្រ	-10.508
47	-10.5081
▁central	-10.5082
▁agriculture	-10.5084
▁idea	-10.5084
▁Di	-10.5085
▁facilitate	-10.5085
-30	-10.5086
▁ឆ្នាំ។	-10.5095
▁លី	-10.5095
▁ultrasonic	-10.5098
▁healthy	-10.51
▁selling	-10.5107
▁75	-10.511
ឆានែល	-10.5113
tu	-10.5117
ដល់អ្នក	-10.5118
ence	-10.5127
▁គ្រឿង	-10.5128
▁Step	-10.513
▁assembly	-10.5133
នៅក្នុងប្រទេសចិន	-10.5133
▁track	-10.5136
▁ស្រី	-10.5139
ធានានូវ	-10.514
តំណ	-10.5141
▁ចូរ	-10.5142
សន្និសីទ	-10.5142
រាប់	-10.5146
▁Polyester	-10.5154
For	-10.5154
▁rather	-10.5157
▁repair	-10.5157
នៅពេលអ្នក	-10.5158
បំភ្លឺ	-10.5164
ជ្រុង	-10.5166
▁លើសពីនេះទៀត	-10.517
ខ្	-10.5172
▁Meanchey	-10.5172
▁warranty	-10.5175
▁រៀបចំ	-10.518
▁បញ្ចប់	-10.5182
▁registered	-10.5184
១៨	-10.5185
កាំរស្មី	-10.5186
wordpress	-10.5187
ការវេចខ្ចប់	-10.5187
▁ថ្នាក់	-10.5188
▁កើត	-10.5196
ស្តើង	-10.5201
▁2:	-10.5202
▁ឈុត	-10.5202
ភេទដូចគ្នា	-10.5205
▁appear	-10.5207
ជ្រៅ	-10.5209
សម្របសម្រួល	-10.521
2.5	-10.5216
so	-10.5216
▁crisis	-10.5216
▁beginning	-10.5216
វិញ្ញាបនប័ត្រ	-10.5217
ខ្សាច់	-10.5222
AM	-10.5224
▁Electric	-10.5224
ម៉ូ	-10.5224
ការឈឺចាប់	-10.5225
ផ្សេងៗ។	-10.5225
ip	-10.5228
គ្រីបតូ	-10.5229
វីតាមីន	-10.5231
▁Reply	-10.5232
CC	-10.5232
▁Germany	-10.5233
▁hectares	-10.5234
off	-10.5234
កំណត់ត្រា	-10.5236
ផ្ទាំង	-10.5236
ជួញដូរ	-10.5237
▁involved	-10.5238
OR	-10.5241
ដូ	-10.5245
▁became	-10.5246
▁guidelines	-10.5246
មាន់	-10.5248
ចំណី	-10.525
▁ត្រូវប្រាកដថា	-10.5252
វិញ្ញាបនបត្រ	-10.5257
ក្រសួងសេដ្ឋកិច្ច	-10.5258
ការផ្សព្វផ្សាយ	-10.5259
អាចនឹង	-10.5261
▁comply	-10.5261
ator	-10.5262
▁connected	-10.5262
ខ្ញុំចូលចិត្ត	-10.5264
ទទេ	-10.5265
▁ខ្ញុំបាន	-10.5268
▁warm	-10.527
ហ្គា	-10.5272
▁firm	-10.5275
▁រដ្ឋ	-10.5278
នឹងក្លាយជា	-10.528
ER	-10.5284
▁teams	-10.5286
▁Su	-10.5287
សាន	-10.5287
▁confirm	-10.5288
▁PDF	-10.529
84	-10.5293
រាត្រី	-10.53
▁didn	-10.5302
comments	-10.5303
អះអាងថា	-10.5304
▁cool	-10.5305
ការថែទាំ	-10.5307
▁Additionally	-10.5307
▁however	-10.5308
▁ពីរ	-10.5308
ភេទ	-10.531
ត្បាញ	-10.531
ចា	-10.5311
▁continuously	-10.5312
▁phase	-10.5314
១៣	-10.5316
ខុសត្រូវចំពោះការ	-10.5317
ការធានា	-10.5329
ក្រចក	-10.5331
មួក	-10.5331
ig	-10.5332
សីតុណ្ហភាពខ្ពស់	-10.5335
▁passport	-10.5336
ពិព័រណ៍	-10.5336
1.5	-10.5338
ដាំដុះ	-10.5341
ភាពត្រឹមត្រូវ	-10.5341
▁player	-10.5344
▁Take	-10.5349
▁hydraulic	-10.535
▁emergency	-10.535
▁Plan	-10.5353
ផ្សេងៗទៀត	-10.5356
ភស្តុតាង	-10.5357
▁Lin	-10.5359
លំដាប់	-10.5359
▁durable	-10.5365
44	-10.5366
▁38	-10.5368
ចូលក្នុង	-10.5369
ផែនដី	-10.537
▁profile	-10.5373
វគ្គ	-10.5373
ពួកគាត់	-10.5374
▁prosperity	-10.5381
ការបាត់បង់	-10.5381
▁2.5	-10.5383
▁28,	-10.5383
▁bearing	-10.5387
▁gives	-10.5388
វិស្វកម្ម	-10.539
ចេះ	-10.5391
ភ្ញាក់ផ្អើល	-10.5393
▁ញុមមាន	-10.5395
▁ទាក់ទង	-10.5397
មានតែ	-10.5398
ល្អបំផុតសម្រាប់	-10.5398
ការពង្រីក	-10.54
▁message	-10.5401
PE	-10.5404
▁heating	-10.5405
ob	-10.5408
▁Display	-10.5408
58	-10.541
នាទី	-10.541
អ្វីខ្លះ	-10.5412
▁anything	-10.5413
▁អ្វីដែល	-10.5415
ឡេ	-10.5419
គ្រឿងញៀន	-10.5421
▁affected	-10.5421
កាលបរិច្ឆេទ	-10.5422
អ្នកដទៃ	-10.5424
អំបិល	-10.5426
▁mirror	-10.5426
ភ្នំពេញ	-10.5429
41	-10.5432
កូដ	-10.5436
បន្ទះឈីប	-10.5437
▁Voltage	-10.5439
▁receiving	-10.5441
ក្មេង	-10.5441
ឥតខ្សែ	-10.5442
▁អេក្រង់	-10.5443
120	-10.5448
▁ID	-10.5449
▁respect	-10.5449
សំណាញ់	-10.545
ការច្នៃប្រឌិត	-10.5453
▁interested	-10.5453
ផ្លាស់ទី	-10.5454
43	-10.5455
កម្ចី	-10.5455
▁Wholesale	-10.5456
▁participation	-10.5456
ពានរង្វាន់	-10.5457
▁ដើម្បីរក្សា	-10.5457
▁បទប្បញ្ញត្តិ	-10.5457
សាសនា	-10.5459
▁printer	-10.5468
▁2011	-10.5468
នោះគឺ	-10.5468
ភាពជាដៃគូ	-10.5469
ទី១	-10.5472
▁machinery	-10.5478
ត្រៀមខ្លួន	-10.548
វាបាន	-10.5481
សហព័ន្ធ	-10.5483
▁meals	-10.5486
អាកប្បកិរិយា	-10.5487
▁photos	-10.5487
▁Short	-10.5488
▁teeth	-10.549
ដោយមិនចាំបាច់	-10.5492
▁តំណាង	-10.5493
ខ្លឹមសារ	-10.5495
ចម្ងាយ	-10.5495
ស្នើ	-10.5495
▁greatly	-10.5498
បក្ស	-10.5498
▁coming	-10.55
2000	-10.5501
▁waterproof	-10.5503
▁exercise	-10.5508
អាថ៌កំបាំង	-10.5514
យីហោ	-10.5516
▁$1	-10.5518
លាក់	-10.5521
កាន់កាប់	-10.5521
រួចរាល់	-10.5521
▁Wall	-10.5523
ទប់ស្កាត់	-10.5528
ជំរុញឱ្យ	-10.553
ay	-10.5533
ចង្កៀង	-10.5533
▁images	-10.5536
▁doctor	-10.554
ប្តេជ្ញាចិត្ត	-10.554
port	-10.5542
▁បុរស	-10.5545
គ្រឹះ	-10.5546
▁Tourism	-10.5547
លំនាំ	-10.5547
វេជ្ជសាស្រ្ត	-10.5548
▁wheel	-10.5552
បរិភោគ	-10.5553
▁ប្រ	-10.5554
ចំណាយពេល	-10.5556
▁ប្រសិន	-10.5556
អ៊ីសូឡង់	-10.5558
▁pandemic	-10.556
តួលេខ	-10.5566
ឆ្លើយតបទៅនឹង	-10.5567
▁print	-10.5567
bet	-10.5569
▁piece	-10.557
▁bo	-10.557
▁lines	-10.557
ស្ដីពី	-10.557
▁meaning	-10.557
អាចមាន	-10.5574
▁Shenzhen	-10.5579
ការពារបរិស្ថាន	-10.5579
រដ្ឋសភា	-10.558
សូត្រ	-10.558
ការធ្លាក់ចុះ	-10.5582
ឥណ្ឌា	-10.5582
▁Na	-10.5582
ចក្ខុវិស័យ	-10.5582
▁ភាសា	-10.5583
▁ABS	-10.5583
▁lotion	-10.5586
អ័ក្ស	-10.5586
▁CEO	-10.5586
ក្រុមហ៊ុនរបស់យើង	-10.5588
87	-10.559
▁mask	-10.5592
▁thinking	-10.5592
▁thanks	-10.5594
▁cycle	-10.5595
tra	-10.5596
▁establishment	-10.5597
▁អាហារ	-10.5597
▁placed	-10.5601
▁couple	-10.5602
▁សាលា	-10.5606
រស់	-10.561
▁Ben	-10.5611
▁សំឡេង	-10.5611
មិនចាំបាច់	-10.5613
▁cooling	-10.5614
▁ស្ត្រី	-10.5616
បានឃើញ	-10.5618
▁answer	-10.562
MT	-10.5621
▁$2	-10.5621
▁submit	-10.5624
▁បំពេញ	-10.5626
▁Special	-10.5632
▁feed	-10.5632
▁ការវេចខ្ចប់	-10.5635
បើកចំហ	-10.5637
▁ឡ	-10.5639
រដូវ	-10.5643
▁North	-10.5644
▁សីតុណ្ហភាព	-10.5645
ទីពីរ	-10.5645
▁ពោលគឺ	-10.5646
▁audience	-10.5648
ស្រូបយក	-10.5648
ព្រៃឈើ	-10.5651
▁Energy	-10.5651
ចាប់យក	-10.5652
EN	-10.5653
▁fan	-10.5654
ស្ថិតនៅ	-10.5656
តុល្យភាព	-10.5657
▁Other	-10.5657
▁secure	-10.5658
▁Men	-10.566
▁Posted	-10.566
ជាការ	-10.5661
▁Temperature	-10.5661
▁brother	-10.5663
▁polymer	-10.5664
បំពេញតម្រូវការ	-10.5667
▁Norodom	-10.5671
AP	-10.5674
▁selection	-10.5675
▁samples	-10.5676
being	-10.5681
ថ្នាំលាប	-10.5686
▁រថយន្ត	-10.5687
49	-10.5689
%)	-10.5691
ult	-10.5695
▁ទីផ្សារ	-10.5695
▁format	-10.5704
▁ឆ្លើយតប	-10.5707
របស់ព្រះអង្គ	-10.571
▁ប្រាប់	-10.5713
ការប្តេជ្ញាចិត្ត	-10.5714
92	-10.5715
▁minimum	-10.5718
▁Research	-10.5718
▁angle	-10.572
vi	-10.572
▁មិនមែន	-10.572
56	-10.5721
លាប	-10.5721
▁replace	-10.5725
DS	-10.5725
មេដឹកនាំ	-10.5725
ពីមុន	-10.5725
អាស៊ី	-10.5727
▁សហគមន៍	-10.573
46	-10.5732
▁mutual	-10.5733
គ្រីប	-10.5734
▁gave	-10.5734
ze	-10.5734
▁Se	-10.5735
▁met	-10.5736
ឆ្នេរ	-10.5738
បានធ្លាក់ចុះ	-10.5744
ផលប្រយោជន៍	-10.5745
▁Mini	-10.5747
ពេជ្រ	-10.5748
ទេសភាព	-10.5759
ជក់	-10.5762
▁mesh	-10.5764
ឈឺ	-10.5765
គ្រោះមហន្តរាយ	-10.5765
ត្រឹម	-10.5765
▁17,	-10.5767
▁abroad	-10.5769
ុន	-10.5771
មានស្ថេរភាព	-10.5772
▁ជំរុញ	-10.5773
inch	-10.5773
ចូលរួមក្នុង	-10.5774
34	-10.5778
▁ideas	-10.5779
លើផ្ទៃ	-10.5781
អាសយដ្ឋាន	-10.5782
▁golden	-10.5783
ប្ដូរតាមបំណង	-10.5785
▁Real	-10.5788
▁offered	-10.5791
▁write	-10.5792
▁Ma	-10.5795
▁story	-10.5798
ទឹកកក	-10.5801
▁regularly	-10.5802
ដែលមានស្រាប់	-10.5802
▁ប្រជាជន	-10.5808
គ្រីស្តាល់	-10.5811
▁wife	-10.5812
▁resolve	-10.5812
វ័យក្មេង	-10.5815
តេស្ត	-10.5819
កំពង់ផែ	-10.5825
▁reasons	-10.5827
▁seal	-10.5834
▁hourly	-10.5835
វាមាន	-10.5835
▁earn	-10.5835
900	-10.5835
▁sa	-10.5839
មានភាពងាយស្រួល	-10.584
SP	-10.5842
▁brown	-10.5843
▁easier	-10.5843
ស្ពាន់	-10.5844
▁galvanized	-10.5845
បានមានប្រសាសន៍ថា	-10.5848
ពេញនិយម	-10.5848
សំណង	-10.5849
យោងទៅតាម	-10.5849
1000	-10.585
▁ក្រុមប្រឹក្សា	-10.5851
▁practices	-10.5853
▁movement	-10.5854
ផ្កាយ	-10.5854
97	-10.5856
▁Cutting	-10.5859
▁វិមាត្រ	-10.5861
▁២០២៣	-10.5864
ព្រះអង្គ	-10.5864
ise	-10.5865
▁science	-10.5865
▁Mar	-10.5868
▁II	-10.587
▁sons	-10.587
▁saving	-10.5871
85	-10.5873
▁thousands	-10.5874
▁cialis	-10.5875
▁empty	-10.5875
▁En	-10.5876
▁talk	-10.5876
កាសែត	-10.5876
▁អូ	-10.5879
▁mountain	-10.588
▁width	-10.5881
▁Get	-10.5882
▁regulation	-10.5885
ទម្លាប់	-10.589
ase	-10.5893
▁divided	-10.5893
បានរកឃើញ	-10.5893
ប្រគល់	-10.5895
▁dis	-10.5896
អាចជា	-10.5898
▁រយៈ	-10.59
▁Cambodians	-10.5903
យើងបាន	-10.5905
▁Any	-10.5906
MS	-10.5906
▁flexible	-10.5907
▁verify	-10.5907
់	-10.5909
▁Bearing	-10.591
▁betting	-10.591
▁France	-10.5911
តវ៉ា	-10.5912
ding	-10.5913
▁upper	-10.5913
ហូរ	-10.592
▁chicken	-10.5922
▁Information	-10.5923
▁condition	-10.5927
វាត្រូវបាន	-10.5933
▁Science	-10.5933
▁transparency	-10.5936
ទស្សនិកជន	-10.5937
អ៊ីស្រាអែល	-10.5938
▁Nations	-10.5938
▁កាស៊ីណូ	-10.594
▁arrest	-10.5941
▁លោកជំទាវ	-10.5943
▁Environment	-10.5944
▁20%	-10.5947
▁eating	-10.5947
ការចាប់ផ្តើម	-10.5948
▁wine	-10.5949
▁ក្រុមការងារ	-10.5951
▁API	-10.5953
▁Singapore	-10.5954
▁profit	-10.5954
▁សំណួរ	-10.5957
នាយកដ្ឋាន	-10.5957
▁ម៉ោង។	-10.5958
ច្រើនបំផុត	-10.5962
ប្រកាន់ខ្ជាប់នូវ	-10.5968
▁PET	-10.5969
▁likely	-10.5969
លួស	-10.597
▁factories	-10.5971
sk	-10.5974
▁អគារ	-10.5974
89	-10.5974
74	-10.5978
▁sold	-10.5978
▁ice	-10.5979
gu	-10.5981
បើកបរ	-10.5986
meter	-10.5993
អាចទុកចិត្តបាន	-10.5993
ឆ្ពោះទៅរក	-10.5999
ឆ្ងាញ់	-10.5999
▁books	-10.6
ទំនុកចិត្ត	-10.6
វិទ្យាស្ថាន	-10.6
▁prevention	-10.6008
▁ទទឹង	-10.6008
ចោទ	-10.601
ពិធីបុណ្យ	-10.6011
ki	-10.6013
▁សម្តេចធិបតី	-10.6017
ក្	-10.6017
81	-10.6018
▁collaborate	-10.6018
tion	-10.6022
របាំង	-10.6024
▁ភី	-10.603
▁logo	-10.603
ទ្រង់ទ្រាយ	-10.6031
▁មុខងារ	-10.6033
▁harvest	-10.6034
▁East	-10.6039
▁drug	-10.6049
▁expect	-10.605
▁yesterday	-10.6051
▁shipping	-10.6051
▁2.0	-10.6056
បង្ក	-10.6059
អ្នកទិញ	-10.6059
▁bridge	-10.606
▁Program	-10.606
▁label	-10.6062
ការលើកកម្ពស់	-10.6063
▁1500	-10.6064
back	-10.6069
អ៊ីម៉ែល	-10.6073
▁chip	-10.6074
ដោយការ	-10.6074
▁ការសិក្សា	-10.6077
បណ្តាញសង្គម	-10.6081
ible	-10.6083
ក្នុងពេល	-10.6083
oz	-10.6083
ការវិភាគ	-10.6087
▁overall	-10.6088
វគ្គសិក្សា	-10.6089
▁Am	-10.609
▁indoor	-10.6093
អត្រាការប្រាក់	-10.6096
51	-10.6099
ភ្លៀង	-10.61
71	-10.6101
ខ្វះ	-10.6102
▁សុ	-10.6103
let	-10.6103
របស់យើងគឺ	-10.6106
ita	-10.6107
res	-10.6107
គ្រប់រូប	-10.6109
▁ការត្រួតពិនិត្យ	-10.6109
ចងចាំ	-10.611
សុខភាពផ្លូវចិត្ត	-10.6113
ត្រូវបានកំណត់	-10.6115
hi	-10.6115
▁stipulated	-10.6117
long	-10.612
▁26,	-10.6122
▁Russian	-10.6123
▁vegetables	-10.6123
មនុស្សគ្រប់គ្នា	-10.6124
ara	-10.6128
▁requirement	-10.6129
ដែលទទួលបាន	-10.6131
សន្ទះបិទបើក	-10.6131
ការសម្តែង	-10.6132
▁Ha	-10.6135
FC	-10.6136
59	-10.6136
▁spring	-10.6137
គណៈកម្មការ	-10.6138
សន្សំ	-10.6138
▁Ro	-10.6138
ជំងឺរាតត្បាត	-10.6139
▁candidates	-10.6144
month	-10.6145
cent	-10.6147
▁brought	-10.6148
▁AM	-10.6155
▁inflation	-10.6157
នៃប្រព័ន្ធ	-10.6157
សមាមាត្រ	-10.6157
សូ	-10.6157
របារ	-10.6157
▁accurate	-10.6159
៨០	-10.6162
▁comments	-10.6163
សំលៀកបំពាក់	-10.6164
សហភាពអឺរ៉ុប	-10.6164
▁Wat	-10.6166
ដែលអ្នកអាច	-10.6168
▁Sea	-10.6169
▁operate	-10.617
▁connect	-10.617
▁លទ្ធផល	-10.6173
ដុំ	-10.6176
រំកិល	-10.6179
▁ធាតុ	-10.618
▁carried	-10.618
អនុម័ត	-10.6184
ហៅថា	-10.6185
ម្	-10.6186
▁សិស្សានុសិស្ស	-10.6187
លូ	-10.6188
កាយ	-10.6188
ការបង្កើន	-10.6189
▁33	-10.6191
រអិល	-10.6192
សំលេង	-10.6194
▁កាលពីថ្ងៃទី	-10.6195
▁useful	-10.6195
វិទ្យុ	-10.6195
are	-10.6196
▁sizes	-10.6196
▁heritage	-10.6197
▁paint	-10.6199
អិន	-10.6201
បណ្តាប្រទេស	-10.6203
ចំពោះការ	-10.6204
▁Chan	-10.6205
▁reports	-10.6205
▁ឧស្សាហកម្ម	-10.621
▁medicine	-10.6213
▁sister	-10.6214
MP	-10.6216
អ្វីៗ	-10.622
▁fixed	-10.6221
ផ្ទុះ	-10.6226
▁Thai	-10.6226
▁permitted	-10.623
82	-10.6231
▁serves	-10.6231
ING	-10.6234
អន្តរជាតិ។	-10.6235
▁ផល	-10.6238
▁correct	-10.6243
▁charging	-10.6244
▁hosting	-10.6252
▁អត្រា	-10.6253
ស្មុគស្មាញ	-10.6253
នាថ	-10.6255
▁depending	-10.6256
បានទេ។	-10.6259
▁foundation	-10.626
ក្លឹប	-10.6262
▁library	-10.6262
▁110	-10.6263
ger	-10.6266
▁Vietnamese	-10.6272
▁input	-10.6272
:6	-10.6273
ware	-10.6273
▁constant	-10.6273
ជាចម្បង	-10.6274
▁Paul	-10.6275
▁expert	-10.6276
ឆ្អឹង	-10.6276
ម៉ូលេគុល	-10.6278
បាក់តេរី	-10.6279
▁ការផ្លាស់ប្តូរ	-10.6279
▁experiences	-10.628
TO	-10.6283
អាងចិញ្ចឹមត្រី	-10.6286
▁បន្ទប់	-10.6287
su	-10.629
USD	-10.6292
▁Single	-10.6293
▁8,	-10.6295
ដីធ្លី	-10.6296
▁competitive	-10.6297
មនុស្សពេញវ័យ	-10.6299
មានឱកាស	-10.63
▁du	-10.63
▁selected	-10.6301
ល្បឿនលឿន	-10.6305
▁Card	-10.6306
▁elements	-10.6307
▁dollars	-10.6311
▁leaving	-10.6312
▁reduction	-10.6312
ត្រឹមត្រូវ។	-10.6314
តម្លាភាព	-10.6316
ផ្អែកលើ	-10.6318
▁influence	-10.6322
ដើមឈើ	-10.6324
ជាសកល	-10.6325
លើកទី	-10.6325
ES	-10.6326
bi	-10.6327
គាត់បាន	-10.633
▁maintaining	-10.633
▁recommended	-10.6331
ទម្លាក់	-10.6333
▁Students	-10.6335
▁evaluate	-10.6337
ម៉ូដ	-10.634
▁Ukraine	-10.6341
អ្វីមួយ	-10.6341
▁Bat	-10.6341
អ្វីដែលអ្នក	-10.6342
ប្រសិទ្ធភាពខ្ពស់	-10.6343
SA	-10.6345
▁mean	-10.6346
▁Panel	-10.6347
អង្គរ	-10.6347
មួយនៃ	-10.6352
2)	-10.6352
លាង	-10.6353
▁ទោះ	-10.6355
▁published	-10.6356
ពាក់ព័ន្ធនឹង	-10.6356
side	-10.6356
▁assist	-10.6357
▁Brand	-10.6363
ភាពធន់	-10.6365
73	-10.6369
▁Cini	-10.637
ប្រាសាទ	-10.6373
▁20,	-10.6373
▁2009	-10.6375
ផ្សេង	-10.6375
▁soul	-10.6375
▁enterprise	-10.6376
ions	-10.6376
▁Deposit	-10.638
▁instead	-10.6384
ហ្វេសប៊ុក	-10.6389
PI	-10.6393
ud	-10.6395
▁roads	-10.6398
លែង	-10.6398
ley	-10.64
ច្រើន។	-10.6401
▁kids	-10.641
▁Report	-10.641
▁alcohol	-10.6412
ការដាក់ប្រាក់	-10.6412
▁ស្តង់ដារ	-10.6418
5.1	-10.6419
▁protected	-10.6422
វិ	-10.6423
កន្លងទៅនេះ	-10.6424
ទទួលបានជោគជ័យ	-10.6424
eth	-10.6424
ការឆ្លើយតប	-10.6424
▁Review	-10.643
▁dance	-10.6432
▁journey	-10.6433
មនុស្សម្នាក់	-10.6435
▁9:	-10.6436
▁Yes	-10.6438
រឿងនេះ	-10.6438
▁tips	-10.6438
ទទឹង	-10.6439
:18	-10.6439
ទឹកដី	-10.644
▁Governor	-10.6445
ផលប៉ះពាល់នៃ	-10.6447
▁ព្រោះវា	-10.6447
▁turned	-10.6448
▁ហើយបន្ទាប់មក	-10.6455
យ៉ាងច្រើន	-10.6456
១៧	-10.6456
▁SD	-10.6457
វេន	-10.6458
ល្អសម្រាប់	-10.6459
▁finished	-10.646
▁Stainless	-10.6462
▁accessories	-10.6462
មហា	-10.6464
▁screw	-10.6467
▁participate	-10.647
ran	-10.6471
ក្រៅពី	-10.6473
បំពាក់	-10.6474
អាចរកបាន	-10.6474
▁appropriate	-10.6477
កាហ្វេ	-10.6478
To	-10.6478
DC	-10.6478
វត្ថុធាតុ	-10.6478
▁Samsung	-10.6479
▁fee	-10.648
▁កុមារ	-10.6481
អន្តរកម្ម	-10.6483
វាស់	-10.6484
ការកសាង	-10.6484
▁officers	-10.6489
700	-10.6489
▁impacts	-10.6493
▁LTD	-10.6495
មម	-10.6497
ឆ្នាំ២០២៣	-10.6499
52	-10.6499
▁adopts	-10.6499
▁ដ្បិត	-10.65
បេ	-10.6509
ព្រលឹង	-10.651
91	-10.6511
▁tree	-10.6511
ey	-10.6511
ម្តាយ	-10.6512
▁integrated	-10.6515
▁ដើម្បីបង្កើន	-10.6517
ification	-10.6517
▁bitcoin	-10.6518
▁driver	-10.6519
គ្រូពេទ្យ	-10.652
ដាច់	-10.6521
ស្ថិរភាព	-10.6521
les	-10.6521
▁មិនត្រឹមតែ	-10.6527
work	-10.6529
der	-10.6531
▁mouth	-10.6532
era	-10.6533
▁Multi	-10.6534
mi	-10.6537
▁allowing	-10.6541
▁Miss	-10.6543
▁lose	-10.6546
មួយចំនួនដែល	-10.6546
ពីសំណាក់	-10.6546
ចោល	-10.6547
ខួង	-10.6551
▁បើតាម	-10.6554
bu	-10.6554
ដែលធ្វើឱ្យ	-10.6557
បង់	-10.6561
▁2022.	-10.6564
២៤	-10.6565
▁dated	-10.6566
ដដែល	-10.6567
No	-10.6567
▁Building	-10.6569
▁Vi	-10.6572
កន្លងមក	-10.6572
កាល	-10.6572
▁ចាន	-10.6573
▁ភូមិ	-10.6574
▁ប្រសិនបើអ្នកចង់	-10.6574
មិនល្អ	-10.6574
▁bottles	-10.6574
ប្រហោង	-10.6578
▁faster	-10.6578
ប្លង់	-10.658
▁Cap	-10.658
▁capabilities	-10.658
:19	-10.658
▁resin	-10.6582
ឱ្យមាន	-10.6585
ED	-10.6588
ពែង	-10.6591
ម៉ាស៊ីនត្រជាក់	-10.6592
បានធ្វើឱ្យ	-10.6592
▁text	-10.6592
▁ជាមួយគ្នានេះ	-10.6592
▁USA	-10.6592
ល្អប្រសើរ	-10.6593
▁ជម្រើស	-10.6594
សហការ	-10.6596
▁housing	-10.6597
▁remember	-10.6603
▁សិក្សា	-10.6605
សត្វចិញ្ចឹម	-10.6606
ឆ្ងាយ	-10.6607
▁វ៉ុល	-10.6608
▁kitchen	-10.6614
BS	-10.6615
▁ម្នាក់	-10.6618
:12	-10.6618
▁Te	-10.6619
▁predict	-10.6621
▁investigate	-10.6624
▁Ph	-10.6624
▁Capacity	-10.6625
che	-10.6629
កម្ដៅ	-10.663
កម្រាស់	-10.6632
▁Pipe	-10.6632
ile	-10.6635
▁7.	-10.6636
▁Non	-10.6636
▁accounts	-10.6637
សុខុមាលភាព	-10.664
pro	-10.664
លើការ	-10.664
វាគឺជា	-10.6642
បែងចែក	-10.6642
▁13,	-10.6643
▁Its	-10.6646
▁ប្រសិនបើអ្នកមាន	-10.6649
za	-10.665
ល្បី	-10.6652
▁structures	-10.6653
▁នាយក	-10.6659
▁buildings	-10.666
តូចមួយ	-10.666
▁tomorrow	-10.6665
▁mining	-10.6665
▁worldwide	-10.6666
▁សូចនាករ	-10.6669
គឺមាន	-10.6671
▁opened	-10.6672
▁12,	-10.6674
▁Forces	-10.6676
-15	-10.6678
ការលូតលាស់	-10.6681
ចាកចេញពី	-10.6681
▁16,	-10.6683
▁bike	-10.6687
ដំបង	-10.6687
▁encouraged	-10.6688
សកម្មជន	-10.669
▁៣០០	-10.6691
▁Yi	-10.6694
▁ឧប	-10.6694
ទៅមុខ	-10.6695
▁platforms	-10.6698
▁therefore	-10.67
ទាំងអស់នេះ	-10.6701
មិនគួរ	-10.6705
នេះអាច	-10.6706
នៅប្រទេសចិន	-10.6706
▁map	-10.6707
▁Three	-10.6709
▁alone	-10.6709
ast	-10.6709
▁foam	-10.6709
new	-10.6716
▁innovative	-10.6717
ចំណងជើង	-10.6718
▁Article	-10.6718
បំពាក់ដោយ	-10.6718
▁consumer	-10.6719
MO	-10.6721
គណៈរដ្ឋមន្ត្រី	-10.6722
របស់ប្រទេស	-10.6723
គ្រឿងម៉ាស៊ីន	-10.6724
អនុ	-10.6724
ធ្វើឲ្យ	-10.673
▁សម្រេច	-10.6733
▁ointment	-10.6734
▁Another	-10.6735
រំញ័រ	-10.6735
ពេលនេះ	-10.6736
▁Per	-10.6744
IA	-10.6747
ទទួលបន្ទុក	-10.6748
ប៉ុស្តិ៍	-10.6748
ទូក	-10.6749
IN	-10.675
ide	-10.675
▁acrylic	-10.675
▁competent	-10.6752
▁silver	-10.6752
lang	-10.6753
▁decided	-10.6757
-01	-10.6758
▁Speed	-10.6759
ព្រមាន	-10.6763
▁មួក	-10.6766
សំបក	-10.6766
ទាំងអស់ដែល	-10.6767
▁owners	-10.6769
▁livelihoods	-10.677
យ៉ាងពេញលេញ	-10.6771
បានបង្ហាញថា	-10.6772
ង់	-10.6772
យានយន្ត	-10.6775
NO	-10.6775
នៅថ្ងៃនេះ	-10.6776
▁seeking	-10.678
ការផ្តល់ជូន	-10.6785
ទំងន់	-10.6785
២នាក់	-10.6785
រុញ	-10.6786
ប្រេកង់	-10.6786
▁client	-10.6787
បង្រួម	-10.6788
បឋម	-10.6789
▁ម្ចាស់	-10.679
-60	-10.6794
▁សមាគម	-10.6795
ការពារជាតិ	-10.6795
:20	-10.6797
ដ៏សំខាន់មួយ	-10.6798
▁ស្វែងរក	-10.6798
នឹងទទួលបាន	-10.6801
:11	-10.6803
▁adjust	-10.6804
▁dedicated	-10.6805
▁180	-10.6809
បោះ	-10.681
▁&#	-10.6811
▁ស្តីពី	-10.6813
ចាក់សោ	-10.6814
▁filled	-10.6814
សេរ៉ាមិច	-10.6815
▁pieces	-10.6817
▁removal	-10.6821
▁ការអភិវឌ្ឍ	-10.6821
ទូទាំងប្រទេស	-10.6822
▁Labor	-10.6822
វិស័យទេសចរណ៍	-10.6822
មីន	-10.6824
▁កើនឡើង	-10.6825
▁limit	-10.6825
ថ្មីនេះ	-10.6825
ធ្វើការជាមួយ	-10.6826
▁larger	-10.6826
ការបញ្ជាក់	-10.6827
CO	-10.6828
▁ជាដើម។	-10.6828
▁processes	-10.6829
ជៀសវាង	-10.683
មន្រ្តី	-10.6832
54	-10.6832
នៅកន្លែង	-10.6832
▁Experts	-10.6834
▁insulation	-10.6838
បដិសេធ	-10.6841
▁លេខម៉ូដែល	-10.6846
មនុស្សជាច្រើន	-10.6853
គ្រែ	-10.6856
▁37	-10.6858
▁AMS	-10.6858
វដ្ត	-10.686
រុំ	-10.6862
▁Hand	-10.6862
▁Crypto	-10.6863
-9	-10.6863
ការដំឡើង	-10.6866
▁Technical	-10.6866
▁Inter	-10.6868
▁បានឱ្យដឹងថា	-10.687
EL	-10.6871
▁Capital	-10.6873
កំពុងស្វែងរក	-10.6874
gen	-10.6876
▁hit	-10.6877
របស់ប្រជាជន	-10.6879
▁និងមធ្យម	-10.6882
បញ្ជាទិញ	-10.6883
▁annually	-10.6883
▁producing	-10.6883
លេចឡើង	-10.6885
ps	-10.6885
amp	-10.6887
▁monthly	-10.6888
▁injection	-10.689
▁Ambassador	-10.6891
▁intellectual	-10.6891
▁tasks	-10.6891
▁Canada	-10.6892
ការលំបាក	-10.6892
▁ជូន	-10.6892
ស្តារ	-10.6894
▁urge	-10.6894
▁walk	-10.6896
▁recognized	-10.6896
ការរកឃើញ	-10.6898
▁presentation	-10.6903
▁Kampot	-10.6907
▁brands	-10.6908
ស្រ្តី	-10.6909
▁Small	-10.6912
ខ្លាំង។	-10.6913
មានឥទ្ធិពល	-10.6913
▁copy	-10.6914
ការបញ្ជូន	-10.6914
▁ព្យាការី	-10.6917
▁តើខ្ញុំអាច	-10.6918
:13	-10.6919
ពិធី	-10.6922
▁k	-10.6922
▁កម្ពស់	-10.6923
គុណសម្បត្តិ	-10.6929
ផ្លូវភេទ	-10.6931
នៅក្នុងការ	-10.6932
បន្ទាន់	-10.6933
▁manual	-10.6939
▁bed	-10.6941
▁initiatives	-10.6943
ផែនទី	-10.6943
លោត	-10.6947
ម្ជុល	-10.6949
▁PLC	-10.6952
សំយោគ	-10.6952
ដប់	-10.6952
”.	-10.6952
ចន្លោះ	-10.6952
បណ្តាលឱ្យ	-10.6953
បរិសុទ្ធ	-10.6954
57	-10.6954
អ្វីគ្រប់យ៉ាង	-10.6957
ខ្នង	-10.6959
▁21,	-10.696
បំណែក	-10.696
decree	-10.6961
:5	-10.6962
▁picture	-10.6964
▁organize	-10.6965
▁House	-10.6966
គេង	-10.6969
▁cooking	-10.6973
▁Children	-10.6973
:21	-10.6975
▁(1	-10.6977
▁rsquo	-10.6979
▁Financial	-10.6979
ប្រកួត	-10.698
▁Photo	-10.698
គំនិតផ្តួចផ្តើម	-10.698
▁thus	-10.698
▁Network	-10.6981
លា	-10.6982
អនុស្សាវរីយ៍	-10.6983
▁copper	-10.6985
ឃើញថា	-10.6986
62	-10.6987
▁achieved	-10.6994
វ័យ	-10.6995
ប្រវត្តិសាស្រ្ត	-10.6997
▁ចាប់ពី	-10.6999
▁relationship	-10.7
▁ម្ល៉េះ	-10.7004
កែសម្រួល	-10.7006
▁សម្តេច	-10.7007
▁produces	-10.7008
PT	-10.7008
▁Phone	-10.701
mg	-10.7011
បានបញ្ចប់	-10.7011
▁សីហមុនី	-10.7014
▁truly	-10.7014
▁Net	-10.7015
▁Citizens	-10.7019
IC	-10.7021
ទី២	-10.7024
▁អារម្មណ៍	-10.7025
▁dead	-10.7025
▁deal	-10.7031
កុងតឺន័រ	-10.7032
▁Board	-10.7033
▁សំខាន់	-10.7033
▁Who	-10.7035
▁population	-10.7036
▁networks	-10.7038
ប្រទេសជប៉ុន	-10.7038
ដើម្បីធ្វើ	-10.7039
If	-10.7039
▁efficiently	-10.7039
លក់ដុំ	-10.704
▁Just	-10.7044
tan	-10.7045
▁ជំនួយ	-10.7047
▁មិត្តរួមថ្នាក់	-10.705
ភាពងាយស្រួល	-10.7052
▁ជាមួយនឹងការ	-10.7054
▁concerning	-10.706
▁objective	-10.7066
ចូលទៅ	-10.7071
▁demonstrate	-10.7072
▁ការអនុវត្ត	-10.7073
dB	-10.7073
▁units	-10.7074
▁42	-10.7076
▁ថ្នាំ	-10.7077
ឆ្នាំនេះ	-10.7077
▁Media	-10.7077
បង្កើតជា	-10.7077
▁integration	-10.708
ឲ្យបាន	-10.7081
ដេ	-10.7082
RI	-10.7083
▁sealing	-10.7085
6%	-10.7086
▁ទម្ងន់	-10.7088
មានទំហំ	-10.7088
▁followers	-10.7088
▁សមាជិក	-10.7093
ការតុបតែង	-10.7097
▁ដើម្បីការពារ	-10.7102
▁NFT	-10.7103
▁Svay	-10.7103
▁slightly	-10.7105
នៅសហរដ្ឋអាមេរិក	-10.711
▁faith	-10.7114
▁ផ្នែកទី	-10.7114
▁ផ្ទៃ	-10.7118
ភាគ	-10.7118
ស្តុក	-10.7118
▁packing	-10.7119
▁casting	-10.7119
▁fit	-10.712
▁prison	-10.712
▁foster	-10.712
AL	-10.712
ret	-10.7121
បង្កើតឡើងដោយ	-10.7122
72	-10.7124
សិប្បកម្ម	-10.7128
ុង	-10.713
▁គាត់បាន	-10.7134
អភិរក្ស	-10.7134
កញ្ឆា	-10.7139
▁delegation	-10.7139
▁ជំងឺ	-10.714
អន្តរាគមន៍	-10.7142
▁Heng	-10.7143
▁taste	-10.7144
my	-10.7144
▁expanding	-10.7147
PO	-10.7147
ការកែលម្អ	-10.715
សាល	-10.715
▁concerns	-10.7151
▁cheap	-10.7151
▁អ្នកផ្គត់ផ្គង់	-10.7152
▁huge	-10.7158
ផងដែរថា	-10.7165
▁RFI	-10.7165
នាំមកនូវ	-10.7168
ដែលទាក់ទងនឹង	-10.7168
▁middle	-10.717
ឆ	-10.7172
ចង	-10.7173
ភាគរយ	-10.7174
▁facilities	-10.7175
mic	-10.7178
ពេកហើយ។	-10.7178
53	-10.7178
▁គំនិត	-10.718
បន្ថែមទៀត។	-10.7181
រូបមន្ត	-10.7184
▁IN	-10.7185
កិត្តិយស	-10.719
fa	-10.719
ឯក	-10.719
ផ្លែ	-10.7192
ការជ្រើសរើស	-10.7192
ខ្សែភ្លើង	-10.7193
app	-10.7193
▁gambling	-10.7193
TC	-10.7195
▁plays	-10.7202
▁បាទ	-10.7204
ឪពុកម្តាយ	-10.7204
ថ្លា	-10.7207
ដែលខ្ញុំ	-10.7208
ស្ថេរភាព	-10.7209
▁Master	-10.7209
ទើប	-10.7211
red	-10.7211
ងាយ	-10.7211
▁failure	-10.7212
▁clothes	-10.7214
▁PCR	-10.7214
ដែលប្រើ	-10.7215
អាល្លឺម៉ង់	-10.7215
od	-10.722
ដោះលែង	-10.7223
king	-10.7224
▁la	-10.7224
▁arrested	-10.7224
▁Pa	-10.7225
សមត្ថកិច្ច	-10.7226
▁publish	-10.7227
ពីរដង	-10.7228
យ៉ាន់ស្ព័រ	-10.7229
▁obligated	-10.7229
▁pivot	-10.7229
▁lock	-10.723
▁អាមេរិក	-10.723
លូតលាស់	-10.7231
គឺត្រូវ	-10.7232
នៅថ្ងៃ	-10.7232
▁representative	-10.7235
▁festival	-10.7236
សម្រួល	-10.7237
▁flowers	-10.724
ថ្លៃដើម	-10.7241
▁៥០០	-10.7244
▁Web	-10.7245
post	-10.7246
ru	-10.7254
ស្ទាត់	-10.7257
▁era	-10.7257
▁ជ្រើសរើស	-10.7257
▁particular	-10.726
▁slow	-10.7261
▁បរិមាណ	-10.7262
▁listed	-10.7262
ឧបករណ៍ចាប់សញ្ញា	-10.7264
▁act	-10.7265
▁toward	-10.7265
▁cylinder	-10.7269
ការ៉េ	-10.7276
▁គណៈកម្មាធិការ	-10.7276
▁3:	-10.7277
ប្រកបដោយចីរភាព។	-10.7281
គូរ	-10.7282
បច្ចេកវិជ្ជា	-10.7284
▁sugar	-10.7284
▁summer	-10.7285
▁ច	-10.7286
▁Th	-10.7287
▁waiting	-10.7289
:7	-10.729
ឆ្លុះបញ្ចាំង	-10.7293
▁views	-10.7296
ច្បាប់ស្តីពី	-10.7298
កែប្រែ	-10.7298
ដែលវា	-10.7302
:24	-10.7302
▁fell	-10.7303
ual	-10.7305
បន្ទប់ទឹក	-10.7306
▁Forex	-10.7307
▁citizen	-10.7307
មានសមត្ថកិច្ច	-10.7308
▁forum	-10.7308
▁Po	-10.7309
ជម្លោះ	-10.7313
វឌ្ឍនភាព	-10.7313
សង្ខេប	-10.7314
▁តាំង	-10.7315
ដល់ទៅ	-10.7315
ប្លែក	-10.7315
▁01	-10.7318
ស្រដៀងគ្នា	-10.7319
សម្រស់	-10.7319
▁milk	-10.7321
▁ឱកាស	-10.7323
▁whom	-10.7323
យ៉ាងល្អ	-10.7327
រំពឹងថា	-10.7332
អង្គ	-10.7333
▁serious	-10.7334
▁30,	-10.7336
ការដាំ	-10.7337
▁visual	-10.7337
▁Low	-10.7338
កង	-10.7338
ស្ថិតិ	-10.7338
▁Jun	-10.7341
ឱ្យប្រើប្រាស់	-10.7341
link	-10.7343
ស្វាយ	-10.7344
▁70%	-10.7344
គ្រឹះស្ថាន	-10.7345
▁304	-10.7345
▁Shanghai	-10.7345
▁Have	-10.7347
▁edge	-10.7347
▁រហូត	-10.7348
ផ្លូវដែក	-10.7348
▁animals	-10.735
▁becoming	-10.735
▁inspect	-10.7351
▁Spy	-10.7351
▁meter	-10.7353
▁park	-10.7354
ត្រូវមាន	-10.7355
▁gentle	-10.7357
▁Transport	-10.7357
េចក្តីថ្លែងការណ៍	-10.736
▁សង្កាត់	-10.7361
▁Hi	-10.7361
▁បី	-10.7363
▁exceed	-10.7363
▁វីដេអូ	-10.7364
▁Ar	-10.7368
▁សូម្បីតែ	-10.7368
ក្នុងករណី	-10.737
▁bet	-10.737
ការចុះឈ្មោះ	-10.7372
ពាក្យសុំ	-10.738
▁animal	-10.7382
▁department	-10.7382
▁Automatic	-10.7384
oc	-10.7385
ខ្សែក្រវ៉ាត់	-10.7387
ការកាត់	-10.7388
▁realize	-10.7388
▁implementing	-10.7388
របស់គាត់។	-10.7388
បំណុល	-10.739
▁increases	-10.7391
▁Festival	-10.7394
comment	-10.7394
ថ្នាក់ដឹកនាំ	-10.7397
ធំបំផុត	-10.74
book	-10.7401
▁Western	-10.7402
▁conduct	-10.7404
ហាត់ប្រាណ	-10.7404
ដែលថា	-10.7404
▁deeply	-10.7408
អ្នកផលិត	-10.7409
▁ដៃ	-10.741
▁spend	-10.7412
▁Supply	-10.7412
▁personnel	-10.7413
ដ៏ធំមួយ	-10.7413
▁RFID	-10.7418
LC	-10.7421
ក្តីសង្ឃឹម	-10.7427
2,	-10.7427
▁scale	-10.7427
je	-10.7433
ថ្នាក់ជាតិ	-10.7435
▁sources	-10.7435
▁គេហទំព័រ	-10.7436
▁transform	-10.7438
ជំងឺកូវីដ	-10.7438
▁partnership	-10.7439
ជាតិសរសៃ	-10.744
▁institution	-10.744
▁imported	-10.7441
▁sensor	-10.7443
▁representatives	-10.7444
ឆ្កែ	-10.7444
ថាស	-10.7447
2021	-10.7448
អាកាសចរណ៍	-10.7449
▁Administration	-10.7449
▁Cable	-10.745
▁អ្នកនឹង	-10.7453
គុណភាពនៃ	-10.7455
▁6,	-10.7459
▁Bonus	-10.7459
▁holding	-10.7463
▁forth	-10.7464
ye	-10.7465
ភាពខុសគ្នានៃ	-10.7467
▁lease	-10.7467
▁vibrant	-10.7468
▁walls	-10.747
ឹ	-10.7472
រដ្ឋធម្មនុញ្ញ	-10.7473
ory	-10.7474
▁មេ	-10.7475
cu	-10.7475
ធ្វើអោយ	-10.7479
ស៊ើបអង្កេត	-10.7479
ហើយវា	-10.748
បទល្មើស	-10.7484
▁creation	-10.7487
▁ក្បាល	-10.7489
▁accused	-10.749
ជារៀងរាល់ថ្ងៃ	-10.7491
វត្ត	-10.7492
គ្រូបង្រៀន	-10.7496
LE	-10.7498
▁ត្រូវទៅ	-10.7502
▁thought	-10.7504
▁វិញ្ញាបនបត្រ	-10.7505
▁360	-10.7507
▁ជួល	-10.7508
តារា	-10.7509
គីឡូក្រាម	-10.7509
▁deliver	-10.7514
▁ខ	-10.7518
▁Live	-10.752
ការប្រមូល	-10.7522
▁hearing	-10.7522
បញ្ហានេះ	-10.7523
ម៉ោន	-10.7524
▁fostering	-10.7525
ការស្វែងរក	-10.7527
ML	-10.7527
ព្រោះវា	-10.7528
▁ដើម្បីធានា	-10.7537
▁proper	-10.7539
▁Asian	-10.7541
▁memory	-10.7543
ត្រូវបានបង្ហាញ	-10.7544
ដែលបានកំណត់	-10.7548
រោងចក្រផលិត	-10.7549
▁ធនាគារជាតិនៃ	-10.7549
ត្រូវបានគេហៅថា	-10.755
▁researchers	-10.7551
▁tank	-10.7552
▁pot	-10.7555
ប្រភេទនៃ	-10.7557
▁grant	-10.7559
ខុសៗគ្នា	-10.7559
cc	-10.756
▁ហើយវា	-10.7561
ប្រតិបត្តិករ	-10.7562
color	-10.7563
▁buying	-10.7563
▁Hotel	-10.7567
▁បច្ចេកទេស	-10.757
▁ឡើយ	-10.757
▁weeks	-10.7573
▁Box	-10.7576
▁2024.	-10.7577
▁៨០	-10.7579
▁គ្រួសារ	-10.7579
ការរីកចម្រើន	-10.7579
▁Summit	-10.758
ដូចជាការ	-10.7582
▁Pump	-10.7587
▁Battery	-10.7588
▁cabinet	-10.7589
chi	-10.759
▁factor	-10.7594
▁Prey	-10.7594
cal	-10.7594
GP	-10.7595
▁council	-10.7599
▁intricate	-10.7599
▁himself	-10.7599
”,	-10.76
▁mentioned	-10.7602
▁intelligent	-10.7602
nt	-10.7604
សម្ព័ន្ធ	-10.7607
▁capable	-10.7608
បានសម្រេច	-10.761
General	-10.761
សហការជាមួយ	-10.7614
ការងើបឡើងវិញ	-10.7617
▁experienced	-10.7619
ភាសាអង់គ្លេស	-10.7619
▁sides	-10.762
ការពិនិត្យ	-10.7621
▁pink	-10.7622
▁នៅពេលអ្នក	-10.7623
bin	-10.7623
▁stakeholders	-10.7623
សិន	-10.7623
▁មើលន	-10.7625
▁ឃុំ	-10.7625
ការបង្រៀន	-10.7626
▁combination	-10.7626
ផ្សព្វផ្សាយសង្គម	-10.7631
ត្រូវបានដាក់	-10.7631
AS	-10.7632
-25	-10.7633
លោហធាតុ	-10.7636
ឥដ្ឋ	-10.7636
▁sometimes	-10.7637
ស័ង្កសី	-10.7641
ដាក់ប្រាក់	-10.7648
ចំណុចប្រទាក់	-10.7653
រចនាប័ទ្ម	-10.7654
:8	-10.7655
▁unwavering	-10.7655
សមិទ្ធផល	-10.7655
▁សន្លឹក	-10.7656
ជនបរទេស	-10.7657
ទឹកដោះគោ	-10.7658
ជ្រើស	-10.7661
ឧបករណ៍ភ្ជាប់	-10.7661
ល់	-10.7661
▁Work	-10.7662
▁បុគ្គលិក	-10.7663
▁horse	-10.7663
▁initial	-10.7669
pp	-10.7669
ណាមួយ។	-10.7671
ការចែកចាយ	-10.7673
pc	-10.7673
▁regions	-10.7675
▁wild	-10.7675
ចំណុចទាញ	-10.7676
▁audio	-10.7677
▁sharing	-10.7677
▁upcoming	-10.7677
ious	-10.7677
pi	-10.7678
SS	-10.768
5%	-10.7682
▁Sports	-10.7687
ថ្នាក់ទី	-10.7687
04	-10.769
រកមើល	-10.769
▁និងនេសាទ	-10.7691
ប្រើសម្រាប់	-10.7691
គោល	-10.7691
▁Police	-10.7693
▁Kandal	-10.7694
▁ចុច	-10.7694
▁34	-10.7694
ធ្វើតាម	-10.7696
ប្រេងឥន្ធនៈ	-10.7697
▁painting	-10.7698
ET	-10.7702
▁Inc	-10.7702
ដែលអ្នកបាន	-10.7705
រង្វង់	-10.7708
▁approach	-10.7709
▁បានលើកឡើងថា	-10.7712
:3	-10.7713
▁បានបញ្ជាក់ថា	-10.7715
▁ថ្ងៃ។	-10.7718
▁23,	-10.772
ជាក់លាក់មួយ	-10.7722
▁29,	-10.7727
ភារកិច្ច	-10.7728
:9	-10.7728
▁PH	-10.7732
▁star	-10.7733
▁speak	-10.7734
▁v	-10.7735
ស្មើ	-10.7735
▁Training	-10.7735
ទាំងមូល។	-10.7737
ស្រ	-10.7737
▁Paris	-10.7738
១០០	-10.774
ដើម្បីធានា	-10.774
box	-10.7744
▁independent	-10.7744
ខ្សែស្រឡាយ	-10.775
▁Affairs	-10.775
▁administrative	-10.775
▁Tech	-10.7753
▁numbers	-10.7754
កូនស្រី	-10.7754
▁Keep	-10.7755
ផ្អាក	-10.7756
▁Bi	-10.7758
▁ទ្រឹស្តី	-10.7758
▁component	-10.7759
▁motorcycle	-10.7761
▁defend	-10.7762
▁08	-10.7762
បរាជ័យ	-10.7764
▁Forum	-10.7768
▁Du	-10.7768
TM	-10.777
▁visitors	-10.777
▁meticulously	-10.7771
គម្លាត	-10.7772
▁noise	-10.7773
▁យុទ្ធសាស្ត្រ	-10.7777
▁duty	-10.7778
▁allowed	-10.7781
▁Check	-10.7782
រាំ	-10.7783
▁raise	-10.7784
001	-10.7785
▁pool	-10.7785
ធម្មតា។	-10.7786
den	-10.7787
ហ្វ្រាំង	-10.7788
▁species	-10.7789
ial	-10.7789
អាចជួយ	-10.7791
គាំទ្រដល់	-10.7794
▁looked	-10.7795
ស្មា	-10.7796
រូបិយវត្ថុ	-10.7797
▁Tags	-10.7797
▁whose	-10.7801
ចម្លើយ	-10.7802
ink	-10.7803
▁et	-10.7804
▁pick	-10.7804
ព្រះជាម្ចាស់	-10.7805
▁2008	-10.7807
▁Sihamoni	-10.7808
▁responsibility	-10.7808
▁theories	-10.7808
តាមអ៊ិនធរណេត	-10.7809
▁ប្រាក់រង្វាន់	-10.7809
ការចាប់អារម្មណ៍	-10.781
ភ	-10.7813
▁កម្រាស់	-10.7814
7%	-10.7814
ធ្វើសកម្មភាព	-10.7815
zi	-10.7816
▁trying	-10.7819
ផ្សែង	-10.7821
▁wait	-10.7824
feed	-10.7825
▁centers	-10.7828
លៃតម្រូវ	-10.7828
▁grill	-10.7828
ភ្ជាប់ជាមួយ	-10.783
សហប្រជាជាតិ	-10.7832
ធម៌	-10.7834
មិត្តភាព	-10.7834
▁extremely	-10.7834
ប្រុងប្រយ័ត្ន	-10.7836
▁evening	-10.7837
▁5%	-10.7837
▁root	-10.7837
ម្តង	-10.784
ឆេះ	-10.7842
ឌ	-10.7845
ក្លែងក្លាយ	-10.7847
▁percent	-10.7847
▁នេះបើយោងតាម	-10.7849
▁decline	-10.785
▁provisions	-10.7853
▁cells	-10.7855
▁អញ្ជើញ	-10.7858
▁invest	-10.7858
CB	-10.786
ក៏ជា	-10.7864
▁clearly	-10.7865
ចាំបាច់ត្រូវ	-10.7865
មួយចំនួន។	-10.7865
▁James	-10.7866
មូល	-10.7867
កិច្ចសហប្រតិបត្	-10.7868
យល់ថា	-10.7869
▁Gold	-10.787
ជែល	-10.7872
▁Wi	-10.7873
SC	-10.7874
ដោត	-10.7875
▁written	-10.7876
▁express	-10.7877
ជក់បារី	-10.7882
▁Easy	-10.7885
▁moisture	-10.7885
▁Monday	-10.7886
ស្មើនឹង	-10.7887
▁reforms	-10.7887
▁optical	-10.7888
▁fees	-10.7891
ផ្សារទំនើប	-10.7893
▁crops	-10.7897
▁Chea	-10.7897
ប្រែប្រួល	-10.7897
▁ថ្លៃ	-10.7899
សរុបចំនួន	-10.79
ត្រចៀក	-10.7904
▁hidden	-10.7904
▁batteries	-10.7904
▁ដើម្បីឱ្យ	-10.7905
នេះជា	-10.7905
▁Bun	-10.7907
▁designs	-10.7913
នៅក្នុងវិស័យ	-10.7914
▁សួរ	-10.7915
▁freedom	-10.7917
▁inch	-10.7919
សំ	-10.7919
▁អង្សាសេ	-10.792
ជាសាធារណៈ	-10.7921
កំប៉ុង	-10.7924
▁concrete	-10.7924
▁announcement	-10.7925
▁Thom	-10.7926
ji	-10.793
▁net	-10.7932
▁amid	-10.7933
លើកដំបូង	-10.7933
▁agreements	-10.7936
▁Ly	-10.7939
▁salt	-10.7939
▁ក្រសួងសុខាភិបាល	-10.794
▁មានប្រសាសន៍ថា	-10.794
ដែលត្រូវបានគេ	-10.7942
▁ទីតាំង	-10.7942
▁cnc	-10.7944
ell	-10.7946
▁generate	-10.7948
-8	-10.795
:10	-10.795
MI	-10.7953
:17	-10.7953
ឆ្នាំមុន	-10.7953
▁Using	-10.7953
ក្នុងការផលិត	-10.7954
ផ្សេងៗគ្នា។	-10.7955
tin	-10.7962
▁retain	-10.7964
▁រុក្ខាប្រមាញ់	-10.7965
ការស៊ើបអង្កេត	-10.7966
▁mixed	-10.797
▁negative	-10.7973
ខ្សោយ	-10.7975
ប៉ះពាល់	-10.7977
ដំណើរទស្សនកិច្ច	-10.7979
▁depends	-10.798
ដែន	-10.798
ឯកសណ្ឋាន	-10.7982
▁smaller	-10.7983
▁fat	-10.7984
gsm	-10.7984
ចំណេញ	-10.7985
lit	-10.7986
▁plasma	-10.7987
TU	-10.7988
▁beach	-10.7989
▁Poly	-10.799
និ	-10.7991
▁usage	-10.7993
What	-10.7997
rid	-10.7997
សម្រាប់មនុស្ស	-10.7997
ប៊ូ	-10.7998
▁Street	-10.8002
▁stomach	-10.8002
ិច	-10.8003
220	-10.8007
ប្តេជ្ញា	-10.801
▁determine	-10.801
▁match	-10.801
ការពង្រឹង	-10.8011
ray	-10.8014
▁chance	-10.8015
▁consumers	-10.8021
▁rent	-10.8021
▁marriage	-10.8022
▁Fiber	-10.8022
ដើម្បីរក្សា	-10.8023
កាតព្វកិច្ច	-10.8025
▁ដែលមិន	-10.8026
▁ដឺក្រេ	-10.8027
▁gender	-10.8029
▁មិនថា	-10.8031
▁27,	-10.8031
▁flower	-10.8032
110	-10.8033
ម្ហូប	-10.8036
ការដាក់	-10.8037
មតិយោបល់	-10.8037
និទាឃរដូវ	-10.8038
រ៉ោតទ័រ	-10.8041
▁president	-10.8041
ែ	-10.8046
ដើម្បីធានាថា	-10.8047
cing	-10.8047
▁detailed	-10.8052
ផឹក	-10.8052
កាណាដា	-10.8052
▁អនុញ្ញាត	-10.8052
▁យល់ព្រម	-10.8055
រមៀល	-10.8056
▁removed	-10.8056
▁exported	-10.8056
▁fair	-10.8057
9001	-10.8058
ត្រូវបានបញ្ចប់	-10.8058
អាកាសយានដ្ឋាន	-10.8058
ហោប៉ៅ	-10.806
▁Urban	-10.8061
សង្គមស៊ីវិល	-10.8061
▁Village	-10.8062
អនុវត្តតាម	-10.8065
:15	-10.8065
▁និងកីឡា	-10.8068
▁sustainability	-10.8069
▁ព្រះអង្គ	-10.8069
0.0	-10.807
រាជធានី	-10.8071
▁ទាញយក	-10.8074
▁Oil	-10.8079
ម្នាក់ៗ	-10.808
▁judge	-10.8081
▁Christmas	-10.8081
បាននិយាយ	-10.8081
▁investigation	-10.8081
ការគំរាមកំហែង	-10.8082
របស់របរ	-10.8084
សេរីភាព	-10.8085
ឱ្យបានត្រឹមត្រូវ	-10.8085
ពួកគេបាន	-10.8089
low	-10.809
▁THE	-10.809
▁គណៈកម្មការ	-10.8091
▁កុំព្យូទ័រ	-10.8094
ទស្សនា	-10.8097
cy	-10.8097
ងើបឡើងវិញ	-10.8098
▁RS	-10.8099
ON	-10.8099
កង្ហារ	-10.81
ស្មាតហ្វូន	-10.81
▁origin	-10.8102
▁សេដ្ឋកិច្ច	-10.8104
▁9,	-10.8107
▁ដុំ	-10.8109
ដ្ឋាន	-10.8109
នឹងបន្ត	-10.8109
ធ្វើការងារ	-10.8111
▁បទ	-10.8111
LD	-10.8115
mar	-10.8115
▁prioritize	-10.8115
ទាំងឡាយ	-10.8116
ship	-10.8117
▁fans	-10.8117
▁55	-10.8119
▁tested	-10.8119
▁presence	-10.812
ផ	-10.8123
▁facing	-10.8125
ប្រសិទ្ធិភាព	-10.8126
មានការកើនឡើង	-10.8127
អ៊ីមែល	-10.8128
▁raised	-10.8128
នឹងចេះ	-10.8129
ពន្យល់	-10.8129
EP	-10.813
អ្នកផ្តល់សេវា	-10.8131
ada	-10.8131
▁គន្លឹះ	-10.8136
លេចធ្លោ	-10.8136
យ៉ាងខ្លាំង។	-10.8137
សារធាតុគីមី	-10.814
▁residence	-10.814
ការព្រួយបារម្ភ	-10.8142
នៅលើពិភពលោក	-10.8144
▁wash	-10.8145
បានច្រើន	-10.8146
▁Rights	-10.8147
▁ពិធី	-10.8148
▁កុំភ្លេច	-10.815
▁អតីត	-10.8151
អង្កត់ផ្ចិត	-10.8152
សម្រាប់អតិថិជន	-10.8154
ទូរស័ព្ទចល័ត	-10.8156
របស់អង្គការ	-10.8156
▁plug	-10.8156
▁1.2	-10.8156
បេតុង	-10.8158
▁Grade	-10.8159
▁neighbor	-10.816
PS	-10.8163
ភោជនីយដ្ឋាន	-10.8167
▁names	-10.8171
ទា	-10.8171
▁calculate	-10.8172
▁moving	-10.8173
▁Total	-10.8174
▁effort	-10.8174
▁harm	-10.8174
▁exhibition	-10.8174
▁director	-10.8176
▁complaint	-10.8177
▁Address	-10.818
▁Currently	-10.8184
ប្រជាជនកម្ពុជា	-10.8186
ទឹកថ្នាំ	-10.8186
សេចក្តីព្រាង	-10.8187
▁4:	-10.8188
1,	-10.8189
▁Wire	-10.8191
▁Call	-10.8192
▁TO	-10.8194
▁terminal	-10.8194
មិត្ត	-10.8197
ពេលខ្លះ	-10.8197
▁diploma	-10.8199
ប្រើវា	-10.82
▁Travel	-10.82
ករ	-10.8202
រំភើប	-10.8208
▁bright	-10.8208
▁65	-10.8215
ee	-10.8217
▁arm	-10.8218
ដែលអ្នកចង់	-10.8222
លេងហ្គេម	-10.8223
ទូ	-10.8224
▁detained	-10.8225
ពីរបី	-10.8232
EC	-10.8233
▁២០១៩	-10.8236
▁វាក៏	-10.8239
▁stood	-10.824
▁Study	-10.8241
▁និងផ្គត់ផ្គង់	-10.8242
ពង្រឹងសមត្ថភាព	-10.8243
អ្នកអាន	-10.8243
▁Book	-10.8244
▁hole	-10.8244
ពណ៌បៃតង	-10.8245
RO	-10.8248
ចន្លោះពី	-10.8248
ឈឺចាប់	-10.8249
▁Ho	-10.825
▁យល់	-10.8252
បាយ	-10.8253
ade	-10.8254
▁២០២២	-10.8255
ជុំ	-10.8256
▁ស់	-10.8256
ប៉ារ៉ាម៉ែត្រ	-10.8258
មតិ	-10.8258
សំណល់	-10.8261
ទាន់សម័យ	-10.8263
FS	-10.8264
▁revealed	-10.8264
▁6:	-10.8266
▁lessons	-10.827
▁កា	-10.8274
▁ship	-10.8275
▁garden	-10.8275
ទាបជាង	-10.8276
ក្រសួងកសិកម្ម	-10.8277
power	-10.8277
▁CNRP	-10.8277
ត្រូវបានរៀបចំឡើង	-10.8279
▁កម្មករ	-10.8279
▁Stung	-10.8281
មណ្ឌល	-10.8282
-11	-10.8282
▁Thu	-10.8284
▁cup	-10.8284
អតីតកាល	-10.8284
ple	-10.8284
ធន់	-10.8285
OM	-10.8286
▁followed	-10.8287
របស់កុមារ	-10.8287
▁updated	-10.8291
ក្នុងពេលតែមួយ	-10.8292
បរិយាបន្ន	-10.8293
▁31,	-10.8298
▁comfort	-10.8298
▁thick	-10.8299
▁generator	-10.83
បានបន្ត	-10.83
▁looks	-10.8302
ត្រូវបានផ្តល់ជូន	-10.8304
▁giving	-10.8307
▁born	-10.8308
act	-10.8309
ler	-10.8309
របស់ព្រះ	-10.831
▁Micro	-10.8311
ប៉ូលី	-10.8313
បំបាត់	-10.8313
អ្នកចូលរួម	-10.8315
AA	-10.8318
លំនៅឋាន	-10.8318
▁រដ្ឋមន្រ្តី	-10.8319
ja	-10.832
▁teacher	-10.832
▁Policy	-10.832
▁happiness	-10.832
▁ministries	-10.832
▁Kindle	-10.832
ញឹកញាប់	-10.8321
ក្នុងតម្លៃ	-10.8323
វិស័យឯកជន	-10.8323
▁ត្រូវតែបញ្ចប់	-10.8323
▁bear	-10.8325
▁adjustable	-10.8325
យប់	-10.8327
▁presented	-10.8328
▁Works	-10.8328
ថ	-10.8328
ប្រមាណជា	-10.833
▁Blue	-10.8333
មែន	-10.8334
▁Both	-10.8336
កម្លាំងពលកម្ម	-10.8337
bringing	-10.8339
យ៉ាងងាយស្រួល	-10.8339
▁completion	-10.8341
ដ្រាយ	-10.8341
▁laboratory	-10.8341
▁សមត្ថកិច្ច	-10.8341
AR	-10.8341
Ah	-10.8341
:23	-10.8345
▁character	-10.8346
▁Professional	-10.8346
អ្នកគួរតែ	-10.8347
▁គីឡូម៉ែត្រ	-10.8352
▁Africa	-10.8354
ier	-10.8355
▁($	-10.8358
▁auto	-10.8359
▁NEC	-10.836
▁employment	-10.836
▁bread	-10.8361
នៃឧបករណ៍	-10.8362
▁Ku	-10.8362
ទូទាំងពិភពលោក	-10.8367
ទ្រី	-10.8368
ប្រយុទ្ធ	-10.837
ដែលគ្មាន	-10.8377
▁HP	-10.8377
▁posts	-10.838
▁Chhnang	-10.8381
▁cultivation	-10.8381
▁detection	-10.8382
ស្ករ	-10.8382
មនុស្សដែល	-10.8383
▁ស្បែកជើង	-10.8384
អតិថិជនរបស់យើង	-10.8387
ពេញចិត្ត	-10.8387
▁43	-10.8387
▁Thus	-10.8389
ដ៏ទូលំទូលាយ	-10.8391
▁fill	-10.8393
សំណើ	-10.8394
▁ម៉ូតូ	-10.8396
▁tech	-10.8398
type	-10.8398
គឺជាអាទិភាពចម្បង	-10.8402
▁Covid	-10.8402
▁ព្រលានយន្តហោះ។	-10.8404
មួយផ្សេងទៀត	-10.8404
បានផ្លាស់ប្តូរ	-10.8406
win	-10.8406
សំរាម	-10.8406
▁claims	-10.8408
▁អ្នកនាំពាក្យ	-10.8408
▁feet	-10.8409
▁ឥត	-10.841
ពឹងផ្អែកលើ	-10.8412
ks	-10.8415
អាចប្រើបាន	-10.8416
▁slot	-10.8417
▁សុំ	-10.842
:22	-10.8422
បានដាក់	-10.8422
▁faces	-10.8422
▁introduced	-10.8427
វត្តមាន	-10.8427
▁lights	-10.8427
▁cotton	-10.8428
You	-10.8431
▁WhatsApp	-10.8432
ផលិតភាព	-10.8433
តស៊ូ	-10.8434
នាឡិកា	-10.8435
មិនសូវ	-10.8436
ប្រតិបត្ដិការ	-10.8439
▁មិថុនា	-10.8439
▁វាសំខាន់ណាស់	-10.8445
▁relatively	-10.8445
សម្ភារ	-10.8449
SE	-10.8449
mAh	-10.845
សំខាន់ក្នុងការ	-10.8452
មួយសម្រាប់	-10.8452
▁Ko	-10.8458
សីលធម៌	-10.8459
អាគុយ	-10.8463
ការទទួលខុសត្រូវ	-10.8464
▁measurement	-10.8465
ទាំងអស់នៃ	-10.8467
MA	-10.8467
ផ្នែករឹង	-10.8467
▁Double	-10.8468
reflecting	-10.8473
ត្រូវតែសិក្សា	-10.8475
ច្រក	-10.8475
▁shown	-10.8476
▁dog	-10.8477
▁រន្ធ	-10.848
ភាពជាក់លាក់ខ្ពស់	-10.8483
▁privacy	-10.8483
▁Cross	-10.8484
▁gradually	-10.8484
EA	-10.8486
ជួយដល់	-10.8488
▁អាចកែលម្អ	-10.8489
រំលឹក	-10.8492
304	-10.8493
▁ខ្លាំង	-10.8493
ដែលអនុញ្ញាតឱ្យ	-10.8495
▁Win	-10.8496
ក្នុងប្រទេស	-10.8498
៤៥	-10.8499
▁joy	-10.8501
▁18,	-10.8502
ស្រលាញ់	-10.8503
ue	-10.8504
▁Auto	-10.8504
ប្រាក់កម្ចី	-10.8504
▁protective	-10.8508
▁combined	-10.8511
▁died	-10.8513
▁processed	-10.8514
ខ្ចី	-10.8518
។វា	-10.8521
▁seems	-10.8524
▁twice	-10.8525
▁Store	-10.8527
▁adhesive	-10.8528
-02	-10.853
250	-10.8531
ការបំពេញ	-10.8532
iv	-10.8532
▁$3	-10.8532
MPa	-10.8533
GA	-10.8534
ការវះកាត់	-10.8536
ចែក	-10.8536
▁wireless	-10.8536
ទាំងនេះ។	-10.8538
▁Jo	-10.8538
▁ហាង	-10.8539
ព្រះយេស៊ូវ	-10.854
ខាងមុខនេះ	-10.854
ទ្រ	-10.854
ការសាងសង់	-10.8541
▁appeared	-10.8541
obrag	-10.8541
ash	-10.8542
ជូត	-10.8543
▁Hospital	-10.8544
▁chief	-10.8545
▁reform	-10.855
នីមួយៗ។	-10.8552
ភាគីពាក់ព័ន្ធ	-10.8555
▁ត្រី	-10.8556
ចរចា	-10.8557
▁Back	-10.8558
ផ្ទៃក្នុង	-10.856
មេរៀន	-10.8561
▁2021,	-10.8562
▁រចនា	-10.8562
ឯកទេស	-10.8562
▁ticket	-10.8563
▁rack	-10.8565
▁អ្នកទាំងអស់គ្នា	-10.8565
គ្រឿងសំអាង	-10.8566
▁Among	-10.8566
អ្នករាល់គ្នា	-10.8567
▁Senior	-10.8567
ជម្រៅ	-10.8567
រាយ	-10.8568
ស៊ីវិល	-10.8571
▁changed	-10.8575
ភាពខុសគ្នា	-10.8577
:16	-10.8577
ពិភាក្សា	-10.8579
▁DIN	-10.8579
▁ផ្តល់នូវ	-10.8581
ជាមួយអ្នក	-10.8581
▁Manufacture	-10.8583
វិន័យ	-10.8585
លិច	-10.8585
▁preparing	-10.8587
▁purple	-10.8587
▁sufficient	-10.8587
▁stories	-10.8588
▁តូច	-10.8588
▁Security	-10.8589
▁កែវ	-10.8589
លុបបំបាត់	-10.8589
▁ព្រម	-10.8591
បានផ្តល់	-10.8592
វិទ្យាល័យ	-10.8593
ology	-10.8595
ភូមិសាស្ត្រ	-10.8599
រៀបចំផែនការ	-10.8599
▁Blog	-10.86
ពួកគេមាន	-10.8601
ក្នុងមួយថ្ងៃ	-10.8602
តេ	-10.8602
អតិផរណា	-10.8607
▁ទំនាក់ទំនង	-10.8607
▁Supreme	-10.8608
ដោយប្រុងប្រយ័ត្ន	-10.8608
▁controlled	-10.861
ជីក	-10.8611
▁wooden	-10.8612
ទ្រនាប់	-10.8615
▁ធ្នូ	-10.8616
▁ពួកគេបាន	-10.8618
ធំជាង	-10.8618
▁Sp	-10.862
▁ក្នុងឆ្នាំ	-10.862
ប្រទេសថៃ	-10.8621
▁theme	-10.8621
ven	-10.8621
▁តែងតែ	-10.8624
▁ជន	-10.8625
-100	-10.8626
ចប់	-10.8626
▁mechanism	-10.8626
ក្រសួងអប់រំ	-10.8631
▁comment	-10.8636
▁សៀវភៅ	-10.8636
មកវិញ	-10.8639
មូលហេតុ	-10.8639
friendly	-10.8639
grade	-10.864
▁Art	-10.8641
▁Their	-10.8643
ចុចលើ	-10.8643
▁sets	-10.8644
ព័ត៌មានបន្ថែម	-10.8645
▁ការធ្វើតេស្ត	-10.8646
▁chair	-10.8649
av	-10.8649
ជ្រូក	-10.8649
▁Trump	-10.8649
គ្រូឧទ្ទេស	-10.8649
▁មែន	-10.865
▁Ti	-10.8653
ជេ	-10.8654
fu	-10.8656
▁gear	-10.8661
hereby	-10.8661
អ្នកដឹកនាំ	-10.8661
▁delivered	-10.8662
▁eliminate	-10.8663
:25	-10.8665
▁instruments	-10.8666
▁1,000	-10.8668
សន្សំសំចៃ	-10.8668
ខាងត្បូង	-10.8669
▁Prophet	-10.867
▁prevail	-10.867
▁៩០	-10.8671
▁ហេង	-10.8672
ចូលមក	-10.8674
▁discover	-10.8676
▁សរុប	-10.8676
ការជំរុញ	-10.8677
សហគ្រិន	-10.8683
▁drawing	-10.8684
ទំនងជា	-10.8686
▁ព	-10.8686
ប្រចាំ	-10.8688
▁concept	-10.8688
▁senior	-10.869
▁module	-10.869
ដែនកំណត់	-10.8691
▁anniversary	-10.8691
ស្តង់ដា	-10.8691
ដើម្បីកាត់បន្ថយ	-10.8691
▁វេទិកា	-10.8693
អង្ករ	-10.8694
លោកអ្នក	-10.8696
IT	-10.8696
hu	-10.8698
▁ចាប់ផ្តើម	-10.8698
រថភ្លើង	-10.87
ការបែងចែក	-10.87
mA	-10.8701
ដូចគ្នា។	-10.8702
▁practical	-10.8707
▁សណ្ឋាគារ។	-10.8709
▁10,	-10.8709
pm	-10.871
speed	-10.871
▁Analysis	-10.8712
▁Lo	-10.8712
▁backpack	-10.8713
ក្លិន	-10.8714
▁Range	-10.8714
▁ដើម្បីលើកកម្ពស់	-10.8719
ដូចខាងក្រោម	-10.8719
▁mass	-10.8721
មកកាន់	-10.8722
±	-10.8723
គ្នាទៅវិញទៅមក	-10.8723
▁participants	-10.8724
▁OF	-10.8726
▁ឧសភា	-10.8727
▁Pe	-10.8727
▁ថង់	-10.8729
▁Line	-10.873
បទពិសោធ	-10.873
ward	-10.873
ជារៀងរាល់ឆ្នាំ	-10.8732
ផ្តល់សេវាកម្ម	-10.8732
៣នាក់	-10.8733
▁agent	-10.8733
ឿន	-10.8733
▁DN	-10.8733
ដ៏ជ្រាលជ្រៅ	-10.8733
▁Protection	-10.8734
ដ៏មានតម្លៃ	-10.8736
▁task	-10.8738
ឪពុក	-10.8739
▁MT	-10.8739
ួន	-10.8739
ped	-10.874
ella	-10.8741
▁anyone	-10.8741
ម៉ាស៊ីនភ្លើង	-10.8742
គួរតែវិភាគ	-10.8746
▁compare	-10.8747
មន្ទីរ	-10.875
ster	-10.875
▁ដំណោះស្រាយ	-10.875
បិទជិត	-10.875
▁អាចរៀន	-10.8754
mp	-10.8754
▁declaration	-10.8754
8%	-10.8757
លាន	-10.8757
មិនឱ្យ	-10.8762
៩០	-10.8763
▁MC	-10.8763
▁ជំហាន	-10.8763
▁aim	-10.8767
▁hear	-10.877
▁អាវ	-10.8771
បន្ទះសៀគ្វី	-10.8771
▁PU	-10.8772
ជនបទ	-10.8772
▁contains	-10.8775
water	-10.8775
▁commission	-10.8776
▁Pressure	-10.8776
ពួកគេនឹង	-10.8777
▁West	-10.8777
អ៊ីតាលី	-10.8781
▁manager	-10.8781
▁driven	-10.8782
▁Hu	-10.8782
▁3-	-10.8783
▁វិទ្យាស្ថាន	-10.8784
▁assess	-10.8785
ជីវភាព	-10.8785
ឡើងវិញ។	-10.8788
▁finance	-10.8789
▁vacuum	-10.8791
នៅពីក្រោយ	-10.8796
▁magnificent	-10.8797
នៅតែជា	-10.8797
▁improvement	-10.8802
ព្រះរាជ	-10.8808
រុករក	-10.8814
▁prince	-10.8817
▁coated	-10.8819
ទ្វេ	-10.8819
ការគោរព	-10.8821
ming	-10.8821
▁Chrome	-10.8822
▁Features	-10.8825
នេះក៏	-10.8827
អាចធ្វើឱ្យ	-10.8827
តួអង្គ	-10.8828
▁tests	-10.8829
qui	-10.8829
▁Constitution	-10.8831
បាល់ទាត់	-10.8833
▁assets	-10.8834
CI	-10.8835
ដែលត្រូវបានប្រើ	-10.8835
ក្រីក្រ	-10.8836
mit	-10.8836
▁follows	-10.8836
នៅទីក្រុង	-10.8838
តែង	-10.8838
សំភារៈ	-10.8839
ជនរងគ្រោះ	-10.8845
▁២២	-10.8846
អ្នកត្រូវការ	-10.8847
▁foot	-10.8847
▁expanded	-10.8848
▁សារមន្ទីរ។	-10.8849
ស៊ីន	-10.885
▁attended	-10.885
▁ដូច្នេះហើយ	-10.885
▁Ja	-10.8851
ឡាវ	-10.8852
ទៀត។	-10.8852
economic	-10.8855
▁seconds	-10.8857
▁ធំ	-10.8858
កន្លងទៅ	-10.8858
ទេវតា	-10.886
▁Central	-10.886
▁pattern	-10.886
សេចក្ដីថ្លៃថ្នូរ	-10.886
ដល់អតិថិជន	-10.8863
▁calls	-10.8864
ស្ម័គ្រចិត្ត	-10.8865
▁properly	-10.8866
កំពុងតែ	-10.8869
អង់គ្លេស	-10.887
▁operational	-10.887
▁actions	-10.8871
jo	-10.8872
▁goes	-10.8876
គម្រោងអភិវឌ្ឍន៍	-10.8877
▁4)	-10.888
GE	-10.8886
▁menu	-10.8888
▁Kit	-10.889
▁manufacture	-10.8891
▁64	-10.8892
▁shot	-10.8893
▁25,	-10.8894
▁roll	-10.8895
▁$4	-10.8896
▁ម្សៅ	-10.8896
សាច់អាំង	-10.8898
4%	-10.8898
កាស៊ីណូអនឡាញ	-10.8901
▁thousand	-10.8904
TA	-10.8904
▁certificates	-10.8907
▁Tri	-10.8908
រន្ធដោត	-10.8913
▁patient	-10.8913
▁Big	-10.8914
▁suspect	-10.8914
▁currency	-10.8916
▁ងាយស្រួល	-10.8917
បណ្ណាល័យ	-10.8917
អ្នកនឹងទទួលបាន	-10.8918
iz	-10.8918
▁Switch	-10.8918
160	-10.8919
ថ្មម៉ាប	-10.892
សូចនាករ	-10.892
▁wet	-10.8922
ផលិតផលរបស់យើង	-10.8924
▁Outdoor	-10.8925
▁machining	-10.8927
▁grinding	-10.8927
▁FOB	-10.8927
▁ជាតិ	-10.8928
បានបង្ហាញ	-10.8929
▁គ្រាប់	-10.8932
▁(3)	-10.8933
▁mini	-10.8934
ដើម្បីបំពេញ	-10.8934
▁មានកាតព្វកិច្ច	-10.8938
▁GDP	-10.8939
▁Star	-10.8939
▁ស្ថិត	-10.8939
▁Only	-10.894
▁www	-10.894
▁creative	-10.8941
០១	-10.8941
▁ការផលិត	-10.8942
កន្លែងដែល	-10.8943
ក្រសួងបរិស្ថាន	-10.8946
▁FileCatalyst	-10.8946
▁controller	-10.8948
យកទៅ	-10.8954
▁គុណភាព	-10.8955
នៅក្នុងកម្មវិធី	-10.8957
ផ្លាក	-10.8957
សួន	-10.8959
និងសេវាកម្ម	-10.8964
0.5	-10.8965
កែតម្រូវ	-10.8967
▁aquarium	-10.8968
▁artificial	-10.8968
សាធារណៈ។	-10.8968
▁Airport	-10.8968
ផ្ទះល្វែង	-10.897
high	-10.8971
PP	-10.8971
យ៉ាងណា	-10.8972
របស់រដ្ឋាភិបាល	-10.8973
▁disputes	-10.8974
ene	-10.8975
▁male	-10.8976
យោធពលខេមរភូមិន្ទ	-10.8976
ស៊ីជម្រៅ	-10.8978
▁achievements	-10.8978
ស្មៅ	-10.8983
ai	-10.8983
តម្លៃនៃ	-10.8988
សម្រាប់កម្មវិធី	-10.8988
អុកស៊ីសែន	-10.8989
រាបស្មើ	-10.8989
:26	-10.899
▁decoration	-10.8991
កសិដ្ឋាន	-10.8992
ផ្លុំ	-10.8993
សម្រាប់កុមារ	-10.8995
អាង	-10.8995
▁honor	-10.8999
▁Delivery	-10.9
ត្រូវធ្វើ	-10.9002
▁ការបង្កើត	-10.9004
ភាពជាក់លាក់	-10.9007
▁density	-10.9007
ack	-10.9009
▁neck	-10.901
▁នៅតែ	-10.9011
▁reputation	-10.9011
▁Agricultural	-10.9011
▁shopping	-10.9012
ការភ្ជាប់	-10.9012
ទីកន្លែង	-10.9012
▁afternoon	-10.9013
▁palm	-10.9013
▁ណាស់	-10.9015
ក្តីសុបិន្ត	-10.9016
▁កិច្ចសហប្រតិបត្	-10.9016
ឆ្នាំ២០២២	-10.9016
▁criminal	-10.9017
កម្មសិទ្ធិ	-10.9018
du	-10.9021
អាំង	-10.9027
ឹម	-10.903
▁trends	-10.9032
ជាច្រើនប្រភេទ	-10.9032
កាន់តែប្រសើរ	-10.9032
▁violence	-10.9033
អំឡុងពេល	-10.9033
▁causes	-10.9033
▁ខ្ញុំត្រូវបាន	-10.9036
CS	-10.9036
▁expenses	-10.9037
ឆ្លាក់	-10.9038
▁brush	-10.9039
វិញ។	-10.904
▁valid	-10.9041
មែនទេ	-10.9041
▁crystal	-10.9046
ទីមួយ	-10.9047
but	-10.9047
ការផ្ទុក	-10.9047
▁girl	-10.9048
បានយ៉ាងងាយស្រួល	-10.9048
កំឡុងពេល	-10.9049
ព្រឹក	-10.9049
គ្រី	-10.9049
▁silk	-10.905
▁nice	-10.9052
▁ពេញ	-10.9052
▁fertilizer	-10.9053
▁សំបុត្រ	-10.9053
ភ្លាមៗ។	-10.9054
▁technological	-10.9055
ធ្វើវា	-10.9055
▁daughter	-10.9056
ពន្លឿន	-10.9056
ដើម្បីជួយ	-10.9057
▁Block	-10.9057
din	-10.9058
▁nor	-10.9063
▁អាយុ	-10.9064
▁pan	-10.9068
▁sexual	-10.9068
បង្គោល	-10.907
▁permanent	-10.9071
ថ្មីៗនេះ	-10.9072
▁Packing	-10.9074
ការទទួលបាន	-10.9075
▁universities	-10.9076
like	-10.9078
▁household	-10.9078
PCS	-10.908
រស់នៅក្នុង	-10.9081
▁ពិភពលោក	-10.9082
▁Listen	-10.9083
ការរំពឹងទុក	-10.9084
▁អភិវឌ្ឍ	-10.9086
ផ្តោត	-10.9088
បានបញ្ជាក់ថា	-10.9089
▁ខៀវ	-10.909
▁printed	-10.9093
▁brings	-10.9095
ហ្គូ	-10.9097
▁កំណត់ចំណាំ	-10.9097
▁submitted	-10.9099
▁competitiveness	-10.9099
ទិស	-10.9099
▁Touch	-10.9101
zz	-10.9101
បាយ។	-10.9103
ane	-10.9103
▁attractive	-10.9105
kW	-10.9106
▁cloth	-10.9106
ប្រយោជន៍	-10.9107
▁import	-10.911
▁នរោត្តម	-10.9112
▁mid	-10.9113
ទើបតែ	-10.9113
របបអាហារ	-10.9113
▁QC	-10.9114
▁German	-10.9115
CP	-10.9115
ទន្លេមេគង្គ	-10.9116
▁obtained	-10.9117
▁oxygen	-10.912
វ៉ែនតា	-10.9121
-50	-10.9121
▁Zone	-10.9124
1%9	-10.9124
ោ	-10.9128
ram	-10.9129
cha	-10.9131
▁កំណែ	-10.9131
▁detail	-10.9133
ស្ងប់ស្ងាត់	-10.9136
មានបំណង	-10.9141
ស៊ីម៉ងត៍	-10.9142
តង់	-10.9142
▁scientists	-10.9143
បាក់	-10.9143
▁adapt	-10.9145
▁skill	-10.9145
▁mission	-10.9146
▁spot	-10.9148
▁ensures	-10.9148
▁24,	-10.9151
ប្រចាំខែ	-10.9152
ឆា	-10.9154
▁វិច្ឆិកា	-10.9155
អ្នកជក់បារី	-10.9156
▁houses	-10.9157
សម្តេច	-10.9158
not	-10.9158
▁ទន្ទឹមនឹងនេះ	-10.9163
▁requiring	-10.9164
▁favorite	-10.9164
ដុះ	-10.9165
គ្រឿងអលង្ការ	-10.9165
▁កក្កដា	-10.9165
▁War	-10.9166
▁session	-10.9166
▁កសិករ	-10.9168
▁កែប្រែ	-10.9168
របស់ប្រជាពលរដ្ឋ	-10.9169
គួរតែពិភាក្សា	-10.917
HP	-10.9173
មនុស្សយន្ត	-10.9173
▁century	-10.9176
អ្នកគ្រប់គ្រង	-10.9178
ទៅរក	-10.9178
ក្រសួងការពារជាតិ	-10.9182
អាចធ្វើបាន	-10.9184
នៅសាកលវិទ្យាល័យ	-10.9184
▁convenience	-10.9186
អត្ថន័យ	-10.9188
បុណ្យ	-10.9193
វិទ្យា	-10.9195
ទុកឱ្យ	-10.92
▁actual	-10.9203
ប្រដាប់	-10.9205
▁glorious	-10.9208
▁diverse	-10.9208
▁speaking	-10.9208
▁charges	-10.9209
វ៉ាល់	-10.9209
ចិញ្ចៀន	-10.921
▁២១	-10.921
▁Last	-10.921
▁Out	-10.9213
ens	-10.9214
▁combat	-10.9214
ការស្ទង់មតិ	-10.9216
▁EV	-10.9222
▁Sar	-10.9222
▁agrees	-10.9222
័	-10.9223
២២	-10.9227
ហ្គាស	-10.9228
▁refuses	-10.9228
▁Kratie	-10.923
▁Speu	-10.923
▁fashion	-10.9235
:4	-10.9236
▁previously	-10.924
VAC	-10.924
▁ahead	-10.9241
:27	-10.9241
រេ	-10.9243
▁$5	-10.9244
▁Wed	-10.9245
▁អង្កត់ផ្ចិត	-10.9245
▁និងសេវាកម្ម	-10.9246
pl	-10.9247
ស្មោះត្រង់	-10.9248
▁វិនាទី	-10.9249
▁វានឹង	-10.9251
▁retail	-10.9252
▁conservation	-10.9252
▁Fast	-10.9253
អ្នកដំណើរ	-10.9254
តែប៉ុណ្ណោះ	-10.9256
ភាពច្នៃប្រឌិត	-10.9256
ទីបី	-10.9258
មិនត្រឹមត្រូវ	-10.9258
▁objects	-10.9259
ប្រជារាស្ត្រ	-10.9261
▁petition	-10.9264
▁Pan	-10.9265
ep	-10.9265
២១	-10.9266
ny	-10.9267
▁becomes	-10.9268
្រ	-10.9269
▁អំពូល	-10.9269
ភាគល្អិត	-10.9269
ប្រូតេអ៊ីន	-10.9274
▁kept	-10.9274
▁Friday	-10.9275
▁២៣	-10.9275
ដែលមានលក្ខណៈ	-10.9277
▁approval	-10.9278
▁សញ្ញា	-10.9281
▁demanding	-10.9283
▁race	-10.9285
und	-10.9285
▁ធានា	-10.9286
▁វិធីសាស្រ្ត	-10.9289
BO	-10.929
▁poly	-10.9292
ns	-10.9293
▁servo	-10.9297
▁extract	-10.9298
▁preparation	-10.93
អ្នក។	-10.9302
▁quarter	-10.9303
សំណាង	-10.9304
▁យើងខ្ញុំនឹង	-10.9305
▁Environmental	-10.9306
CE	-10.9307
▁ខ្មៅ	-10.9311
▁attack	-10.9312
សេដ្ឋកិច្ច។	-10.9313
របស់រដ្ឋ	-10.9314
គឺជាការ	-10.9315
ow	-10.9315
ជាច្រើនដូចជា	-10.9316
form	-10.9316
▁rope	-10.9321
របស់វាគឺ	-10.9322
របស់ពិភពលោក	-10.9324
▁កំពុងតែ	-10.9324
▁signs	-10.9326
ផ្សាភ្ជាប់	-10.9326
3/	-10.9328
180	-10.9329
ជាជម្រើស	-10.9329
អេសអេស	-10.9332
នាយករដ្ឋមន្រ្តី	-10.9333
▁collect	-10.9337
ពេលដែល	-10.934
▁pollution	-10.9341
ឺ	-10.9345
នៅឡើយ	-10.9345
តំណាងឱ្យ	-10.9348
head	-10.9348
▁leg	-10.9352
▁និ	-10.9352
កំណែទម្រង់	-10.9353
រំខាន	-10.9359
-03	-10.9359
▁encourage	-10.936
▁ពីព្រោះ	-10.9361
▁clothing	-10.9362
▁ទោះយ៉ាងណា	-10.9362
▁Main	-10.9363
▁populace	-10.9364
▁ten	-10.9364
pan	-10.9365
▁ក្នុងករណី	-10.9366
▁យ៉ាងណាមិញ	-10.9366
/3	-10.9366
LS	-10.9366
▁li	-10.9372
▁fishing	-10.9376
▁ចង់ទិញ	-10.9377
គណបក្សប្រជាជន	-10.9378
▁bond	-10.938
▁scholarships	-10.938
-16	-10.9383
▁Chi	-10.9384
ឆ្លាត	-10.9386
FP	-10.9386
▁valuable	-10.9386
▁Notably	-10.9387
▁reference	-10.9387
ឥតឈប់ឈរ	-10.9387
▁130	-10.9387
ផងដែរ៕	-10.9388
▁Ju	-10.9388
វេជ្ជបណ្ឌិត	-10.9389
▁7:	-10.9391
សត្វល្អិត	-10.9393
▁មកពី	-10.9394
▁និងឧបករណ៍	-10.9396
បណ្តា	-10.9396
wi	-10.9397
▁11,	-10.94
-0	-10.9402
▁ដុល្លារ។	-10.9403
▁សីហា	-10.9405
▁phones	-10.941
▁វត្ថុ	-10.9412
▁instrument	-10.9414
▁connecting	-10.9414
ភ្លេច	-10.9414
▁Grand	-10.9416
ការព្យាករណ៍	-10.9417
ការវាយតម្លៃ	-10.9418
ពួកគេ។	-10.9419
▁increasingly	-10.942
▁Son	-10.942
▁យោបល់	-10.9427
-18	-10.9428
▁Ba	-10.9429
ភាពជោគជ័យ	-10.943
រទេះ	-10.9431
▁wrong	-10.9431
វះកាត់	-10.9433
ហេដ្ឋារចនាសម្ព័ន	-10.9434
ប្រឈមមុខនឹង	-10.9435
▁carefully	-10.9436
▁Growing	-10.9436
ដែលមិនអាច	-10.9437
▁focusing	-10.9444
▁Pursat	-10.9454
▁See	-10.9462
▁construct	-10.9462
មេធាវី	-10.9471
អាយុកាល	-10.9471
ឧទ្យាន	-10.9473
ទីភ្នាក់ងារ	-10.9474
▁Coin	-10.9475
▁evaluation	-10.9477
▁Custom	-10.9477
អបអរសាទរ	-10.9478
នាំយក	-10.948
2-	-10.9486
▁41	-10.9486
▁soup	-10.9489
▁សណ្ឋាគារ	-10.949
▁discussed	-10.949
▁changing	-10.949
▁focused	-10.9492
ដោយក្រុមហ៊ុន	-10.9493
▁Malaysia	-10.9495
▁End	-10.9496
▁imports	-10.9499
▁College	-10.9499
▁Unit	-10.95
▁Kh	-10.95
mal	-10.9501
▁Chen	-10.9505
▁ដោយ៖	-10.9505
▁measure	-10.9506
▁កាត់បន្ថយ	-10.9507
▁Buy	-10.9507
Co	-10.9507
បន្ថយ	-10.9511
▁ផ្សារ។	-10.9515
កម្តៅ	-10.9515
▁carrying	-10.9516
របស់អតិថិជន។	-10.9518
▁upgrade	-10.9519
រៀងរាល់	-10.9519
បង្ក្រាប	-10.952
▁380	-10.952
▁បើអ្នក	-10.9522
រោគសញ្ញា	-10.9523
អ្នកលក់	-10.9523
▁charger	-10.9524
▁leads	-10.9524
▁350	-10.9525
▁សុវត្ថិភាព	-10.9525
ម៉ាឡេស៊ី	-10.9528
ត្រូវការអនុវត្ត	-10.9529
▁ពិតជា	-10.9533
▁2020,	-10.9536
▁វ	-10.9537
▁respond	-10.9538
br	-10.954
ទៀតផង។	-10.9541
mail	-10.9542
របស់អ្នកហើយ	-10.9544
និម្មិត	-10.9545
romneath	-10.9545
▁atmosphere	-10.9545
យក្ស	-10.9548
▁advice	-10.955
ចាត់វិធានការ	-10.9551
លោកស្រី	-10.9555
រលូន	-10.9556
ធ្វើឱ្យវា	-10.9559
Our	-10.9562
▁Does	-10.9562
ging	-10.9564
▁protest	-10.9565
ទូរសព្ទ	-10.9565
បំ	-10.9565
យូរអង្វែង	-10.9566
▁PS	-10.9566
ero	-10.9568
ភីកសែល	-10.9568
ផ្សាយតែម	-10.9568
▁<<	-10.9568
ជេរប្រមាថដល់	-10.9568
▁Ne	-10.9569
▁និងដឹកជញ្ជូន	-10.957
▁អ្នកសិក្សា	-10.9573
អ្នកត្រូវតែ	-10.9574
▁proposal	-10.9575
បញ្ចូលមតិ	-10.9575
អាចប្រើ	-10.9577
ចូលទៅកាន់	-10.9578
តិណា	-10.9578
▁played	-10.9579
▁ហេតុ	-10.958
▁smoke	-10.9581
ត់	-10.9582
▁involve	-10.9582
▁Korean	-10.9583
ដែលអាចប្រើបាន	-10.9587
អាគារ	-10.9588
▁husband	-10.959
ឯកតា	-10.959
▁garment	-10.9591
▁Equipment	-10.9591
លាតសន្ធឹង	-10.9591
▁ញុមឃើញ	-10.9592
▁និងបង្កើន	-10.9593
▁roof	-10.9594
dy	-10.9594
▁Well	-10.9595
កូរ៉េខាងត្បូង	-10.9597
▁error	-10.9597
▁ប្រហែល	-10.9598
▁ស្រទាប់	-10.9598
Pro	-10.9602
ធានាបាននូវ	-10.9602
យោបល់	-10.9602
ន៍	-10.9602
▁Ga	-10.9604
នៃកម្មវិធី	-10.9606
▁44	-10.9607
▁equal	-10.9609
ទឹកជំនន់	-10.961
▁សម្ពាធ	-10.9611
▁(2	-10.9612
ឈ	-10.9612
▁pack	-10.9612
▁Rescue	-10.9614
days	-10.9614
▁ear	-10.9615
▁shock	-10.9615
▁បានប្រកាស	-10.9617
ស្នាម	-10.9618
▁ratio	-10.9618
▁cancer	-10.9622
ox	-10.9622
ក្មេងប្រុស	-10.9625
សប្បាយ	-10.9627
▁គណបក្ស	-10.9628
ជានិច្ច។	-10.9629
▁កាមេរ៉ា	-10.9631
គ្រាប់បាល់	-10.9632
resistant	-10.9633
ហ្គី	-10.9634
▁nutrition	-10.9637
▁gaming	-10.9637
▁ongoing	-10.9637
អាកាស	-10.9638
ពណ៌លឿង	-10.9639
▁Ministers	-10.9639
ix	-10.9639
▁ប្រសើរ	-10.9642
▁មេធាវី	-10.9643
គួរតែរំលឹក	-10.9643
ឹង	-10.9645
▁addressing	-10.9645
សំខាន់បំផុត	-10.9645
▁ODM	-10.9645
▁zone	-10.9645
1%	-10.9648
នៃការប្រើប្រាស់	-10.9648
▁នឹងស្វែងយល់	-10.9648
ក្មេងៗ	-10.965
?"	-10.9654
▁កំពង់ផែ	-10.9656
▁unto	-10.9659
សំខាន់នៃ	-10.9659
▁Ki	-10.9659
▁leather	-10.966
អ្នកដទៃប៉ុណ្ណោះ។	-10.9661
ការទទួលស្គាល់	-10.9663
▁wanted	-10.9663
ភ្ជាប់មកជាមួយ	-10.9663
▁scholarship	-10.9665
នៃប្រទេស	-10.9665
▁compliance	-10.9667
van	-10.9667
▁attend	-10.9668
▁beef	-10.967
▁permit	-10.9672
ឆ្នាំ២០២៤	-10.9673
CT	-10.9675
កប្បាស	-10.9676
យល់ពី	-10.9678
UN	-10.9679
ផ្សេងៗទៀត។	-10.9682
ការលើកទឹកចិត្ត	-10.9684
art	-10.9685
▁5:	-10.9686
សាកថ្ម	-10.9688
កញ្ញា	-10.9689
ហ្វូ	-10.9691
▁Convert	-10.9691
▁title	-10.9691
ប្រទេសទាំងពីរ	-10.9694
▁forests	-10.9696
▁aspects	-10.97
កាត់បន្ថយការ	-10.9703
ពណ៌ខៀវ	-10.9704
▁Start	-10.9705
ប៊ិច	-10.9705
▁Us	-10.9706
▁Organization	-10.9706
▁purposes	-10.9708
ក្បែរ	-10.9709
ម៉ាស៊ីនបូមទឹក	-10.971
អាវយឺត	-10.9711
▁SS	-10.9711
▁សត្វ	-10.9711
▁ដែលនឹង	-10.9714
ដាក់ពាក្យសុំ	-10.9715
្វ័យប្រវត្តិកម្ម	-10.9715
▁ត្រូវបានប្រើ	-10.9715
▁adopted	-10.9717
▁1.1	-10.9717
បារម្ភ	-10.9717
បណ្តោះអាសន្ន	-10.9717
AH	-10.972
ចម្អិន	-10.972
ការវាយប្រហារ	-10.9721
បុក	-10.9728
▁Municipal	-10.973
ទូរគមនាគមន៍	-10.973
ការពិតដែលថា	-10.9732
▁trial	-10.9733
ពេទ្យ	-10.9734
នៅក្នុងទីក្រុង	-10.9734
អន្តរ	-10.9736
ច្រើនទៀត	-10.9736
▁specialized	-10.9738
ទេហើយ	-10.974
▁street	-10.9744
hr	-10.9745
▁Will	-10.9745
ker	-10.9746
▁values	-10.9747
▁ថ្លែង	-10.9747
read	-10.9748
▁cloud	-10.975
កប៉ាល់	-10.9753
▁Academy	-10.9753
▁Vihear	-10.9753
▁កត្តា	-10.9753
▁reasonable	-10.9757
ផា	-10.9759
wa	-10.9759
▁router	-10.976
២៧	-10.9762
▁fix	-10.9763
▁mine	-10.9763
▁ព្យាយាម	-10.9763
សង	-10.9763
▁តើអ្នកមាន	-10.9765
▁corner	-10.9765
លើបណ្តាញ	-10.9766
▁39	-10.9767
▁90%	-10.977
ock	-10.9771
har	-10.9773
▁flame	-10.9776
▁forbidden	-10.9776
កុងតាក់	-10.9776
▁Film	-10.9776
ទូរទឹកកក	-10.9776
ដាច់ដោយឡែក	-10.9777
▁ចំ	-10.9777
▁seat	-10.9778
ក្រសួងការងារ	-10.9783
ថយចុះ	-10.9785
▁achiev	-10.9786
សំណាក	-10.9788
star	-10.9788
▁feeling	-10.9789
▁fulfill	-10.9791
ភាពធន់នឹង	-10.9794
ភាពត្រឹមត្រូវនៃ	-10.9794
lay	-10.9795
ដេក	-10.9796
125	-10.9796
ប្ដូរ	-10.9797
ដូង	-10.9797
▁pepper	-10.9799
▁affordable	-10.98
ការបញ្ចូល	-10.9801
▁concepts	-10.9801
ទំនាក់ទំនងជាមួយ	-10.9801
▁constantly	-10.9807
▁មានតែ	-10.9807
▁ចាន់	-10.9808
hether	-10.9808
ដែលអាចបត់បែនបាន	-10.9808
▁vaccine	-10.9808
-200	-10.9809
▁Class	-10.9809
ធ្លាប់	-10.981
▁arts	-10.9813
OC	-10.9814
ក្រៅប្រទេស	-10.9817
OS	-10.9818
កំ	-10.9822
▁Jack	-10.9822
▁poverty	-10.9823
ច្រៀង	-10.9823
▁ញុមមិនដែល	-10.9823
ស្នេហា	-10.9824
▁workpiece	-10.9825
គ្មាននរណាម្នាក់	-10.9826
▁Current	-10.9828
▁hydr	-10.983
istic	-10.9831
▁បរទេស	-10.9831
▁Fri	-10.9839
▁combine	-10.9841
អស់រយៈពេល	-10.9841
ក្នុងនាមជា	-10.9843
▁សហគ្រាស	-10.9844
ព្រះរាជក្រឹត្យ	-10.9844
របួស	-10.9846
បាតុភូត	-10.9847
▁mSpy	-10.9847
រដូវក្តៅ	-10.9853
សត្រូវ	-10.9856
▁separate	-10.9857
▁ប៊ុន	-10.9858
▁holds	-10.9863
សម្រាប់ផលិតផល	-10.9865
rin	-10.9867
▁ឃ	-10.9867
▁adding	-10.9868
▁reliability	-10.987
▁Exchange	-10.987
▁copyright	-10.987
▁បញ្ជី	-10.9871
ប្រសិនបើអ្នកចង់	-10.9871
▁អត្ថប្រយោជន៍	-10.9874
▁09	-10.9875
កង្វះ	-10.9877
អាស៊ីអាគ្នេយ៍	-10.988
▁បច្ចុប្បន្ននេះ	-10.9881
solving	-10.9887
▁Screen	-10.9888
2020	-10.9888
▁solder	-10.9888
▁ថ្ងៃនេះ	-10.989
ជាផ្នែកមួយនៃ	-10.9891
High	-10.9891
▁ហៅ	-10.9892
MHz	-10.9892
▁Ji	-10.9892
▁IT	-10.9893
▁crop	-10.9893
aimed	-10.9894
▁eight	-10.9894
▁transactions	-10.9894
ដើម្បីចាប់ផ្តើម	-10.9894
▁pen	-10.9894
▁vaccination	-10.9895
▁RE	-10.9896
Pa	-10.99
▁Case	-10.99
FT	-10.9903
បានដាក់ចេញនូវ	-10.9903
ប៉ម	-10.9906
▁hat	-10.9907
បារ	-10.9907
៥០០	-10.9908
Do	-10.9909
He	-10.9909
យ៉ាងលឿន	-10.991
▁5000	-10.991
ស្តីពីការ	-10.9913
លើកទឹកចិត្តដល់	-10.9916
មានប្រជាប្រិយភាព	-10.9917
▁រោងចក្រផលិត	-10.9917
▁girls	-10.9917
▁ordinary	-10.9918
▁ពូជ	-10.992
pal	-10.9922
▁80%	-10.9922
អឹម	-10.9927
▁CPP	-10.9927
ប្រធានាធិបតី	-10.9927
▁Know	-10.9928
▁flight	-10.9928
នៃជីវិត	-10.9931
ការកែច្នៃ	-10.9932
ុ	-10.9932
អនុវត្តគោលនយោបាយ	-10.9933
ik	-10.9934
អ្នកអភិវឌ្ឍន៍	-10.9935
▁ឌី	-10.9935
▁maintained	-10.9938
XL	-10.9938
អាល់	-10.9938
▁seed	-10.9939
សុបិន្ត	-10.9939
▁turning	-10.9941
▁៕	-10.9941
▁crises	-10.9941
▁Remember	-10.9942
សម្តែង	-10.9942
▁entrepreneurs	-10.9943
▁spending	-10.9943
បន្តថា	-10.9944
មេឃ	-10.9945
ហ្គីតា	-10.9946
▁IEC	-10.9948
▁payments	-10.9948
ជាទៀងទាត់	-10.9949
▁តាមដាន	-10.9949
▁farm	-10.995
មិនត្រូវការ	-10.9952
ប្រាក់បញ្ញើ	-10.9953
▁Production	-10.9955
▁Press	-10.9958
មួយដែលមាន	-10.9959
hy	-10.996
▁straight	-10.996
product	-10.9962
ជីវ	-10.9965
Following	-10.9966
▁background	-10.9966
បោះបង់ចោល	-10.9969
កេរ្តិ៍ឈ្មោះ	-10.9972
ការប្រមូលផ្តុំ	-10.9974
ដែលបណ្តាលមកពី	-10.9974
mu	-10.9975
ត្រឡប់ទៅ	-10.9976
▁magnetic	-10.9976
▁និងប្រព័ន្ធ	-10.9977
▁stands	-10.9979
ព្រះសង្ឃ	-10.998
2%	-10.998
អ្នកបាន	-10.9983
ular	-10.9983
ចាំ	-10.9984
ទាន់ពេលវេលា	-10.9984
ect	-10.9987
នេះដែរ	-10.9989
សវនាការ	-10.9989
ដែរថា	-10.999
▁mechanisms	-10.9991
▁បដិសេធមិន	-10.9992
ដែលគេ	-10.9993
លាងសម្អាត	-10.9993
▁sin	-10.9994
បញ្ញា	-10.9994
-40	-10.9996
▁គ្រប់គ្រង	-10.9997
បើកដំណើរការ	-10.9997
ផ្សំ	-10.9997
បានឆ្លងកាត់	-11.0001
ណាដែល	-11.0001
▁accident	-11.0003
▁២០១៨	-11.0004
ប្រឆាំងនឹងការ	-11.0005
▁ផ្ដល់	-11.0009
បន្ទាយមានជ័យ	-11.0013
សិល្បករ	-11.0013
▁fluid	-11.0013
▁delay	-11.0013
ដែលមានសមត្ថភាព	-11.0014
▁named	-11.0015
នៅសល់	-11.0015
គ្រឿងផ្សំ	-11.0015
▁appointed	-11.0017
ខេត្តបាត់ដំបង	-11.0017
គ្រាប់ពូជ	-11.0017
▁Abu	-11.0017
▁DE	-11.0018
▁Br	-11.002
ផ្តាច់មុខ	-11.0022
រក្សាសិទ្ធិ	-11.0025
▁finally	-11.0026
▁asset	-11.0026
▁providers	-11.0028
ទ្រទ្រង់	-11.0029
ការនាំចូល	-11.003
និងឧបករណ៍	-11.0031
▁warrant	-11.0032
ណេ	-11.0033
សន្លាក់	-11.0033
ចុះក្រោម	-11.0037
▁lithium	-11.0037
▁engagement	-11.0038
DM	-11.0039
▁Click	-11.0039
▁Filling	-11.0043
ប្រជុំ	-11.0045
នៃកម្ពុជា	-11.0046
▁interests	-11.0046
▁covered	-11.0047
ants	-11.0047
ចាត់ទុក	-11.0049
មានលទ្ធភាព	-11.0049
ម៉ូត	-11.0049
សម្រាប់អ្នក។	-11.0051
▁ផ្លាស់	-11.0052
ដែលមានតម្លៃ	-11.0052
▁smile	-11.0053
han	-11.0057
េ	-11.0057
▁Area	-11.0058
▁exquisite	-11.0061
▁Ex	-11.0061
0.00	-11.0062
▁នេះគឺ	-11.0064
▁settings	-11.0065
សួនច្បារ	-11.0066
▁ឬក៏	-11.0066
▁នាយកដ្ឋាន	-11.0069
ជាងគេ	-11.007
▁Yu	-11.0072
▁specifications	-11.0073
▁career	-11.0073
ពលរដ្ឋខ្មែរ	-11.0074
នៅក្នុងប្រព័ន្ធ	-11.0074
បម្លែង	-11.0075
វាយប្រហារ	-11.0077
សមស្របសម្រាប់	-11.0077
▁ne	-11.0078
ick	-11.0078
▁ផែនទី	-11.0079
▁Great	-11.0079
សី	-11.008
▁មករា	-11.0082
ស្តេច	-11.0083
▁rail	-11.0084
▁អាជីវកម្ម	-11.0084
▁វិធានការ	-11.0084
យកចិត្តទុកដាក់លើ	-11.0084
▁delicious	-11.0085
ឡុង	-11.0089
ទទួលបានការ	-11.009
LB	-11.0092
▁0.3	-11.0092
▁slowly	-11.0092
រួមចំណែក	-11.0093
▁សរសេរ	-11.0094
▁Payment	-11.0096
▁តុលា	-11.0098
▁push	-11.01
▁yield	-11.0101
ក៏នឹង	-11.0101
ក្រុមហ៊ុនផលិតនិង	-11.0101
ការខាតបង់	-11.0105
▁listen	-11.0108
ក្រាហ្វិក	-11.0108
លុបចោល	-11.0109
▁shirt	-11.0109
▁ស្ថាប័ន	-11.0109
ការរួមបញ្ចូលគ្នា	-11.0109
▁cannabis	-11.011
▁Alloy	-11.011
ទី៣	-11.0113
សម្	-11.0116
ត្រូវបានរក្សាទុក	-11.0117
▁ការស្រាវជ្រាវ	-11.0117
OT	-11.0118
▁ក៏មាន	-11.0118
BR	-11.012
ហ្សា	-11.0126
▁globally	-11.0126
MB	-11.0127
▁websites	-11.0128
ឧបករណ៍បញ្ជា	-11.0129
▁hack	-11.0131
yan	-11.0133
បញ្ច្រាស	-11.0133
▁ធ្លាប់	-11.0133
▁thy	-11.0134
អ្វីៗទាំងអស់	-11.0134
▁brain	-11.0137
▁Monitor	-11.0138
▁Middle	-11.014
▁រដ្ឋបាល	-11.014
ការបរទេស	-11.014
▁Thanks	-11.0141
សញ្ជាតិ	-11.0147
▁ជាប់	-11.0147
សេដ្ឋកិច្ចជាតិ	-11.0147
▁Like	-11.0148
▁ដែក	-11.0155
ដែលអាចធ្វើទៅបាន	-11.0156
▁ដើម្បីទទួលបាន	-11.0158
ចំណង់ចំណូលចិត្ត	-11.0158
▁existence	-11.0158
បញ្ជាក់ពី	-11.0158
▁else	-11.0158
:28	-11.0159
▁3.0	-11.0159
▁សេវា	-11.016
▁Hack	-11.0163
▁pipes	-11.0163
ដែលមិនមែនជា	-11.0166
▁rapidly	-11.0167
▁ម៉ា	-11.0169
▁Tube	-11.0171
ខ្លាច	-11.0171
▁និងការអភិវឌ្ឍ	-11.0174
ថេ	-11.0175
មួយឆ្នាំ	-11.0176
បុណ្យណូអែល	-11.018
:29	-11.018
▁granite	-11.0182
▁glory	-11.0182
ពាណិជ្ជករ	-11.0182
▁compensation	-11.0182
▁Kids	-11.0182
ធ្វើអ្វី	-11.0186
មិនជ្រាបទឹក	-11.0189
សម្រាប់គោលបំណង	-11.0192
▁ST	-11.0192
▁truck	-11.0194
ក្នុងតំបន់។	-11.0194
LP	-11.0196
▁radio	-11.0196
សណ្តាប់ធ្នាប់	-11.0196
▁នៅទីនេះ	-11.0197
ប៉ាក់	-11.0199
▁240	-11.02
សាធារណជន	-11.02
max	-11.0202
យ៉ាងណាក៏ដោយ	-11.0203
គុណ	-11.0204
កត់ត្រា	-11.0208
បកស្រាយ	-11.0208
មានសិទ្ធិ	-11.0209
▁២០២៤	-11.021
វេ	-11.0213
យកមក	-11.0214
ដើម្បីផ្តល់	-11.0216
▁បែប	-11.0216
▁Fund	-11.0216
▁pull	-11.0217
▁Yan	-11.0217
ច្នៃ	-11.0218
▁Storage	-11.0218
▁Engine	-11.0221
អ្នកនិពន្ធ	-11.0222
ជាក្រុម	-11.0223
៧៥	-11.0224
កែ	-11.0224
ថា៖	-11.0226
▁Sha	-11.0227
▁fight	-11.0227
▁៧០	-11.023
▁ជប៉ុន	-11.0231
▁Fisheries	-11.0231
▁Republic	-11.0231
▁brake	-11.0231
ដោយរបៀបណា	-11.0232
▁extend	-11.0233
សមត្ថភាពក្នុងការ	-11.0234
វីនដូ	-11.0235
▁បានធ្វើ	-11.0236
▁observed	-11.0237
របប	-11.0238
អេហ្វ	-11.0241
▁forming	-11.0242
តំណែង	-11.0242
▁participated	-11.0243
ស្លាកសញ្ញា	-11.0243
▁occur	-11.0243
ទ្វេដង	-11.0247
▁បង្ហាញពី	-11.0248
UT	-11.0248
ការចោទប្រកាន់	-11.0248
នៅពេលនេះ	-11.0248
▁funding	-11.0249
ទស្សនកិច្ច	-11.025
▁០០០	-11.0251
▁irrigation	-11.0251
▁ដែកអ៊ីណុក	-11.0252
ស៊ីលីកុន	-11.0255
▁Local	-11.0256
▁Earth	-11.0258
▁transformation	-11.0259
▁0.2	-11.0262
បង្	-11.0263
▁HDMI	-11.0263
▁covering	-11.0264
▁អេ។	-11.0266
▁ញុមនឹង	-11.0267
ជឿថា	-11.0268
បរិវេណ	-11.0269
ហ៊ី	-11.0271
ទិវា	-11.0272
ការចងចាំ	-11.0273
▁quiet	-11.0275
កើតមាន	-11.0276
យ៉ូ	-11.0276
▁stream	-11.0276
នឹងធ្វើឱ្យ	-11.0277
▁និងលើកកម្ពស់	-11.0278
ធន់នឹង	-11.028
▁Gen	-11.028
ខ្ពស់និង	-11.0282
ឱ្យកាន់តែ	-11.0283
បៀ	-11.0286
house	-11.0291
ou	-11.0292
▁hundred	-11.0293
▁adjusted	-11.0296
▁Act	-11.0299
មានមុខងារ	-11.0301
ស្ដង់ដារ	-11.0303
ពិភពលោក។	-11.0304
ចំនុច	-11.0305
▁ultra	-11.0305
▁Cooperation	-11.0305
ល្អប្រសើរជាងមុន	-11.0305
▁giant	-11.0305
▁conveyor	-11.0306
ពពុះ	-11.0307
របង	-11.0309
▁Ru	-11.0309
ទឹកប្រាក់	-11.0314
▁tales	-11.0315
ផ្តាច់	-11.0316
ការប្រើ	-11.0316
ឆក់	-11.0318
ស្វែងយល់ពី	-11.0319
▁Personal	-11.0321
សង្ឃឹមថា	-11.0322
▁desire	-11.0325
▁judicial	-11.0325
▁mostly	-11.0326
▁suit	-11.0327
▁umbrella	-11.0329
លាបក្រែមលាប	-11.0329
២៣	-11.033
គ្មានអ្វី	-11.033
▁Body	-11.0331
កម្មវិធីនេះ	-11.0332
yo	-11.0333
បានធ្វើការ	-11.0333
រក្សាបាននូវ	-11.0333
wing	-11.0334
ដែលទាក់ទង	-11.0335
ប៉ូលីស	-11.0336
▁tape	-11.0337
▁outer	-11.0338
ប្រទេសជាតិ	-11.0339
សូន្យ	-11.0339
▁ji	-11.034
អំពើពុករលួយ	-11.0341
lic	-11.0343
▁ប្រចាំ	-11.0344
▁drops	-11.0345
▁8:	-11.0345
▁អ្នកក៏អាច	-11.0345
▁seeds	-11.0346
មុខរបរ	-11.0348
▁discussion	-11.0348
ការតំឡើង	-11.0348
▁Comments	-11.0351
យ៉ាងសកម្ម	-11.0352
ទាំងបី	-11.0352
▁password	-11.0354
▁serving	-11.0354
▁Rieng	-11.0354
▁Order	-11.0354
▁12:	-11.0355
▁តើអ្វីទៅជា	-11.0356
▁resilient	-11.0356
▁vegetable	-11.0363
រាជរដ្ឋាភិបាល។	-11.0364
នៅក្បែរ	-11.0364
ការប្រកាស	-11.0366
:31	-11.0369
▁partnerships	-11.0369
▁Tag	-11.037
▁smoker	-11.0371
ប្រសិទ្ធភាពនៃ	-11.0376
▁Federation	-11.0379
▁mathematics	-11.0379
▁Related	-11.0379
បែក	-11.038
▁Cat	-11.0381
▁វិធីសាស្ត្រ	-11.0383
▁Four	-11.0383
ផលិតផលដែល	-11.0384
នៅទូទាំងពិភពលោក	-11.0386
បានកើតឡើង	-11.0389
ជាថ្មី	-11.039
▁recover	-11.0391
▁mo	-11.0391
▁Para	-11.0396
ari	-11.0396
▁decrease	-11.0396
pin	-11.0397
mb	-11.0397
▁CBD	-11.0398
ចេ	-11.0398
▁zones	-11.0399
BI	-11.0399
site	-11.04
▁ប្រភព	-11.04
▁convert	-11.0402
▁ease	-11.0402
ផ្ទាល់ខ្លួន។	-11.0403
៣៥	-11.0403
▁supplies	-11.0404
តំណាងរាស្ត្រ	-11.0404
ការអាន	-11.0404
▁លក់ដុំ	-11.0405
កំពុងត្រូវបាន	-11.0406
▁Clean	-11.0406
ហិកតា	-11.0407
:14	-11.0408
▁locations	-11.0408
▁affairs	-11.0409
ola	-11.041
ធ្វើពាណិជ្ជកម្ម	-11.0411
វិស្វករ	-11.0411
ផ្សាយ	-11.0411
រីករាយនឹង	-11.0414
ឆ្វេង	-11.0415
ake	-11.0418
របស់អ្នកនិង	-11.0418
▁Safety	-11.042
ស្រេចចិត្ត	-11.042
▁នៅឆ្នាំ	-11.0424
▁ទោះបីជាមាន	-11.0424
▁FOR	-11.0428
▁testimony	-11.0429
▁Minecraft	-11.0429
▁Authority	-11.0429
តួអក្សរ	-11.043
▁Large	-11.0431
▁អញ	-11.0432
▁ទស្សនា	-11.0433
▁កាត	-11.0433
ស្កេន	-11.0435
ប្រាសាទ។	-11.0436
▁proposed	-11.0437
sen	-11.0437
ព្រះវិហារ	-11.0437
▁ដើម្បីកាត់បន្ថយ	-11.0437
▁witness	-11.0439
▁dual	-11.0444
nes	-11.0445
ថ្ងៃសុក្រ	-11.0447
fi	-11.045
related	-11.0451
▁MS	-11.0451
▁និងសុវត្ថិភាព	-11.0452
ដែលមានទំហំ	-11.0452
▁aiming	-11.0452
បាល	-11.0453
▁swimming	-11.0454
▁discipline	-11.0454
▁Led	-11.0456
▁secondary	-11.0456
កាំបិត	-11.0456
ដាក់ពាក្យ	-11.0461
▁decide	-11.0461
▁បញ្ចេញ	-11.0462
ម៉ាកយីហោ	-11.0462
ដំបូន្មាន	-11.0462
ទុន	-11.0463
ទេពកោសល្យ	-11.0464
row	-11.0464
▁Change	-11.0464
▁5)	-11.0464
ទាន	-11.0466
▁Heat	-11.0467
▁1/2	-11.047
ម៉ាស៊ីនកិន	-11.047
នាំមុខ	-11.0472
▁QR	-11.0472
ដោះ	-11.0472
▁ultimate	-11.0473
អ្នកសារព័ត៌មាន	-11.0474
3%	-11.0479
DR	-11.048
▁alarm	-11.0481
ដ៏ល្បីល្បាញ	-11.0482
▁ការបង្ហាញ	-11.0482
|	-11.0483
នេសាទ	-11.0485
▁tablet	-11.0487
tar	-11.0487
▁foods	-11.0491
មកលើ	-11.0491
្ត	-11.0492
ហេ	-11.0492
De	-11.0492
▁Indonesia	-11.0492
▁និងអ្នក	-11.0492
សុ	-11.0496
បណ្ដាញ	-11.0497
▁១០០០	-11.0498
▁encourages	-11.0499
Mpa	-11.05
ការសរសេរ	-11.0501
ko	-11.0502
▁intelligence	-11.0504
▁Riel	-11.0505
▁presided	-11.0507
▁XNUMX	-11.0509
▁diet	-11.0509
▁យុទ្ធនាការ	-11.0509
ខេត្តសៀមរាប	-11.051
▁Comp	-11.051
សម្ងាត់	-11.0511
▁panels	-11.0511
ស្រោមដៃ	-11.0511
០៤	-11.0513
ត្រូវតែមាន	-11.0513
eg	-11.0514
▁chains	-11.0515
qu	-11.0515
▁holes	-11.0516
ជំងឺមហារីក	-11.0518
▁pin	-11.0518
យើងកំពុង	-11.0518
ខ្នាត	-11.0518
▁យប់	-11.052
ដែលពាក់ព័ន្ធ	-11.0521
▁marking	-11.0523
▁provider	-11.0524
ដាក់ឱ្យដំណើរការ	-11.0524
ery	-11.0525
▁គង់	-11.0526
▁Banteay	-11.0529
ប្រដាប់ក្មេងលេង	-11.0529
ប្រកបដោយគុណភាព	-11.053
ពិធីជប់លៀង	-11.053
លេ	-11.0531
▁Everyone	-11.0531
ម៉េស	-11.0531
▁ហើយគាត់បាន	-11.0533
▁4-	-11.0533
▁reality	-11.0535
គ្លីនិក	-11.0537
▁Jan	-11.0537
▁threats	-11.0538
4)	-11.0539
▁sight	-11.054
លាបថ្នាំបាញ់	-11.054
ដេរ	-11.0542
▁blade	-11.0543
▁records	-11.0544
▁Bottle	-11.0545
hua	-11.0545
រូបចម្លាក់	-11.0547
គិតអំពី	-11.0548
ក្នុងការបង្កើត	-11.055
អេច	-11.0552
ឥឡូវ	-11.0552
នៃសាកលវិទ្យាល័យ	-11.0553
ប្រាជ្ញា	-11.0554
▁BS	-11.0554
ស្អប់	-11.0554
▁vocational	-11.0554
▁eco	-11.0555
▁ចុង	-11.0555
▁winter	-11.0556
កិច្ចសហការ	-11.0559
អេកូ	-11.0561
ការបំពុល	-11.0562
▁ក្លាយ	-11.0563
▁feeding	-11.0564
តើអ្នក	-11.0567
▁flavor	-11.0568
▁adjustment	-11.0571
▁អំណាច	-11.0572
▁investor	-11.0573
▁១៥០	-11.0574
▁បើទោះបីជា	-11.0574
making	-11.0575
▁enable	-11.0579
វេបសាយ	-11.058
▁protein	-11.058
▁sovereignty	-11.058
▁160	-11.0581
ans	-11.0581
ឆ្លើយ	-11.0581
▁Spirit	-11.0582
▁prescribed	-11.0584
រយ	-11.0588
ឆ្មា	-11.0589
ណាមួយដែល	-11.0589
យ៉ាងច្បាស់	-11.059
▁Services	-11.0591
គិតពី	-11.0591
ការផ្តល់	-11.0594
▁chemistry	-11.0595
នៅក្នុងប្រទេស។	-11.0596
▁formed	-11.0598
ពិភាក្សាអំពី	-11.0599
▁destroy	-11.0599
▁កុម្ភៈ	-11.0603
ស្នោ	-11.0605
វាមិន	-11.0605
▁ASTM	-11.0607
▁និងកាត់បន្ថយ	-11.0608
ជិះកង់	-11.0609
▁Im	-11.0609
រួមបញ្ចូលទាំង	-11.0609
ផ្សេងទៀតដែល	-11.061
▁counter	-11.0611
▁deaths	-11.0612
▁links	-11.0613
០៥	-11.0613
ified	-11.0613
សំណុំ	-11.0617
▁Bit	-11.0617
▁experiments	-11.0618
pt	-11.0622
▁Roller	-11.0623
ធនធានធម្មជាតិ	-11.0623
រំដោះ	-11.0623
ចំនួនទឹកប្រាក់	-11.0626
▁pH	-11.0626
ស្ថិតនៅក្រោម	-11.0627
កខ្វក់	-11.0628
▁covers	-11.0629
▁knife	-11.063
▁craft	-11.0631
316	-11.0631
ហើយដូច្នេះ	-11.0632
ការពេញចិត្ត	-11.0634
▁Output	-11.0634
▁ឆ្នាំ២០២១	-11.0636
អ្នកវិនិយោគ	-11.0636
ធ្វើឱ្យប្រាកដថា	-11.0637
DN	-11.0639
▁hundreds	-11.0642
▁humidity	-11.0644
អេកូឡូស៊ី	-11.0645
ដំណើរការផលិត	-11.0646
ឧ	-11.0646
័រ	-11.0649
ên	-11.065
▁Lead	-11.065
fr	-11.0653
▁kg	-11.0655
៤៤	-11.0656
▁inclusive	-11.0656
▁pork	-11.0657
▁brightness	-11.0657
រីករាយជាមួយ	-11.0658
▁ក្រៅ	-11.0658
▁ការដឹកជញ្ជូន	-11.0658
▁portable	-11.066
ម៉	-11.066
▁និងសំណង់	-11.066
▁10,000	-11.0661
ការបើក	-11.0662
មិនដែល	-11.0662
▁praised	-11.0663
សម្រាប់ក្រុមហ៊ុន	-11.0664
▁gifts	-11.0665
▁soap	-11.0666
ម៉ឺននាក់	-11.0667
ric	-11.067
▁bicycle	-11.0673
▁hearts	-11.0673
សមរម្យសម្រាប់	-11.0675
▁languages	-11.0675
ឡើងទៅ	-11.0676
▁plus	-11.0679
▁Natural	-11.068
ពង	-11.068
រាប់ពាន់	-11.0681
:30	-11.0681
ម៉ាស៊ីនមេ	-11.0681
▁ហេតុអីបានជា	-11.0681
អូឌីយ៉ូ	-11.0682
▁CR	-11.0683
អណ្តាតភ្លើង	-11.0686
នៅចុង	-11.069
▁Senate	-11.069
ហូ	-11.069
នឹងអាច	-11.0691
ae	-11.0691
▁returned	-11.0693
មានតម្រូវការ	-11.0694
ធ្វើឱ្យមាន	-11.0695
ប្រសិនបើវា	-11.0695
▁ក្រសួងអប់រំ	-11.0696
គ្រប	-11.0696
រាជ	-11.0697
សំលេងរំខាន	-11.0699
តាមប្រព័ន្ធ	-11.0701
អោយប្រសើរឡើងនូវ	-11.0702
▁campaigns	-11.0704
ការជូនដំណឹង	-11.0706
▁Forestry	-11.0708
ដើម្បីមើល	-11.0708
ចុងក្រោយបំផុត	-11.0708
▁codes	-11.0708
អ្នកនឹងត្រូវ	-11.0711
អធិស្ឋាន	-11.0713
ទីលាន	-11.0714
អ្នកមិនអាច	-11.0715
LT	-11.0715
សមហេតុផល	-11.0717
▁flood	-11.0719
រំលាយ	-11.072
កម្រ	-11.0721
▁mitigate	-11.0729
▁២៦	-11.073
នៅខាងក្រោម	-11.0733
▁purchasing	-11.0733
ការស្នើសុំ	-11.0734
▁challenge	-11.0734
▁otherwise	-11.0734
ខៀវ	-11.0734
▁លក្ខខណ្ឌ	-11.0735
▁Place	-11.0736
▁bio	-11.0738
▁Sihanoukville	-11.0738
អ្នកបង្កើត	-11.0738
▁ញ	-11.0739
ភព	-11.0739
ក្នុងមួយឆ្នាំ	-11.074
▁visited	-11.0741
▁46	-11.0743
នៅក្នុងហ្គេម	-11.0745
▁2-	-11.0745
ការបន្ថែម	-11.0746
▁ស្លាប់	-11.0746
ល្ងាច	-11.0747
▁តម្រូវឱ្យ	-11.0748
3,	-11.075
▁ព្រះអម្ចាស់	-11.0752
ការសាកល្បង	-11.0753
▁Table	-11.0754
▁stores	-11.0754
ino	-11.0755
ឌីស	-11.0755
▁chat	-11.0755
អត្ថប្រយោជន៍ពី	-11.0757
ula	-11.0758
ឈ្មួញ	-11.0758
▁សិទ្ធិ	-11.0758
▁insurance	-11.0759
▁overseas	-11.0759
▁breach	-11.0759
▁Foundation	-11.0759
▁Hall	-11.076
ផ្តល់សិទ្ធិឱ្យ	-11.076
ala	-11.076
▁reviews	-11.0761
▁និងអភិវឌ្ឍន៍	-11.0763
101	-11.0764
ថ្មក្រានីត	-11.0765
▁reduces	-11.0766
▁shapes	-11.0766
▁drugs	-11.0767
▁Italy	-11.0767
TF	-11.0767
▁Tan	-11.0768
▁Takeo	-11.0772
▁diamond	-11.0777
▁restaurant	-11.0777
▁បង់	-11.0777
▁distribute	-11.0777
RA	-11.0778
EX	-11.0778
កូនប្រុស	-11.0778
▁mere	-11.0779
គីឡូម៉ែត្រ	-11.078
វិមាត្រ	-11.0783
▁verdict	-11.0784
ជាលិកា	-11.0784
▁damaged	-11.0785
▁ញុមចង់បាន	-11.0785
សម្រាប់គម្រោង	-11.0786
បានមកដល់	-11.0787
▁លាននាក់	-11.0788
៤នាក់	-11.0788
▁ប្រហែលជា	-11.0788
▁Mesh	-11.0792
▁អស្ចារ្យ	-11.0793
អ្នកកាន់	-11.0795
ខ្លាញ់	-11.0796
ស៊ូ	-11.0797
ទាប។	-11.0798
ទុកចិត្ត	-11.0799
▁ties	-11.0801
កន្សែង	-11.0802
អេក្រង់បង្ហាញ	-11.0802
LY	-11.0803
មានគោលបំណង	-11.0807
គឺជាផ្នែកមួយនៃ	-11.0807
អំពើ	-11.0808
ju	-11.0808
DE	-11.0809
▁sharp	-11.081
▁PayPal	-11.081
▁laptop	-11.081
▁Oxford	-11.081
▁gym	-11.0811
ចូលរួមយ៉ាងសកម្ម	-11.0811
▁រៀន	-11.0811
▁cancel	-11.0812
ប៉ូលា	-11.0812
ics	-11.0812
បន្ថែមលើ	-11.0813
▁consistently	-11.0814
▁effectiveness	-11.0814
នៅទូទាំងប្រទេស	-11.0815
២៦	-11.0815
▁ភាគ	-11.0815
ជ្រើសរើសយក	-11.0817
▁entering	-11.0817
▁Fair	-11.0818
ច្រើនពេក	-11.0819
▁និងបច្ចេកវិទ្យា	-11.0822
▁សង្គម	-11.0822
▁Wood	-11.0823
ុក	-11.083
▁ស្អាត	-11.083
▁strengthened	-11.0832
▁កិច្ចការ	-11.0835
សប្តាហ៍	-11.0835
កន្លះ	-11.0836
ចរាចរ	-11.0836
បន្តិចបន្តួច	-11.0836
▁literacy	-11.0836
▁compact	-11.0836
▁uphold	-11.0838
▁Deep	-11.0839
េន	-11.0839
Mo	-11.0841
▁Tu	-11.0842
▁សម្ដេច	-11.0842
សំណុំរឿង	-11.0847
តំរូវការ	-11.0848
▁ជិត	-11.0849
▁explain	-11.085
ពិភព	-11.085
▁អនុប្រធាន	-11.0851
▁316	-11.0852
1-	-11.0852
ថែទាំសុខភាព	-11.0854
បន្ថែម។	-11.0856
▁formula	-11.0856
សាកសួរ	-11.0859
AF	-11.0861
▁juice	-11.0861
▁ដែលធ្វើឱ្យ	-11.0862
ស៊ុប	-11.0862
អាជីវករ	-11.0862
▁Cannabis	-11.0862
▁ecosystem	-11.0862
ជួយឱ្យ	-11.0864
▁អ្នកនិពន្ធ	-11.0866
▁labeling	-11.0868
▁minor	-11.0869
អ្នកអាចទទួលបាន	-11.0872
អញ្ជើញ	-11.0874
▁stones	-11.0875
her	-11.0876
រឹតបន្តឹង	-11.0876
▁វិ	-11.0877
សុន	-11.0877
▁51	-11.0877
▁Square	-11.0879
KH	-11.0879
▁trans	-11.0882
▁Parts	-11.0882
ឃាត់ខ្លួន	-11.0883
ទាំងអស់គ្នា	-11.0883
▁Watch	-11.0883
បម្រុងទុក	-11.0884
▁រូបថត	-11.0885
fold	-11.0886
▁TM	-11.0887
ចង្ក្រាន	-11.0888
▁immense	-11.0888
▁trafficking	-11.0889
នៅក្នុងផ្នែក	-11.0889
▁enduring	-11.0889
dis	-11.0892
ពោះ	-11.0892
នៃទីក្រុង	-11.0893
▁shipment	-11.0893
5°	-11.0893
▁Moha	-11.0894
Kg	-11.0896
ក្របខ័ណ្ឌ	-11.0897
ជនសង្ស័យ	-11.0898
រំលោភ	-11.0899
▁trip	-11.0899
▁decisions	-11.0903
▁ban	-11.0905
▁នៅពេលដែលអ្នក	-11.0907
▁drilling	-11.0907
-35	-11.0907
សម្ពាធខ្ពស់	-11.0908
▁គ្រូពេទ្យ	-11.091
សញ្ញាបត្រ	-11.091
ប្រយុទ្ធប្រឆាំង	-11.0912
អរ	-11.0912
▁Zhejiang	-11.0915
▁ប្រាប់ញុម	-11.0915
▁enforcement	-11.0915
២០០	-11.0917
វាត្រូវបានគេ	-11.0917
▁Email	-11.0918
cho	-11.0919
សែន	-11.092
▁scheduled	-11.0922
រដូវកាល	-11.0923
▁semi	-11.0923
▁stronger	-11.0926
▁explained	-11.0926
zhou	-11.0929
down	-11.0931
▁ការការពារ	-11.0932
ខ្ញុំមាន	-11.0934
▁vertical	-11.0936
ភ្លាម	-11.094
gi	-11.0941
និងហិរញ្ញវត្ថុ	-11.0941
អន្ដរជាតិ	-11.0941
▁Military	-11.0941
▁biggest	-11.0941
ព្រហ្មទណ្ឌ	-11.0941
នីឡុង	-11.0942
បើប្រៀបធៀបទៅនឹង	-11.0942
▁inform	-11.0944
▁ទិន្នផល	-11.0945
០២	-11.0945
▁Site	-11.0947
▁Sale	-11.0948
▁ទំនិញ	-11.0951
lock	-11.0951
▁boat	-11.0952
៨៥	-11.0952
ខែកក្កដា	-11.0954
▁adopt	-11.0954
▁ប្រាស់	-11.0957
▁គោលការណ៍	-11.0959
ការប្រុងប្រយ័ត្ន	-11.0961
▁pages	-11.0961
▁sentence	-11.0962
▁Hey	-11.0963
▁stored	-11.0964
នាពេលអនាគត។	-11.0965
បានបង្ហាញពី	-11.0966
▁វ៉	-11.0967
ស្ទ	-11.097
sp	-11.0975
▁និងនវានុវត្តន៍	-11.0975
▁virtual	-11.0977
table	-11.0978
▁តម្រូវការ	-11.0979
▁Innovation	-11.098
យើងមិន	-11.0981
▁granted	-11.0984
▁ទីបំផុត	-11.0984
ការផ្ទេរ	-11.0987
ខ្លួនអ្នក	-11.0991
ព្រមទាំង	-11.0991
▁conversion	-11.0994
កោង	-11.0996
▁Dis	-11.0997
មន្ត្រីជាន់ខ្ពស់	-11.1001
ដែលត្រូវគ្នា	-11.1001
▁shoulder	-11.1002
ដើម្បីជៀសវាង	-11.1002
ez	-11.101
▁armed	-11.101
ត្រូវបានពង្រឹង	-11.1012
cut	-11.1012
AD	-11.1016
market	-11.1019
ឥរិយាបថ	-11.102
▁spokesperson	-11.102
▁Quartz	-11.102
ផ្អែម	-11.1021
គ្រា	-11.1022
▁tempered	-11.1022
SR	-11.1022
ជនជាតិចិន	-11.1025
ពន្ធនាគារ	-11.1027
▁មាស	-11.1027
▁នឹងត្រូវ	-11.1028
▁noticed	-11.1029
ត្នោត	-11.1029
phone	-11.103
▁ផ្សារ	-11.103
og	-11.1035
▁Shandong	-11.1035
វិញ្ញាណ	-11.1036
ត្រូវបានរកឃើញ	-11.1037
▁traditions	-11.104
▁បង្កើតបានជា	-11.1041
▁Find	-11.1042
▁សន្តិភាព	-11.1043
ព្រះករុណាព្រះបាទ	-11.1043
ទ្រព្យ	-11.1046
ជំហរ	-11.1047
▁football	-11.1047
▁Tea	-11.1047
▁false	-11.1048
សំបកកង់	-11.1051
▁designated	-11.1051
តំលៃ	-11.1052
ជូ	-11.1052
sales	-11.1054
▁DIY	-11.1055
ជួបប្រទះ	-11.1056
lt	-11.1056
ការពិនិត្យឡើងវិញ	-11.1056
▁elections	-11.1058
ឱ្យដឹងថា	-11.106
ural	-11.1061
ris	-11.1065
▁Certificate	-11.1067
▁Guide	-11.1067
▁formal	-11.107
ស្ថានទូត	-11.107
▁Surface	-11.1072
▁Apsara	-11.1073
▁amazing	-11.1073
▁salad	-11.1073
▁York	-11.1073
▁hardware	-11.1074
ខាងជើង	-11.1075
សង្ស័យ	-11.1075
▁IC	-11.1076
▁bamboo	-11.1077
សព្វថ្ងៃនេះ	-11.1078
▁chips	-11.1078
ែន	-11.1079
ight	-11.108
▁វេលា	-11.1081
ដើម្បីគ្រប់គ្រង	-11.1081
▁ពាន់	-11.1082
បុរសម្នាក់	-11.1082
▁Peter	-11.1083
មានអាយុ	-11.1084
ម្រាមដៃ	-11.1084
▁molding	-11.1087
▁សញ្ញាបត្រ	-11.1096
▁លីត្រ	-11.1097
▁អចលនទ្រព្យ	-11.1098
ដូចគ្នានឹង	-11.1098
▁ការិយាល័យ	-11.1099
210	-11.11
▁lucidum	-11.11
▁Southeast	-11.11
▁replacement	-11.1102
ona	-11.1105
▁yuan	-11.1106
បាច់	-11.1107
ដើម្បីកំណត់	-11.1109
▁ad	-11.1109
▁125	-11.1112
▁nail	-11.1113
▁improves	-11.1113
ភាពរឹងមាំ	-11.1114
បានកំណត់	-11.1117
▁bacteria	-11.112
▁casinos	-11.1123
pon	-11.1124
កក	-11.1124
▁សម្ដេចធិបតី	-11.1125
អ្នកទស្សនា	-11.1126
▁suspects	-11.1126
▁ភ្ជាប់	-11.1126
▁suspension	-11.1127
▁glue	-11.1127
rate	-11.1128
▁frequently	-11.113
គណនីរបស់អ្នក	-11.1131
▁kit	-11.1133
▁remaining	-11.1135
ដុល្លារអាមេរិក	-11.1136
▁ក្នុងឱកាស	-11.1136
ឧកញ៉ា	-11.1137
▁suspended	-11.1137
នឹងចាប់ផ្តើម	-11.1139
▁Veng	-11.114
point	-11.1143
log	-11.1145
▁Beacon	-11.1146
▁optional	-11.1146
▁ដើម្បីជំរុញ	-11.1147
▁ជំហានទី	-11.1148
ជាបន្តបន្ទាប់។	-11.115
▁uniform	-11.1153
ពលករ	-11.1153
នៅប្រទេស	-11.1153
បច្ចុប្បន្ននេះ	-11.1153
▁72	-11.1153
▁រស់	-11.1153
មគ្គុទ្ទេសក៍	-11.1153
▁recognition	-11.1153
▁Packaging	-11.1153
▁Planning	-11.1154
▁programming	-11.1155
▁regulatory	-11.1156
▁Add	-11.1159
▁ទូល	-11.1161
▁remained	-11.1163
▁សំដៅ	-11.1164
▁ជាដើម	-11.1164
កាប់	-11.1164
ទ្រង់ទ្រាយធំ	-11.1165
ដើរតួនាទីយ៉ាង	-11.1168
border	-11.1168
ភាពជាអ្នកដឹកនាំ	-11.1169
បានរកឃើញថា	-11.117
▁shell	-11.1171
ត្រឡប់	-11.1173
▁occasion	-11.1176
▁ពាក់ព័ន្ធ	-11.1177
គ្រឿងសង្ហារឹម	-11.118
▁welfare	-11.118
▁Focus	-11.118
ចង្វាក់	-11.1181
ich	-11.1181
ល្បីល្បាញ	-11.1181
PA	-11.1182
▁រវាង	-11.1183
▁vitamin	-11.1183
ក្រាហ្វិច	-11.1184
▁hardness	-11.1184
▁Bridge	-11.1185
ទទួលស្គាល់ថា	-11.1186
ដើម្បីស្វែងរក	-11.1186
អាម៉េរិក	-11.1188
▁learners	-11.1188
ការងារ។	-11.1188
vis	-11.1189
ពិតជាបាន	-11.119
▁align	-11.1194
▁រចនាសម្ព័ន្ធ	-11.1195
▁promoted	-11.1195
ល្បីល្បាញដោយសារ	-11.1195
med	-11.1196
លំបាក	-11.1197
ath	-11.1197
ស្រែក	-11.1197
▁Game	-11.1198
ចំនួនពីរ	-11.12
ទឹក។	-11.1201
which	-11.1202
ដែលអាចធ្វើទៅបាន។	-11.1203
សិប្បនិម្មិត	-11.1203
hai	-11.1205
▁faced	-11.1206
ចោទប្រកាន់	-11.1206
▁Those	-11.1207
ស្ទីល	-11.1208
ves	-11.1213
▁Ang	-11.1214
▁និងបាន	-11.1214
អាហារូបត្ថម្ភ	-11.1218
▁Cover	-11.1218
សម្តេចតេជោ	-11.122
▁collected	-11.1221
គឺមិន	-11.1223
នូវអ្វីដែល	-11.1224
▁ភោជនីយដ្ឋាន	-11.1224
TI	-11.1225
ned	-11.1225
▁topic	-11.1225
ដោយជោគជ័យ	-11.1226
▁commonly	-11.1227
hand	-11.1227
▁Plate	-11.1228
AN	-11.1229
ave	-11.1229
▁equivalent	-11.123
▁guest	-11.123
▁ក្នុងគោលបំណង	-11.1231
▁apple	-11.1232
▁vulnerable	-11.1234
▁default	-11.1234
▁coil	-11.1235
▁Justice	-11.1235
ចូលរួមជាមួយ	-11.1236
▁vary	-11.1237
អ្នកមិន	-11.1237
រហូតដល់ទៅ	-11.1238
យំ	-11.1238
អាជ្ញាធរមូលដ្ឋាន	-11.1239
▁អ្នកត្រូវ	-11.1241
▁Safe	-11.1242
▁Meeting	-11.1243
imp	-11.1244
▁និងអន្តរជាតិ	-11.1251
▁Bet	-11.1251
▁obstacles	-11.1251
ដើម្បីបញ្ចប់	-11.1255
▁developers	-11.1256
មានលក្ខណៈពិសេស	-11.1258
យ៉ាងជ្រាលជ្រៅ	-11.1259
អនុសាសន៍	-11.1261
▁premium	-11.1261
▁Saint	-11.1261
▁concentration	-11.1262
▁Pin	-11.1262
▁Galaxy	-11.1262
ការផ្សាភ្ជាប់	-11.1263
ខែមករា	-11.1267
▁beam	-11.1267
▁Without	-11.1267
DI	-11.1268
ហ៊ាន	-11.127
៥នាក់	-11.1271
▁welcomed	-11.1276
បំលែង	-11.1277
▁សំ	-11.1279
=3.	-11.1282
អំណោយផល	-11.1284
▁ជួប	-11.1284
យល់ព្រម	-11.1284
▁victim	-11.1285
និងជា	-11.1286
ម៉ូនីទ័រ	-11.1289
អុកស៊ីតកម្ម	-11.1289
កំពុងដំណើរការ	-11.1293
អាចលៃតម្រូវបាន	-11.1294
▁វិនិយោគិន	-11.1296
ការរលាក	-11.1297
កាស	-11.1298
កណ្ដាល	-11.1298
២០២៣	-11.13
ទេសចរ	-11.13
ខណៈដែល	-11.1301
CL	-11.1304
▁surge	-11.1306
ប៉ូល	-11.1306
▁ប៉ុន្មាន	-11.1307
▁ជើង	-11.1307
oC	-11.1308
▁រក្សាទុក	-11.1308
ព្រ	-11.1308
ck	-11.1311
▁Bio	-11.1312
hen	-11.1314
▁breeze	-11.1316
▁issuance	-11.1316
▁succeed	-11.1316
▁legacy	-11.1316
▁termination	-11.1316
▁មានការ	-11.1316
សោ	-11.1316
▁jacket	-11.1317
▁surgery	-11.1317
ហាមឃាត់	-11.1317
▁បែបនេះទេ។	-11.1317
▁chest	-11.1317
▁draw	-11.1318
▁ស្ថានភាព	-11.1318
/5	-11.1319
▁exactly	-11.1319
▁arrived	-11.1323
▁DNA	-11.1324
▁concerned	-11.1326
សីតុណ្ហាភាព	-11.1326
bag	-11.1327
coming	-11.1327
▁ដូចដែល	-11.1328
ao	-11.1328
▁SEA	-11.1331
អំពើបាប	-11.1331
load	-11.1332
IG	-11.1333
▁រ៉ា	-11.1334
▁messages	-11.1334
▁រីឯ	-11.1335
បង្ការ	-11.1335
ក្រសួងសុខាភិបាល	-11.1336
▁recognize	-11.1338
▁pair	-11.1338
▁layers	-11.1339
▁disaster	-11.134
wood	-11.134
▁rock	-11.1341
▁Commune	-11.1343
▁contributing	-11.1343
▁ink	-11.1344
គេស្គាល់ថាជា	-11.1345
▁ទៅកាន់	-11.1347
▁Engineering	-11.1347
50,000	-11.1347
ដើម្បីលើកកម្ពស់	-11.1348
ដោយសេរី	-11.1348
ភាពស្មោះត្រង់	-11.1352
▁studying	-11.1353
▁អិល	-11.1355
ដ៏ល្អសម្រាប់	-11.1356
កាន់តែខ្លាំង	-11.1357
▁Spins	-11.1357
▁ជឿ	-11.1359
▁Plus	-11.1361
ដំណើរការនៃការ	-11.1362
ក្នុងទីក្រុង	-11.1363
lam	-11.1363
▁gather	-11.1367
▁OS	-11.1367
▁employee	-11.1368
ឆ្នើម	-11.1369
▁Ganoderma	-11.137
សមតុល្យ	-11.137
▁choosing	-11.1371
▁dangerous	-11.1372
▁Front	-11.1375
VA	-11.1375
ផ្សារភ្ជាប់	-11.1375
អត្ថបទនេះ	-11.1376
▁entered	-11.138
▁relief	-11.138
ដែលផលិត	-11.1385
វិនិច្ឆ័យ	-11.1386
២៨	-11.1386
▁Jul	-11.1388
▁(3	-11.1389
▁requests	-11.139
ឆ្នាំចុងក្រោយនេះ	-11.1393
ដែលអ្នកត្រូវការ	-11.1394
▁3.5	-11.1394
▁proceed	-11.1398
បរិយាប័ន្ន	-11.1398
▁corporate	-11.1398
▁iTunes	-11.1398
▁entertainment	-11.1398
ជាជាង	-11.1399
▁Farmers	-11.1399
▁Recovery	-11.14
▁និងលោក	-11.1401
:34	-11.1404
▁agreed	-11.1405
▁tourist	-11.1406
▁Sheet	-11.1409
ធម្មនុញ្ញ	-11.141
▁ក្រៅពីនេះ	-11.1412
press	-11.1415
▁shade	-11.1415
អាចធ្វើ	-11.1418
ph	-11.1419
▁restore	-11.142
OE	-11.1421
▁pictures	-11.1421
▁PV	-11.1422
បរិ	-11.1425
▁Mondulkiri	-11.1425
▁territorial	-11.1426
▁marble	-11.1426
▁residential	-11.1426
▁ណ្តា	-11.1426
▁ផោន	-11.1426
▁ត្រូវបានប្រកាស	-11.1427
AB	-11.1429
▁Jin	-11.143
▁drill	-11.1432
IM	-11.1432
ថ្ងៃឈប់សម្រាក	-11.1434
មរតក	-11.1434
▁ថ្មីៗនេះ	-11.1436
▁extended	-11.1439
▁Ca	-11.1441
ខូចខាត	-11.1442
បានបង្កើតឡើង	-11.1442
▁projected	-11.1443
សន្ទះ	-11.1443
▁កើន	-11.1443
បានបើក	-11.1446
ជួយសង្គ្រោះ	-11.1446
ហ្	-11.1447
▁៤០០	-11.1448
kin	-11.145
▁ម៉ែត្រការ៉េ	-11.1451
▁socio	-11.1452
សម្រាប់លក់	-11.1452
▁Kildare	-11.1453
▁jurisdiction	-11.1453
▁gracious	-11.1453
សមាសភាព	-11.1453
▁probably	-11.1453
បុរី	-11.1455
▁Direct	-11.1456
▁fund	-11.1456
ឆាប់	-11.1457
class	-11.1458
ផ្ទៃដី	-11.1459
well	-11.1459
▁វាយតម្លៃ	-11.1459
och	-11.146
▁នាទី។	-11.1461
សហជីព	-11.1461
▁ការដាំ	-11.1461
shan	-11.1462
ឆ្នាំថ្មី	-11.1463
ការគិត	-11.1465
▁គោលដៅ	-11.1465
▁HS	-11.1466
សាប៊ូ	-11.1467
▁សាលារៀន	-11.1473
នេះសម្រាប់	-11.1474
ពីរនាក់	-11.1479
ហ្វា	-11.1479
ជាមនុស្ស	-11.148
▁Strategy	-11.1481
ហ្សែន	-11.1482
▁trademark	-11.1482
ខែមិថុនា	-11.1483
▁1200	-11.1483
▁linked	-11.1484
▁professionals	-11.1486
▁welded	-11.1488
អ្នកត្រួតពិនិត្យ	-11.1491
DF	-11.1491
▁គ្រឿងបន្លាស់	-11.1495
▁index	-11.1496
ការជួញដូរ	-11.1497
▁normally	-11.1497
នៅក្នុងផ្ទះ	-11.1497
មានទីតាំងនៅ	-11.15
▁teach	-11.15
▁notify	-11.1501
▁engineers	-11.1501
ឡើងថ្លៃ	-11.1503
▁សេចក្តីប្រកាស	-11.1503
▁40%	-11.1503
230	-11.1504
អី	-11.1505
▁stretch	-11.1505
▁accepted	-11.1505
ose	-11.1506
▁Try	-11.1506
▁ceramic	-11.1507
របាំ	-11.1507
▁យេហូវ៉ា	-11.1509
▁governance	-11.1509
សម្រាប់ប្រព័ន្ធ	-11.1511
▁85	-11.1511
▁schedule	-11.1513
▁RM	-11.1514
II	-11.1518
▁Stone	-11.1518
eb	-11.1525
ចំណង	-11.1525
▁Phase	-11.1525
▁មានន័យថា	-11.1526
▁charged	-11.1529
ទន់ភ្លន់	-11.1531
▁axis	-11.1532
ប្រពន្ធ	-11.1533
▁infection	-11.1535
ប៊	-11.1538
▁ជួសជុល	-11.1538
gra	-11.1538
▁Finally	-11.1539
**:	-11.1539
put	-11.1539
▁សូមបញ្ជាក់ថា	-11.154
ការបញ្ចុះតម្លៃ	-11.154
អ្វីដែលយើង	-11.1541
ជូនដល់	-11.1541
ម៉ាស	-11.1542
▁ធ្វើការ	-11.1542
▁ពិសោធន៍	-11.1544
▁Quick	-11.1547
ពិ	-11.1549
▁Vice	-11.1549
ប្រាក់ខែ	-11.155
▁skilled	-11.1554
រួចទៅហើយ	-11.1557
▁interview	-11.1557
▁behavior	-11.1558
▁plates	-11.156
▁Customized	-11.1563
transposh	-11.1564
▁Ningbo	-11.1565
▁Software	-11.1565
▁washing	-11.1565
▁feedback	-11.1565
▁anywhere	-11.1565
▁True	-11.1565
▁Round	-11.1567
តឹង	-11.1567
កុំព្យូទ័រយួរដៃ	-11.1567
នៅឆ្នាំនេះ	-11.1567
▁weekend	-11.1569
មូលដ្ឋានគ្រឹះ	-11.157
▁ប្រវត្តិ	-11.1571
នៅពេលដែលអ្នក	-11.1571
ពន្ធដារ	-11.1572
កាត់ឡាស៊ែរ	-11.1572
រដ្ឋមន្រ្តី	-11.1573
▁reviewed	-11.1573
▁union	-11.1576
▁scent	-11.1578
ទូទាំង	-11.158
ត្រូវបានជ្រើសរើស	-11.158
សាធារណរដ្ឋ	-11.1581
▁trouble	-11.1585
ម៉ាញេទិក	-11.1586
ties	-11.1587
band	-11.1589
គណិតវិទ្យា	-11.1591
▁durability	-11.1592
▁imperative	-11.1592
▁Impact	-11.1593
▁ក្នុងអំឡុងពេលនៃ	-11.1593
▁financing	-11.1594
រង្វាស់	-11.1594
ជិតស្និទ្ធ	-11.1596
-14	-11.1597
-80	-11.1599
▁Hydraulic	-11.16
ទៅកាន់ទីផ្សារ	-11.16
▁buyers	-11.1601
▁PA	-11.1603
▁Cup	-11.1603
▁tri	-11.1603
▁២៨	-11.1604
គ្រប់ទីកន្លែង	-11.1604
▁Function	-11.1609
▁ស្ថិតនៅ	-11.1612
▁pet	-11.1613
▁grand	-11.1614
RP	-11.1615
▁Matt	-11.1615
▁អាហារូបករណ៍	-11.1615
តែមួយ។	-11.1617
▁dense	-11.1617
ខែឧសភា	-11.1619
▁alternative	-11.1619
ហ្នឹង	-11.162
សុភមង្គល	-11.1621
▁earlier	-11.1621
dle	-11.1621
បង្កឱ្យមាន	-11.1622
បង្កគ្រោះថ្នាក់	-11.1622
bal	-11.1623
ខេត្តកំពង់ឆ្នាំង	-11.1624
គ្រប់គ្នា	-11.1624
▁requested	-11.163
fin	-11.163
▁Mark	-11.1632
▁នាយករដ្ឋមន្រ្តី	-11.1632
ខ្វះខាត	-11.1633
DT	-11.1633
ភាពធន់ទ្រាំ	-11.1636
▁audit	-11.1638
ស្វែងយល់	-11.164
នានា។	-11.1641
ពាន់លានដុល្លារ	-11.1642
▁201	-11.1642
▁Sap	-11.1642
លើវិស័យ	-11.1642
▁Pi	-11.1643
xi	-11.1643
ឆ្នាំ២០១៩	-11.1643
រងរបួស	-11.1644
តាំង	-11.1647
▁pagoda	-11.1648
▁verification	-11.1649
▁instructors	-11.1649
▁monetary	-11.1649
▁interior	-11.1649
យោង	-11.165
you	-11.1651
ព្រួយបារម្ភអំពី	-11.1652
ណាន	-11.1653
▁carton	-11.1654
▁កាន់តែ	-11.1655
▁Lake	-11.1656
ផ្ទៃខាងក្រោយ	-11.1656
RC	-11.1658
val	-11.1658
▁para	-11.1658
0.1	-11.1659
▁woven	-11.1661
ជាពិសេសសម្រាប់	-11.1663
នៃសម្ភារៈ	-11.1666
ប្រសើរឡើង	-11.1667
ត្រូវបានអនុម័ត	-11.1669
▁protests	-11.1669
▁ធុង	-11.167
iah	-11.167
ហេតុអ្វីបានជា	-11.1671
បំផុតសម្រាប់	-11.1672
▁ខុស	-11.1672
▁រាជធានីភ្នំពេញ	-11.1674
▁07	-11.1675
SH	-11.1675
▁បាននិយាយ	-11.1676
▁literature	-11.1677
▁stopped	-11.1678
▁permission	-11.1678
គណបក្សសង្គ្រោះ	-11.1679
▁Regard	-11.1681
▁Portable	-11.1681
▁ជី	-11.1681
រយៈពេលខ្លី	-11.1684
▁operators	-11.1684
ហោះហើរ	-11.1684
ហ្គ	-11.1685
ឆន្ទៈ	-11.1686
ពេញមួយជីវិត	-11.1688
អំពូលភ្លើង	-11.1689
roll	-11.169
ជំរើស	-11.1691
▁command	-11.1693
អេស្ប៉ាញ	-11.1695
ស្សី	-11.1695
ជាថ្មីម្តងទៀត	-11.1695
▁Srey	-11.1697
▁ប៉ុណ្ណោះ	-11.17
ក្នុងការធ្វើ	-11.17
▁2025	-11.17
ខា	-11.1701
485	-11.1701
ក្នុងការអភិវឌ្ឍ	-11.1701
ក្លាហាន	-11.1703
kar	-11.1704
▁pillow	-11.1705
▁Daily	-11.1707
មុខវិជ្ជា	-11.171
▁Spring	-11.1712
▁info	-11.1713
ចេក	-11.1714
▁GD	-11.1717
▁កំណើន	-11.1718
▁Extract	-11.1719
៤១	-11.1719
៤៣	-11.172
▁Gary	-11.1722
▁Which	-11.1723
តែម្នាក់ឯង	-11.1726
ការសម្របសម្រួល	-11.1727
សិស្សានុសិស្ស	-11.173
អ្នកនឹងឃើញ	-11.173
▁mark	-11.173
▁lake	-11.173
room	-11.1732
▁heaven	-11.1734
▁nylon	-11.1734
▁duties	-11.1734
ផលវិបាក	-11.1734
3000	-11.1735
▁0.8	-11.1735
▁sword	-11.1736
ដើម្បីបង្ហាញ	-11.1737
យាង	-11.174
ព្រីន	-11.1741
▁នែ	-11.1741
ូន	-11.1742
▁Dec	-11.1743
vent	-11.1745
ពូកែ	-11.1746
បានប្រកាស	-11.1746
bot	-11.1747
▁និងរោងចក្រ	-11.1751
▁កិច្ចសន្យា	-11.1751
known	-11.1752
នាក់	-11.1753
សម័យ	-11.1754
▁Linux	-11.1755
▁FDA	-11.1756
car	-11.1757
▁compatible	-11.1759
▁bucket	-11.1762
ការបញ្ចប់	-11.1762
▁បានរៀបចំ	-11.1763
ving	-11.1765
▁founded	-11.1765
ដ៏ខ្ពង់ខ្ពស់	-11.1765
ins	-11.1765
▁2500	-11.1767
▁Say	-11.1767
1.2	-11.177
▁rental	-11.177
140	-11.177
▁marks	-11.1771
កាន់តែច្រើន។	-11.1772
▁possess	-11.1774
▁សប្តាហ៍	-11.1775
ប្រាក់ដុល្លារ	-11.1776
សត្វព្រៃ	-11.1776
▁2007	-11.1778
▁lifting	-11.1778
mark	-11.1782
▁អភិបាល	-11.1782
▁summarize	-11.1784
រោគ	-11.1785
ម្ចាស់អាជីវកម្ម	-11.1786
វិជ្ជា	-11.1786
▁Slot	-11.1787
▁អ្នកវិភាគ	-11.1788
សាន់	-11.179
▁architecture	-11.1791
▁entry	-11.1791
announces	-11.1791
▁oven	-11.1791
▁showed	-11.1792
▁managing	-11.1792
▁fitness	-11.1792
កាំភ្លើង	-11.1794
ec	-11.1798
ចំនួនបី	-11.1798
▁Dy	-11.1798
▁rivet	-11.18
▁loved	-11.1803
▁Peace	-11.1803
▁អ្នកប្រើប្រាស់	-11.1803
▁meetings	-11.1805
af	-11.1806
2.0	-11.1806
ena	-11.1807
បទបញ្ជា	-11.1808
ប្រូ	-11.1809
▁propose	-11.1812
▁celebrate	-11.1813
▁កម្ម	-11.1813
▁Tue	-11.1814
▁Beijing	-11.1815
▁gratitude	-11.1819
etatrader	-11.1819
ដែលមានមូលដ្ឋានលើ	-11.182
▁Near	-11.182
▁ការកំណត់	-11.182
ov	-11.182
▁detect	-11.1821
▁Pay	-11.1823
▁wheels	-11.1823
▁connector	-11.1824
▁server	-11.1826
▁ដង់ស៊ីតេ	-11.1828
នៅក្រៅប្រទេស	-11.1834
▁គ្រាន់	-11.1837
ផ្ទុយ	-11.1838
▁ក្រ	-11.1839
មានបទពិសោធន៍	-11.1839
▁mountains	-11.1839
▁contain	-11.1839
ទី៤	-11.1842
វាំងនន	-11.1846
សង្កត់	-11.1848
▁regime	-11.1848
អិម	-11.1849
▁foil	-11.1849
ភាពសប្បាយរីករាយ	-11.1849
▁flag	-11.185
OP	-11.1851
GS	-11.1854
ឥណ្ឌូនេស៊ី	-11.1856
▁cook	-11.1857
អ្នកស្រី	-11.1859
ជាតិដែក	-11.186
ida	-11.1863
ដែលអ្នកចូលចិត្ត	-11.1868
ដឹងអំពី	-11.1869
▁បានបង្ហាញ	-11.187
បានរៀបចំ	-11.187
ពោរពេញទៅដោយ	-11.1871
▁reaching	-11.1871
▁rod	-11.1874
ខ្ចប់	-11.1875
ណាស់ក្នុងការ	-11.1876
ទង់ដែង	-11.1877
▁genuine	-11.1877
▁excessive	-11.1877
▁closing	-11.1878
▁initiative	-11.1878
ខេត្តកំពង់ចាម	-11.1878
ចូលរៀន	-11.1879
▁injury	-11.1879
income	-11.1879
▁Access	-11.188
សកលលោក	-11.1882
▁recorded	-11.1882
▁windows	-11.1885
▁bonuses	-11.1886
▁Australian	-11.1886
ិក	-11.1888
នឹងជួយ	-11.1891
With	-11.1891
print	-11.1892
▁លេង	-11.1892
ជឿនលឿន	-11.1892
តាមរបៀប	-11.1892
tom	-11.1893
▁Five	-11.1893
▁រាប់	-11.1894
ដ៏ធំបំផុត	-11.1895
ឥទ្ធិពលនៃ	-11.1895
ភាពបត់បែន	-11.1897
▁worked	-11.1897
▁អាសយដ្ឋាន	-11.1898
col	-11.19
ខ្នើយ	-11.1901
uring	-11.1905
ឱ្យអ្នក	-11.1906
▁guidance	-11.1906
គ្រាប់ធញ្ញជាតិ	-11.1906
▁evil	-11.1906
▁spiritual	-11.1907
ពុំ	-11.1907
វគ្គបណ្តុះបណ្តាល	-11.1907
បន្ទាប់បន្សំ	-11.1907
▁hose	-11.1908
នៃក្រុមហ៊ុន	-11.1908
ដ៏ច្រើន	-11.1909
▁ថ្ងៃបន្ទាប់ពី	-11.1909
ថោក	-11.191
▁moon	-11.191
▁SEO	-11.191
▁isn	-11.1911
350	-11.1911
ការចែករំលែក	-11.1911
≤	-11.1912
▁mandated	-11.1913
▁resort	-11.1914
made	-11.1915
ប្រឈម	-11.1915
▁protecting	-11.1917
▁(4)	-11.1917
▁symbol	-11.1917
ដង់ស៊ីតេ	-11.192
ឧបករណ៍ផ្ទុក	-11.1922
▁ងាយ	-11.1924
ភ្លើងបំភ្លឺ	-11.1926
សែល	-11.1927
មិនចង់	-11.1929
▁item	-11.1934
▁independence	-11.1935
▁WordPress	-11.1935
▁felt	-11.1935
ប្រា	-11.1936
▁Allahu	-11.1936
សាំង	-11.1936
▁novel	-11.1937
ដំណឹង	-11.1937
midst	-11.1937
▁allocated	-11.1937
▁sallam	-11.1938
▁មី	-11.1938
▁calm	-11.1938
០៨	-11.1938
▁cars	-11.1939
:33	-11.1939
សង្	-11.1942
រហូត	-11.1942
<	-11.1943
ជាងមុន។	-11.1945
▁planned	-11.1945
សាលាដំបូង	-11.1947
▁លើសពីនេះទៅទៀត	-11.1947
▁homes	-11.1948
បានឱ្យដឹងថា	-11.1949
ខ្សែក្រវាត់	-11.1951
nic	-11.1953
▁ហើយក៏	-11.1954
កាត់ដេរ	-11.1954
▁fruits	-11.1955
ខ្ញុំអាច	-11.1956
ចម្លែក	-11.1959
ផ្សារដែក	-11.196
▁Drive	-11.1961
ពាក្យសម្ងាត់	-11.1962
ដែលយើងបាន	-11.1964
▁spouse	-11.1964
▁ដូចគ្នានេះផងដែរ	-11.1964
▁superior	-11.1964
▁expertise	-11.1964
▁thou	-11.1965
▁Chair	-11.1965
▁ingredients	-11.1965
▁renewable	-11.1965
:32	-11.1965
▁coastal	-11.1966
របៀបដែល	-11.1966
▁0.6	-11.1971
▁articles	-11.1971
par	-11.1971
ប្រវត្តិ	-11.1971
▁700	-11.1975
ros	-11.1975
អ្នកកំពុង	-11.1975
បរិស្ថាន។	-11.1976
▁lu	-11.1976
lar	-11.1976
ការទទួលយក	-11.1977
សន្ទស្សន៍	-11.1977
▁Sample	-11.1977
▁ផ្សារទំនើប	-11.1979
ផ្នែកហិរញ្ញវត្ថុ	-11.1979
▁Ve	-11.1979
St	-11.198
air	-11.198
▁ប្រមាណ	-11.1983
▁kill	-11.1988
▁corn	-11.1988
សហគ្រាសធុនតូច	-11.1989
▁ជាការពិត	-11.199
▁clarify	-11.1993
▁phenomena	-11.1993
▁Operating	-11.1993
▁Waterproof	-11.1995
▁broadcast	-11.1995
ទៅវិញទៅមក	-11.1995
▁browser	-11.1996
ពាង	-11.1997
NC	-11.1997
▁គិតត្រឹម	-11.1998
SU	-11.1998
ខេត្តកំពត	-11.1998
▁newly	-11.1999
▁ដឹកនាំ	-11.1999
▁Ruan	-11.2002
ពា	-11.2004
PM	-11.2005
▁MA	-11.2006
ការលេចធ្លាយ	-11.2007
▁សំរាប់	-11.2007
national	-11.2009
hz	-11.201
ឧបត្ថម្ភ	-11.201
ខុសពី	-11.2011
▁ត្រូវបានគេ	-11.2012
▁engage	-11.2014
▁dollar	-11.2014
អាចធ្វើទៅបាន	-11.2014
▁knowing	-11.2015
▁approve	-11.2015
▁តាមពិត	-11.2017
ត្រូវបានបង្កើត	-11.202
▁ញុមទៅ	-11.2021
▁ancestors	-11.2022
▁LORD	-11.2022
▁microfinance	-11.2022
▁Mc	-11.2023
IR	-11.2024
ដើមទុន	-11.2024
បង្ហាប់	-11.2027
▁2006	-11.2028
ត្រូវបានធ្វើ	-11.2029
ការប្រាក់	-11.2029
▁Mu	-11.2031
៣៤	-11.2031
▁04	-11.2034
ទេប៉ុន្តែថែមទាំង	-11.2035
ខេត្តកណ្តាល	-11.2037
▁96	-11.2037
▁ពួកវា	-11.2038
លើកឡើង	-11.2038
នៅស្រុក	-11.204
▁បរិសុទ្ធ	-11.2041
▁helped	-11.2042
CD	-11.2044
▁Lee	-11.2044
ពណ៌ក្រហម	-11.2045
ក្នុងការស្វែងរក	-11.2045
▁ordered	-11.2046
ដកដង្ហើម	-11.2051
TL	-11.2051
▁HXHV	-11.2052
▁carbide	-11.2052
▁alihi	-11.2052
▁signature	-11.2052
ដួងចិត្ត	-11.2052
ឆាក	-11.2052
០៣	-11.2052
លិខិតឆ្លងដែន	-11.2052
▁happen	-11.2053
ខែវិច្ឆិកា	-11.2053
ប្រជាប្រិយភាព	-11.2057
សារពើពន្ធ	-11.2057
ការតស៊ូ	-11.2058
បោះចោល	-11.2059
▁Learn	-11.206
▁instructions	-11.2062
▁focuses	-11.2064
▁Eco	-11.2065
សង្គ្រោះបន្ទាន់	-11.2065
▁900	-11.2069
អស់រយៈពេលជាច្រើន	-11.2071
▁ឡី	-11.2072
unt	-11.2073
▁graduates	-11.2074
ធ្យូងថ្ម	-11.2074
▁virus	-11.2074
▁nose	-11.2074
▁appears	-11.2075
FF	-11.2075
ei	-11.2076
ប្រមាណជាង	-11.2076
ើរ	-11.2077
▁fork	-11.2077
ក្រសួងមហាផ្ទៃ	-11.2079
▁ទម្រង់	-11.2079
▁trillion	-11.2081
▁strive	-11.2081
ប្លាស្មា	-11.2083
▁conflict	-11.2084
▁Town	-11.2084
ខាងលិច	-11.2084
▁Specification	-11.2084
តែងតាំង	-11.2084
▁ការធានា	-11.2085
បិទភ្ជាប់	-11.2086
▁channels	-11.2088
ខួប	-11.209
▁wallet	-11.209
ជាមួយក្រុមហ៊ុន	-11.2091
▁figure	-11.2094
▁សាស្ត្រាចារ្យ	-11.2094
▁ទីប្រឹក្សា	-11.2095
HA	-11.2099
rom	-11.21
ប្រាប់ឱ្យ	-11.21
▁perfectly	-11.2103
RH	-11.2107
ទប់ទល់នឹង	-11.2107
▁styles	-11.2109
សាច់ញាតិ	-11.2109
▁boxes	-11.2109
▁furniture	-11.2111
▁Meanwhile	-11.2111
▁Opposition	-11.2111
▁detention	-11.2111
▁Tonle	-11.2111
ថែមទៀត	-11.2112
▁Recently	-11.2113
▁ឧបករណ៍ចាប់សញ្ញា	-11.2115
▁បដិសេធ	-11.2116
ចាត់ទុកថា	-11.2117
▁alongside	-11.212
ការជួសជុល	-11.2123
នៅចំពោះមុខ	-11.2126
▁Cloud	-11.2126
ត្រូវបានផលិត	-11.2128
VDC	-11.2128
Cl	-11.2129
TY	-11.2133
ដ៏អស្ចារ្យ។	-11.2133
▁scan	-11.2134
▁rear	-11.2138
អាស័យដ្ឋាន	-11.2139
▁token	-11.214
ព្រឹទ្ធសភា	-11.2141
▁UPS	-11.2141
▁ADB	-11.2142
▁Treng	-11.2142
▁Cal	-11.2143
▁friendship	-11.2143
▁modify	-11.2143
▁Sunday	-11.2145
ប្រកាន់ខ្ជាប់	-11.2145
▁Wow	-11.2146
ជាអ្វី	-11.2149
ល្អជាង	-11.2152
▁ទោះជាយ៉ាងណា	-11.2153
ren	-11.2155
▁Self	-11.2155
ថ្មីសម្រាប់	-11.2156
▁suspend	-11.2158
fl	-11.2158
▁Ivan	-11.2162
▁withstand	-11.2163
gram	-11.2165
▁២៧	-11.2167
ការបង្វិល	-11.2167
លទ្ធភាពទទួលបាន	-11.2167
ក្នុងពិធី	-11.2168
▁450	-11.2169
▁doors	-11.217
hood	-11.217
▁បង្គំ	-11.217
ទទួលទាន	-11.2171
យាន	-11.2171
▁zinc	-11.2171
▁adoption	-11.2172
*2	-11.2172
▁association	-11.2174
▁associated	-11.2174
such	-11.2174
ប្រាក់ឈ្នួល	-11.2178
ងាយស្រួលប្រើ	-11.2178
▁depth	-11.2181
▁grid	-11.2182
▁spy	-11.2183
LA	-11.2184
ទៀន	-11.2186
អ្នកមិនចាំបាច់	-11.2186
នៅដើម	-11.2188
ct	-11.2188
law	-11.219
▁52	-11.2196
តៃវ៉ាន់	-11.2197
ition	-11.2197
▁furnace	-11.22
ក្រែម	-11.22
▁diplomatic	-11.22
▁និងអាច	-11.2201
ញ្ញាសិប្បនិម្មិត	-11.2201
ហួត	-11.2201
▁Dan	-11.2202
ក៏ដោយក៏	-11.2202
ប្រមូលផល	-11.2202
ប្រែក្លាយ	-11.2203
ភ័យខ្លាច	-11.2203
នេ	-11.2204
UV	-11.2204
00,000	-11.2205
ថ្មីនៃ	-11.2205
ការប្រឡង	-11.2205
▁Ask	-11.2207
▁Chain	-11.2207
▁stick	-11.2207
▁talking	-11.2207
▁Sand	-11.2207
ព្រះយេស៊ូ	-11.221
ភាគីទីបី	-11.2213
ឃុំខ្លួន	-11.2213
▁ឯកឧត្ដម	-11.2215
▁determined	-11.2215
▁Printing	-11.2216
▁sustain	-11.2216
ចំនួន៣	-11.2217
▁Lock	-11.2217
▁UL	-11.2223
tain	-11.2223
ទុយោ	-11.2225
ល្អបំផុត។	-11.2226
ដោយគ្មានការ	-11.2226
cr	-11.2226
ច្រមុះ	-11.2229
លីនុច	-11.223
▁outstanding	-11.2231
បទដ្ឋាន	-11.2231
oh	-11.2232
របស់ទ្រង់	-11.2233
សក្ដានុពល	-11.2233
▁Length	-11.2233
មានទីតាំងស្ថិតនៅ	-11.2234
▁except	-11.2234
▁បារ	-11.2235
និងបច្ចេកវិទ្យា	-11.2236
▁characters	-11.2236
▁Pu	-11.2237
380	-11.2237
COVID	-11.2237
▁Ag	-11.2238
កម្មវិធីសិក្សា	-11.2239
▁lotus	-11.2239
ភាពជឿជាក់	-11.224
ការលេង	-11.224
▁firmly	-11.224
▁aging	-11.224
ជាកម្មសិទ្ធិរបស់	-11.2241
ធ្វើរោគវិនិច្ឆ័យ	-11.2242
▁Understanding	-11.2242
uc	-11.2242
អនុញ្ញាត	-11.2243
▁Pen	-11.2243
BB	-11.2243
▁environments	-11.2244
ចាត់ទុកថាជា	-11.2248
▁Thickness	-11.2248
សរសៃឈាម	-11.225
▁ស្របតាម	-11.2251
ខែសីហា	-11.2252
-06	-11.2252
ផ្លាស់ប្ដូរ	-11.2254
▁beer	-11.2255
▁អ្នកត្រូវតែ	-11.2256
las	-11.2258
គ្រប់ជ្រុងជ្រោយ	-11.2259
ធ្នឹម	-11.2259
▁Camera	-11.226
មេបញ្ជាការ	-11.226
▁Andrew	-11.2261
▁laminated	-11.2261
▁transition	-11.2262
▁z	-11.2263
▁disc	-11.2266
ការប្រណាំង	-11.2266
▁Ya	-11.2267
សង់	-11.2267
Me	-11.2271
▁consideration	-11.2271
០៩	-11.2271
▁អភិវឌ្ឍន៍	-11.2272
បទចម្រៀង	-11.2274
ហ្វឹកហាត់	-11.2274
រោងចក្ររបស់យើង	-11.2276
ម្ខាង	-11.2276
ឱ្យប្រសើរឡើងនូវ	-11.2277
អាចកាត់បន្ថយ	-11.2277
▁សូ	-11.2278
▁វ៉ាវ	-11.2279
▁ផ្ទុយទៅវិញ	-11.228
ប្រភេទសត្វ	-11.228
▁weak	-11.2281
កម្មវិធីជំនួយ	-11.2283
▁burn	-11.2284
ify	-11.2286
▁wa	-11.2288
កាលវិភាគ	-11.2289
▁វិធាន	-11.2289
▁bathroom	-11.2289
យើងត្រូវ	-11.229
មូលដ្ឋានគ្រឹះនៃ	-11.229
កសិផល	-11.2291
នេះគឺជាការ	-11.2293
ថ្វាយ	-11.2296
ទៅអត្ថបទ	-11.2296
មូលបត្រ	-11.2298
នៅលើវេទិកា	-11.2298
▁៣១	-11.2298
ហិរញ្ញវត្ថុ។	-11.2299
អាចបង្កើត	-11.2299
▁happened	-11.2301
▁Sal	-11.2304
▁km	-11.2306
ក៏ត្រូវបាន	-11.2306
នោះទេប៉ុន្តែ	-11.2306
As	-11.2307
សោភ័ណភាព	-11.2307
▁adults	-11.2311
▁5-	-11.2314
▁Em	-11.2315
▁buyer	-11.2316
▁វិញ្ញាបនប័ត្រ	-11.2318
▁tag	-11.2318
▁seem	-11.2318
ដែលបង្ហាញពី	-11.2319
▁smoking	-11.232
▁distant	-11.232
3-	-11.232
ប្រទេសឥណ្ឌា	-11.2321
ឯង	-11.2321
▁Tips	-11.2321
▁៤៥	-11.2321
▁pertain	-11.2321
▁៣៥	-11.2322
▁Flat	-11.2323
ដូច្នេះវា	-11.2323
▁ផ្លូវពេញ	-11.2324
▁កង	-11.2324
▁SC	-11.2325
▁landscape	-11.2325
មិនថា	-11.2326
▁ជុំវិញ	-11.2327
▁mat	-11.2327
▁1.0	-11.2329
▁agency	-11.2329
ផ្ញើសារ	-11.2329
▁Holy	-11.233
គីឡូ	-11.2331
ea	-11.2331
▁award	-11.2332
▁busy	-11.2332
បញ្ចូលទៅក្នុង	-11.2332
▁Xi	-11.2333
▁MD	-11.2336
▁bolt	-11.2337
ការភ័យខ្លាច	-11.2339
▁ត្រឹម	-11.2339
ធ្នូ	-11.2339
▁Commission	-11.234
ការទាមទារ	-11.2342
ការអភិរក្ស	-11.2345
▁arrive	-11.2347
▁ចូលចិត្ត	-11.2349
រស់រានមានជីវិត	-11.235
▁viscosity	-11.235
ministerial	-11.2351
▁specifically	-11.2351
គេហទំព័រនេះ	-11.2357
ជឿ	-11.2357
គម្រោងវិនិយោគ	-11.2359
ស្រទាប់ខាងក្រោម	-11.2359
▁logistics	-11.2359
▁Xin	-11.236
▁Indian	-11.236
ស្គរ	-11.236
របស់ក្រុម	-11.2361
សហ	-11.2361
ចរ	-11.2368
▁Show	-11.2368
ដែលមានបទពិសោធន៍	-11.237
លម្អ	-11.237
▁58	-11.2372
▁closely	-11.2373
ពួកគេអាច	-11.2373
វិមាន	-11.2378
ប្រទេសវៀតណាម	-11.2379
ប្រជាជាតិ	-11.238
▁patterns	-11.238
▁connectivity	-11.238
list	-11.238
អេឡិចត្រូត	-11.238
ពីអ្នក	-11.2381
▁bulk	-11.2382
បោះពុម្ពផ្សាយ	-11.2382
ត្រូវបានកំណត់ដោយ	-11.2383
ទស្សនវិស័យ	-11.2387
▁dreams	-11.2391
លេងល្បែង	-11.2391
៦៨	-11.2394
រក្សាសន្តិភាព	-11.2394
ត្រូវបានគេស្គាល់	-11.2395
ខែធ្នូ	-11.2395
▁timely	-11.2396
▁ជាក់ស្ដែង	-11.2399
▁mix	-11.24
ជំងឺឆ្លង	-11.2401
105	-11.2401
▁contributed	-11.2402
▁reject	-11.2402
កាលពីថ្ងៃទី	-11.2404
▁immediate	-11.2405
▁parameters	-11.2406
▁absorb	-11.2406
▁Fan	-11.2407
និងផ្គត់ផ្គង់	-11.2407
▁praise	-11.241
ស្នប់	-11.241
▁Beyond	-11.241
▁religious	-11.241
▁supermarket	-11.2411
▁គឹម	-11.2411
cra	-11.2411
ដំបូងនៃ	-11.2413
▁ភាគច្រើន	-11.2413
▁muscle	-11.2416
ការឆ្លងមេរោគ	-11.2417
ការរស់នៅ	-11.2417
▁នីតិវិធី	-11.242
oth	-11.2421
▁log	-11.2421
▁SP	-11.2422
ថតរូប	-11.2423
ដែលគាត់	-11.2425
ជាប់លាប់	-11.2425
ជាផ្លូវការ។	-11.2426
លីង	-11.2426
វាត្រូវបានគេប្រើ	-11.2428
បានជួប	-11.243
▁Cam	-11.2431
ស្រោម	-11.2431
▁mis	-11.2432
als	-11.2434
▁Made	-11.2434
oli	-11.2435
▁thank	-11.2435
ភាពខុសគ្នារវាង	-11.2436
ដកស្រង់	-11.2436
ជំនួប	-11.2436
ជាក់លាក់។	-11.2437
ហ្គោ	-11.2437
▁performed	-11.2438
សប្ដាហ៍	-11.244
ភរិយា	-11.2441
▁Select	-11.2442
យ៉ាងជិតស្និទ្ធ	-11.2443
ត្រឡប់មក	-11.2444
▁boosting	-11.2445
ត្រូវបានបែងចែក	-11.2445
▁Spanish	-11.2446
ភាពរឹង	-11.2447
▁robot	-11.2447
▁Oh	-11.2451
ផលិតចេញពី	-11.2452
▁pipeline	-11.2455
របស់អ្នកនឹង	-11.2456
នៃការផលិត	-11.2457
▁summons	-11.2457
ii	-11.2458
▁Award	-11.2461
▁ការរៀបចំ	-11.2461
បំណងប្រាថ្នា	-11.2461
បានលើកឡើង	-11.2462
និងការប្រើប្រាស់	-11.2465
មានសុខភាពល្អ	-11.2468
ឧបករណ៏	-11.2471
▁flexibility	-11.2472
ព្រិល	-11.2472
▁centuries	-11.2472
សប្បាយចិត្ត	-11.2472
vy	-11.2472
សារៈសំខាន់នៃ	-11.2473
ទំហំនៃ	-11.2474
▁rare	-11.2474
▁រួមជាមួយនឹង	-11.2476
▁ត្រូវការ	-11.2476
▁រូបរាង	-11.2477
▁NGOs	-11.2477
អាប់	-11.2479
▁230	-11.2479
▁សំណង់	-11.248
មានកំណើន	-11.2482
▁NS	-11.2483
▁ប្រាសាទ	-11.2484
450	-11.2485
បណ្តុះ	-11.2485
▁សហរដ្ឋអាមេរិក	-11.2485
មួយដើម្បី	-11.2489
កងកម្លាំង	-11.2489
DB	-11.249
DD	-11.249
អំពាវនាវ	-11.249
ជំរុញឲ្យ	-11.2492
សេរី	-11.2495
▁preserve	-11.2496
បានយក	-11.2496
▁silent	-11.2497
▁ជនជាប់ចោទ	-11.2497
ប្រសើរ	-11.2499
▁ប្តូ	-11.2499
គណៈ	-11.25
▁លោកបណ្ឌិត	-11.2501
▁កែម	-11.2501
រោង	-11.2502
▁Myanmar	-11.2502
▁duration	-11.2502
ឆ្អឹងខ្នង	-11.2502
▁blanket	-11.2503
▁shaft	-11.2503
yn	-11.2504
ទៀងទាត់	-11.2504
▁Choose	-11.2504
▁ប៉ុន្តែវា	-11.2505
amine	-11.2507
▁warehouse	-11.2509
▁discount	-11.2509
▁silicone	-11.251
▁tracking	-11.2513
uch	-11.2514
▁fabrics	-11.2516
▁discovered	-11.2519
ពាន់	-11.252
▁fourth	-11.252
អ៊ីន	-11.2524
ប្រសើរជាង	-11.2524
តេជោ	-11.2527
▁8.	-11.2527
Tech	-11.2532
ទស្សនាវដ្តី	-11.2533
▁quartz	-11.2533
9%	-11.2534
▁speech	-11.2534
▁Run	-11.2537
ចេញទៅ	-11.2537
320	-11.2538
ជម្រុញ	-11.2538
▁រដ្ឋលេខាធិការ	-11.2541
ច្រកទ្វារ	-11.2542
▁habits	-11.2543
ដែលនៅសល់	-11.2545
PG	-11.2545
▁ETH	-11.2545
lip	-11.2547
▁ការគាំទ្រ	-11.2548
▁Ban	-11.2549
ការសន្ទនា	-11.2549
យើងខ្ញុំ	-11.255
▁positioning	-11.255
etc	-11.2551
▁strip	-11.2551
▁Oknha	-11.2554
លើពិភពលោក	-11.2555
OD	-11.2555
Com	-11.2556
▁AND	-11.2556
▁ពិព័រណ៍	-11.2558
3)	-11.256
គ្រាន់តែជា	-11.256
ប្រព្រឹត្ត	-11.2562
:45	-11.2563
▁ម៉ាក	-11.2563
▁Mexico	-11.2564
ហុងកុង	-11.2564
▁dawn	-11.2564
▁tranquility	-11.2564
▁សូមចងចាំថា	-11.2565
ខេត្តតាកែវ	-11.2565
▁Twitch	-11.2565
▁spent	-11.2566
SD	-11.2567
ការថែរក្សា	-11.2567
▁Visa	-11.2568
▁ការវិភាគ	-11.2569
rpm	-11.2569
ជម្ងឺ	-11.2569
▁យើងក៏	-11.257
ផ្កាឈូក	-11.2571
បណ្ណ	-11.2571
PL	-11.2571
ខកខាន	-11.2572
gar	-11.2573
including	-11.2573
▁ប៊ូតុង	-11.2573
មានផាសុកភាព	-11.2574
▁china	-11.2575
ដែលមាននៅក្នុង	-11.2576
▁killed	-11.2576
▁ហិកតា	-11.2577
▁SMT	-11.2581
ដែលផ្តល់	-11.2581
▁2-3	-11.2581
ល្អនិង	-11.2582
អូរ	-11.2582
▁savings	-11.2582
▁2020.	-11.2583
ឆ្នាំ២០២០	-11.2583
ations	-11.2584
ជាងការដាំ	-11.2584
▁អាណាព្យាបាល	-11.2589
ដែលជាកន្លែងដែល	-11.2589
▁sp	-11.259
▁Egypt	-11.2591
ពោរពេញដោយ	-11.2592
▁therapy	-11.2592
ជាសមាជិក	-11.2593
បង្កើនល្បឿន	-11.2593
ស្តង់	-11.2593
ម្ដាយ	-11.2593
ជាច្រើនឆ្នាំ	-11.2594
អន្តោប្រវេសន៍	-11.2594
▁spindle	-11.2595
ចៀសវាង	-11.2596
ងាប់	-11.2597
▁wholesale	-11.26
wan	-11.2601
ទាំងអស់ត្រូវបាន	-11.2602
▁Pra	-11.2603
▁lawyer	-11.2603
▁purity	-11.2604
▁circumstances	-11.2605
៣៣	-11.2606
▁sorrow	-11.2606
▁ផ្ទាល់	-11.2606
ith	-11.2607
▁plugin	-11.2608
▁បញ្ញា	-11.261
ica	-11.2611
▁yields	-11.2611
នៅមុខ	-11.2615
▁Van	-11.2615
ច្រេះ	-11.2615
RF	-11.2615
មានសុពលភាព	-11.2616
▁relationships	-11.262
PR	-11.2621
កម្មវិធីរុករក	-11.2621
eon	-11.2621
▁exclusive	-11.2622
▁ស្បែក	-11.2623
អគ្គីសនី	-11.2624
ess	-11.2624
ការបំបែក	-11.2625
ដើម្បីផ្តល់នូវ	-11.2625
5000	-11.2625
២៩	-11.2625
▁indispensable	-11.2626
បង្វែរ	-11.2626
▁grammar	-11.2626
▁definitely	-11.2626
▁ផ្សាយ	-11.2626
▁configuration	-11.2626
ប្រសិនបើពួកគេ	-11.2627
cast	-11.2627
▁exposed	-11.2628
▁extrusion	-11.2629
▁enabl	-11.263
LO	-11.263
គ្រប់គ្រងដោយ	-11.2631
▁protocols	-11.2632
▁ធី	-11.2633
▁distributed	-11.2635
▁EX	-11.2637
▁ស្រា	-11.2643
▁Family	-11.2644
▁mixing	-11.2647
រីករាលដាល	-11.2647
▁treated	-11.2649
មានរយៈពេល	-11.2649
▁Hang	-11.2651
▁customize	-11.2653
▁មូលដ្ឋាន	-11.2653
izer	-11.2655
▁កំពូល	-11.2656
អ័ព្ទ	-11.2657
កាលពី១០ឆ្នាំមុន	-11.2657
▁ដោយប្រើ	-11.2657
HC	-11.2658
▁decades	-11.2658
ហ្វី	-11.2658
▁peak	-11.2659
▁adapter	-11.266
▁ការធ្វើ	-11.2663
អចិន្ត្រៃយ៍	-11.2664
សុខ	-11.2664
▁Dimension	-11.2665
▁celebrated	-11.2666
បន្ទប់គេង	-11.2668
▁ខ្លាំងណាស់។	-11.2668
▁flooring	-11.2669
ចិត្ដ	-11.267
wall	-11.2675
itch	-11.2677
▁Mal	-11.2677
shaped	-11.268
សម្ដេច	-11.268
នៅកម្ពុជា។	-11.2681
▁ដើរ	-11.2681
KM	-11.2684
az	-11.2685
zo	-11.2686
ហាងលក់	-11.2687
ល្បិច	-11.2688
▁tensile	-11.2688
▁bitter	-11.2691
▁loading	-11.2692
WD	-11.2692
▁victims	-11.2693
▁បញ្ជាក់ថា	-11.2693
ncy	-11.2693
ុំ	-11.2694
រយៈពេលប៉ុន្មាន	-11.2695
▁Connector	-11.2696
▁element	-11.2696
៤៧	-11.2697
▁ពាក្យស្នើសុំ	-11.2698
▁passion	-11.2699
មុននឹង	-11.2701
ble	-11.2702
stone	-11.2703
▁clamp	-11.2704
oid	-11.2705
▁villages	-11.2707
▁Credit	-11.2708
ចំនួន២	-11.2709
▁Rock	-11.271
ខ្នាតធំ	-11.271
▁ផ្លែឈើ	-11.2713
▁suggest	-11.2715
ត្រលប់ទៅ	-11.2716
▁careful	-11.2717
▁worker	-11.2717
ប៉	-11.2725
▁Eye	-11.2725
បណ្ដុះបណ្ដាល	-11.2727
▁corresponding	-11.2727
▁tissue	-11.2728
▁adult	-11.2729
នៃបច្ចេកវិទ្យា	-11.273
ឆ្	-11.273
tal	-11.2734
▁lived	-11.2734
▁enables	-11.2734
▁អគ្គិសនី	-11.2735
កាលពីឆ្នាំមុន	-11.2736
▁ប្រឆាំង	-11.2738
ួង	-11.2738
ក្រោយពេល	-11.2738
310	-11.2739
▁ភាគរយនៃ	-11.274
អត្តសញ្ញាណប័ណ្ណ	-11.274
▁sanctions	-11.2741
ដើម្បីឱ្យមាន	-11.2743
pre	-11.2743
នៅក្នុងដំណើរការ	-11.2743
▁ឧបករណ៍ភ្ជាប់	-11.2744
ការរក្សា	-11.2744
▁06	-11.2747
▁classic	-11.2747
ama	-11.2748
▁sit	-11.2749
សម្រាប់អាជីវកម្ម	-11.2749
ខាងកើត	-11.275
cryptocurrencies	-11.2751
កំហឹង	-11.2751
Ch	-11.2751
▁categories	-11.2751
▁wildlife	-11.2751
▁countless	-11.2752
▁Spain	-11.2752
▁harmful	-11.2752
បុ	-11.2754
ប៉ូ	-11.2756
▁courses	-11.2757
សូឡា	-11.2757
៥៤	-11.2758
▁County	-11.2759
▁សាលក្រម	-11.2761
▁គ្រោង	-11.2763
▁generated	-11.2763
តម្រូវឱ្យមាន	-11.2765
▁ឪពុកម្តាយ	-11.2766
▁flash	-11.2767
ធំ។	-11.2767
ធម្មជាតិ។	-11.2768
▁MeCan	-11.2769
ស័ក្តិសមសម្រាប់	-11.2773
▁joined	-11.2777
បែបប្រពៃណី	-11.2777
គ្រ	-11.2777
▁ដៃគូ	-11.2778
▁Ac	-11.2778
▁ស៊ុន	-11.278
▁na	-11.2781
gov	-11.2781
▁Ke	-11.2782
សម្ដេចព្រះបរម	-11.2783
▁translation	-11.2783
▁examination	-11.2783
▁testament	-11.2783
ពោត	-11.2784
ខ្ញុំចង់	-11.2784
▁SKU	-11.2784
ប្រាស្រ័យទាក់ទង	-11.2785
សង្គ្រោះជាតិ	-11.2785
បន្តទៀត	-11.2788
▁Iron	-11.2788
:38	-11.2788
▁dress	-11.2789
▁Mi	-11.2789
▁chemicals	-11.2791
នឹក	-11.2793
▁ឈើ	-11.2793
▁customs	-11.2793
▁Golden	-11.2793
▁Chemical	-11.2794
អ្នកនឹងមិន	-11.2795
▁ស្គាល់	-11.2795
លើកលែងតែ	-11.2796
▁edit	-11.2798
ថាមពលកកើតឡើងវិញ	-11.2798
ការសម្អាត	-11.2798
▁ហេតុផល	-11.28
ប្រារព្ធ	-11.2802
▁ស្រឡាញ់	-11.2802
▁Pet	-11.2802
▁shares	-11.2803
ចេញមក	-11.2804
▁temperatures	-11.2804
▁Generally	-11.2804
▁Shi	-11.2806
របស់អាមេរិក	-11.2809
ក្រឡេកមើល	-11.281
ការព្យាបាលដោយ	-11.281
▁IV	-11.2812
WS	-11.2812
▁colleagues	-11.2812
ល្មម	-11.2813
hal	-11.2813
Be	-11.2814
▁ethics	-11.2814
ហ្វីលីពីន	-11.2815
លើកទឹកចិត្តឱ្យ	-11.2817
ច្បាប់។	-11.2817
▁តុ	-11.2817
ខេត្តកោះកុង	-11.282
san	-11.2821
នៅជុំវិញពិភពលោក	-11.2821
▁AD	-11.2821
ក្បឿង	-11.2822
lon	-11.2822
ហើយមិន	-11.2823
▁ថៃ	-11.2823
ៀង	-11.2827
ឆ្នាំមកហើយ	-11.2829
1.0	-11.2831
ani	-11.2832
ld	-11.2833
ឆ្ពោះទៅ	-11.2835
▁និងការពារ	-11.2835
▁managed	-11.2836
▁ប្រាកដ	-11.2839
▁seeing	-11.284
ហ្សូ	-11.284
មានច្រើន	-11.284
ទប់	-11.284
▁File	-11.2841
អ្នកចង់	-11.2842
BA	-11.2842
▁sex	-11.2842
ទោះបី	-11.2842
OK	-11.2842
ពុះ	-11.2843
410	-11.2843
បានយ៉ាងល្អ	-11.2843
▁វៀតណាម	-11.2844
▁forever	-11.2844
វាយនភ័ណ្ឌ	-11.2846
▁Scientists	-11.2846
▁hygiene	-11.2846
▁absorption	-11.2846
▁fraud	-11.2846
ដល់ប្រជាពលរដ្ឋ	-11.2848
ក្នុងការអនុវត្ត	-11.285
▁ឈ	-11.285
៤៦	-11.2851
មាត្រា	-11.2852
▁មានចំនួន	-11.2856
▁discharge	-11.2856
▁CL	-11.2858
ការរំខាន	-11.2861
▁discussions	-11.2861
ដេញ	-11.2862
យ៉ាងសំខាន់	-11.2863
FI	-11.2864
▁BO	-11.2866
▁paste	-11.2866
▁Vo	-11.2866
អ៊	-11.2868
ថែមទាំង	-11.2869
យ៉ាងតឹងរឹង	-11.2871
▁ត្រង់	-11.2871
▁Scholarship	-11.2872
▁collective	-11.2874
▁Soft	-11.2876
ក្រោយមក	-11.2877
CR	-11.2877
▁អនុស្សរណៈ	-11.2877
▁Jerusalem	-11.2878
▁extension	-11.2878
▁Future	-11.2878
▁Mother	-11.288
អ្នកគ្រាន់តែ	-11.2881
យ៉ាងតឹងរ៉ឹង	-11.2882
▁ជ្រើស	-11.2882
▁surrounding	-11.2883
▁47	-11.2883
MH	-11.2884
ក្នុងគោលបំណង	-11.2886
ស្លា	-11.2888
អ្វីដែលជា	-11.2891
▁សាសន៍	-11.2891
▁inclusion	-11.2892
ili	-11.2892
ដាវ	-11.2893
បានចូលរួម	-11.2893
ប្រណាំង	-11.2895
▁treat	-11.2896
▁meets	-11.2897
មួយចំនួនទៀត	-11.2898
KA	-11.2899
ខាងលើនេះ	-11.2902
▁Ten	-11.2903
▁និងក្រុមហ៊ុន	-11.2903
tri	-11.2905
▁informed	-11.2905
វាពិតជា	-11.2905
កំសាន្ត	-11.2906
អគ្គ	-11.2907
▁min	-11.2908
ទទួលបាននូវ	-11.2909
volving	-11.2909
SI	-11.291
ម៉ឺនុយ	-11.291
HI	-11.291
▁Dream	-11.2911
▁Tower	-11.2911
▁ទោះបី	-11.2912
▁mild	-11.2912
នៅនឹងកន្លែង	-11.2913
គឺជាអ្វី	-11.2913
ឆ្លងដែន	-11.2914
▁ហេតុអ្វី	-11.2915
cro	-11.2918
ព័ត៌មានអំពី	-11.292
▁obligation	-11.292
នាំឱ្យ	-11.2922
សន្	-11.2922
អ្នកចូលចិត្ត	-11.2922
ចែង	-11.2924
ists	-11.2926
▁ចុះឈ្មោះ	-11.2926
▁electronics	-11.2927
ទីក្រុងប៉ារីស	-11.2927
▁មធ្យោបាយ	-11.2928
កាន់តែប្រសើរឡើង	-11.2928
!”	-11.2932
▁60%	-11.2935
▁proof	-11.2935
stop	-11.2936
ening	-11.2936
កោតសរសើរ	-11.2937
មហារីក	-11.2938
▁ពិន្ទុ	-11.2938
កាន់តែមាន	-11.2939
ប្រសិនបើអ្នកមាន	-11.294
▁rely	-11.2941
▁displayed	-11.2941
▁Chapter	-11.2942
▁guitar	-11.2942
▁epidemic	-11.2942
▁ហេតុនេះ	-11.2946
▁cat	-11.2947
▁wave	-11.2947
ក្នុងកម្មវិធី	-11.2949
មានផ្ទៃពោះ	-11.2949
▁holiday	-11.2953
▁អង់គ្លេស	-11.2954
▁Allah	-11.2955
ហ៊ុន	-11.2955
▁ការព្យាបាល	-11.2956
រថយន្តអគ្គិសនី	-11.2957
▁Bay	-11.2958
▁ផ្ទះសំណាក់	-11.2958
▁ភ្នំ	-11.2959
នគរបាល	-11.296
យើងទាំងអស់គ្នា	-11.2961
▁Hua	-11.2961
▁ទុក្ខ	-11.2964
ម្សិលមិញ។	-11.2964
ស្វែងយល់បន្ថែម	-11.2968
បាប	-11.2969
▁reserves	-11.2969
LM	-11.297
វ៉េ	-11.2972
ប្ប	-11.2972
ភាពរីករាយ	-11.2972
▁compete	-11.2974
ការយល់ដឹងអំពី	-11.2974
ការអនុម័ត	-11.2974
▁fault	-11.2974
▁2.4	-11.2974
ចេញ។	-11.2974
▁knee	-11.2976
▁exceeding	-11.2976
អនុលោមតាម	-11.2978
▁Paper	-11.298
ធ្យូង	-11.2982
លទ្ធផលនៃ	-11.2982
▁magnet	-11.2983
▁Love	-11.2983
ទៅឱ្យ	-11.2984
▁destination	-11.2985
▁pants	-11.2989
▁millions	-11.299
750	-11.2991
gel	-11.2992
commerce	-11.2993
▁thoughts	-11.2994
អំបោះ	-11.2996
របស់ម៉ាស៊ីន	-11.2997
វាហាក់ដូចជា	-11.2998
▁depend	-11.2998
▁founder	-11.2998
▁drying	-11.2999
ដែលល្អបំផុត	-11.2999
▁ទី២	-11.2999
បុគ្គលិកលក្ខណៈ	-11.2999
▁Rena	-11.3001
▁classmates	-11.3001
▁បំណង	-11.3002
pay	-11.3002
▁happens	-11.3003
mil	-11.3006
ជីពចរ	-11.3006
▁horizontal	-11.3006
វាយនភាព	-11.3006
▁category	-11.3007
▁និងវាយតម្លៃ	-11.3007
អំពាវនាវឲ្យ	-11.3008
▁pride	-11.3009
ឆ្នេរសមុទ្រ	-11.3009
▁agree	-11.3009
▁នាឡិកា	-11.301
ប្រាក់រៀល	-11.301
មួយរបស់	-11.301
អាចមើលឃើញ	-11.3013
▁ព្រះអង្គម្ចាស់	-11.3013
▁Flash	-11.3013
tr	-11.3014
រៀនសូត្រ	-11.3014
cer	-11.3014
▁DHL	-11.3015
▁acknowledge	-11.3018
▁concern	-11.3019
▁reaction	-11.302
ផ្នែកខាងមុខ	-11.302
BP	-11.3021
▁Laos	-11.3021
ការជំនួស	-11.3021
/1	-11.3021
▁Bu	-11.3024
▁Taiwan	-11.3025
:35	-11.3025
care	-11.3028
កាបូបស្ពាយ	-11.3028
▁count	-11.3029
kan	-11.303
▁មធ្យម	-11.303
YC	-11.303
▁វាអាចត្រូវបាន	-11.3034
2.8	-11.3036
៣១	-11.3038
▁Solve	-11.3038
▁DM	-11.3038
កំទេច	-11.3039
▁ourselves	-11.3039
▁memories	-11.3039
គ្រាប់ចុច	-11.3039
សម្រាប់អ្នកដែល	-11.3039
▁VPN	-11.304
ពិសោធន៍	-11.304
▁enhanced	-11.3041
បទសម្ភាសន៍	-11.3042
ដំបូងគេ	-11.3046
កែសំរួល	-11.3047
ib	-11.3048
អ្នកអាចជ្រើសរើស	-11.3048
បាញ់ថ្នាំ	-11.3051
▁ទន្លេ	-11.3053
232	-11.3053
អ្នកណា	-11.3054
▁0,	-11.3056
ដើម្បីចូលរួម	-11.3058
រៀបការ	-11.3059
▁រីករាយ	-11.3059
អំពើហិង្សា	-11.306
ដ៏ពេញនិយម	-11.3061
▁ក្រោយពី	-11.3061
ជីវិតប្រចាំថ្ងៃ	-11.3062
▁Kra	-11.3063
រាយការណ៍	-11.3063
TH	-11.3064
រុះរើ	-11.3064
▁begins	-11.3066
0°	-11.3068
.000	-11.3069
ធុងទឹក	-11.3069
”)	-11.307
▁maps	-11.307
ទេវកថា	-11.3071
របស់ក្រសួង	-11.3071
ផ្គូផ្គង	-11.3071
វាសនា	-11.3071
កំណាត់	-11.3071
▁ខ្ញុំជា	-11.3073
▁Researchers	-11.3074
ហៃ	-11.3075
-24	-11.3075
▁walking	-11.3075
▁stations	-11.3076
▁និងឯកជន	-11.3077
ខោ	-11.3078
▁10:	-11.3079
ស្រោប	-11.3079
▁ស្នើ	-11.308
ជើងហោះហើរ	-11.3082
រួមជាមួយ	-11.3083
▁សិល្បៈ	-11.3084
ons	-11.3085
▁profits	-11.3086
▁Rated	-11.3088
▁clinic	-11.3089
yu	-11.3092
▁Keo	-11.3092
▁រាយការណ៍	-11.3094
ការកែប្រែ	-11.3094
គិតគូរ	-11.3095
គណនា	-11.3095
see	-11.3096
ភាពស្ងប់ស្ងាត់	-11.3097
▁មាត្រា	-11.3097
▁ឱ	-11.3097
បង្កប់	-11.3098
ប្រាកដថា	-11.3098
ជូនដំណឹង	-11.31
ភាពក្រីក្រ	-11.31
▁ជំនួស	-11.3103
▁ប្លុក	-11.3104
តុក្កតា	-11.3104
ហើម	-11.3104
▁supreme	-11.3104
ឱសថស្ថាន	-11.3104
▁Carbon	-11.3104
ក្បួនដោះស្រាយ	-11.3104
ជនភៀសខ្លួន	-11.3105
▁villagers	-11.3106
Cr	-11.3108
▁anxiety	-11.3108
៣២	-11.3108
bed	-11.3108
ខូ	-11.311
▁ប្រេង	-11.3111
▁band	-11.3111
អស់រយៈពេលជាង	-11.3112
▁secret	-11.3112
ប្លែកៗ	-11.3113
▁Package	-11.3113
ប្រឹក្សា	-11.3114
ក្នុងនាម	-11.3115
▁RT	-11.3116
▁ព្រះរាជអាជ្ញា	-11.3117
គ្មានដែនកំណត់	-11.3118
▁List	-11.3118
កំប្លែង	-11.3119
-13	-11.312
▁roots	-11.3123
▁សុទ្ធតែ	-11.3123
គោលការណ៍ណែនាំ	-11.3125
សារធាតុរំលាយ	-11.3126
▁Suitable	-11.3126
ដើមកំណើត	-11.3126
នាងបាន	-11.3126
▁៣២	-11.3127
គ្រឿងបរិក្ខារ	-11.3128
គយ	-11.3128
▁pursue	-11.3129
▁dynamic	-11.313
▁enforce	-11.3131
ម៉ឺន	-11.3135
▁author	-11.3135
pad	-11.3136
គាត់នឹង	-11.3136
▁Culture	-11.3136
▁Transfer	-11.3136
▁symptoms	-11.3137
▁អំពើ	-11.3137
ការហៅ	-11.3137
▁battle	-11.3138
5,000	-11.3138
ជាងនេះទៅទៀត	-11.314
▁popularity	-11.3141
ស្រោចទឹក	-11.3142
និងមិន	-11.3143
▁Hard	-11.3143
▁សម្អាត	-11.3144
▁Je	-11.3144
▁desired	-11.3146
នៅឡើយទេ	-11.3147
ពិគ្រោះយោបល់	-11.315
▁showing	-11.315
ក្នុងមួយខែ	-11.3151
Al	-11.3152
គឺពិតជា	-11.3153
រឿងនិទាន	-11.3156
អ្នកតាមដាន	-11.3157
An	-11.3159
EM	-11.3162
ការសាកសួរ	-11.3163
3.5	-11.3164
យើងចង់	-11.3165
ano	-11.3165
ture	-11.3168
▁advancing	-11.3169
កម្រាលឥដ្ឋ	-11.317
▁Boeung	-11.317
▁excavator	-11.317
សន្យា	-11.317
▁patent	-11.317
▁សារធាតុ	-11.317
▁injured	-11.3172
▁certified	-11.3173
នៃទីផ្សារ	-11.3174
HD	-11.3175
sha	-11.3178
ព្រួយបារម្ភ	-11.3182
▁Pass	-11.3184
ឆ្ងាយពី	-11.3185
▁SMEs	-11.3185
ប្រុស	-11.3186
▁hub	-11.3187
ប៉ាតង់	-11.3189
សម្លឹងមើល	-11.3191
▁accelerate	-11.3194
▁ជៀសវាង	-11.3195
▁1.3	-11.3195
▁ស៊ុម	-11.3197
បន្ថែមថា	-11.3197
▁lid	-11.3198
អាឡឺម៉ង់	-11.32
មន្ត្រីរាជការ	-11.3202
▁composite	-11.3202
ម៉ូឌែល	-11.3202
▁composed	-11.3202
▁drainage	-11.3202
▁investing	-11.3203
AO	-11.3205
▁140	-11.3205
▁Face	-11.3206
▁observe	-11.321
▁publicly	-11.3211
នៅអឺរ៉ុប	-11.3211
បំពង់ដែក	-11.3213
▁catch	-11.3213
▁emerging	-11.3214
▁ក្រោយពេល	-11.3214
▁Fu	-11.3215
▁drinking	-11.3217
ត្រលប់មកវិញ	-11.3217
hour	-11.3218
▁temples	-11.3218
▁ATM	-11.3219
នឹងធ្វើ	-11.3222
បានអនុវត្ត	-11.3222
NS	-11.3224
▁packages	-11.3224
ធ្វើឱ្យអ្នក	-11.3224
▁ser	-11.3224
ងាក	-11.3225
▁Effective	-11.3225
▁HDPE	-11.3225
▁1.4	-11.3226
BM	-11.3226
និងអ្នក	-11.3227
▁បណ្តាញ	-11.3229
កង្វល់	-11.3231
▁Source	-11.3232
▁ការដំឡើង	-11.3232
សុបិន	-11.3232
▁PRO	-11.3234
▁applying	-11.3235
កើន	-11.3236
ក្របខណ្ឌ	-11.3236
▁Club	-11.3237
▁ក្រហម	-11.3237
▁leaf	-11.3237
▁DeFi	-11.3237
▁Trust	-11.3237
នូវការ	-11.324
ដឹកទំនិញ	-11.324
របស់គេ	-11.324
▁សកម្មជន	-11.3244
▁rated	-11.3244
ផលិតផលថ្មី	-11.3247
▁ដំណាក់កាល	-11.3249
ការចេញផ្សាយ	-11.325
តម្រូវ	-11.3251
NG	-11.3254
8.5	-11.3257
GR	-11.3259
▁revise	-11.326
មួយរយៈ	-11.3261
▁pad	-11.3262
▁planting	-11.3262
Can	-11.3263
▁sat	-11.3263
ised	-11.3264
មេដែក	-11.3264
គឺចាំបាច់សម្រាប់	-11.3267
▁95%	-11.3267
▁context	-11.3268
▁specified	-11.3269
▁mango	-11.3269
មានទំនាក់ទំនង	-11.3271
▁visits	-11.3273
ភ្ជាប់ទៅនឹង	-11.3274
ការស្លាប់	-11.3274
ប្រភពដើម	-11.3277
ស្រូប	-11.3277
ទឹកភ្លៀង	-11.3277
ព័ទ្ធជុំវិញ	-11.3277
ស្នើឲ្យ	-11.3277
▁ការវិនិយោគលើ	-11.3277
ស្ត	-11.3279
វីរបុរស	-11.328
អាចឈានដល់	-11.328
▁aware	-11.3281
លក់រាយ	-11.3282
▁intervention	-11.3282
ចៀម	-11.3286
ទំនាក់ទំនងរវាង	-11.3287
ដឹកនាំដោយ	-11.3287
▁Plant	-11.3288
ព្រែក	-11.3288
▁Nov	-11.3289
▁គោល	-11.3289
▁consist	-11.3291
ដោយគ្រាន់តែ	-11.3292
សរសើរ	-11.3292
▁saved	-11.3295
▁lots	-11.3296
▁precise	-11.3296
▁គ្រូ	-11.3297
ស្ថាប័នពាក់ព័ន្ធ	-11.3297
ក្រសួងទេសចរណ៍	-11.33
/2	-11.33
នៅពេលណា	-11.3301
▁injuries	-11.3301
fish	-11.3303
ខឹង	-11.3303
%),	-11.3304
▁thread	-11.3304
:37	-11.3305
▁grown	-11.331
aging	-11.331
oon	-11.3311
មួយចំនួនដូចជា	-11.3312
ខែតុលា	-11.3313
bri	-11.3313
▁hook	-11.3313
បានហាមឃាត់មិនឱ្យ	-11.3315
NA	-11.3315
ផ្តល់ជូនអ្នកនូវ	-11.3316
▁compound	-11.3316
▁tried	-11.3316
▁del	-11.3317
▁Marketing	-11.332
TV	-11.3324
រីក	-11.3326
២០២៥	-11.3327
▁RO	-11.3327
-08	-11.3329
ដើម្បីអនុវត្ត	-11.333
met	-11.333
pel	-11.3331
▁ផ្ញើ	-11.3331
មានវត្តមាន	-11.3333
ries	-11.3334
ដំណើរកម្សាន្ត	-11.3334
▁Gas	-11.3334
ជជែក	-11.3334
បបូរមាត់	-11.3334
▁Molecular	-11.3335
ពិដាន	-11.3335
អាដាប់ធ័រ	-11.3335
▁Send	-11.3335
▁វី	-11.3336
▁ចាក់	-11.3336
សម្រាប់តែ	-11.3337
▁ចំណុចប្រទាក់	-11.3339
mas	-11.3339
▁Machinery	-11.3341
ធ្លាក់ទឹកចិត្ត	-11.3341
▁Cash	-11.3342
ពាណិជ្ជកម្មសេរី	-11.3343
▁សាលដីកា	-11.3344
una	-11.3346
ពីលើ	-11.3346
គេហទំព័ររបស់អ្នក	-11.3347
▁សូមអរគុណ	-11.3347
នៅក្នុងបន្ទប់	-11.3349
កាវបិទ	-11.3349
▁doubt	-11.3349
ព្រលានយន្តហោះ	-11.3351
ចុងក្រោយនេះ	-11.3352
▁អំណោយ	-11.3353
sis	-11.3354
PVC	-11.3354
អនុញ្ញាតឲ្យ	-11.3354
▁Fa	-11.3355
▁Lan	-11.3356
▁AS	-11.3356
ម៉ាស់	-11.3358
▁ជាលទ្ធផល	-11.336
▁ច្បាស់	-11.3361
កេស	-11.3363
▁tin	-11.3363
បូក	-11.3363
មូលហេតុដែល	-11.3364
ចំណែក	-11.3365
▁batch	-11.3366
ច្បាប់ចម្លង	-11.3366
ក្រុងព្រះសីហនុ	-11.3367
ku	-11.3368
បើមិនដូច្នេះទេ	-11.3368
វិក្កយបត្រ	-11.3368
▁jasmine	-11.3368
▁Jiangsu	-11.3368
▁coconut	-11.3368
▁composition	-11.3368
▁Mountain	-11.3368
▁cement	-11.3369
▁Hebei	-11.3369
▁outcomes	-11.3373
▁da	-11.3374
▁reverse	-11.3374
ការតាមដាន	-11.3374
sur	-11.3375
▁Input	-11.3376
▁Radio	-11.3376
កំពត	-11.3378
ដើម្បីផលិត	-11.3379
▁(4	-11.338
ពេញលេញ។	-11.338
បានត្រឹមត្រូវ	-11.3382
ខែមេសា	-11.3383
កណ្តុរ	-11.3383
▁instance	-11.3383
ពិតប្រាកដ។	-11.3383
ផ្លាកសញ្ញា	-11.3384
▁Marine	-11.3385
ប្រសិនបើមាន	-11.3387
▁professors	-11.3387
/10	-11.3393
▁mention	-11.3395
នៅពេលពួកគេ	-11.3395
ជាបន្ទាន់	-11.3396
ប្រតិភូ	-11.3396
yang	-11.3396
ates	-11.3398
សំអាត	-11.3398
សន្និបាត	-11.3399
សមរភូមិ	-11.3399
សេន	-11.34
សេនាបតីតេជោ	-11.3401
▁confident	-11.3401
▁Exhibition	-11.3402
ដ៏ធំល្វឹងល្វើយ	-11.3402
ស្នាមញញឹម	-11.3403
▁chosen	-11.3404
ក្នុងជីវិត	-11.3404
▁ICT	-11.3404
ខោអាវ	-11.3404
▁mall	-11.3405
▁ទី១	-11.3406
CU	-11.3407
តិការអន្តរជាតិ	-11.3408
ទោស	-11.3409
ផ្សេងទៀតដូចជា	-11.341
▁preventing	-11.3411
អក្សរសិល្ប៍	-11.3411
មានជម្រើស	-11.3411
ការចុះបញ្ជី	-11.3415
▁អាចត្រូវបាន	-11.3416
▁View	-11.3416
▁applicant	-11.3417
▁resist	-11.3421
▁បា	-11.3422
▁establishing	-11.3425
ការបន្ត	-11.3425
បាទ	-11.3426
ទុនវិនិយោគ	-11.3426
ស្តាំ	-11.343
ការបិទ	-11.343
▁purchased	-11.343
ត្រូវបានរៀបចំ	-11.3433
wear	-11.3435
▁applicable	-11.3435
▁Wondershare	-11.3435
rim	-11.3436
ពេលយប់	-11.3437
▁nine	-11.3438
ការបង្ហោះ	-11.344
ជូនប្រជាពលរដ្ឋ	-11.3441
ម្តងទៀត។	-11.3441
gang	-11.3444
ហើយខ្ញុំ	-11.3446
▁Week	-11.3446
kVA	-11.3446
តិ	-11.3449
ពីក្រុមហ៊ុន	-11.3449
របស់ធនាគារ	-11.3453
មួយថ្ងៃ	-11.3454
ដោយសុវត្ថិភាព	-11.3454
▁ចំណោម	-11.3456
ក្នុងឧស្សាហកម្ម	-11.3456
tel	-11.3457
រំអិល	-11.3458
ral	-11.3459
440	-11.3459
part	-11.3461
▁town	-11.3462
ត្រូ	-11.3463
ឧក្រិដ្ឋកម្ម	-11.3464
លឿង	-11.3464
▁ខ្ញុំចូលចិត្ត	-11.3464
▁interpret	-11.3465
▁Date	-11.3467
private	-11.3467
ប្រណីត	-11.3468
▁pneumatic	-11.3469
រោមចៀម	-11.3469
▁modified	-11.3469
▁Rapid	-11.347
▁knew	-11.347
សន្តិសុខស្បៀង	-11.347
ងាយនឹង	-11.3472
▁suffer	-11.3472
ត្រូវបានទាមទារ	-11.3472
ការភ្ញាក់ផ្អើល	-11.3472
តម្រូវការទីផ្សារ	-11.3472
ស៍	-11.3472
▁spare	-11.3473
ក្លាយទៅជា	-11.3474
▁បាយ	-11.3475
1.8	-11.3476
▁Old	-11.3476
▁tip	-11.3477
ដើម្បីយក	-11.3478
▁tight	-11.3479
▁Skip	-11.3481
Ex	-11.3482
ឺរ	-11.3482
អូស	-11.3483
CK	-11.3483
៣៩	-11.3484
ata	-11.3484
ស្នើឱ្យ	-11.3485
▁mandate	-11.3487
▁គណនី	-11.3488
play	-11.3488
▁backup	-11.3488
អ៊ូ	-11.3488
រាប់រយ	-11.349
▁servants	-11.349
EU	-11.3497
យ៉ាងតិច	-11.3497
ជឿជាក់ថា	-11.3499
▁examine	-11.3499
អូស្រ្តាលី	-11.35
Con	-11.35
▁WP	-11.3501
▁compassion	-11.3503
ឋិតិវន្ត	-11.3503
▁Cognos	-11.3503
▁democracy	-11.3503
ទ្រុង	-11.3503
▁គំនិតគណិតវិទ្យា	-11.3503
នៅកម្រិត	-11.3505
▁Level	-11.3505
ផ្តល់ព័ត៌មាន	-11.3506
▁Foam	-11.3509
235	-11.3509
tle	-11.3509
ការអនុញ្ញាត	-11.351
ទីន	-11.351
ចន	-11.3511
▁2.2	-11.3512
uy	-11.3512
▁Release	-11.3513
▁massage	-11.3513
▁គឺមានសារៈសំខាន់	-11.3514
ខេត្តស្វាយរៀង	-11.3516
▁Applications	-11.3517
ធំមួយ	-11.3518
▁memorize	-11.3519
ពីបទ	-11.3521
ជាទីស្រឡាញ់	-11.3521
▁SMS	-11.3523
▁កាលបរិច្ឆេទ	-11.3524
▁restrictions	-11.3525
ក្រឡុក	-11.3526
▁តារាង	-11.3527
▁តារា	-11.3527
▁Filter	-11.3528
▁ប៉ា	-11.3528
All	-11.3529
▁កិច្ចប្រជុំ	-11.3531
▁អត្ថបទ៖	-11.3534
▁Cast	-11.3537
▁basket	-11.3537
▁sanitation	-11.3537
▁appointment	-11.3538
▁officer	-11.3538
ដំណើរការ។	-11.3539
កម្រិតនៃ	-11.354
▁ដីធ្លី	-11.3541
*1	-11.3545
ថ្មលីចូម	-11.3546
ax	-11.3547
▁ក្រដាស	-11.3548
ចុះហត្ថលេខា	-11.3548
▁សង្គមស៊ីវិល	-11.3548
បណ្ដា	-11.3551
vert	-11.3553
▁finger	-11.3554
ដើម្បីធានានូវ	-11.3555
ហ្សី	-11.3555
គឺមានសារៈសំខាន់	-11.3556
▁cutter	-11.3557
0.8	-11.3558
▁2005	-11.3562
ការទំនាក់ទំនង	-11.3563
▁firms	-11.3565
▁creates	-11.3565
▁extensive	-11.3566
អាចសង្ខេប	-11.3567
ឡើងវិញនូវ	-11.3567
ដែលមានសុវត្ថិភាព	-11.3571
▁ពាក់	-11.3571
▁executive	-11.3571
ដូនតា	-11.3571
ឧបករណ៍ប្រើប្រាស់	-11.3571
ល្បាយ	-11.3572
▁childhood	-11.3572
កក់	-11.3572
ទិញទំនិញ	-11.3572
▁បន្តថា	-11.3572
▁Ste	-11.3573
▁Farm	-11.3573
ព្រះគម្ពីរ	-11.3574
FE	-11.3574
ប្រឈមនឹង	-11.3576
▁promotes	-11.3576
▁majority	-11.3577
ក្នុងកម្រិត	-11.3577
ចាំបាច់សម្រាប់	-11.3578
នេះមិន	-11.3579
យឺតៗ	-11.3579
គួរឲ្យ	-11.358
▁Base	-11.358
មួយចំនួនធំ	-11.3584
▁Mor	-11.3585
▁9.	-11.3585
ទំនេរ	-11.3585
▁reaches	-11.3586
អេម	-11.3588
▁struggle	-11.3589
▁ទ្រង់បាន	-11.359
បង្ខំ	-11.359
▁horses	-11.359
▁២៩	-11.359
▁pitch	-11.3592
▁Fe	-11.3593
▁considering	-11.3596
▁moderate	-11.3597
▁unity	-11.3597
ស្ថិតនៅលើ	-11.3597
▁CH	-11.3597
000	-11.3597
cum	-11.3598
▁សុខភាព	-11.3598
ចាប់ផ្តើមពី	-11.3598
▁Him	-11.36
ដ៏សំខាន់សម្រាប់	-11.36
ដោយមិនមាន	-11.3601
▁updates	-11.3602
នៅពេលនោះ	-11.3602
មានអត្ថប្រយោជន៍	-11.3602
▁stressed	-11.3605
ការផ្តោតអារម្មណ៍	-11.3605
ប៊្លូធូស	-11.3605
▁receipt	-11.3605
▁beneficial	-11.3605
ette	-11.3606
ពិសេស។	-11.3608
ប្រាំមួយ	-11.3608
▁49	-11.3609
▁Ver	-11.3609
សើច	-11.361
▁warned	-11.3611
ប្រណិត	-11.3612
ជាប្រភេទ	-11.3612
9.5	-11.3612
▁គុណសម្បត្តិ	-11.3612
sea	-11.3615
▁indicate	-11.3615
▁បានបង្កើត	-11.3616
៥១	-11.3617
នេះហើយ	-11.3618
▁manufactured	-11.3618
▁rooms	-11.3618
របស់អ្នកទៅ	-11.3618
ចម្លាក់	-11.3618
▁vote	-11.3618
៣០០	-11.3619
សមនឹង	-11.362
ទូត	-11.3621
ដើម្បីបន្ត	-11.3621
នៃឧស្សាហកម្ម	-11.3622
នៅចន្លោះ	-11.3623
▁និងកំពុង	-11.3624
▁renowned	-11.3625
▁reward	-11.3626
▁fr	-11.3627
▁ចំណាយ	-11.3627
ដាក់ឈ្មោះ	-11.3628
▁Lim	-11.3628
អាចបត់បែនបាន	-11.3629
បានលើកឡើងថា	-11.363
មិនទាន់មាន	-11.363
▁គម្រប	-11.363
▁វាមានសារៈសំខាន់	-11.363
▁affecting	-11.3631
ចូលរួមចំណែក	-11.3631
បរិក្ខារ	-11.3632
មួយទៅ	-11.3635
ដែលខ្ញុំបាន	-11.3635
នុ	-11.3638
▁tend	-11.3638
-22	-11.364
ម្តងហើយម្តងទៀត	-11.364
▁possibility	-11.364
▁Team	-11.364
សូដ្យូម	-11.364
▁spoon	-11.364
▁sunlight	-11.3641
អាណត្តិ	-11.3642
▁Highster	-11.3642
:36	-11.3643
សេដ្ឋកិច្ចពិសេស	-11.3643
▁អរគុណ	-11.3644
▁handling	-11.3645
▁cosmetic	-11.3647
រូ	-11.3648
rain	-11.3649
សារមន្ទីរ	-11.3649
:40	-11.3651
៧២	-11.3656
▁expectations	-11.3659
▁Sustainable	-11.3662
ពីរបៀប	-11.3662
▁Wa	-11.3663
នាម	-11.3664
▁Nan	-11.3664
បច្ចុប្បន្ន។	-11.3665
▁foreigners	-11.3666
▁SGS	-11.3667
▁situations	-11.3667
ចាញ់	-11.3667
▁CT	-11.3668
Bo	-11.3672
អាមេរិច	-11.3674
ទីប្រជុំជន	-11.3674
▁Agreement	-11.3674
▁Huawei	-11.3674
▁inquiry	-11.3674
▁Empire	-11.3675
ចម្អិនអាហារ	-11.3675
▁Band	-11.3675
សំខាន់មួយ	-11.3676
▁workplace	-11.3676
មុខតំណែង	-11.3676
ដឹងពីរបៀប	-11.3677
ប៉ុណ្ណា	-11.3677
▁roles	-11.3679
យេនឌ័រ	-11.3682
គ្រីបគ្រីប	-11.3684
0.2	-11.3684
▁slots	-11.3684
អ្នកខ្លះ	-11.3688
រាប់ពាន់នាក់	-11.3689
គុណភាពផលិតផល	-11.369
▁Nylon	-11.3692
ky	-11.3693
▁noodles	-11.3694
ក្នុងការរៀបចំ	-11.3697
EF	-11.3698
ការផ្ទៀងផ្ទាត់	-11.3699
▁specification	-11.3699
▁ថែមទាំង	-11.3699
▁25%	-11.3699
▁តម្រូវ	-11.3704
▁ការលើកកម្ពស់	-11.3707
សោះ	-11.3708
ធ្នើ	-11.3708
រលួយ	-11.3709
ស្រោចស្រព	-11.3709
▁Categories	-11.3709
▁Ratanakiri	-11.3709
▁column	-11.3709
ដើម្បីធ្វើការ	-11.3709
▁cultivate	-11.371
ហែលទឹក	-11.371
▁losing	-11.371
▁មេសា	-11.3711
ឡើងក្នុងឆ្នាំ	-11.3711
▁Workers	-11.3712
▁Has	-11.3713
▁Off	-11.3713
▁Krom	-11.3715
ផ្តល់សេវា	-11.3716
▁(5	-11.3718
ហាត់	-11.3718
នឹងកើនឡើង	-11.3719
សិង្ហបុរី	-11.372
HT	-11.3721
RT	-11.3722
ោង	-11.3722
▁polishing	-11.3722
dia	-11.3723
មីង	-11.3724
▁marked	-11.3724
▁max	-11.3725
▁Sin	-11.3726
ប្រាសាទបុរាណ	-11.3728
តាមបែប	-11.3731
▁ទៅជា	-11.3731
uff	-11.3733
▁plane	-11.3734
▁exchanges	-11.3734
▁លិខិតឆ្លងដែន	-11.3735
កាន់តែងាយស្រួល	-11.3736
▁starts	-11.3738
តំ	-11.3738
បម្រុង	-11.3739
▁0.4	-11.3739
▁ការបញ្ជាក់	-11.3741
page	-11.3741
ផែនការមេ	-11.3741
ប៉ុន្តែមិន	-11.3742
550	-11.3743
ជនជាតិដើមភាគតិច	-11.3744
▁Appeal	-11.3744
UB	-11.3744
▁adherence	-11.3744
មើលឃើញថា	-11.3744
▁Garden	-11.3744
▁deformation	-11.3744
▁02	-11.3744
ពាន់នាក់	-11.3744
▁glow	-11.3745
▁borrow	-11.3752
lot	-11.3752
វីរុស	-11.3753
ការធ្វើឱ្យ	-11.3754
បញ្ចាំង	-11.3754
ហើយអ្នក	-11.3755
បណ្តឹង	-11.3756
ជួរឈរ	-11.3757
ដើម្បីពង្រីក	-11.3759
ការរឹតបន្តឹង	-11.376
▁losses	-11.376
:50	-11.3761
Th	-11.3762
ធ្វើលំហាត់ប្រាណ	-11.3762
▁វ៉ា	-11.3763
▁assessment	-11.3764
zer	-11.3765
▁Sch	-11.3767
នៅក្នុងសហគមន៍	-11.3772
ចងក្រង	-11.3772
▁Chang	-11.3772
▁showcase	-11.3772
អុ	-11.3772
town	-11.3773
▁Details	-11.3774
ken	-11.3775
ដែលមានសុខភាពល្អ	-11.3776
oma	-11.3777
building	-11.3778
▁mortgage	-11.3778
▁monks	-11.3779
ធ្វើម្ហូប	-11.3779
ach	-11.3779
▁និងកម្មវិធី	-11.3779
▁cinema	-11.378
▁Father	-11.378
tur	-11.3781
▁Sensor	-11.3781
▁តែង	-11.3782
កម្រាល	-11.3784
▁ធម្មតា	-11.3784
▁Account	-11.3784
▁បានបញ្ជាក់	-11.3784
▁ផ្កាឈូក	-11.3788
▁heads	-11.3788
hang	-11.3791
▁HE	-11.3791
បង្កើនសមត្ថភាព	-11.3791
វាជាការ	-11.3794
▁លោកបាន	-11.3794
▁Joint	-11.3795
▁320	-11.3798
▁exercises	-11.3799
New	-11.38
វិទ្យុសកម្ម	-11.38
▁CV	-11.38
ពួកគេមិន	-11.38
ទណ្ឌកម្ម	-11.3801
យ៉	-11.3802
▁Private	-11.3802
សំរេច	-11.3802
ទាក់ទងទៅនឹង	-11.3802
លះបង់	-11.3804
គម្រោងសាងសង់	-11.3805
▁bets	-11.3806
ស្រួល	-11.3807
▁cl	-11.3808
(1	-11.3808
កាំ	-11.381
▁supplement	-11.3811
▁ស្	-11.3813
ទីធ្លា	-11.3813
▁chronic	-11.3813
គ្រុប	-11.3813
▁ruling	-11.3813
▁Diameter	-11.3814
▁Chamber	-11.3814
ចាកចេញ	-11.3815
ជាអាទិភាព	-11.3815
▁ទីនេះ	-11.3817
ធំជាងគេ	-11.3817
អនុវត្តន៍	-11.3818
▁ការទូទាត់	-11.3819
des	-11.3819
▁ពង្រឹង	-11.3819
ដែលផ្តល់នូវ	-11.3819
▁4000	-11.3822
ជាយូរមកហើយ	-11.3824
ចុចប៊ូតុង	-11.3827
104	-11.3828
▁ត្រឡប់	-11.3829
▁replaced	-11.3831
▁keeping	-11.3833
▁បានថ្លែងថា	-11.3833
▁blind	-11.3834
គឺប្រហែល	-11.3834
▁fittings	-11.3836
▁melt	-11.3837
សង្គម។	-11.3839
run	-11.384
TR	-11.384
▁scooter	-11.3843
▁coal	-11.3844
ធានាសុវត្ថិភាព	-11.3846
▁ធម្មជាតិ	-11.3848
▁Netflix	-11.3848
▁បញ្ញវន្ត	-11.3848
▁Conference	-11.3848
▁automotive	-11.3848
▁greenhouse	-11.385
▁tower	-11.385
▁Options	-11.3851
▁Temple	-11.3851
bel	-11.3851
▁Help	-11.3854
ការទាក់ទាញ	-11.3856
▁ក្មេង	-11.3856
▁engaged	-11.3858
▁Visit	-11.3859
ដែលចង់	-11.386
▁specially	-11.3862
▁falling	-11.3863
/8	-11.3863
អ្នកប្រើប្រាស់។	-11.3865
អស់កម្លាំង	-11.3866
ពណ៌ប្រផេះ	-11.3867
សម្រង់	-11.3868
▁Archives	-11.3869
▁scene	-11.3869
▁tension	-11.387
ដែលអាចរកបាន	-11.3871
ការប៉ះទង្គិច	-11.3872
សកល។	-11.3872
EO	-11.3874
កម្ចាត់	-11.3878
field	-11.3881
វាមិនមែនជា	-11.3881
ឧបករណ៍បំលែង	-11.3883
ភ្នាស	-11.3884
▁dialogue	-11.3884
▁murder	-11.3884
ខណ្ឌ	-11.3884
ក្រូចឆ្មារ	-11.3885
▁ម៉ូឌុល	-11.3885
▁waterfall	-11.3885
▁4.0	-11.3886
sized	-11.3889
▁Feed	-11.3889
▁positions	-11.389
ore	-11.3892
NE	-11.3894
▁declare	-11.3896
▁និងជំរុញ	-11.3904
ថ្លើម	-11.3904
▁ឆ្លើយ	-11.3905
▁standing	-11.3906
eu	-11.3907
ភក់	-11.3909
ប្រទេសរុស្ស៊ី	-11.3909
សប្បាយរីករាយ	-11.3911
ម្រេច	-11.3912
ប៉ុន្តែវា	-11.3913
▁artists	-11.3913
▁foreigner	-11.3914
▁យោងតាមរបាយការណ៍	-11.3915
▁គោលបំណង	-11.3918
▁Update	-11.3919
▁pharmaceutical	-11.3919
▁Message	-11.3919
▁clarified	-11.3919
▁syrup	-11.3919
▁Palace	-11.3919
[...]
