<pad>	0
<unk>	0
<s>	0
</s>	0
<2en>	0
<2km>	0
▁	-2.46334
.	-3.73553
,	-3.79952
▁the	-4.13206
▁and	-4.40142
▁to	-4.46128
▁of	-4.50011
។	-4.74213
s	-4.83209
▁និង	-4.94465
▁in	-5.08957
▁a	-5.20236
▁The	-5.20531
-	-5.20978
▁for	-5.40305
ing	-5.59667
▁Cambodia	-5.78183
▁is	-5.81983
’	-5.84602
▁with	-5.87863
▁(	-6.07179
:	-6.07679
▁on	-6.16333
)	-6.19127
▁from	-6.25945
កម្ពុជា	-6.26926
▁by	-6.36037
▁that	-6.37162
▁ដែល	-6.38601
ed	-6.44303
នេះ	-6.51001
▁ការ	-6.52915
▁as	-6.59777
▁បាន	-6.59942
▁has	-6.61253
▁are	-6.63967
បាន	-6.64558
▁លោក	-6.69706
ដែល	-6.74041
របស់	-6.78484
▁Royal	-6.79211
ក្នុង	-6.83483
សម្រាប់	-6.84937
ពី	-6.86417
▁at	-6.87453
▁A	-6.87843
▁ដោយ	-6.88415
ly	-6.89351
▁will	-6.89382
នៃ	-6.91744
▁ហើយ	-6.92819
▁ឬ	-6.93476
▁be	-6.94499
▁Ministry	-6.95033
▁៖	-6.96152
▁Penh	-6.9858
▁Cambodian	-6.98724
▁ដើម្បី	-6.99363
▁Phnom	-6.99706
▁“	-7.00451
▁ហ៊ុន	-7.03037
▁ជា	-7.05971
▁development	-7.07363
▁an	-7.12071
▁this	-7.12118
នៅ	-7.1225
▁its	-7.12497
▁or	-7.12649
▁over	-7.12751
▁Hun	-7.1329
▁Minister	-7.13528
▁ក្នុង	-7.1374
▁national	-7.14209
▁new	-7.15794
▁មាន	-7.17344
▁National	-7.18596
▁all	-7.19294
ដោយ	-7.23712
▁their	-7.24433
និង	-7.2485
▁His	-7.24876
▁public	-7.25138
ថា	-7.26321
ជា	-7.27384
▁គឺ	-7.28261
មាន	-7.29019
▁have	-7.34589
/	-7.34952
▁ឯកឧត្តម	-7.3545
ការ	-7.35969
▁Government	-7.37228
'	-7.37765
សេដ្ឋកិច្ច	-7.39242
▁was	-7.39411
▁economic	-7.3977
៕	-7.40126
ចំនួន	-7.40723
មួយ	-7.42209
▁សែន	-7.42505
▁Samdech	-7.42941
▁នៅ	-7.43437
▁Sen	-7.44213
▁agricultural	-7.4432
▁government	-7.46147
”	-7.47021
ទៅ	-7.47297
▁million	-7.48673
▁health	-7.49232
▁not	-7.50373
▁must	-7.50545
ឱ្យ	-7.5057
▁his	-7.50966
លើ	-7.51187
ហិរញ្ញវត្ថុ	-7.53194
»	-7.53685
ស	-7.54316
▁international	-7.54446
▁shall	-7.55163
▁នឹង	-7.56193
ដើម្បី	-7.57019
been	-7.57907
លោក	-7.58282
%	-7.58975
▁This	-7.59099
▁នៃ	-7.6066
▁through	-7.61059
ដល់	-7.61493
▁Khmer	-7.61562
S	-7.61884
▁her	-7.62422
៖	-7.62874
▁into	-7.6359
នៅក្នុង	-7.6389
▁«	-7.63943
▁កម្ពុជា	-7.6403
▁sector	-7.64975
អន្តរជាតិ	-7.65907
▁citizens	-7.65996
នឹង	-7.66841
▁financial	-7.6834
▁also	-7.68575
e	-7.68681
▁១	-7.68901
▁high	-7.69271
▁land	-7.69508
▁គឺជា	-7.7074
ក្នុងការ	-7.71173
▁growth	-7.71311
▁សម្រាប់	-7.71421
▁investment	-7.72866
▁it	-7.72972
th	-7.73789
ថ្មី	-7.73882
▁២	-7.74085
▁Prime	-7.75272
▁but	-7.75337
▁like	-7.75818
▁can	-7.76114
ប	-7.76604
ជាតិ	-7.76979
នៅកម្ពុជា	-7.76994
▁He	-7.77796
▁Mr	-7.7786
ក	-7.78678
▁market	-7.80057
▁ប៉ុន្តែ	-7.8016
▁In	-7.80675
▁stated	-7.81004
y	-7.81086
▁during	-7.81154
d	-7.81215
▁Kingdom	-7.81233
▁Excellency	-7.81548
▁under	-7.82024
រ	-7.82235
▁authorities	-7.82596
▁ត្រូវ	-7.82881
▁ensure	-7.83211
▁ASEAN	-7.84181
រាជរដ្ឋាភិបាល	-7.84241
ទាំងអស់	-7.85386
▁support	-7.8652
▁S	-7.88807
▁ត្រូវបាន	-7.88899
),	-7.89618
▁enhance	-7.8997
ប្រកបដោយ	-7.90108
▁៣	-7.90445
▁រាជរដ្ឋាភិបាល	-7.90625
ជាច្រើន	-7.92325
▁global	-7.9262
នូវ	-7.92899
▁Techo	-7.93083
▁"	-7.9314
▁after	-7.93296
បច្ចេកវិទ្យា	-7.9352
▁ទៅ	-7.93536
▁people	-7.93544
របស់ខ្លួន	-7.93794
▁Preah	-7.94122
▁ក៏	-7.94505
▁while	-7.94582
នោះ	-7.94603
ត្រូវ	-7.94615
▁China	-7.94679
ជាង	-7.94749
ត្រូវបាន	-7.95412
ផងដែរ។	-7.95844
▁cooperation	-7.96661
▁ពី	-7.96699
១៩	-7.97855
?	-7.98022
al	-7.98101
E	-7.98851
តាម	-7.9928
t	-7.99792
ពាណិជ្ជកម្ម	-8.00042
ការងារ	-8.01832
▁H	-8.02271
▁ជាពិសេស	-8.02835
▁two	-8.02962
▁law	-8.03708
▁All	-8.03967
▁trade	-8.04546
គឺ	-8.04773
▁COVID	-8.04864
▁U	-8.05028
.”	-8.05207
▁province	-8.05254
អាមេរិក	-8.05281
▁year	-8.05299
▁products	-8.05973
មក	-8.06048
ជាមួយ	-8.06124
▁តែ	-8.06144
ចំពោះ	-8.06358
▁ភ្នំពេញ	-8.06924
១	-8.07263
▁infrastructure	-8.07577
▁នេះ	-8.07587
-19	-8.0794
▁within	-8.07976
ទាំង	-8.08189
▁including	-8.08343
▁key	-8.09077
▁ដូចជា	-8.09798
ន	-8.09984
▁របស់	-8.10475
អាច	-8.11435
▁King	-8.11601
▁Bank	-8.11648
▁peace	-8.11795
ក្រុមហ៊ុន	-8.11828
▁officials	-8.11953
▁project	-8.12852
▁future	-8.13274
ឲ្យ	-8.13315
▁៤	-8.13402
▁មិន	-8.14281
▁legal	-8.14575
ប្រើប្រាស់	-8.14992
▁more	-8.15086
▁៥	-8.16041
▁years	-8.16916
▁first	-8.17228
▁students	-8.17377
អ្នក	-8.18032
▁life	-8.19369
▁Kampong	-8.19515
បន្ត	-8.19583
▁civil	-8.19711
"	-8.19808
▁due	-8.19959
▁quality	-8.20189
▁billion	-8.20208
▁military	-8.20281
▁who	-8.20543
▁official	-8.20576
▁policy	-8.20604
▁ឆ្នាំ	-8.20914
▁were	-8.20975
▁International	-8.21693
▁D	-8.21709
▁security	-8.21762
▁ដល់	-8.2184
មួយចំនួន	-8.21914
▁projects	-8.2198
▁rice	-8.22458
▁អ្នក	-8.22578
▁profound	-8.22584
▁institutions	-8.22686
២	-8.2275
▁one	-8.22784
▁អាច	-8.23109
▁human	-8.24255
▁which	-8.24447
▁system	-8.24876
ផងដែរ	-8.25007
▁sustainable	-8.25764
▁he	-8.25915
នានា	-8.26306
▁C	-8.26418
មិន	-8.26554
▁**	-8.26678
▁near	-8.26709
៣	-8.27392
ច្រើន	-8.27618
នៃព្រះរាជាណាចក្រ	-8.27685
▁services	-8.27965
▁demand	-8.28532
▁education	-8.28768
▁ក្រុមហ៊ុន	-8.28881
▁ដ៏	-8.28884
▁Chinese	-8.2929
▁between	-8.295
▁long	-8.29541
▁ancient	-8.29585
▁digital	-8.30364
ប្រជាពលរដ្ឋ	-8.30404
a	-8.30442
ធ្វើ	-8.30746
ក៏	-8.31304
កំពុង	-8.31328
▁management	-8.31465
▁តាមរយៈ	-8.31631
▁export	-8.31641
▁youth	-8.31661
អត្រានុកូលដ្ឋាន	-8.31676
▁water	-8.32073
▁ខណៈ	-8.32129
▁business	-8.32294
▁និងការ	-8.32562
▁construction	-8.32585
នោះទេ	-8.32607
ម	-8.3284
▁workers	-8.32882
▁court	-8.33155
▁against	-8.33533
ខ្មែរ	-8.33646
**	-8.33689
ហើយ	-8.33751
▁RFA	-8.33896
▁continue	-8.34044
▁production	-8.34141
▁crucial	-8.34197
គម្រោង	-8.34775
ដែលមាន	-8.34874
▁countries	-8.34987
▁Majesty	-8.35317
៥	-8.35442
▁foreign	-8.35833
វិញ	-8.35849
▁ថា	-8.36079
ប្រមាណ	-8.36337
▁Dr	-8.36535
▁ម៉ាណែត	-8.36994
▁three	-8.37038
▁other	-8.37519
▁economy	-8.3758
▁only	-8.37651
▁meeting	-8.38169
▁community	-8.38553
▁P	-8.38557
ចិន	-8.39005
ទេ	-8.39071
▁rights	-8.39111
ខ្ពស់	-8.39997
ប្រព័ន្ធ	-8.41035
▁Manet	-8.41079
ous	-8.41198
▁food	-8.41414
▁ស	-8.41496
▁social	-8.41988
▁1	-8.42479
អាជីវកម្ម	-8.42682
ទឹក	-8.4269
▁ចំនួន	-8.4285
▁about	-8.42872
▁use	-8.43204
▁challenges	-8.4388
▁per	-8.43904
▁measures	-8.43928
▁committed	-8.44244
▁regional	-8.44294
▁ក៏ដូចជា	-8.44303
រាជធានីភ្នំពេញ	-8.44506
▁across	-8.44562
ម្នាក់	-8.44664
រដ្ឋាភិបាល	-8.44699
▁B	-8.44798
▁party	-8.45124
▁work	-8.45535
▁may	-8.45576
▁ដែលជា	-8.4574
▁time	-8.45748
ប្រតិបត្តិការ	-8.46017
ភាព	-8.46253
▁ឱ្យ	-8.465
▁By	-8.46708
សហប្រតិបត្តិការ	-8.4676
▁local	-8.46917
នាយករដ្ឋមន្ត្រី	-8.4695
▁5	-8.47062
៤	-8.47216
▁noted	-8.47228
▁emphasized	-8.47481
ត	-8.48082
▁President	-8.48126
▁training	-8.48173
ល្អ	-8.48561
▁2023,	-8.4862
n	-8.48632
▁continues	-8.48669
▁No	-8.49027
▁strengthen	-8.49208
▁Province	-8.49241
▁2	-8.49275
▁farmers	-8.49517
យើង	-8.49614
▁added	-8.49791
▁នៅក្នុង	-8.49792
រចនាសម្ព័ន្ធ	-8.49821
▁Reap	-8.50064
▁further	-8.50264
▁Siem	-8.50342
ផ្នែក	-8.5037
▁markets	-8.50409
▁stability	-8.50613
▁remains	-8.50741
បន្ថែម	-8.50804
ប្រសិទ្ធភាព	-8.50988
ជំនាញ	-8.51622
▁tourism	-8.5173
▁Decree	-8.51807
ដី	-8.51969
▁January	-8.5197
espite	-8.51977
រដ្ឋមន្ត្រី	-8.5215
▁they	-8.52654
▁promote	-8.52845
អំពី	-8.52996
es	-8.53007
▁society	-8.53146
▁ព្រមទាំង	-8.53654
▁implementation	-8.53868
▁I	-8.54073
▁prices	-8.54251
ទីផ្សារ	-8.54598
▁ប្រទេស	-8.54805
▁them	-8.5481
ង	-8.54823
▁New	-8.54954
▁3	-8.55009
▁Court	-8.55282
បន្ថែមទៀត	-8.5576
▁E	-8.56204
▁It	-8.56879
▁skills	-8.56998
▁plan	-8.57018
▁past	-8.57246
មនុស្ស	-8.57478
តំបន់	-8.5749
▁ឆ្នាំ២០២៣	-8.57602
▁Development	-8.57734
ប្រទេស	-8.58736
▁both	-8.5916
▁technology	-8.59282
▁we	-8.5935
▁heart	-8.59411
▁role	-8.59618
▁priority	-8.59858
▁plans	-8.59933
▁៦	-8.60108
▁2024,	-8.60164
ទៅកាន់	-8.60224
យុទ្ធសាស្ត្រ	-8.6024
▁areas	-8.60279
ព័ត៌មាន	-8.60476
ក្នុងស្រុក	-8.60532
▁issues	-8.60606
▁ដោយសារ	-8.60878
▁យើង	-8.60888
ផ្សេងៗ	-8.6129
▁children	-8.6129
ដ៏	-8.61311
៦	-8.61726
ពលរដ្ឋ	-8.61831
▁នូវ	-8.61891
យក	-8.61897
កម្មវិធី	-8.62006
er	-8.62043
▁these	-8.62265
▁ខណៈដែល	-8.62383
អាស៊ាន	-8.62401
▁company	-8.62602
▁ឆ្នាំ២០២៤	-8.6268
st	-8.62689
▁10	-8.62757
▁2023	-8.62761
▁registration	-8.62807
in	-8.63151
▁such	-8.63266
ជ	-8.63403
▁opportunities	-8.63494
▁upon	-8.63702
រឿង	-8.63782
▁ពលរដ្ឋ	-8.63855
ខ្លាំង	-8.64239
▁being	-8.64422
ពិភពលោក	-8.64503
ance	-8.64584
▁policies	-8.64614
).	-8.64734
▁Sam	-8.64764
▁boost	-8.64855
តែ	-8.65175
▁if	-8.65213
▁district	-8.65266
គ្រប់គ្រង	-8.65772
▁without	-8.65833
▁family	-8.65947
o	-8.65961
តាមរយៈ	-8.66024
▁Deputy	-8.66272
តម្លៃ	-8.66394
▁មក	-8.66523
▁total	-8.66567
▁To	-8.66905
▁Civil	-8.66975
▁exports	-8.6698
▁Party	-8.67079
▁រដ្ឋមន្ត្រី	-8.67265
▁តាម	-8.67274
ឡើងវិញ	-8.67334
▁ដូច្នេះ	-8.67534
▁K	-8.67611
▁many	-8.67679
▁aims	-8.67851
▁world	-8.68066
ចូល	-8.68128
▁សម្តេចតេជោ	-8.68147
កសិកម្ម	-8.68278
▁Health	-8.68346
ផ្សព្វផ្សាយ	-8.68975
▁data	-8.69078
▁គម្រោង	-8.69215
ឌីជីថល	-8.69218
▁លើ	-8.6937
▁sectors	-8.69447
សាធារណៈ	-8.69533
i	-8.69542
យ	-8.69669
▁most	-8.69678
ចូលរួម	-8.69874
លក់	-8.69876
▁ទាំង	-8.6992
ច្បាប់	-8.7
ដូចជា	-8.70002
▁before	-8.70226
▁along	-8.70247
▁Education	-8.70484
យកចិត្តទុកដាក់	-8.70509
se	-8.70947
▁Public	-8.70951
term	-8.71115
▁យុវជន	-8.71414
▁7	-8.7165
▁F	-8.72
អភិវឌ្ឍន៍	-8.72087
ឆ្នាំ	-8.72182
ជិត	-8.72212
▁4	-8.72217
គ្រួសារ	-8.72454
សិក្សា	-8.72474
គ្នា	-8.72485
វា	-8.72624
របស់កម្ពុជា	-8.72653
▁ដែលមាន	-8.72677
▁no	-8.72719
▁documents	-8.72798
▁ceremony	-8.72873
▁Angkor	-8.72905
គោលនយោបាយ	-8.73021
▁nation	-8.73042
▁daily	-8.73048
▁capital	-8.73148
▁especially	-8.73322
▁natural	-8.73428
▁urged	-8.73507
▁reduce	-8.73514
របស់លោក	-8.73522
ការអភិវឌ្ឍ	-8.74025
ទៅលើ	-8.74054
▁private	-8.74122
▁companies	-8.74192
▁budget	-8.74241
▁For	-8.7425
សកម្មភាព	-8.74274
▁potential	-8.74358
បច្ចេកទេស	-8.74466
▁should	-8.74498
▁regulations	-8.74618
▁access	-8.74746
ជាមួយនឹង	-8.74812
▁She	-8.74917
▁ភ្នំពេញ៖	-8.74979
▁ព្រោះ	-8.75214
▁case	-8.75451
ខ្លួន	-8.75471
រវាង	-8.75611
▁riel	-8.75655
▁issued	-8.75947
▁state	-8.76028
▁constitute	-8.76127
▁promoting	-8.76228
k	-8.7627
▁standards	-8.76642
▁safety	-8.76681
▁report	-8.76917
ឡើង	-8.77018
▁include	-8.77061
▁Vietnam	-8.77092
▁៧	-8.77311
m	-8.7737
៨	-8.77627
ជូន	-8.77663
ក្រុម	-8.77706
▁បន្ទាប់ពី	-8.77909
▁attract	-8.77993
▁On	-8.78076
ទៀត	-8.78204
(	-8.78477
C	-8.78583
▁ភាគរយ	-8.78637
▁highlighted	-8.78662
▁program	-8.7888
▁Council	-8.79116
កិច្ចព្រមព្រៀង	-8.79674
ខេត្ត	-8.7986
៧	-8.79961
▁building	-8.80303
r	-8.80321
▁major	-8.80332
ផលិតផល	-8.80376
▁technical	-8.80472
ថ្មីៗ	-8.80488
▁R	-8.80731
▁ព្រះរាជាណាចក្រ	-8.80799
ផ្លូវ	-8.80851
▁tons	-8.809
▁កំពុង	-8.80925
▁investors	-8.8097
▁ខែមករា	-8.81031
ការគ្រប់គ្រង	-8.81049
▁cases	-8.81175
▁political	-8.81449
▁she	-8.81591
▁our	-8.81623
ៗ	-8.81694
▁However	-8.81747
▁accord	-8.81911
1	-8.82039
▁via	-8.82158
▁paramount	-8.82403
▁study	-8.8269
យុវជន	-8.82803
▁relevant	-8.82888
ការប្រើប្រាស់	-8.82949
▁information	-8.8309
▁អាជ្ញាធរ	-8.83201
▁programs	-8.83208
▁An	-8.83267
▁well	-8.83471
ក្នុងតំបន់	-8.83591
▁មួយ	-8.83595
យ៉ាង	-8.8363
▁efforts	-8.83873
▁ព្រះ	-8.83909
▁ង	-8.83976
▁opposition	-8.84442
▁increase	-8.84488
▁families	-8.84491
▁AI	-8.84511
សង្គម	-8.84562
▁resources	-8.84772
▁ក្នុងនោះ	-8.84786
▁promulgated	-8.84867
ព្រឹត្តិការណ៍	-8.84906
ទទួលបាន	-8.8497
▁domestic	-8.84981
សរុប	-8.85155
មន្ត្រី	-8.85227
ធំ	-8.85234
▁នាយករដ្ឋមន្ត្រី	-8.85258
▁actively	-8.85359
លើកកម្ពស់	-8.85385
▁ព្រះមហាក្សត្រ	-8.85446
▁According	-8.85499
នេះ។	-8.85531
ល	-8.858
▁visit	-8.86158
▁Over	-8.86185
ទីតាំង	-8.86322
▁ចំពោះ	-8.86496
▁members	-8.86524
គាំទ្រ	-8.86592
▁Foreign	-8.86717
▁urban	-8.86721
ក្រសួង	-8.86752
▁modern	-8.87047
▁ក្រសួង	-8.87116
▁climate	-8.87276
▁សុខា	-8.87309
▁World	-8.87365
▁maintain	-8.87405
g	-8.8741
ពេល	-8.87603
▁Thailand	-8.87619
សហគមន៍	-8.87765
ចេញ	-8.87772
▁M	-8.87923
▁ពេល	-8.8797
▁enhanc	-8.88104
▁ចិត្ត	-8.88272
▁announced	-8.88299
▁vari	-8.88705
▁2022,	-8.89006
▁energy	-8.89223
▁four	-8.89306
▁Law	-8.89371
▁Japan	-8.89573
ខ្លួនឯង	-8.89752
based	-8.89766
▁2024	-8.89794
▁ensuring	-8.8986
▁Ms	-8.89883
▁សម	-8.89954
ដូច	-8.90192
▁you	-8.90331
▁supply	-8.90406
▁strategic	-8.90432
បង្កើត	-8.90454
▁Economy	-8.90458
▁Kem	-8.90666
ដែរ	-8.90722
ប្រភេទ	-8.90843
▁provinces	-8.90931
A	-8.91021
▁framework	-8.91101
▁months	-8.91123
▁benefits	-8.912
▁event	-8.91309
▁among	-8.91583
▁up	-8.91761
▁businesses	-8.91805
▁G	-8.91893
▁expand	-8.91922
▁2021	-8.91935
▁established	-8.9196
▁toward	-8.92042
បំផុត	-8.92109
នយោបាយ	-8.92314
2	-8.92511
អនុវត្ត	-8.92631
វៀតណាម	-8.92796
វិនិយោគ	-8.92802
▁forest	-8.92803
▁activities	-8.92804
▁procedures	-8.92944
ose	-8.92966
សិទ្ធិមនុស្ស	-8.92967
▁General	-8.92969
▁Assembly	-8.92991
▁Kong	-8.93158
អាជ្ញាធរ	-8.93158
▁income	-8.93293
វ	-8.93359
▁mind	-8.93395
ផលិត	-8.93569
កំណើនសេដ្ឋកិច្ច	-8.9365
កា	-8.93742
3	-8.93891
គេ	-8.93907
▁small	-8.9391
ដាក់	-8.94008
▁ក្រោយ	-8.94064
រថយន្ត	-8.94187
ទាំងនេះ	-8.94249
▁five	-8.94348
▁face	-8.94494
▁វា	-8.94612
▁full	-8.94621
▁Association	-8.94661
▁additional	-8.94885
បញ្ហា	-8.9514
▁ភាព	-8.95164
▁Sihanouk	-8.95233
ទី	-8.95324
សុវត្ថិភាព	-8.95433
▁others	-8.95477
▁Agriculture	-8.95502
▁defense	-8.95555
▁essential	-8.95607
ជាដើម។	-8.95625
▁women	-8.95659
▁កម្មវិធី	-8.95835
ដំណើរការ	-8.95835
▁vital	-8.96189
▁Department	-8.9636
▁now	-8.9652
ការពារ	-8.96521
ត្រួតពិនិត្យ	-8.96665
▁environmental	-8.96667
▁address	-8.96752
ant	-8.9694
▁become	-8.9712
▁some	-8.97124
▁provide	-8.97258
ទាំងនោះ	-8.97286
ប្រវត្តិសាស្ត្រ	-8.9731
▁Sokha	-8.97326
▁Management	-8.97388
របស់ពួកគេ	-8.97486
បទប្បញ្ញត្តិ	-8.97793
▁than	-8.97925
▁real	-8.97973
គឺជា	-8.98026
សន្តិភាព	-8.98081
▁នោះ	-8.98206
▁Sok	-8.9837
ករណី	-8.98468
▁As	-8.98711
▁communities	-8.98822
▁non	-8.98877
បក្សប្រឆាំង	-8.99027
▁knowledge	-8.99123
▁path	-8.99191
▁value	-8.99202
▁improve	-8.9923
ណា	-8.99307
▁continued	-8.99354
▁Youth	-8.99378
▁6	-8.99379
▁creating	-8.9939
▁nationwide	-8.9942
លេខ	-8.99422
នាង	-8.99444
▁រ	-8.99493
▁self	-9.00123
ផ្សេងទៀត	-9.0015
ខិតខំប្រឹងប្រែង	-9.00199
▁ធ្វើ	-9.00377
▁Asia	-9.00427
▁tourists	-9.00461
▁border	-9.00954
▁បច្ចុប្បន្ន	-9.00975
c	-9.01001
អាហារូបករណ៍	-9.01083
▁urges	-9.01133
▁efficiency	-9.01143
ប្រទេសកម្ពុជា	-9.01162
▁strengthening	-9.01187
កូន	-9.01356
▁ដែលបាន	-9.01415
ទំនាក់ទំនង	-9.0145
ទីក្រុង	-9.0145
៩	-9.01529
▁laws	-9.01548
▁morning	-9.01768
▁remain	-9.01769
▁សម្ដេចតេជោ	-9.01823
រៀបចំ	-9.0197
▁implemented	-9.01977
▁Thipadei	-9.02192
year	-9.02257
R	-9.02501
▁Koh	-9.02541
▁2022	-9.02542
▁progress	-9.02639
រដ្ឋ	-9.02987
▁ជាមួយ	-9.03034
ដែលបាន	-9.03232
▁លានដុល្លារ	-9.03262
▁had	-9.03283
▁សុខ	-9.03316
ចេញពី	-9.03336
▁research	-9.0346
▁change	-9.03489
▁provincial	-9.0367
ក្រោយ	-9.03697
▁១០	-9.03731
...	-9.03732
▁nations	-9.03799
▁road	-9.03817
▁ឆ្នាំ២០២២	-9.03919
B	-9.0397
▁school	-9.04024
▁registry	-9.04055
▁បើ	-9.04095
▁bilateral	-9.04146
▁effective	-9.04247
▁ប្រធាន	-9.04281
កិច្ច	-9.04297
▁O	-9.04395
▁៨	-9.04512
ពួកគេ	-9.04604
បច្ចុប្បន្ន	-9.04656
▁រួមមាន	-9.0472
▁October	-9.05069
ផ្ទះ	-9.05115
▁early	-9.05227
▁State	-9.05237
▁resilience	-9.05317
▁city	-9.05349
សុខភាព	-9.05446
ទទួល	-9.05548
▁help	-9.05596
▁រង្ស៊ី	-9.05697
▁គ	-9.05844
▁ក្នុងការ	-9.05926
▁វិនិយោគ	-9.05958
ឧស្សាហកម្ម	-9.05991
▁large	-9.06042
▁area	-9.06051
▁operations	-9.06305
▁avoid	-9.06329
សំខាន់ៗ	-9.0641
▁cultural	-9.06419
▁US	-9.06574
▁December	-9.06652
▁Year	-9.06859
▁កឹម	-9.06874
▁using	-9.06881
អ	-9.06902
▁oil	-9.07017
▁partners	-9.07125
ថ្ងៃ	-9.07146
វប្បធម៌	-9.07226
▁systems	-9.07238
ស្ថាប័ន	-9.07335
ធ្វើការ	-9.07357
▁United	-9.07379
▁ន	-9.07521
▁T	-9.07572
ស្តីពី	-9.07635
▁yet	-9.07704
▁group	-9.07877
▁commune	-9.07966
នៃការ	-9.08019
▁ឲ្យ	-9.08252
▁20	-9.08469
▁ministry	-9.08542
▁risks	-9.08561
បរិស្ថាន	-9.08761
រហូតដល់	-9.08842
គ្មាន	-9.0889
▁មន្ត្រី	-9.08994
ទិន្នន័យ	-9.09013
▁parties	-9.09014
ធនាគារ	-9.0912
on	-9.09161
▁Finance	-9.09215
▁គេ	-9.09218
▁Authorities	-9.09514
▁strategy	-9.09514
▁re	-9.09535
▁could	-9.09588
រួមគ្នា	-9.0964
▁leaders	-9.0969
▁collaboration	-9.09695
ប្រើ	-9.09699
▁Land	-9.09746
▁capacity	-9.09847
គោលដៅ	-9.09865
▁when	-9.099
បើក	-9.10045
an	-9.1017
▁approximate	-9.10176
ស្ថានភាព	-9.1018
▁strong	-9.10213
សហរដ្ឋអាមេរិក	-9.10411
▁Road	-9.10424
ជួយ	-9.10546
ក៏បាន	-9.10552
ជាបន្តបន្ទាប់	-9.10553
▁February	-9.10604
ផ្ទាល់ខ្លួន	-9.10635
▁Day	-9.10782
▁un	-9.10812
ថៃ	-9.10839
ដើម	-9.10869
ជីវិត	-9.10927
▁country	-9.10956
▁strictly	-9.1107
▁8	-9.1117
▁Battambang	-9.11177
ដោយសារ	-9.11383
▁March	-9.11411
កម្ពុជា។	-9.11426
▁Dur	-9.1144
នៅតែ	-9.11613
ឯកសារ	-9.11706
▁current	-9.11745
▁media	-9.11972
ទិញ	-9.11974
សុខភាពសាធារណៈ	-9.11996
▁រដ្ឋាភិបាល	-9.12053
ខ្ញុំ	-9.12056
D	-9.12087
▁spirit	-9.12272
▁ជាមួយនឹង	-9.12298
ប្រកបដោយចីរភាព	-9.12404
ទេសចរណ៍	-9.12449
h	-9.12451
▁revenue	-9.12471
ច	-9.12669
ធម្មជាតិ	-9.12686
com	-9.12818
ផ្គត់ផ្គង់	-9.12991
▁ដុល្លារ	-9.13054
▁day	-9.13192
▁Provincial	-9.13218
▁interest	-9.13328
▁conducted	-9.13446
▁estate	-9.13469
▁held	-9.13513
▁credit	-9.13714
គ្រប់	-9.13762
▁significant	-9.13779
▁ព្រះរាជក្រឹត្យ	-9.13803
▁តំបន់	-9.13869
7	-9.13907
▁USD	-9.13961
▁free	-9.14178
▁ទី	-9.14273
តម្រូវការ	-9.14428
▁សូម	-9.14516
កន្លែង	-9.14541
ផ្លូវការ	-9.14665
▁Committee	-9.14822
ក្រោម	-9.14848
▁days	-9.14883
▁primary	-9.1493
ជំរុញ	-9.15022
▁received	-9.15058
▁power	-9.15061
ផ្ទាល់	-9.15079
▁Russia	-9.15163
▁healthcare	-9.15193
▁deep	-9.15208
ជប៉ុន	-9.15354
▁down	-9.15636
ប៉ុណ្ណោះ	-9.15656
▁election	-9.15683
▁Mekong	-9.15744
ក៏ដោយ	-9.15891
▁University	-9.15958
▁meet	-9.16002
▁officially	-9.1602
5	-9.16101
▁ដោយឡែក	-9.16113
4	-9.16183
▁តើ	-9.16185
▁prevent	-9.16343
▁fields	-9.16376
ចិត្ត	-9.16471
▁increased	-9.16486
▁ក្រុម	-9.16541
▁Rainsy	-9.16565
▁យោងតាម	-9.16606
▁និងមាន	-9.16746
សម្រាប់ការ	-9.16764
ប្រជាជន	-9.16806
ពាក់ព័ន្ធ	-9.1681
▁Secretary	-9.1682
ព្រះមហាក្សត្រ	-9.16855
▁forces	-9.16886
▁ខេត្ត	-9.17287
▁May	-9.17351
▁still	-9.17379
▁District	-9.17449
▁ឡើង	-9.1757
▁protection	-9.17682
▁around	-9.17765
កិច្ចប្រជុំ	-9.17861
▁July	-9.17888
▁ផ្លូវ	-9.1793
ប្រ	-9.18047
▁Director	-9.18123
▁hope	-9.1829
▁illegal	-9.18307
ជាផ្លូវការ	-9.18398
ក្រុមប្រឹក្សា	-9.18413
▁ខ្លួន	-9.18426
ក្រសួងសេដ្ឋកិច្ច	-9.18455
▁since	-9.18539
▁លើសពីនេះ	-9.18548
វិជ្ជាជីវៈ	-9.1858
▁particularly	-9.18682
ers	-9.18703
▁d	-9.18843
en	-9.18891
▁shared	-9.1905
▁banking	-9.1907
K	-9.19254
រៀន	-9.19354
វិស័យ	-9.19405
សិស្ស	-9.1942
▁loans	-9.19566
រួម	-9.19633
▁approved	-9.19643
▁personal	-9.1972
▁jobs	-9.19723
▁vast	-9.19762
ផ្តល់	-9.19778
▁village	-9.20089
P	-9.20191
▁៩	-9.20203
▁your	-9.20239
▁2023.	-9.20518
មួយនេះ	-9.2052
."	-9.20532
▁good	-9.2074
▁leadership	-9.20794
▁រាល់	-9.20884
វិស័យកសិកម្ម	-9.20909
កាន់តែ	-9.20914
▁tax	-9.20925
▁robust	-9.20951
▁residents	-9.20957
▁បន្ត	-9.21201
▁factory	-9.21286
ឡើយ	-9.21395
ខ្លះ	-9.21406
អាកាសធាតុ	-9.21468
កុមារ	-9.21504
ព្រះរាជាណាចក្រ	-9.21528
▁temple	-9.21544
ផែនការ	-9.21842
▁ចំណែក	-9.21864
▁UN	-9.21865
▁sun	-9.21909
▁there	-9.22084
▁compar	-9.22089
ផលិតកម្ម	-9.22113
▁នាង	-9.22173
▁River	-9.22237
យោធា	-9.22246
មុខ	-9.22247
▁led	-9.22363
▁ទោះបីជា	-9.22521
កម្រិត	-9.22585
▁green	-9.22649
▁នាក់	-9.22668
របស់យើង	-9.2269
▁Norodom	-9.22797
▁ក៏បាន	-9.23008
តុលាការ	-9.23019
▁period	-9.23052
▁Interior	-9.23063
▁nature	-9.23136
▁night	-9.23154
ទៅដល់	-9.23195
អប់រំ	-9.2322
▁សេចក្តី	-9.23234
របស់អ្នក	-9.23314
▁old	-9.23325
នោះទេ។	-9.23413
ណាមួយ	-9.23465
▁June	-9.23498
▁generations	-9.23522
▁Cham	-9.23595
▁Meanchey	-9.23606
▁activists	-9.23709
▁ចិន	-9.23861
▁12	-9.23928
ប្រកាស	-9.2402
▁Arm	-9.24048
ថាមពល	-9.24066
▁wisdom	-9.24152
▁low	-9.24223
▁Economic	-9.24422
▁និងហិរញ្ញវត្ថុ	-9.24502
ធំៗ	-9.24552
M	-9.24603
▁expressed	-9.24629
▁significantly	-9.24631
▁សម្តេចធិបតី	-9.2464
▁achieve	-9.2474
កសិករ	-9.24826
▁kingdom	-9.24859
▁even	-9.24961
▁prepare	-9.24991
▁service	-9.25029
▁campaign	-9.25264
▁costs	-9.25275
▁1.	-9.2543
▁birth	-9.25497
ការអនុវត្ត	-9.25534
មានការ	-9.25553
▁critical	-9.2581
▁receive	-9.26123
របស់ក្រុមហ៊ុន	-9.26177
▁V	-9.26232
▁fully	-9.26363
ស៊ី	-9.26377
ផង	-9.26402
កិច្ចសហប្រតិបត	-9.26408
▁City	-9.26454
▁review	-9.26494
▁principles	-9.26497
▁release	-9.26504
▁create	-9.26593
សំខាន់	-9.26607
p	-9.26703
ជាតិ។	-9.26749
▁next	-9.26815
គ	-9.26925
▁fundamental	-9.27002
▁police	-9.27039
I	-9.2706
▁រួមទាំង	-9.27062
▁ប្រជាពលរដ្ឋ	-9.27194
▁individuals	-9.27231
▁currently	-9.27421
F	-9.27585
H	-9.27723
▁post	-9.27802
▁livelihoods	-9.27817
▁traditional	-9.27911
មុន	-9.28065
▁Forces	-9.28112
▁second	-9.28168
b	-9.28169
តែងតែ	-9.28178
▁stipulated	-9.28185
▁former	-9.28285
▁ជាមួយគ្នានេះ	-9.28318
អង្គការ	-9.28342
▁prosperity	-9.28363
▁អ្នកស្រី	-9.28379
ស្រាវជ្រាវ	-9.28521
▁leading	-9.2866
▁often	-9.2892
▁កញ្ញា	-9.28948
▁Every	-9.29008
▁reported	-9.29088
▁Commerce	-9.29092
▁experts	-9.29123
▁Korea	-9.29391
▁job	-9.294
l	-9.29419
▁each	-9.29437
or	-9.29603
▁certificate	-9.29717
▁order	-9.29788
▁take	-9.29788
▁develop	-9.2983
មកពី	-9.2995
ឱ្យបាន	-9.30006
ហេដ្ឋា	-9.30133
▁clean	-9.30196
▁September	-9.30236
កើនឡើង	-9.30299
▁fish	-9.3031
របស់ខ្លួន។	-9.30346
▁លោកស្រី	-9.30347
នាំចេញ	-9.30489
ឈ្មោះ	-9.30542
▁online	-9.30555
▁understanding	-9.30653
▁history	-9.30712
▁Defense	-9.30726
▁debt	-9.30767
to	-9.30777
▁rising	-9.30832
ប្រជាធិបតេយ្យ	-9.3085
▁PM	-9.30856
▁agriculture	-9.30864
បុរាណ	-9.3097
▁កាលពី	-9.30991
ខែ	-9.31041
▁identity	-9.31063
ភូមិ	-9.31077
▁provided	-9.31107
▁15	-9.31156
▁working	-9.31279
▁rate	-9.31299
ចាប់ផ្តើម	-9.31463
▁*	-9.31542
▁តុលាការ	-9.31687
▁ដើម្បីរក្សា	-9.31715
▁aim	-9.31736
▁protect	-9.31826
នីមួយៗ	-9.31828
អតិថិជន	-9.31889
▁Citizens	-9.31894
▁contribute	-9.32117
▁commitment	-9.32198
រោងចក្រ	-9.32203
▁rural	-9.3232
▁numerous	-9.32322
លុយ	-9.32352
សាលា	-9.32471
ី	-9.32552
▁លោកជំទាវ	-9.3256
រក	-9.32564
▁direct	-9.32625
▁goals	-9.32731
ជាដើម	-9.3284
▁last	-9.32906
▁conditions	-9.32925
សមត្ថភាព	-9.32965
▁justice	-9.33038
▁following	-9.3315
ទុក	-9.3315
▁higher	-9.33251
▁supporting	-9.3333
ចង់	-9.33336
អភិវឌ្ឍ	-9.33346
able	-9.33488
▁2.	-9.3352
▁ប្រសិនបើ	-9.33625
▁importance	-9.33722
ការវិនិយោគ	-9.33739
▁out	-9.33918
▁decision	-9.33967
ចំណេះដឹង	-9.34028
▁9	-9.34117
▁resolve	-9.34154
ដំបូង	-9.34221
លើកទឹកចិត្ត	-9.34408
▁rates	-9.34461
▁annual	-9.34493
នា	-9.34554
▁man	-9.34672
▁aid	-9.34717
▁Governor	-9.34808
▁sky	-9.3506
▁និងនេសាទ	-9.35157
▁សីហមុនី	-9.35255
▁បើតាម	-9.35259
▁Group	-9.35329
▁competent	-9.35378
▁highly	-9.35464
▁មនុស្ស	-9.3563
▁royal	-9.35707
អាហារ	-9.35739
▁L	-9.35781
បញ្ហាប្រឈម	-9.35828
រូប	-9.35865
▁Her	-9.36035
▁AMS	-9.36035
▁ធនាគារជាតិនៃ	-9.36115
side	-9.36171
▁relations	-9.36197
▁vision	-9.36259
▁death	-9.36266
▁until	-9.3628
កិច្ចប្រជុំកំពូល	-9.36303
ប្រាក់	-9.36407
ចុះ	-9.36452
▁ក	-9.36475
▁would	-9.36569
▁EU	-9.36695
▁November	-9.36832
ដាំ	-9.36951
▁waste	-9.37094
▁ក្រសួងសុខាភិបាល	-9.37116
The	-9.3718
▁productivity	-9.37292
ដំណាំ	-9.37309
▁culture	-9.37315
▁processing	-9.37417
ចាក់វ៉ាក់សាំង	-9.37424
ត្រូវតែ	-9.37491
▁banks	-9.37535
▁groups	-9.37553
▁states	-9.37665
▁ដែលមិន	-9.37743
ក្នុងវិស័យ	-9.37764
▁light	-9.37787
បន្ទាប់ពី	-9.37886
8	-9.37916
បែប	-9.37967
▁Cambodians	-9.37989
គាត់	-9.38002
រយៈពេល	-9.38067
▁August	-9.38068
និរន្តរភាព	-9.38094
▁បង្កើត	-9.38101
▁ក្រោម	-9.38117
▁៕	-9.38156
▁ដូច	-9.3816
▁inflation	-9.38167
▁recent	-9.38178
▁Kim	-9.38241
▁innovation	-9.38278
▁labor	-9.38309
ស្ត្រី	-9.38311
▁traffic	-9.38444
▁Constitution	-9.38487
▁goods	-9.38514
▁South	-9.38526
▁pivotal	-9.3853
▁After	-9.38536
▁11	-9.38546
ព្រះករុណាព្រះបាទ	-9.38574
ការផ្លាស់ប្តូរ	-9.38613
▁him	-9.38649
គ្រប់គ្រាន់	-9.38655
▁dated	-9.38658
ធ្វើឱ្យ	-9.38797
មូលដ្ឋាន	-9.38835
បង្ហាញ	-9.38838
មានសារៈសំខាន់	-9.38871
▁own	-9.38899
▁date	-9.38938
បង្កើន	-9.3898
▁ទើប	-9.3898
▁comprehensive	-9.3902
▁២០	-9.39044
▁member	-9.3906
being	-9.39062
▁beauty	-9.39079
it	-9.39109
▁រុក្ខាប្រមាញ់	-9.39163
▁Sihamoni	-9.39163
មាស	-9.39383
▁unwavering	-9.39418
▁us	-9.39607
G	-9.39651
▁At	-9.39667
កាត់បន្ថយ	-9.39697
▁បានលើកឡើងថា	-9.39705
ព្រះ	-9.39724
▁ខែ	-9.3975
បរទេស	-9.3983
សាងសង់	-9.39894
▁បច្ចេកវិទ្យា	-9.39925
▁action	-9.39989
បែបនេះ	-9.40091
▁នាំ	-9.40183
▁urge	-9.40211
ខេត្តព្រះសីហនុ	-9.40248
▁requires	-9.40254
▁fostering	-9.40269
មានសមត្ថកិច្ច	-9.40314
▁request	-9.40475
▁investments	-9.40492
សម្រេច	-9.40531
▁participation	-9.40573
▁We	-9.40632
▁Investment	-9.40718
▁impact	-9.40748
▁organized	-9.40791
Cambodia	-9.40813
កម្មករ	-9.40844
អា	-9.4098
ក្រុមការងារ	-9.41033
▁discuss	-9.41091
គណៈកម្មាធិការ	-9.41226
សង្កាត់	-9.41274
ចាប់	-9.41319
ជាប់	-9.41371
▁home	-9.41471
6	-9.41588
▁provid	-9.41621
▁establish	-9.41639
ប្រកបដោយចីរភាព។	-9.4164
ត្រី	-9.41656
ថវិកា	-9.41739
▁Additionally	-9.41838
▁implement	-9.41944
ផលិតផលកសិកម្ម	-9.41949
ដោះស្រាយ	-9.42041
អស់	-9.42041
▁តាមរយៈការ	-9.42109
▁30	-9.42121
▁crisis	-9.42156
▁produce	-9.42161
▁mental	-9.42252
▁ដោយសារតែ	-9.42282
▁agreement	-9.42343
ic	-9.42511
▁responsible	-9.43053
▁clear	-9.43137
▁amid	-9.43253
▁អង្គការ	-9.43336
▁adhere	-9.43509
▁School	-9.43531
បណ្តុះបណ្តាល	-9.43581
▁២០២៣	-9.4361
▁planning	-9.43676
ចរាចរណ៍	-9.43809
▁exchange	-9.43813
▁where	-9.44088
▁meticulously	-9.44089
▁product	-9.44148
▁RFI	-9.44168
▁Wat	-9.44249
▁Thai	-9.44257
▁encouraged	-9.44317
▁impacts	-9.4432
មិនទាន់	-9.44333
▁Svay	-9.44346
ថ្លៃ	-9.44376
មួយដែល	-9.44386
▁control	-9.44463
កម្លាំង	-9.4457
▁seek	-9.44656
▁th	-9.44679
ធនធានមនុស្ស	-9.44686
សត្វ	-9.44804
▁បានឱ្យដឹងថា	-9.44859
▁gold	-9.44913
▁2024.	-9.44944
▁administration	-9.44979
ផ្ដល់	-9.451
ឯកឧត្តម	-9.45179
▁ខែធ្នូ	-9.45275
▁needs	-9.45298
ពិសេស	-9.45554
▁Tourism	-9.45819
▁regarding	-9.4582
▁Co	-9.45913
▁heritage	-9.45916
f	-9.45963
▁demands	-9.46006
▁Labor	-9.46007
▁យ៉ាង	-9.46038
T	-9.46038
▁និងជា	-9.46039
ប្តេជ្ញាចិត្ត	-9.46122
▁region	-9.4614
គួរ	-9.46157
ឡើយ។	-9.4618
វិទ្យាសាស្ត្រ	-9.46265
▁every	-9.46279
▁ធនាគារ	-9.46304
▁process	-9.46424
សេចក្ដីថ្លៃថ្នូរ	-9.46462
▁delegation	-9.46485
ការលើកកម្ពស់	-9.46529
▁causing	-9.46553
អារម្មណ៍	-9.46667
ដ	-9.46678
សមត្ថកិច្ច	-9.46777
▁resource	-9.46809
រង	-9.46838
▁launched	-9.46875
មិនបាន	-9.469
▁living	-9.46917
▁19	-9.4696
កំណត់	-9.47056
▁suffering	-9.47066
កែច្នៃ	-9.47085
បានមានប្រសាសន៍ថា	-9.4719
▁និងកីឡា	-9.47198
កាន់តែច្រើន	-9.47371
ដែលជា	-9.47371
▁force	-9.47376
Y	-9.47471
▁Sub	-9.47483
▁signed	-9.47486
▁Bat	-9.47614
▁made	-9.47643
▁serves	-9.47649
▁intricate	-9.47754
នៃកម្ពុជា	-9.47764
▁ពិសេស	-9.47807
ion	-9.4792
▁environment	-9.47932
▁April	-9.47941
▁build	-9.47956
▁០	-9.47984
ឆ្លងកាត់	-9.48017
▁transport	-9.48323
ប្រាក់ចំណូល	-9.48424
ពីរ	-9.48433
▁2022.	-9.48458
▁farming	-9.48498
▁appeal	-9.48747
▁Institute	-9.48769
ហេដ្ឋារចនាសម្ព័ន	-9.48841
▁travel	-9.48863
ច្បាស់លាស់	-9.48869
▁learning	-9.48969
▁With	-9.49002
▁3.	-9.49051
▁Chea	-9.49086
▁foster	-9.49174
▁integrity	-9.49196
▁100	-9.4923
▁ជំនាញ	-9.49273
ប្រជាជនកម្ពុជា	-9.49308
L	-9.49332
▁return	-9.49363
▁detained	-9.49424
▁Ambassador	-9.49425
▁materials	-9.4952
day	-9.49556
ពង្រឹង	-9.49674
▁implementing	-9.49684
▁និងមធ្យម	-9.49689
▁fiscal	-9.49707
▁Kampot	-9.49723
បរិយាបន្ន	-9.49771
សុខាភិបាល	-9.49824
▁diseases	-9.49828
ដៃ	-9.49854
▁schools	-9.49885
▁ការងារ	-9.50056
ឱ្យប្រើប្រាស់	-9.50065
▁នៅពេល	-9.50245
▁Vietnamese	-9.50287
▁គោលនយោបាយ	-9.50375
▁People	-9.50395
ដើរ	-9.50396
ដឹកជញ្ជូន	-9.50404
▁week	-9.5048
▁Miss	-9.5056
▁focus	-9.50561
▁ជួយ	-9.50572
▁do	-9.50581
▁positive	-9.50587
▁gentle	-9.50606
សមាជិក	-9.50684
កំណើន	-9.50776
នៅលើ	-9.50908
ត្រឹមត្រូវ	-9.50957
▁roads	-9.50973
▁Financial	-9.51062
អ្នកប្រើប្រាស់	-9.51082
▁part	-9.51101
▁vibrant	-9.51219
▁បានបញ្ជាក់ថា	-9.51386
▁reached	-9.51498
រដ្ឋបាល	-9.51511
▁behind	-9.51513
▁results	-9.51605
▁strategies	-9.5161
ជេរប្រមាថដល់	-9.51612
eby	-9.51693
▁document	-9.51698
ផ្សាយតែ	-9.51709
មតិនៅក្នុង	-9.51757
▁Games	-9.51757
លើក	-9.51784
▁យើងខ្ញុំនឹង	-9.51803
▁disease	-9.51803
ប់	-9.5184
អ្នកបញ្ចូល	-9.51911
▁តម្លៃ	-9.51911
នៅពេល	-9.51922
មតិណា	-9.51941
អត្ថបទនេះ៖	-9.51946
រូបនេះ	-9.51966
▁កំណត់ចំណាំចំពោះ	-9.52042
▁provides	-9.52092
scale	-9.52109
re	-9.52131
▁entire	-9.5218
គុណភាព	-9.52229
▁Kandal	-9.52351
▁leaves	-9.52399
ទាំងអស់។	-9.52426
reflecting	-9.52489
▁stakeholders	-9.5249
▁populace	-9.52526
▁solutions	-9.52572
ក្រសួងកសិកម្ម	-9.52576
▁true	-9.52583
អ្នកដទៃប៉ុណ្ណោះ។	-9.52673
▁top	-9.52697
▁trees	-9.52825
▁maintaining	-9.52851
▁ministries	-9.52914
W	-9.52949
▁align	-9.52994
ប្រកួតប្រជែង	-9.53015
▁វិស័យ	-9.53039
១០	-9.53112
បោះឆ្នោត	-9.53177
នៅក្នុងប្រទេស	-9.53285
▁agreements	-9.53314
▁accused	-9.53325
▁ពាន់លានដុល្លារ	-9.53343
វិបត្តិ	-9.53349
▁practices	-9.53364
សំខាន់ក្នុងការ	-9.53387
គ្រឿង	-9.53437
ស្	-9.53471
▁Heng	-9.53528
▁price	-9.5354
ជ្រើសរើស	-9.53625
ive	-9.53644
▁មានប្រសាសន៍ថា	-9.53681
ស្វែងរក	-9.53722
សន្តិសុខ	-9.53759
អ្វី	-9.53764
ចាស់	-9.53773
កិច្ចការ	-9.53852
ភាគច្រើន	-9.53863
▁master	-9.53985
មានចំនួន	-9.54026
▁present	-9.54032
▁Community	-9.54075
▁car	-9.54077
▁Prey	-9.54156
▁evidence	-9.54187
▁success	-9.54245
មើល	-9.54268
General	-9.54375
រុស្ស៊ី	-9.5441
▁same	-9.54496
វិធានការ	-9.54498
ជំងឺកូវីដ	-9.54595
▁ពោលគឺ	-9.54688
▁golden	-9.54692
អន្តរជាតិ។	-9.54694
▁Technology	-9.54775
▁expansion	-9.5478
▁required	-9.54856
កាត់	-9.54942
បុគ្គលិក	-9.54966
▁គាត់	-9.5508
▁draft	-9.55103
upreme	-9.5511
ក្បាល	-9.55142
▁end	-9.55187
▁Nations	-9.55275
▁severe	-9.55351
▁expanding	-9.55429
ស្រូវ	-9.55513
ទូទាំងប្រទេស	-9.55519
▁អ្នកជំនាញ	-9.55644
ខាង	-9.55732
្តិការអន្តរជាតិ	-9.55742
មិនអាច	-9.55853
▁ហេង	-9.55873
▁hectares	-9.561
ពីសំណាក់	-9.5625
▁transparency	-9.56278
▁NEC	-9.56354
▁rose	-9.56383
▁Thom	-9.56386
រស់នៅ	-9.564
ក្រសួងអប់រំ	-9.5643
▁provisions	-9.56608
ភ្នំពេញ	-9.56622
▁នា	-9.56713
បិទ	-9.56794
▁child	-9.56825
N	-9.56853
ទ្វេភាគី	-9.56891
▁គ្រប់	-9.56918
សំណង់	-9.56967
វិស័យទេសចរណ៍	-9.56988
▁developing	-9.57016
ស្នើសុំ	-9.57024
▁កិច្ច	-9.57079
ពេលវេលា	-9.57112
▁Chhnang	-9.57138
▁young	-9.57255
▁ដោយ៖	-9.57338
ត្រូវបានអនុវត្ត	-9.5735
▁គួរ	-9.57456
បទពិសោធន៍	-9.57479
នៅតាម	-9.57492
▁ល	-9.5757
កម្ម	-9.57588
រួមមាន	-9.57675
▁Article	-9.57697
▁vehicles	-9.57757
ចុះបញ្ជី	-9.57852
ung	-9.582
▁strict	-9.58258
▁Notably	-9.58266
ច្បាប់ស្តីពី	-9.58414
▁improving	-9.58414
▁staff	-9.58414
▁sales	-9.58449
របស់ព្រះអង្គ	-9.58455
▁began	-9.5847
▁customers	-9.58509
ការសិក្សា	-9.58531
▁យ	-9.58535
▁ការអភិវឌ្ឍ	-9.58606
▁Summit	-9.58646
▁application	-9.58675
▁Facebook	-9.58764
ទ្រព្យសម្បត្តិ	-9.5883
▁war	-9.58834
ទំនើប	-9.58882
ពង្រឹងសមត្ថភាព	-9.58911
▁លាន	-9.59045
ផងដែរ៕	-9.59046
បាន។	-9.59092
▁issue	-9.5928
▁arrested	-9.59285
ដឹកនាំ	-9.59287
▁used	-9.59363
▁ខែតុលា	-9.5943
▁need	-9.59537
▁air	-9.59567
▁sustainability	-9.59576
▁according	-9.59579
▁facilitate	-9.59615
សេវា	-9.59731
▁six	-9.59775
▁Water	-9.59776
▁era	-9.59793
▁Ta	-9.59869
ប្រសិទ្ធភាព។	-9.59898
ចំណូល	-9.60016
▁Boromneath	-9.6002
ចាប់ផ្ដើម	-9.60078
▁ជំរុញ	-9.60112
ឥណទាន	-9.60168
▁ខែមីនា	-9.60247
▁$1	-9.60281
តា	-9.60372
ប្រហែល	-9.604
▁នរោត្តម	-9.60409
▁set	-9.60411
អត្ថប្រយោជន៍	-9.60524
ហិរញ្ញប្បទាន	-9.60532
គណបក្ស	-9.60552
▁glorious	-9.60649
សង្គ្រោះជាតិ	-9.60721
បញ្ចប់	-9.60742
▁existing	-9.60801
ក្នុងរយៈពេល	-9.60866
ach	-9.60888
▁teachers	-9.60904
▁mutual	-9.60969
សៀវភៅ	-9.61012
▁សេដ្ឋកិច្ច	-9.61013
ទៅជា	-9.61097
▁CNRP	-9.611
ឬ	-9.61169
▁rise	-9.61193
9	-9.61231
▁bank	-9.61259
▁Chan	-9.61299
▁money	-9.61478
▁prevail	-9.61494
▁any	-9.61532
អចលនទ្រព្យ	-9.61535
▁Police	-9.61547
សិល្បៈ	-9.61624
▁Stung	-9.61651
ដោះស្រាយបញ្ហា	-9.61682
▁dispute	-9.61777
គ្រាប់	-9.6189
ក្រុង	-9.61957
ចាប់ខ្លួន	-9.61959
▁another	-9.62
▁ខែឧសភា	-9.62002
▁cultivation	-9.62027
▁events	-9.62099
ទៅនឹង	-9.62109
▁ខែវិច្ឆិកា	-9.62118
លទ្ធផល	-9.62373
▁magnificent	-9.62399
▁capabilities	-9.6256
ជាប្រចាំ	-9.62721
▁does	-9.62884
▁reflect	-9.63035
ការពារជាតិ	-9.63067
▁កិច្ចសហប្រតិបត	-9.6309
▁បញ្ហា	-9.63099
ថ្នាក់	-9.63202
▁Center	-9.63207
▁student	-9.6321
ស្នើ	-9.63216
▁ប	-9.63352
▁អ	-9.63432
▁ឧប	-9.63505
គ្រោះថ្នាក់	-9.6354
▁technologies	-9.63583
▁Pursu	-9.63637
ជន	-9.63698
▁Environment	-9.63792
▁អ្នកនាំពាក្យ	-9.63882
▁សមត្ថកិច្ច	-9.64023
ថ្ម	-9.64052
ស្រុក	-9.64069
▁Speu	-9.64072
ដ៏រឹងមាំ	-9.64093
▁enterprises	-9.64129
▁special	-9.64168
ផ្សារ	-9.64172
ពិតប្រាកដ	-9.64175
ា	-9.64226
▁competitiveness	-9.64236
រដ្ឋធម្មនុញ្ញ	-9.64255
សារព័ត៌មាន	-9.64271
ang	-9.64328
ប្រឆាំង	-9.64371
▁១៥	-9.64478
▁reforms	-9.6459
បងប្អូន	-9.6459
សុំ	-9.64611
▁resilient	-9.64703
▁bridge	-9.64723
តូច	-9.64743
▁ខែកុម្ភៈ	-9.64754
▁authority	-9.64781
▁Affairs	-9.64835
▁ថ្ងៃ	-9.64883
ដល់ទៅ	-9.64917
▁ជីវិត	-9.64948
▁found	-9.64964
អគារ	-9.64993
សា	-9.65046
▁crises	-9.65055
▁very	-9.65072
AI	-9.65201
▁ជាង	-9.65237
អត្រាការប្រាក់	-9.65287
ប៉ុណ្ណោះទេ	-9.65296
▁academic	-9.65383
▁driving	-9.65386
២០	-9.65406
x	-9.65413
▁disputes	-9.65442
▁cannot	-9.65503
▁Construction	-9.65551
សារ	-9.6571
▁expected	-9.65825
ចុងក្រោយ	-9.65829
ទី១	-9.65901
▁grow	-9.66039
▁Riel	-9.66049
decree	-9.66072
▁third	-9.66078
▁Digital	-9.66089
ក្រសួងការពារជាតិ	-9.66116
▁They	-9.6622
▁competition	-9.66252
▁love	-9.66323
▁arrest	-9.66325
▁industrial	-9.66374
▁partner	-9.66421
ទំនិញ	-9.66431
ការបោះឆ្នោត	-9.66496
អង្គរ	-9.66535
▁risk	-9.66652
▁assistance	-9.66671
ចំណុច	-9.66741
▁prison	-9.66744
▁candidates	-9.66791
▁រហូតដល់	-9.66792
▁Some	-9.66814
ទី២	-9.66818
យោធពលខេមរភូមិន្ទ	-9.66866
▁ទទួល	-9.66912
ថ្នាក់ដឹកនាំ	-9.66941
ស្របតាម	-9.6695
គ្រោង	-9.66954
▁commercial	-9.6704
ផ្លាស់ប្តូរ	-9.6706
ដែលអាច	-9.67063
រាជរដ្ឋាភិបាល។	-9.672
▁factories	-9.67222
▁funds	-9.67236
*	-9.67276
▁ខែកក្កដា	-9.67278
level	-9.67337
របស់ប្រជាពលរដ្ឋ	-9.67429
▁eyes	-9.67435
ត្រូវបានរៀបចំឡើង	-9.67463
▁High	-9.67529
▁If	-9.67546
▁external	-9.67569
ក្តី	-9.67584
ឃុំ	-9.67613
▁sub	-9.67631
▁task	-9.67651
ជាន់ខ្ពស់	-9.67713
▁tales	-9.67734
▁Business	-9.67865
▁studies	-9.67953
ation	-9.67997
សេដ្ឋកិច្ចជាតិ	-9.68006
គិត	-9.6817
ch	-9.68174
ដែរ។	-9.68204
▁ដើម្បីលើកកម្ពស់	-9.68346
▁បរទេស	-9.68559
▁lives	-9.68615
ខេត្តសៀមរាប	-9.68688
កូវីដ	-9.6881
▁offers	-9.68848
▁happiness	-9.6909
▁2020	-9.69104
▁right	-9.69105
សាលារៀន	-9.69133
▁multiple	-9.69148
nd	-9.69181
ប្រចាំឆ្នាំ	-9.69197
ដ៏ជ្រាលជ្រៅ	-9.69249
**:	-9.6926
ចំណាយ	-9.69487
▁សិក្សា	-9.6954
▁Sun	-9.69548
▁Forum	-9.69561
មេ	-9.69596
le	-9.69719
▁prince	-9.6983
ត្រឹម	-9.69869
ចាប់ពី	-9.69891
▁protest	-9.69998
▁levels	-9.70054
▁inter	-9.70069
▁Ministers	-9.70088
▁ប្រព័ន្ធ	-9.70105
▁រដ្ឋមន្រ្តី	-9.70154
ខុសច្បាប់	-9.70182
▁N	-9.7023
នី	-9.70234
ther	-9.70283
▁21	-9.70367
▁exam	-9.70457
ចិញ្ចឹម	-9.70464
▁establishment	-9.70483
▁status	-9.7053
▁J	-9.70532
▁Apsara	-9.70598
▁preparing	-9.70705
▁confidence	-9.70705
one	-9.70727
▁Through	-9.70762
▁Japanese	-9.70764
▁season	-9.70772
ខាងលើ	-9.70775
▁committee	-9.70927
សេវាកម្ម	-9.71047
កាលពី	-9.71052
▁suspects	-9.71088
▁joint	-9.71095
▁Banteay	-9.71171
▁spokesperson	-9.71229
▁scholarships	-9.71262
▁sweet	-9.71265
▁physical	-9.71345
ធ្វើដំណើរ	-9.71424
▁គ្មាន	-9.71475
▁14	-9.71477
ដំណោះស្រាយ	-9.71495
ត្រៀម	-9.71529
នៅក្នុងតំបន់	-9.71531
▁annually	-9.71552
សមុទ្រ	-9.71589
ir	-9.71653
▁trust	-9.71714
ស្លាប់	-9.71883
ភ្ញៀវទេសចរ	-9.71898
▁reduc	-9.71908
▁anniversary	-9.71981
▁mechanisms	-9.72144
ទ	-9.72272
▁sovereignty	-9.72287
ធ្លាក់ចុះ	-9.7232
▁house	-9.72353
ព	-9.72447
ឆ្នាំ២០២៣	-9.72455
▁initiatives	-9.72498
▁ទទួលបាន	-9.72507
ពីការ	-9.72517
▁០០០	-9.72523
ដែលកំពុង	-9.72576
▁river	-9.72664
▁passed	-9.72686
▁Singapore	-9.72699
ទើប	-9.72727
▁ខែមិថុនា	-9.72787
▁leader	-9.7281
▁Works	-9.72819
▁met	-9.72896
economic	-9.7293
ចាប់អារម្មណ៍	-9.7294
សកល	-9.72953
▁បង្ហាញ	-9.73048
ព្រៃ	-9.73062
▁benefit	-9.73183
▁GDP	-9.73191
មិនមាន	-9.73216
ក្នុងចំណោម	-9.73294
▁2014	-9.73296
▁២០២២	-9.73339
▁ពួកគេ	-9.73365
ប្រេង	-9.73373
០	-9.73403
រក្សា	-9.73423
▁recovery	-9.73426
▁Two	-9.73437
▁ប្រកាស	-9.73473
▁effectively	-9.73499
▁fresh	-9.73577
▁18	-9.73611
▁mandated	-9.7362
▁concerning	-9.73635
▁operational	-9.73726
▁ដែលអាច	-9.73771
រួច	-9.7386
▁និងលើកកម្ពស់	-9.73881
▁Village	-9.7389
ជី	-9.73941
និងហិរញ្ញវត្ថុ	-9.74019
កើតឡើង	-9.74035
▁និងសំណង់	-9.74101
▁representatives	-9.74149
▁Fisheries	-9.74194
បៃតង	-9.7422
▁advanced	-9.74285
របាយការណ៍	-9.74371
▁female	-9.74475
អនុវត្តគោលនយោបាយ	-9.7464
▁supports	-9.74645
ដំណើរ	-9.74806
▁European	-9.74808
▁seeking	-9.7484
▁Administration	-9.74858
▁enduring	-9.74859
▁objective	-9.7491
▁payment	-9.7491
ក់	-9.7493
▁friendly	-9.74968
តាមរយៈការ	-9.74984
▁ខែកញ្ញា	-9.75064
▁related	-9.75081
▁Human	-9.75097
កូរ៉េ	-9.75128
ពូជ	-9.75243
rd	-9.75246
▁Many	-9.75307
▁ចេញ	-9.75338
រាល់	-9.75428
អគ្គិសនី	-9.75479
China	-9.75496
និយាយ	-9.75543
▁cross	-9.75548
▁medical	-9.75588
▁Rieng	-9.75652
ដីធ្លី	-9.75672
▁4.	-9.75673
ការប្តេជ្ញាចិត្ត	-9.75734
សិទ្ធិ	-9.75737
▁plant	-9.75871
▁officers	-9.75894
ម្ហូបអាហារ	-9.75961
▁ស្តីពី	-9.75994
ទៅតាម	-9.76038
ary	-9.76043
ខេត្តកំពង់ឆ្នាំង	-9.76136
បញ្ជូន	-9.76194
▁pre	-9.76208
អឺរ៉ុប	-9.7621
ពាក់ព័ន្ធនឹង	-9.76243
ថ្នាក់ជាតិ	-9.76249
▁administrative	-9.76321
▁សម្តេច	-9.76383
▁lead	-9.76419
▁response	-9.76448
J	-9.76543
▁CO	-9.7656
▁ម	-9.76647
▁និងដឹកជញ្ជូន	-9.76701
ពួកគាត់	-9.76774
▁addressing	-9.7684
▁experience	-9.76848
ជំងឺ	-9.76867
▁crops	-9.76872
▁parents	-9.7695
ទាំងពីរ	-9.77087
▁ឃុំ	-9.77122
at	-9.77149
និស្សិត	-9.77209
▁stone	-9.77224
▁Re	-9.77294
▁៣០	-9.77317
ស្តង់ដារ	-9.77322
▁partnerships	-9.77405
▁១២	-9.77428
▁ប្រាក់	-9.77488
បន្ទាយមានជ័យ	-9.77531
▁awareness	-9.77548
ម៉ោង	-9.77572
បុគ្គល	-9.77587
បញ្ជាក់ថា	-9.77607
ពិនិត្យ	-9.77667
ចំ	-9.77699
▁faces	-9.77711
▁festival	-9.77771
នៅតែបន្ត	-9.77787
▁orders	-9.77852
ដក	-9.77865
▁Pursat	-9.77941
▁plays	-9.77953
▁office	-9.77982
យ៉ាងខ្លាំង	-9.78086
▁ties	-9.7809
▁gracious	-9.78185
ដូចគ្នា	-9.78342
▁លី	-9.784
ប្រចាំថ្ងៃ	-9.78406
▁ចូល	-9.78452
▁បង្ហាញពី	-9.78499
▁ចូលរួម	-9.78549
ទំហំ	-9.78612
▁monitoring	-9.78613
▁stood	-9.78624
income	-9.78679
ស្ដីពី	-9.78726
▁poor	-9.78745
▁13	-9.78746
U	-9.78746
យុទ្ធនាការ	-9.78806
▁involved	-9.78882
▁មុន	-9.78962
មានប្រសិទ្ធភាព	-9.79019
▁increasing	-9.79027
▁រួច	-9.79034
▁សម្ដេច	-9.79049
សម្របសម្រួល	-9.79072
▁presided	-9.79078
▁methods	-9.79096
▁territorial	-9.79129
ក្រ	-9.79168
▁respect	-9.79217
▁loan	-9.79218
រកឃើញ	-9.79272
▁Code	-9.79304
▁Kratie	-9.79319
សាកលវិទ្យាល័យ	-9.79367
▁CEO	-9.79511
ត្រូវការ	-9.79527
▁ត្រូវតែ	-9.7973
តាមដាន	-9.79738
▁submitted	-9.79846
ជួប	-9.79849
បារាំង	-9.79896
ទប់ស្កាត់	-9.79945
▁recently	-9.79981
សុខុមាលភាព	-9.80058
ប្រមាណជា	-9.80081
▁ចុះ	-9.80087
▁ខែមេសា	-9.8018
ឆ្លុះបញ្ចាំងពី	-9.80227
Senior	-9.80243
ដើរតួនាទីយ៉ាង	-9.80334
▁safeguard	-9.80382
ព្រះរាជក្រឹត្យ	-9.80413
រដ្ឋសភា	-9.80437
▁ច្រើន	-9.8044
▁loss	-9.80497
▁helps	-9.80549
▁once	-9.80561
▁requiring	-9.80594
ភ្នំ	-9.80614
▁ដោយមាន	-9.80658
ទទួលយក	-9.80683
▁completed	-9.80693
un	-9.8071
▁leaving	-9.80722
▁រក	-9.80815
▁inclusive	-9.80833
▁so	-9.80865
el	-9.80904
▁says	-9.80921
▁owner	-9.80938
▁រៀបចំ	-9.80977
://	-9.80981
ឃើញ	-9.80988
បទល្មើស	-9.80988
▁head	-9.81013
▁scent	-9.81064
▁open	-9.81105
▁b	-9.81119
▁ធ្វើឱ្យ	-9.81137
ហានិភ័យ	-9.81212
ត្រឹមតែ	-9.81213
▁times	-9.81263
ស្រី	-9.81299
អាន	-9.81342
▁CPP	-9.81373
▁final	-9.81522
▁forests	-9.81621
ទាំងមូល	-9.81622
ធុរកិច្ច	-9.81622
▁age	-9.81676
▁socio	-9.81692
ទឹកស្អាត	-9.81755
▁អំពី	-9.81758
▁claims	-9.81766
▁drug	-9.81772
▁legacy	-9.8182
▁body	-9.81821
▁care	-9.81827
▁judicial	-9.81858
▁16	-9.81955
u	-9.81995
▁promotion	-9.81998
▁ការអនុវត្ត	-9.8202
▁Europe	-9.8206
▁internal	-9.82085
▁2018	-9.82137
អាស៊ី	-9.82152
▁manage	-9.82154
▁imports	-9.82167
ដោយផ្ទាល់	-9.82177
លី	-9.82289
▁dollars	-9.82379
ចំណីអាហារ	-9.824
▁២០២៤	-9.82407
▁ខែសីហា	-9.82427
របស់គាត់	-9.82484
▁collaborate	-9.82484
▁deaths	-9.82495
▁កើនឡើង	-9.82505
▁Social	-9.82529
up	-9.82545
កន្លងមក	-9.82557
▁រយៈពេល	-9.82674
ការចំណាយ	-9.82726
ជុំវិញ	-9.82743
ពេញលេញ	-9.82745
▁Australia	-9.82832
▁Forestry	-9.82866
▁Women	-9.82886
▁claim	-9.82931
▁រាជធានីភ្នំពេញ	-9.83017
▁confirmed	-9.83039
▁woman	-9.83052
▁prepared	-9.83091
អេឡិចត្រូនិក	-9.8312
▁mitigate	-9.83128
▁ស្រុក	-9.83165
▁នាយករដ្ឋមន្រ្តី	-9.83168
▁និងការអភិវឌ្ឍ	-9.83276
▁collection	-9.83305
▁individual	-9.8332
▁សុ	-9.83408
▁ក្រៅពី	-9.8344
ការស្រាវជ្រាវ	-9.8344
▁comply	-9.83457
▁deeply	-9.83461
ស្នាដៃ	-9.83472
អនាគត	-9.83477
ធ្ងន់ធ្ងរ	-9.8351
▁ក្រសួងអប់រំ	-9.83521
គោលការណ៍	-9.83534
▁Senate	-9.83572
▁certificates	-9.83699
▁freedom	-9.83721
ភាពជាដៃគូ	-9.83765
ចម្រុះ	-9.83767
ការនាំចេញ	-9.83778
▁contributing	-9.83786
▁$2	-9.83885
▁One	-9.83886
▁announces	-9.83886
ធម្មតា	-9.83894
បង្កើតឡើង	-9.83904
▁connect	-9.83909
▁say	-9.83965
▁Authority	-9.83987
សម្រេចចិត្ត	-9.84036
នៅតំបន់	-9.8406
▁ត្រូវបានប្រកាស	-9.84117
ក៏មាន	-9.84188
គំនិត	-9.84194
▁responsibility	-9.84312
▁សំឡេង	-9.84337
▁Urban	-9.84385
▁offering	-9.8439
▁prioritize	-9.84415
▁កាល	-9.84458
តំណាង	-9.8446
▁25	-9.84472
ទូទៅ	-9.84498
ស្ពាន	-9.84506
ក្នុងតំបន់។	-9.84512
▁prior	-9.84513
▁team	-9.84525
▁microfinance	-9.84527
ធនធាន	-9.84571
▁W	-9.84597
▁just	-9.8462
គឺជាអាទិភាពចម្បង	-9.84634
▁India	-9.84667
មន្ត្រីជាន់ខ្ពស់	-9.84766
▁ឬក៏	-9.84786
សំឡេង	-9.84805
ភាគីពាក់ព័ន្ធ	-9.84903
▁threats	-9.84912
▁serve	-9.85025
ការផ្គត់ផ្គង់	-9.85047
▁របាយការណ៍	-9.85048
▁Vihear	-9.85055
ក្លាយជា	-9.85134
▁meters	-9.85149
▁imperative	-9.85189
បន្តិច	-9.85212
▁apply	-9.85246
▁sent	-9.85283
▁ឯកឧត្ដម	-9.85288
▁Transport	-9.85317
▁entrepreneurs	-9.85348
គំនិតផ្តួចផ្តើម	-9.85378
▁យ៉ាងណាមិញ	-9.85458
▁Hong	-9.85488
គ្រឿងញៀន	-9.85579
គោរព	-9.85587
▁literacy	-9.85593
តាំងពី	-9.85615
▁Agricultural	-9.85796
▁និងអន្តរជាតិ	-9.85853
▁treatment	-9.85865
សមាគម	-9.85872
▁កាន់	-9.85874
▁opening	-9.85916
គ្រប់ប្រភេទ	-9.85927
▁Opposition	-9.85931
▁better	-9.8594
▁maintenance	-9.85955
៣០	-9.85956
▁several	-9.86011
▁សង្កាត់	-9.86034
▁សម្ដេចធិបតី	-9.86055
នាយករដ្ឋមន្រ្តី	-9.86065
ម៉ូតូ	-9.86087
សហគ្រាស	-9.861
សម្តេចតេជោ	-9.86106
▁developed	-9.86127
▁citizen	-9.86161
▁breeze	-9.86202
▁ដើម្បីធានា	-9.86213
ក្រសួងមហាផ្ទៃ	-9.86254
am	-9.86297
បណ្ឌិត	-9.863
▁Trade	-9.86333
▁សិស្ស	-9.8636
អត្តសញ្ញាណ	-9.864
ទាក់ទងនឹង	-9.86472
▁obstacles	-9.86484
▁industry	-9.86495
▁gratitude	-9.86542
ចាក់	-9.86576
▁place	-9.86629
old	-9.86633
▁participate	-9.86659
ប្រទេសទាំងពីរ	-9.86665
នីតិវិធី	-9.8668
▁late	-9.86691
ទាមទារ	-9.86757
▁Li	-9.86764
▁senior	-9.86815
រូបភាព	-9.86873
▁form	-9.8692
ជំនួយ	-9.86965
ការិយាល័យ	-9.86967
▁rich	-9.86984
▁organizations	-9.87016
អាម៉េរិក	-9.87078
▁Veng	-9.87099
នឹងត្រូវ	-9.87197
▁projected	-9.87245
▁tech	-9.87253
▁ទៀត	-9.8732
V	-9.87358
▁បង្កើតបានជា	-9.87461
▁conduct	-9.87478
នាំចូល	-9.87492
▁និងនវានុវត្តន៍	-9.87507
▁Cooperation	-9.87569
ទាំងស្រុង	-9.87657
▁journey	-9.87685
▁encourages	-9.87727
▁ព្រះអង្គម្ចាស់	-9.87735
គ្រូបង្រៀន	-9.87752
▁ជាក់ស្ដែង	-9.87814
របស់ចិន	-9.87885
ការយល់ដឹង	-9.87904
▁នៅពេលដែល	-9.87927
▁គង់	-9.87936
▁mere	-9.87948
របស់ពួកគេ។	-9.88001
បា	-9.88087
កម្ចី	-9.88122
▁Sar	-9.88124
▁trafficking	-9.88126
ឱកាស	-9.88178
▁vocational	-9.88191
ក្រសួងសុខាភិបាល	-9.88208
ប្រឆាំងនឹង	-9.8824
20	-9.8825
▁2015	-9.8825
ministerial	-9.8826
▁ព្រះអង្គ	-9.88313
របស់អង្គការ	-9.88445
▁ក្រុមប្រឹក្សា	-9.88452
▁reform	-9.88479
បន្លែ	-9.88523
▁Currently	-9.88526
សម្ដេចព្រះបរមនាថ	-9.88536
▁ផ្តល់	-9.88588
ចាំបាច់	-9.88634
▁http	-9.88733
▁art	-9.88748
w	-9.88779
▁សហគមន៍	-9.88795
ទាក់ទាញ	-9.88827
▁always	-9.88828
▁largest	-9.88856
ol	-9.88893
ឈើ	-9.88943
សង្គមស៊ីវិល	-9.88987
▁criminal	-9.89043
▁Under	-9.89137
កំពូល	-9.89172
បក្ស	-9.89186
អំណាច	-9.89246
▁allocated	-9.89314
▁globally	-9.894
់	-9.89443
▁vaccination	-9.89487
ដែលត្រូវ	-9.89501
▁1,	-9.89612
នគរបាល	-9.89643
២នាក់	-9.89693
▁lower	-9.89695
ការត្រួតពិនិត្យ	-9.89717
▁zones	-9.89726
▁enforcement	-9.89726
បាត់បង់	-9.89773
▁understand	-9.89775
ជោគជ័យ	-9.89818
▁achievements	-9.8983
ក្រសួងបរិស្ថាន	-9.8989
▁មិនមែន	-9.89906
ដ៏ធំល្វឹងល្វើយ	-9.89937
ឧបករណ៍	-9.90059
ដដែល	-9.9006
▁governance	-9.90083
▁Asian	-9.90134
▁marriage	-9.90147
▁លោកបណ្ឌិត	-9.90207
▁Festival	-9.90218
▁decline	-9.90228
គ្រប់រូប	-9.90271
បង្រៀន	-9.90307
មជ្ឈមណ្ឌល	-9.90345
▁registered	-9.90345
▁Office	-9.90389
សម្រេចបាននូវ	-9.90428
ness	-9.90458
▁Oknha	-9.90461
▁១១	-9.90519
▁achiev	-9.90522
▁លើក	-9.90551
ការអប់រំ	-9.90591
▁play	-9.90679
▁Moha	-9.90695
▁electricity	-9.90717
▁practice	-9.90728
ទាប	-9.9073
ញ	-9.90759
ខេត្តបាត់ដំបង	-9.90781
▁40	-9.908
ក្រសួងការងារ	-9.90826
ប្រជារាស្ត្រ	-9.90858
▁Trump	-9.90927
▁tranquility	-9.9093
ry	-9.90965
▁អភិបាល	-9.90992
ស្អាត	-9.91037
▁gain	-9.91095
▁vehicle	-9.91128
▁finance	-9.91152
«	-9.91182
▁បើក	-9.91373
▁starting	-9.91421
▁beyond	-9.91426
▁Global	-9.91452
ចេះ	-9.91477
▁making	-9.91517
quality	-9.91569
ដ៏សំខាន់	-9.91576
▁organize	-9.91653
▁ADB	-9.91707
▁tree	-9.91716
armed	-9.91743
ណាស់	-9.91756
គ្រឹះស្ថាន	-9.91779
ជើង	-9.91823
0	-9.91863
ក៏អាច	-9.91882
▁guidelines	-9.9195
▁share	-9.91953
▁Takeo	-9.9206
▁motorcycle	-9.92066
▁សូមបញ្ជាក់ថា	-9.92098
ប្រពៃណី	-9.92165
▁១០០	-9.92202
▁Mondulkiri	-9.92202
កសាង	-9.92204
▁ទន្ទឹមនឹងនេះ	-9.92236
▁សមាគម	-9.92237
▁affairs	-9.92252
▁adherence	-9.92298
▁2019	-9.923
▁model	-9.92358
ដ៏ខ្ពង់ខ្ពស់	-9.92372
▁200	-9.92403
▁president	-9.92505
ity	-9.92529
▁truth	-9.92584
នៅឡើយ	-9.92598
▁Ukraine	-9.9261
▁lost	-9.92625
▁ongoing	-9.9267
▁អាមេរិក	-9.92686
ថ្មីមួយ	-9.92748
▁សម្រេច	-9.92754
▁lack	-9.9277
ឲ្យបាន	-9.92775
▁institution	-9.92796
10	-9.92834
២០២៣	-9.92883
▁ទឹក	-9.92892
ឯកជន	-9.92921
សក្តានុពល	-9.92999
▁យក	-9.93043
▁central	-9.93052
bringing	-9.93094
duly	-9.93123
▁detention	-9.93157
កន្លងទៅនេះ	-9.93241
▁នឹងត្រូវ	-9.93269
▁scholarship	-9.93405
▁Sihanoukville	-9.93445
ពិត	-9.93514
▁crop	-9.93522
▁my	-9.93644
អ៊ុយក្រែន	-9.93645
ផ្លូវចិត្ត	-9.93722
សិស្សានុសិស្ស	-9.93792
អង្ករ	-9.93848
▁រូប	-9.93864
▁regularly	-9.93979
▁jasmine	-9.94034
▁ដើម្បីបង្កើន	-9.94121
▁តែងតែ	-9.94137
សេដ្ឋកិច្ចពិសេស	-9.94156
បរិយាកាស	-9.94211
ចោល	-9.94231
▁SEA	-9.94251
▁never	-9.94255
រីកចម្រើន	-9.94394
សរុបចំនួន	-9.94451
▁subject	-9.9449
អ្នកសារព័ត៌មាន	-9.94562
ការប្រកួតប្រជែង	-9.94574
▁បញ្ជាក់ថា	-9.94575
▁elections	-9.94615
▁beautiful	-9.94669
▁then	-9.94683
▁Rescue	-9.94697
▁supported	-9.94708
ផលប៉ះពាល់	-9.9483
កត្តា	-9.94844
▁Commune	-9.94852
um	-9.94896
ជាក់ស្តែង	-9.94897
▁month	-9.94903
បង្ហាញពី	-9.94934
បានបញ្ជាក់ថា	-9.94945
ផល	-9.94957
បុរស	-9.9497
▁Sap	-9.94995
▁Science	-9.95003
▁charges	-9.95004
▁independence	-9.95027
ប្រាសាទ	-9.95061
ធនធានធម្មជាតិ	-9.95091
បញ្ជាក់	-9.95097
ច្រើនជាង	-9.95103
សាកល្បង	-9.95105
▁represent	-9.95238
▁Federation	-9.95366
▁conservation	-9.95438
វីដេអូ	-9.9546
▁continuously	-9.95501
▁complete	-9.9552
ធ្វើជា	-9.95533
▁workshop	-9.95536
បេក្ខជន	-9.95632
▁book	-9.95656
▁rule	-9.95728
▁integration	-9.95811
▁diverse	-9.95812
est	-9.95819
te	-9.95823
▁though	-9.95869
លើសពី	-9.9587
ឱ្យមាន	-9.95877
▁violence	-9.96035
▁resolution	-9.96175
▁ancestors	-9.9626
ដើម្បីធានាបាននូវ	-9.96268
et	-9.96276
▁educational	-9.96293
បណ្តាញ	-9.96307
ស្ថាប័នពាក់ព័ន្ធ	-9.96314
▁17	-9.96315
▁Sa	-9.96381
▁experiences	-9.96404
▁pertain	-9.96437
គណបក្សប្រជាជន	-9.9644
ឆ្នាំ២០២៤	-9.96461
▁located	-9.96486
រឹងមាំ	-9.96499
ដា	-9.96501
▁suspect	-9.96508
មហាសេនាបតីតេជោ	-9.96511
▁poverty	-9.96546
▁issuance	-9.96629
▁yields	-9.9666
ជនសង្ស័យ	-9.96685
ទាំងឡាយ	-9.96694
▁require	-9.96698
ចូលរួមយ៉ាងសកម្ម	-9.96712
អះអាងថា	-9.96759
O	-9.96777
ស្មារតី	-9.96783
border	-9.96794
រដ្ឋមន្រ្តី	-9.96811
▁abroad	-9.96812
ដ៏អស្ចារ្យ	-9.96924
វត្ត	-9.97051
អាទិភាព	-9.9706
មានតម្លៃ	-9.97096
▁factors	-9.97104
▁Head	-9.97152
▁monetary	-9.97165
▁co	-9.97203
កំណែទម្រង់	-9.97207
▁Russian	-9.97212
▁focusing	-9.97228
សាធារណៈ។	-9.97323
▁successfully	-9.9733
▁concerns	-9.97374
តែមួយ	-9.97439
▁ករណី	-9.97461
rom	-9.97509
នេះដែរ	-9.97522
▁Treng	-9.97546
▁monthly	-9.97579
▁property	-9.97698
▁back	-9.97761
▁Bun	-9.97852
▁short	-9.97883
▁ព្រះរាជរដ្ឋ	-9.97893
▁sell	-9.97899
យុត្តិធម៌	-9.97963
▁គ្នា	-9.97971
▁Any	-9.98048
▁propose	-9.98072
វិនិយោគិន	-9.98168
បានកើនឡើង	-9.9818
▁temples	-9.98186
▁Training	-9.98231
អាជ្ញាធរមូលដ្ឋាន	-9.98232
▁Three	-9.98384
▁make	-9.98388
ពង្រីក	-9.98392
▁ជប៉ុន	-9.98429
ភ្លើង	-9.98465
▁pure	-9.98465
▁Ben	-9.98485
វាយតម្លៃ	-9.98487
ចំនួន៣	-9.98508
▁Justice	-9.98515
im	-9.98573
ra	-9.98647
តែង	-9.98671
▁princess	-9.987
របស់វា	-9.98712
▁Tonle	-9.98743
▁forms	-9.9876
▁Plan	-9.98808
ចំនួន២	-9.98904
▁SMEs	-9.98984
▁ស្របតាម	-9.99009
យកទៅ	-9.99072
ជានិច្ច	-9.99157
ឆ្នាំ២០២២	-9.99223
▁compassion	-9.99276
▁secure	-9.99286
ភូមិសាស្ត្រ	-9.99311
បំណុល	-9.99388
វិធីសាស្ត្រ	-9.99398
▁ស្ថាប័ន	-9.99429
▁submit	-9.99438
ពាក្យ	-9.99442
របស់នាង	-9.99465
▁show	-9.99494
បី	-9.99511
▁exported	-9.99543
មូលនិធិ	-9.99554
រាជធានី	-9.99634
▁Understanding	-9.99638
ប៉ុណ្ណោះ។	-9.99662
▁រដ្ឋលេខាធិការ	-9.99678
▁និងកំពុង	-9.99689
▁techniques	-9.99692
ឆ្នាំនេះ	-9.99806
សាច់	-9.99835
រយៈពេលវែង	-9.99851
▁គឺជាកាតព្វកិច្ច	-9.99868
▁left	-9.99909
is	-9.9991
▁safeguarding	-9.99914
▁ស៊ុន	-9.99965
ផ្សេងៗទៀត	-9.99988
▁Note	-9.99989
▁forum	-9.99994
▁France	-10
▁soil	-10.0002
កីឡា	-10.0003
▁Life	-10.0004
▁fear	-10.0016
▁ឡី	-10.0017
▁site	-10.0018
▁ស្រី	-10.0022
▁២៥	-10.0022
ព្រៃឈើ	-10.0025
▁join	-10.003
▁កើត	-10.0033
សកម្មជន	-10.0034
▁today	-10.0044
ong	-10.0045
▁judgment	-10.0046
▁Experts	-10.0056
សម្តេច	-10.0063
▁Special	-10.0065
សេដ្ឋកិច្ច។	-10.0068
▁prescribed	-10.0071
▁expenses	-10.0072
▁launch	-10.0072
▁Ch	-10.0078
ផ្កា	-10.008
▁ក្រសួងកសិកម្ម	-10.0083
និយម	-10.0085
▁memories	-10.0087
តិច	-10.0087
▁pay	-10.0097
▁immense	-10.01
អង្គការសហប្រជា	-10.0103
▁ក្នុងឱកាស	-10.0106
▁enabl	-10.0106
▁និងឯកជន	-10.011
▁Strategy	-10.011
na	-10.0119
▁Capital	-10.012
អនុស្សាវរីយ៍	-10.0125
▁Peace	-10.0125
ក្នុងប្រទេស	-10.0126
គំរូ	-10.0133
▁Post	-10.0133
▁testament	-10.0134
▁statement	-10.0135
▁explore	-10.0136
▁ទីផ្សារ	-10.0138
អូស្ត្រាលី	-10.0138
▁cities	-10.014
▁Th	-10.014
▁close	-10.0142
ដ៏សំខាន់មួយ	-10.0144
▁១៣	-10.0146
ជំរុញឱ្យ	-10.0147
▁Planning	-10.0158
▁expanded	-10.0158
▁forth	-10.0162
▁Project	-10.0164
▁ផល	-10.0164
ប្រាប់	-10.0169
▁throughout	-10.017
តវ៉ា	-10.0171
ia	-10.0185
▁owners	-10.0187
▁advance	-10.0192
មន្ទីរពេទ្យ	-10.0193
▁ចាប់ពី	-10.0194
ពុក	-10.0195
យុទ្ធសាស្រ្ត	-10.0198
គួរឱ្យកត់សម្គាល់	-10.0202
ន់	-10.0204
▁Airport	-10.0205
▁prevention	-10.0207
▁Policy	-10.0213
▁tasks	-10.0223
▁កែម	-10.0223
▁គឺមានសារៈសំខាន់	-10.0223
▁improved	-10.0225
នៅទូទាំងប្រទេស	-10.0226
សហគ្រាសធុនតូច	-10.0228
▁sanctions	-10.0229
▁តំណាង	-10.0229
ក្រុងព្រះសីហនុ	-10.023
▁អត្ថបទ៖	-10.0233
▁emergency	-10.0237
▁contributed	-10.0237
ការរៀបចំ	-10.0238
▁ទី១	-10.0241
អ្នកស្រី	-10.0242
▁hold	-10.0243
▁Union	-10.0246
ដឹង	-10.0246
▁French	-10.0247
កងទ័ព	-10.0247
ពាណិជ្ជកម្មសេរី	-10.0249
▁ក្នុងចំណោម	-10.025
៣នាក់	-10.0253
▁welfare	-10.0253
▁existence	-10.0258
▁distant	-10.0261
ពេញ	-10.0263
▁១៤	-10.0266
បរិយាប័ន្ន	-10.0272
ជាអ្នក	-10.0276
ព្រំដែន	-10.0277
▁housing	-10.0277
▁អាជីវកម្ម	-10.028
អំពើពុករលួយ	-10.0284
វិជ្ជមាន	-10.0284
▁how	-10.0291
▁ទី២	-10.0297
លក្ខខណ្ឌ	-10.03
▁ដើម្បីឱ្យ	-10.0305
▁ដើម្បីជំរុញ	-10.0306
ដឹក	-10.0308
▁result	-10.031
រហូត	-10.0311
▁stress	-10.0312
លិខិត	-10.0314
ទិសដៅ	-10.0319
▁មិនត្រឹមតែ	-10.0319
▁ដី	-10.0321
អ្នកជំនាញ	-10.0332
▁reports	-10.0334
▁visitors	-10.0341
▁conference	-10.035
▁Municipal	-10.035
▁walls	-10.0352
aimed	-10.0355
ak	-10.0358
▁reading	-10.0358
បទ	-10.0361
▁spread	-10.0361
អាចនឹង	-10.037
▁regular	-10.0372
បណ្ឌិតសភាចារ្យ	-10.0372
▁សុទ្ធតែ	-10.0377
▁safe	-10.0378
រូបិយវត្ថុ	-10.0379
បានឱ្យដឹងថា	-10.0382
ជូនប្រជាពលរដ្ឋ	-10.0398
▁signature	-10.0406
▁upcoming	-10.0407
▁និស្សិត	-10.041
▁សន្តិភាព	-10.0412
១៥	-10.0413
▁ruling	-10.0414
ច្បាប់ជាធរមាន។	-10.0416
▁facing	-10.0417
ការសម្រេចចិត្ត	-10.0417
ថ្មីនេះ	-10.0419
សហប្រជាជាតិ	-10.042
ក្រសួងរៀបចំដែនដី	-10.0422
▁lotus	-10.0422
▁រោងចក្រ	-10.0424
man	-10.0424
▁discussions	-10.0424
▁គួរបញ្ជាក់ថា	-10.0427
អត្រា	-10.0436
ment	-10.0436
ដល់ប្រជាពលរដ្ឋ	-10.0437
ភ្នែក	-10.0441
ទឹកដី	-10.0442
▁Program	-10.0448
▁តោន	-10.045
▁caused	-10.045
▁នគរូបនីយកម្ម	-10.0452
ទិដ្ឋភាព	-10.0453
ដើម្បីលើកកម្ពស់	-10.0459
ព្យាយាម	-10.046
,"	-10.0465
សង្គ្រាម	-10.0467
▁personnel	-10.0471
សហភាពអឺរ៉ុប	-10.0472
▁allowing	-10.0472
▁វិនិយោគិន	-10.0475
▁Scholarship	-10.0475
រក្សាសន្តិភាព	-10.0475
ឌី	-10.0482
ម្ចាស់	-10.0487
▁holds	-10.0488
▁ពិត	-10.0488
▁great	-10.0492
national	-10.0498
របស់រដ្ឋាភិបាល	-10.0503
▁attended	-10.0507
▁បន្តថា	-10.0509
សេចក្តីព្រាង	-10.0513
▁regime	-10.0513
អតីត	-10.0513
▁ឆ្នាំ២០២១	-10.0514
ចលនា	-10.0519
តូចៗ	-10.0519
ធ្វើឲ្យ	-10.0524
ចំពោះការ	-10.0524
▁fuel	-10.0536
ទី៣	-10.0537
ឈប់	-10.054
ការធ្វើ	-10.0542
គ្រោះមហន្តរាយ	-10.0545
ពន្ធ	-10.055
ការគំរាមកំហែង	-10.0553
il	-10.0553
អាថ៌កំបាំង	-10.0558
ឃាត់ខ្លួន	-10.0561
កញ្ញា	-10.0569
ព្យាបាល	-10.0569
▁What	-10.0571
▁អញ្ជើញ	-10.0572
អ្នកវិនិយោគ	-10.0578
▁announcement	-10.0578
▁protected	-10.0587
▁praised	-10.0587
មានភាព	-10.0599
ការប្រែប្រួល	-10.0602
▁5.	-10.0612
▁រដ្ឋបាល	-10.0613
▁diplomatic	-10.0615
▁worth	-10.0615
តាមប្រព័ន្ធ	-10.0616
▁chain	-10.0623
នានា។	-10.0623
▁silent	-10.0626
លើការ	-10.0626
ies	-10.0628
▁English	-10.0639
▁situation	-10.0639
▁skill	-10.0642
បច្ចុប្បន្នភាព	-10.0642
▁Prek	-10.0655
ble	-10.0665
▁seven	-10.0667
▁មានចំនួន	-10.0677
▁50	-10.0678
▁active	-10.0681
▁exceed	-10.0699
▁king	-10.0699
គ្រូ	-10.0699
▁participated	-10.0699
គ្រឹះស្ថានមីក្រូ	-10.0703
▁ស្មើនឹង	-10.0711
▁attention	-10.0712
▁States	-10.0714
▁បង្កើន	-10.072
▁effectiveness	-10.0721
▁uphold	-10.0725
▁partnership	-10.0732
ដែរថា	-10.0734
▁គឹម	-10.0739
▁បេក្ខជន	-10.074
▁unique	-10.0743
▁principle	-10.0745
វឌ្ឍនភាព	-10.0745
បាត់	-10.0747
ឆ្លើយតបទៅនឹង	-10.0752
▁duty	-10.0753
ប្រយុទ្ធប្រឆាំង	-10.0753
▁spending	-10.0755
សម្លៀកបំពាក់	-10.0761
▁អភិវឌ្ឍ	-10.0761
▁generation	-10.0762
ate	-10.0764
លួច	-10.0766
▁chains	-10.0766
▁joy	-10.0767
ពន្ធដារ	-10.0773
ស្ថាបត្យកម្ម	-10.078
▁live	-10.0781
រួចរាល់	-10.0786
▁ការលើកកម្ពស់	-10.0787
រិះគន់	-10.0789
▁nationals	-10.0793
ដ៏ធំ	-10.0793
▁១៨	-10.0797
ធ្លាក់	-10.08
ce	-10.08
អាពាហ៍ពិពាហ៍	-10.0801
▁countless	-10.0803
ឯករាជ្យ	-10.0811
▁ផលិតផល	-10.0814
ស្ថិតនៅក្នុង	-10.082
គ្រឹះស្ថានធនាគារ	-10.0822
នាពេលបច្ចុប្បន្ន	-10.0822
កសិផល	-10.0823
ការបណ្តុះបណ្តាល	-10.0829
▁កា	-10.083
tnews	-10.0831
▁learn	-10.0832
ចក្ខុវិស័យ	-10.0834
បានដាក់ចេញនូវ	-10.0836
▁single	-10.0837
▁sense	-10.0842
▁tourist	-10.0842
ប្រមាណជាង	-10.0854
▁hearing	-10.0858
▁inclusion	-10.0863
vodh	-10.0863
ឡាវ	-10.0867
ធ្លាប់	-10.0867
▁១៦	-10.0868
▁អចលនទ្រព្យ	-10.0869
as	-10.087
▁First	-10.0874
▁growing	-10.0878
▁ស្ថិតនៅ	-10.0883
▁៤០	-10.0883
▁exquisite	-10.0887
ណ	-10.0888
▁Beyond	-10.0888
សមិទ្ធផល	-10.0889
រី	-10.0904
▁selling	-10.0905
▁Industry	-10.091
ខ	-10.091
▁ខ្ញុំ	-10.0915
ទទួលស្គាល់	-10.0916
▁setting	-10.0918
▁រហូត	-10.0922
▁professional	-10.0922
▁affected	-10.0928
carrying	-10.0928
▁much	-10.0931
▁និ	-10.0931
ភាគី	-10.0932
▁strengthened	-10.0933
▁Krom	-10.0933
▁និងអភិវឌ្ឍន៍	-10.0944
ប្រចាំ	-10.0945
▁goal	-10.0947
ប៉ះពាល់ដល់	-10.0953
▁encourage	-10.0958
លេង	-10.096
▁hygiene	-10.0965
▁Laos	-10.0968
▁interests	-10.097
មន្រ្តី	-10.0971
▁indispensable	-10.0974
▁vulnerable	-10.0974
ម៉ាស៊ីន	-10.0974
កុំ	-10.0975
▁phenomena	-10.0982
១៨	-10.0985
▁វិញ	-10.0985
▁network	-10.0986
ផ្	-10.0986
▁ក្រសួងមហាផ្ទៃ	-10.0987
លើកទឹកចិត្តដល់	-10.0987
▁sources	-10.0987
▁Vice	-10.0988
ដំណាក់កាល	-10.0988
▁compliance	-10.099
▁dense	-10.0991
▁adoption	-10.0993
ក្ដី	-10.0996
▁foundation	-10.1003
▁released	-10.1004
▁SME	-10.1005
▁De	-10.1011
▁គិត	-10.1014
កើត	-10.1018
▁ក្រុមការងារ	-10.1021
▁នៅតែ	-10.1027
នាំ	-10.1028
ធ្វើការងារ	-10.103
▁rapid	-10.1033
▁sustain	-10.1034
▁Indonesia	-10.1043
កសិកម្មទំនើប	-10.1043
ម្តេចមហាបវរធិបតី	-10.1043
▁regulatory	-10.1052
ក្នុងមួយថ្ងៃ	-10.106
▁Khmum	-10.106
▁transportation	-10.1061
out	-10.1063
អង្គ	-10.1067
▁advancing	-10.1077
មាត់	-10.1078
▁capable	-10.1083
▁គិតត្រឹម	-10.1085
▁ប្រមាណ	-10.1088
ថែមទៀត	-10.1091
គម្រោងអភិវឌ្ឍន៍	-10.1091
▁successful	-10.1094
age	-10.1096
▁records	-10.1098
▁Photo	-10.1101
ជាផ្លូវការ។	-10.1102
នៅកម្ពុជា។	-10.1102
less	-10.1102
▁Malaysia	-10.1102
▁dawn	-10.1105
eng	-10.1113
ាភិបាលកម្ពុជា	-10.1115
▁Organization	-10.1121
▁see	-10.1122
បំផ្លាញ	-10.1125
▁person	-10.1125
ប្រឡង	-10.1128
private	-10.1131
ខ្សែ	-10.1135
ឆ្ពោះទៅរក	-10.1142
▁Korean	-10.1143
▁directly	-10.1143
▁chief	-10.1146
រុក្ខជាតិ	-10.1153
សភា	-10.1154
ប្រាសាទអង្គរវត្ត	-10.1154
▁medium	-10.1157
▁ទុក្ខ	-10.1158
រ៉ា	-10.1158
ដទៃទៀត	-10.1159
បញ្ចេញ	-10.1161
▁what	-10.1164
▁rubber	-10.1171
▁រវាង	-10.1172
▁obligation	-10.1172
▁ដាក់	-10.1173
▁appeals	-10.1174
▁seeds	-10.1174
▁faced	-10.1177
▁language	-10.1183
▁investigation	-10.119
▁forward	-10.1191
អោយ	-10.1198
អភិរក្ស	-10.1211
ភ្លាមៗ	-10.1213
ខាងមុខ	-10.1221
▁អតីត	-10.1222
▁ធម្មជាតិ	-10.1228
អ្នកគាំទ្រ	-10.124
▁fire	-10.1251
▁already	-10.1252
ដើម្បីធានា	-10.1263
ឺ	-10.127
▁soul	-10.1272
ជាមធ្យម	-10.1272
វិញ្ញាបនបត្រ	-10.1274
▁Research	-10.1278
ប្រាក់រៀល	-10.128
▁កសិករ	-10.1281
▁funding	-10.1287
កម្សាន្ត	-10.1289
▁limited	-10.129
មិនមែន	-10.1293
១៣	-10.1294
គោ	-10.1296
កំពុងត្រូវបាន	-10.1296
▁target	-10.1297
ឆ្លង	-10.1298
▁cycle	-10.1299
មានការកើនឡើង	-10.1301
▁៥០	-10.1306
ជីវភាព	-10.1307
របស់ប្រទេស	-10.1309
បើ	-10.1313
▁diversification	-10.1314
▁historical	-10.1315
▁Regard	-10.1315
គន្លឹះ	-10.1317
▁step	-10.1318
ស្បែក	-10.1328
សេដ្ឋកិច្ចឌីជីថល	-10.1329
▁Kheng	-10.1333
▁centers	-10.1336
សន្សំ	-10.1338
អាជីព	-10.134
ឆ្លើយតប	-10.1342
សំណុំរឿង	-10.1348
▁Military	-10.135
ព្រហ្មទណ្ឌ	-10.1352
▁linked	-10.1354
ទៅកាន់ទីផ្សារ	-10.1356
▁invest	-10.1358
នគរ	-10.1361
▁បច្ចុប្បន្ននេះ	-10.1363
▁combat	-10.1366
▁de	-10.1369
ស្វាគមន៍	-10.1373
▁collective	-10.1376
▁leads	-10.1376
យន្តហោះ	-10.1377
ខ្ពស់។	-10.1378
▁Ratanakiri	-10.1378
▁example	-10.1386
▁និងបាន	-10.1389
▁Sustainable	-10.139
▁កាលពីថ្ងៃទី	-10.1392
▁១៧	-10.1395
▁number	-10.1396
▁fell	-10.1404
▁centuries	-10.1404
▁stories	-10.1404
▁23	-10.1404
ជំនួស	-10.1406
បេះដូង	-10.1406
▁efficient	-10.1407
បន្តថា	-10.1413
▁discipline	-10.1415
▁highest	-10.1418
អង្គភាព	-10.1423
▁Keo	-10.1424
លើវិស័យ	-10.1425
▁True	-10.1431
▁theme	-10.1442
ឥណ្ឌា	-10.1443
▁Kep	-10.1443
▁cause	-10.1446
▁music	-10.1449
លើស	-10.1454
id	-10.1456
ថែរក្សា	-10.1461
▁មានការ	-10.1462
អនាម័យ	-10.1471
▁express	-10.1471
▁គណៈកម្មាធិការ	-10.1472
នៅរាជធានីភ្នំពេញ	-10.1473
សន្តិសុខស្បៀង	-10.1475
▁equitable	-10.1476
▁Environmental	-10.1484
កិច្ចសហការ	-10.1485
▁payments	-10.1487
អន្តរាគមន៍	-10.1488
▁includes	-10.1493
ល្អប្រសើរ	-10.1498
ម៉ា	-10.1501
ពិតជា	-10.1506
កោះ	-10.1507
▁press	-10.1509
▁content	-10.1511
▁designated	-10.1513
▁ផ្នែក	-10.1513
▁sorrow	-10.1516
▁Te	-10.1516
ថ្មី។	-10.1519
▁users	-10.1521
▁deem	-10.1521
▁ស្ដាប់	-10.1523
▁Al	-10.1525
យន្តការ	-10.1527
▁recognized	-10.1532
▁producing	-10.1532
▁យ៉ាងណាក៏ដោយ	-10.1538
ha	-10.154
ជនរងគ្រោះ	-10.1544
ជនជាតិចិន	-10.1551
▁presented	-10.1559
គោល	-10.1561
រឿងរ៉ាវ	-10.1562
▁LTD	-10.1566
វិ	-10.1567
វ័យក្មេង	-10.1567
▁population	-10.1569
▁Park	-10.1576
ការអភិវឌ្ឍន៍	-10.1586
▁achieved	-10.1588
អាក្រក់	-10.1591
▁Innovation	-10.1594
▁sufficient	-10.1598
ការធ្វើដំណើរ	-10.1601
▁ចាន់	-10.1603
▁Ltd	-10.1603
▁filled	-10.1604
▁គឺជាគន្លឹះ	-10.1608
▁Say	-10.1608
សម្រេចបាន	-10.1608
▁garment	-10.1612
▁Hospital	-10.1612
តិចតួច	-10.1617
▁proper	-10.162
▁least	-10.1621
▁whe	-10.1631
▁សមាជិក	-10.1631
▁និងវាយតម្លៃ	-10.1638
▁ប៊ុន	-10.1639
▁assist	-10.1641
▁$3	-10.1645
▁ផែនការ	-10.1646
២៥	-10.1653
▁dance	-10.1661
▁ដឹង	-10.1662
▁preserve	-10.1663
▁ឱកាស	-10.1664
▁offer	-10.1665
▁hearts	-10.1666
វិធីសាស្រ្ត	-10.1672
ផ្លែ	-10.1672
វិស័យឯកជន	-10.1676
ve	-10.1678
រំ	-10.168
ជម្លោះ	-10.1681
▁hours	-10.1683
ri	-10.1687
▁expect	-10.1688
la	-10.1688
ស្នាក់នៅ	-10.1694
▁receiving	-10.1695
សរសេរ	-10.1696
▁thank	-10.1698
ជានិច្ច។	-10.1704
វត្ថុធាតុដើម	-10.1704
▁pledged	-10.1709
▁វិធានការ	-10.1709
ដង	-10.171
▁above	-10.1713
គឺចាំបាច់សម្រាប់	-10.1719
▁popular	-10.1722
បេសកកម្ម	-10.1739
▁opportunity	-10.1741
▁Ley	-10.1743
សំ	-10.175
▁initiative	-10.1754
រាងកាយ	-10.1757
▁assets	-10.1757
▁innovative	-10.1759
▁beneath	-10.176
▁oversee	-10.176
បំពេញទស្សនកិច្ច	-10.1765
អភិវឌ្ឍន៍កម្ពុជា	-10.1768
▁consistently	-10.1772
▁types	-10.1773
▁exams	-10.1776
▁victims	-10.1778
▁សង្គមស៊ីវិល	-10.1778
ផ្លាស់ប្ដូរ	-10.178
លែង	-10.178
សេចក្តី	-10.178
▁EBA	-10.1783
▁នស	-10.1784
ប្រទេសជាតិ	-10.1787
▁intervention	-10.1792
ត្រៀមខ្លួន	-10.1795
▁compensation	-10.1797
បានលើកឡើងថា	-10.1797
▁youths	-10.1797
▁level	-10.1798
▁បានប្រកាស	-10.1799
មានបញ្ហា	-10.1801
▁again	-10.1804
▁UK	-10.1805
ប្រធាន	-10.1805
ប្រុងប្រយ័ត្ន	-10.1806
អត្តសញ្ញាណប័ណ្ណ	-10.1808
បានបង្ហាញថា	-10.1813
▁ក្នុងរយៈពេល	-10.1814
បាយ	-10.1816
របស់ក្រសួង	-10.1818
▁fair	-10.1821
▁mobile	-10.1822
លំនៅឋាន	-10.1823
▁Candlelight	-10.1825
ប្រភព	-10.1829
តួនាទី	-10.1831
ព្រះរាជ	-10.1835
▁source	-10.1836
ist	-10.1841
បរិញ្ញាបត្រ	-10.1842
ក្រុមគ្រួសារ	-10.1842
▁ខេង	-10.1844
▁driven	-10.1844
ចូលចិត្ត	-10.1844
រត់	-10.1848
អាយុ	-10.185
▁video	-10.185
▁ក្រោយពី	-10.1851
រស់	-10.1855
▁hidden	-10.1858
▁$4	-10.1871
▁ឃាត់ខ្លួន	-10.1871
▁fees	-10.1874
▁សកម្មភាព	-10.188
▁sacred	-10.1881
▁glow	-10.1881
ថ្នាក់បរិញ្ញាបត្	-10.1882
▁dollar	-10.1882
▁ទៅកាន់	-10.1882
▁2025	-10.1884
▁monks	-10.1887
▁កំណើន	-10.189
▁cost	-10.1895
មេដឹកនាំ	-10.1895
▁center	-10.1896
▁វ	-10.19
វិស័យហិរញ្ញវត្ថុ	-10.1901
ហ	-10.1908
ប៉ះពាល់	-10.1909
▁កម្លាំង	-10.1909
ផ្សេង	-10.1911
កម្លាំងពលកម្ម	-10.1913
▁Myanmar	-10.1914
Boeung	-10.1915
▁While	-10.1915
▁ដែលធ្វើឱ្យ	-10.1918
▁urging	-10.1919
▁penalties	-10.1919
▁skilled	-10.1921
▁ការវិនិយោគលើ	-10.1924
១៤	-10.1925
មា	-10.1925
▁ក្នុងគោលបំណង	-10.1928
▁Do	-10.193
rs	-10.1931
មកដល់	-10.1933
ដោយខ្លួនឯង	-10.1936
ស្ម័គ្រចិត្ត	-10.1939
កុំព្យូទ័រ	-10.1939
▁unity	-10.1941
▁Appeal	-10.1943
COVID	-10.1945
▁cornerstone	-10.1947
អនុញ្ញាតឱ្យ	-10.195
▁NS	-10.1951
▁Report	-10.1964
ដាំដុះ	-10.1964
▁dark	-10.1965
▁possess	-10.1966
▁reach	-10.1967
▁Thus	-10.1968
▁So	-10.1972
▁dry	-10.1973
▁រឿង	-10.1973
▁enter	-10.1976
បណ្តា	-10.1977
ិ	-10.1977
▁exercise	-10.1981
គ្រាប់ស្វាយចន្ទី	-10.1986
▁Sports	-10.1986
ដើម្បីបង្កើន	-10.1987
លោកស្រី	-10.1989
១១	-10.1989
▁increasingly	-10.1991
▁pressure	-10.1993
▁earth	-10.1994
▁main	-10.1998
▁1,000	-10.1998
▁moment	-10.2
នគរូបនីយកម្ម	-10.2003
▁cash	-10.2004
▁outcomes	-10.2004
▁គឺជាមូលដ្ឋាន	-10.2005
▁quarter	-10.2006
related	-10.2006
១២	-10.2007
អូ	-10.2014
▁front	-10.2019
▁start	-10.2026
▁កិច្ចព្រមព្រៀង	-10.2028
▁necessary	-10.2033
▁macroeconomic	-10.2033
▁accuse	-10.2038
របស់ប្រជាជន	-10.2039
ទៅក្នុង	-10.2043
▁points	-10.2044
▁ឯកឧត្តមបណ្ឌិត	-10.2051
ដ៏ទូលំទូលាយ	-10.2052
▁ផលិត	-10.2053
▁died	-10.2054
▁When	-10.2061
▁honor	-10.207
វិធី	-10.2071
▁evening	-10.2073
▁ប្រ	-10.2073
li	-10.2075
▁ប្រជាជន	-10.2081
▁2025.	-10.2092
ខ្វះ	-10.2093
ជាមួយគ្នា	-10.2095
▁ដំណើរ	-10.2095
▁សាលា	-10.2095
មានភារកិច្ច	-10.2099
▁evaluation	-10.2109
វាយ	-10.211
▁2025,	-10.2111
▁focuses	-10.2113
▁blood	-10.2119
▁បញ្ញា	-10.2122
▁smart	-10.2125
បង្កើតឡើងដើម្បី	-10.213
▁approval	-10.213
ស្ថិរភាព	-10.2137
ពោរពេញដោយ	-10.2138
▁heavy	-10.2139
▁towering	-10.2141
ដោះលែង	-10.2142
▁previously	-10.2142
▁reserves	-10.2148
បណ្តាប្រទេស	-10.2156
▁creation	-10.2158
ភាសា	-10.2162
▁stop	-10.2169
រង់ចាំ	-10.2172
▁proposed	-10.2173
▁Phase	-10.2175
▁Dharma	-10.2177
▁destiny	-10.2178
ចន្លោះពី	-10.218
ការនាំចូល	-10.218
វ៉ាក់សាំង	-10.2182
ជាក់ស្ដែង	-10.2184
ផ្នែកហិរញ្ញវត្ថុ	-10.2185
▁liberation	-10.2186
បង្ក្រាប	-10.2188
គ្រប់ជ្រុងជ្រោយ	-10.2191
▁discussed	-10.2193
▁ភូមិ	-10.2193
▁Rights	-10.2194
▁យុទ្ធសាស្ត្រ	-10.2196
ញ្ញាសិប្បនិម្មិត	-10.2198
▁adopt	-10.2199
▁studying	-10.2201
ទន្លេមេគង្គ	-10.221
▁science	-10.2211
នេះគឺ	-10.2211
Decree	-10.2217
ទូរស័ព្ទ	-10.2218
▁villages	-10.2223
▁ឃើញ	-10.2237
▁trial	-10.224
We	-10.2244
▁communication	-10.2245
ទម្លាប់	-10.2248
ផ	-10.2251
▁យុទ្ធនាការ	-10.2252
▁below	-10.2258
▁ចេះ	-10.226
▁appointed	-10.2264
▁drive	-10.2267
វត្ថុ	-10.2278
▁consumer	-10.2283
▁civilization	-10.2286
▁requests	-10.2289
ine	-10.2293
▁wild	-10.2294
ខាងមុខនេះ	-10.2301
ពិបាក	-10.2302
▁accountability	-10.2304
▁Market	-10.2306
លទ្ធភាពទទួលបាន	-10.2307
ដែលត្រូវបាន	-10.2309
▁actions	-10.2311
▁included	-10.2311
▁រីឯ	-10.2311
▁sites	-10.2317
ធានា	-10.2317
▁គ្រួសារ	-10.2318
▁flowers	-10.2319
▁renowned	-10.232
ការបង្កើត	-10.2321
▁connectivity	-10.2323
▁ទាំងឡាយ	-10.2327
▁criticize	-10.2329
▁extend	-10.233
▁economies	-10.2333
▁raw	-10.2333
▁រួម	-10.2337
▁ការសិក្សា	-10.2339
▁shortages	-10.2339
▁កម្មករ	-10.234
ឹម	-10.2341
▁vegetables	-10.2343
▁specific	-10.2346
▁teaching	-10.2363
▁maintained	-10.2364
បំផុត។	-10.2373
▁ជាប់	-10.2374
▁ក្រៅពីនេះ	-10.238
▁away	-10.238
▁Microfinance	-10.2382
មួយរូប	-10.2383
ករ	-10.2384
ស្របច្បាប់	-10.2385
▁បានបង្ហាញថា	-10.2386
▁want	-10.2386
▁កុំ	-10.2388
ប្រកាន់ខ្ជាប់នូវ	-10.2393
▁beings	-10.2393
▁plastic	-10.24
▁22	-10.24
▁Bridge	-10.2403
ក្រៅប្រព័ន្ធ	-10.2407
▁ខាង	-10.241
▁trillion	-10.2412
▁បានថ្លែងថា	-10.2416
▁earn	-10.2417
▁San	-10.242
outheast	-10.2421
ធ្វើសកម្មភាព	-10.2425
▁core	-10.2427
▁អគ្គនាយក	-10.2429
ផ្តល់នូវ	-10.2429
▁Prosecutor	-10.2432
▁Analysts	-10.2434
▁pride	-10.2442
Phnom	-10.2442
នេះត្រូវបាន	-10.2446
ពានរង្វាន់	-10.245
de	-10.245
ដំណើរទស្សនកិច្ច	-10.2451
▁influence	-10.2453
នារី	-10.2454
ជាច្រើនទៀត	-10.2454
▁units	-10.2455
z	-10.2456
▁គណៈកម្មការ	-10.2461
ស្រស់	-10.2464
មួយទៀត	-10.2468
ទេសចរ	-10.247
កម្ពុជាបាន	-10.2472
▁said	-10.2472
▁general	-10.2474
ខេត្តកោះកុង	-10.2477
សម្ភារៈ	-10.2482
▁publicly	-10.2485
▁reveal	-10.2486
▁ចាប់តាំងពី	-10.2487
▁promotes	-10.2487
▁push	-10.2488
ឥទ្ធិពល	-10.25
សិន	-10.2501
យានយន្ត	-10.2504
ភាពក្រីក្រ	-10.2515
▁applications	-10.2517
▁Free	-10.2517
▁mission	-10.2527
កញ្ចប់	-10.2528
▁organization	-10.2529
50	-10.2529
▁fruit	-10.2534
▁formal	-10.2535
▁Company	-10.2542
▁និងស្ថិរភាព	-10.2542
▁told	-10.2542
មី	-10.2544
ដែលមានស្រាប់	-10.2548
ទំនុកចិត្ត	-10.2551
ណែនាំ	-10.2553
អ្នកដទៃ	-10.2554
ជាងមុន	-10.2555
▁Both	-10.2556
▁come	-10.2558
តោន	-10.2563
ផលប្រយោជន៍	-10.2564
សេវាហិរញ្ញវត្ថុ	-10.2568
មហា	-10.2572
▁expert	-10.2573
▁injured	-10.2577
ទទួលខុសត្រូវ	-10.258
▁exceeding	-10.258
▁26	-10.2582
▁buy	-10.2583
month	-10.2583
▁និងបង្កើន	-10.2584
chum	-10.2586
ជួសជុល	-10.2587
▁firmly	-10.2599
▁សហគ្រាស	-10.2599
▁ultimate	-10.2602
ភ្ញៀវ	-10.2606
▁និងបណ្តុះបណ្តាល	-10.2607
▁soft	-10.2607
▁roles	-10.2608
១៧	-10.261
▁consider	-10.261
▁Temple	-10.2612
▁និងបច្ចេកវិទ្យា	-10.2621
នេះបាន	-10.2625
ស្តីពីការ	-10.2627
ហិរញ្ញវត្ថុ។	-10.2629
▁becoming	-10.2632
▁equipment	-10.2633
ការផលិត	-10.264
▁Key	-10.2641
ស្រ្តី	-10.2643
កូរ៉េខាងត្បូង	-10.2647
%)	-10.2652
▁truly	-10.2653
▁customer	-10.2654
▁ប្រភេទ	-10.2655
40	-10.2662
▁palm	-10.2664
▁meat	-10.2664
▁និងលោក	-10.2667
បន្ទប់	-10.2669
▁moon	-10.2673
▁ពន្លឺ	-10.2675
គណនី	-10.268
▁c	-10.268
ដៃគូ	-10.2681
ទៀតផង។	-10.2682
▁IMF	-10.2682
បឹង	-10.269
▁habits	-10.2691
▁sold	-10.2693
▁invaluable	-10.2694
ទន្លេ	-10.2694
ក្រសួងការបរទេស	-10.2697
ដោយសារតែ	-10.27
▁best	-10.2701
▁phytosanitary	-10.2704
▁shade	-10.2704
▁នេះបើតាម	-10.2708
ជំងឺរាតត្បាត	-10.2716
អ្វីដែល	-10.2717
ប្តេជ្ញា	-10.2718
ប្រមូល	-10.2718
▁verification	-10.2724
▁villagers	-10.2725
ranking	-10.2728
▁កន្លែង	-10.273
ចោទ	-10.273
▁spiritual	-10.2734
▁shows	-10.2737
▁Promot	-10.2743
▁24	-10.2744
▁gradually	-10.2747
បញ្ជា	-10.2747
ប្រកបដោយគុណភាព	-10.2752
ហាង	-10.2753
▁នាយក	-10.2754
▁tranquil	-10.2754
▁transform	-10.2755
▁common	-10.2755
▁Republic	-10.2755
▁appointment	-10.2755
ជាច្រើន។	-10.2756
▁Chhay	-10.2757
▁Vocational	-10.2761
▁stands	-10.2765
▁empire	-10.2767
កំណត់ត្រា	-10.2768
នវានុវត្តន៍	-10.2772
ប្រចាំកម្ពុជា	-10.2773
▁ឆ្នាំ២០២៣នេះ	-10.2773
▁បើទោះបីជា	-10.2773
▁Empire	-10.2775
▁friendship	-10.2778
▁Po	-10.2779
▁cool	-10.278
▁items	-10.2781
▁និងសុវត្ថិភាព	-10.279
ជាក់លាក់	-10.2792
▁ចាប់	-10.2794
▁democracy	-10.2796
▁financing	-10.2797
▁association	-10.2799
ម្ចាស់អាជីវកម្ម	-10.2802
បណ្ដុះបណ្ដាល	-10.2803
coming	-10.2804
▁imported	-10.2807
▁electric	-10.2808
មួយកន្លែង	-10.2809
▁platform	-10.2809
▁infectious	-10.281
យ៉ាងច្រើន	-10.2811
រីករាយ	-10.2814
▁Meeting	-10.2821
▁slowly	-10.2821
▁ពាណិជ្ជកម្ម	-10.2832
▁published	-10.2834
លា	-10.2838
កាន់	-10.284
ឆា	-10.2842
▁សាយ	-10.2846
▁serene	-10.2848
▁previous	-10.2848
▁ដែលត្រូវបាន	-10.2853
ផងដែរថា	-10.2854
▁ទេ	-10.2856
▁protests	-10.2856
ក្តីសង្ឃឹម	-10.2857
រសជាតិ	-10.2863
▁drop	-10.2867
ទស្សនា	-10.2873
ភាសាអង់គ្លេស	-10.2877
▁conflict	-10.2882
▁ទ្រង់បាន	-10.2883
▁ឆ្នាំ២០២៥	-10.2888
▁humanitarian	-10.2889
▁utmost	-10.2889
▁dialogue	-10.2892
ស្ថិតក្នុង	-10.2893
ur	-10.2897
▁គ្រាន់តែ	-10.2901
វេទិកា	-10.2902
សេដ្ឋកិច្ចជាតិ។	-10.2906
ឡើងថ្លៃ	-10.2908
▁presence	-10.291
▁childhood	-10.291
មិនសូវ	-10.2917
សកម្ម	-10.2917
variably	-10.292
អតិផរណា	-10.2923
▁newly	-10.2924
រកត	-10.2927
▁បន្ទាប់មក	-10.2928
មកលើ	-10.293
▁ធ្លាប់	-10.2933
ត្រូវបានធ្វើឡើង	-10.2936
បច្ចុប្បន្ននេះ	-10.2939
▁decided	-10.2941
នៅសាកលវិទ្យាល័យ	-10.2948
▁decisions	-10.295
▁clarified	-10.2953
តម្រូវឱ្យ	-10.2957
▁generate	-10.2958
ចង់បាន	-10.2967
▁អាហារូបករណ៍	-10.2968
ផ្ទៃក្នុង	-10.297
▁rain	-10.2971
▁engagement	-10.2974
ការរីកចម្រើន	-10.2974
▁bear	-10.2975
គណៈកម្មការ	-10.2975
▁introduced	-10.2975
▁មិនថា	-10.2979
២០២៤	-10.2984
យ៉ាងសកម្ម	-10.2989
▁original	-10.2989
ភ្ជាប់	-10.2991
សហគ្រិន	-10.2991
ដែលមិន	-10.2993
និន្នាការ	-10.2993
▁ក្រុង	-10.2994
▁later	-10.2997
▁ទោះ	-10.2998
រា	-10.3001
អនឡាញ	-10.3006
មិត្តភាព	-10.3007
▁comments	-10.3008
អ្នកដំណើរ	-10.3008
▁establishing	-10.301
▁Lim	-10.3012
▁សា	-10.3016
▁possesses	-10.3017
lo	-10.3019
▁thousands	-10.3025
▁marks	-10.303
ការទទួលខុសត្រូវ	-10.3034
▁managing	-10.3036
▁សេង	-10.3038
▁ជូន	-10.3038
គម្រោងវិនិយោគ	-10.304
▁fishing	-10.3043
▁average	-10.3048
▁RCEP	-10.3049
▁remained	-10.3051
ះ	-10.3053
▁offenses	-10.3055
ទស្សនៈ	-10.3056
▁undergo	-10.3057
▁ប្រចាំ	-10.3057
▁កាន់តែ	-10.306
ប្រាសាទបុរាណ	-10.3068
ឈ្នះ	-10.307
▁raise	-10.307
▁ប្រើប្រាស់	-10.3073
▁complaint	-10.3073
ក៏ដោយ។	-10.3075
▁card	-10.3075
▁mountain	-10.3082
em	-10.3084
ចំណាប់អារម្មណ៍	-10.3088
▁កង	-10.3089
▁Commander	-10.309
ma	-10.3094
ខេត្តស្ទឹងត្រែង	-10.3096
មានកាតព្វកិច្ច	-10.3098
▁homes	-10.3103
អនុវត្តន៍	-10.3105
volving	-10.311
▁architecture	-10.311
សេចក្ដី	-10.3111
▁Near	-10.3111
v	-10.3112
12	-10.3114
ធនាគារជាតិនៃ	-10.3115
មុខវិជ្ជា	-10.312
យ៉ាងម៉ឺងម៉ាត់	-10.312
▁inauguration	-10.3121
ប្រកួត	-10.3123
▁flow	-10.3126
▁reduced	-10.3127
មន្ត្រីរាជការ	-10.313
ក្របខ័ណ្ឌ	-10.3131
RKT	-10.3131
▁promoted	-10.3134
▁Residents	-10.3135
▁Hang	-10.3135
▁serving	-10.3139
ការផ្សព្វផ្សាយ	-10.3139
▁Bo	-10.314
▁activity	-10.3151
▁block	-10.3159
▁vendors	-10.3159
៥នាក់	-10.3164
▁modernization	-10.3165
▁សូមជម្រាបថា	-10.3166
បញ្ឈប់	-10.3166
▁ដំណើរការ	-10.3168
បរិមាណ	-10.3176
▁flower	-10.3176
ទិន្នផល	-10.3189
▁revealed	-10.3191
កំពុងតែ	-10.3196
▁religious	-10.3206
ដឹងថា	-10.3212
ងាយស្រួល	-10.3215
▁because	-10.3217
▁Ly	-10.3223
ខិតខំ	-10.3233
ព្រឹក	-10.3233
២៤	-10.3233
វី	-10.3241
▁know	-10.3242
▁ចង់	-10.3248
រក្សាទុក	-10.3249
▁did	-10.3251
មួយចំនួនទៀត	-10.3254
▁ម្ចាស់	-10.3254
ដាច់	-10.3256
▁doses	-10.3259
ពេក	-10.3261
▁concerned	-10.3262
▁firms	-10.3265
រដូវ	-10.3265
▁ការបង្កើត	-10.3277
ul	-10.3279
▁Y	-10.328
▁និងអ្នក	-10.3281
▁stable	-10.3282
▁usage	-10.3283
▁film	-10.3284
▁អា	-10.3284
ត្រ	-10.3284
ចំណី	-10.3286
▁amendment	-10.3289
▁lessons	-10.3291
៥០	-10.3293
ស្រឡាញ់	-10.3294
មេរៀន	-10.3296
អធិបតេយ្យភាព	-10.3306
▁Recently	-10.3311
▁ពិធី	-10.3312
▁savings	-10.3313
▁sanitation	-10.3314
▁gather	-10.3315
▁០០១	-10.3322
គួរតែ	-10.3323
▁changes	-10.3324
▁formulated	-10.3326
▁agreed	-10.3327
▁ក៏មាន	-10.3334
រក្សាបាននូវ	-10.3334
▁enable	-10.3335
ស្នាមញញឹម	-10.3337
សារពើពន្ធ	-10.334
នោះ។	-10.3341
▁សារ	-10.3342
▁bring	-10.3343
កំពង់ផែ	-10.3345
▁peacekeeping	-10.3347
នៅថ្ងៃនេះ	-10.3352
កងកម្លាំង	-10.3354
▁ដែលនឹង	-10.3354
▁field	-10.3355
បានល្អ	-10.3357
បង្ហាញថា	-10.3357
ប្រទេសចិន	-10.3361
▁2021.	-10.3362
▁host	-10.3365
▁27	-10.3366
ថែទាំ	-10.3367
កៅស៊ូ	-10.3368
▁inner	-10.3369
កាលពីពេលថ្មីៗនេះ	-10.3372
▁១៩	-10.3372
▁grant	-10.3373
▁drugs	-10.3373
free	-10.3375
▁Four	-10.3376
▁far	-10.3377
ta	-10.3378
▁accounts	-10.3381
ទេសភាព	-10.3385
ព្រះសង្ឃ	-10.3388
▁និងអាច	-10.3393
នឹងបន្ត	-10.3394
▁damage	-10.3394
▁5,	-10.3396
▁ពិភពលោក	-10.3397
មានកំណើន	-10.3398
▁Security	-10.3401
ar	-10.3408
▁monarch	-10.3408
▁assess	-10.341
កណ្តាល	-10.3413
▁ទីក្រុង	-10.3415
15	-10.3415
សម្រាប់មនុស្ស	-10.3419
▁Un	-10.3422
យ៉ាងជ្រាលជ្រៅ	-10.3423
សម្តេចព្រះបរមនាថ	-10.3423
▁save	-10.3432
▁ចុះថ្ងៃទី១	-10.3439
▁នេះបើយោងតាម	-10.344
▁representative	-10.3443
▁enveloped	-10.3447
ក្របខណ្ឌ	-10.3448
ចំនួន៤	-10.3448
kh	-10.3455
ខ្មៅ	-10.3459
▁រថយន្ត	-10.3461
us	-10.3462
▁preparation	-10.3465
ពលរដ្ឋខ្មែរ	-10.3469
ទ្រង់	-10.3479
ប្រជាកសិករ	-10.3484
លទ្ធភាព	-10.3484
ជួល	-10.3489
▁Even	-10.3491
▁mandate	-10.3493
គោលបំណង	-10.3495
▁highlight	-10.3495
ធនាគារកណ្តាល	-10.3497
ចែករំលែក	-10.3499
▁នាំមកនូវ	-10.3501
▁celebrate	-10.3505
▁shadows	-10.3508
making	-10.3509
▁yield	-10.3509
▁employees	-10.351
កម្មវិធីសិក្សា	-10.351
▁ethics	-10.3511
▁supreme	-10.3515
▁household	-10.3532
▁respond	-10.3534
▁wife	-10.3534
▁crimes	-10.3536
សេរីភាព	-10.3538
កំណើត	-10.3539
ទាំងអស់គ្នា	-10.3542
▁giant	-10.3542
meter	-10.3543
មុខងារ	-10.3546
▁account	-10.3549
ពិភាក្សាការងារ	-10.3553
▁២០២១	-10.3555
▁murder	-10.3556
្	-10.3556
akin	-10.3557
▁ដើម្បីការពារ	-10.3557
▁timely	-10.3558
រួចហើយ	-10.356
19	-10.356
ត្រឹមតែប៉ុណ្ណោះ	-10.3563
មានឱកាស	-10.3563
កិច្ចការងារ	-10.3567
▁stressed	-10.3567
▁នៅព្រឹកថ្ងៃទី	-10.3568
ដំឡើង	-10.3571
▁គាំទ្រ	-10.3572
រារាំង	-10.3575
ti	-10.3577
បញ្ចូល	-10.3578
▁ឯកឧត្តមឧបនាយក	-10.3582
មានសមត្ថកិច្ច។	-10.3582
▁requirements	-10.3584
▁ទោះបីជាមាន	-10.3584
រំពឹងថា	-10.3586
▁រយៈ	-10.3586
▁begin	-10.3588
▁industries	-10.3589
▁basis	-10.3589
▁combating	-10.3591
ne	-10.3593
▁ព្រះរាជ	-10.3595
me	-10.3595
▁សំខាន់	-10.3595
▁Red	-10.3596
▁សរុប	-10.3596
របស់ពិភពលោក	-10.3596
▁transfer	-10.3599
▁red	-10.3599
▁300	-10.36
▁ហើយក៏	-10.3602
▁បានមានប្រសាសន៍	-10.3609
▁union	-10.3613
ការបរទេស	-10.3614
▁frameworks	-10.3616
▁រដ្ឋ	-10.362
ធានានូវ	-10.3621
វ័យ	-10.3623
សម្ដេច	-10.3625
▁register	-10.3625
▁explained	-10.3628
▁hit	-10.363
▁purchasing	-10.3634
ជំរុញឲ្យ	-10.3643
ting	-10.3643
ro	-10.3647
តំណាងរាស្ត្រ	-10.3648
▁university	-10.3656
▁Contact	-10.3656
▁preserving	-10.3656
▁ឯ	-10.3659
▁buildings	-10.3661
▁ឆ្នាំ២០២៤នេះ	-10.3665
ជាសាធារណៈ	-10.3669
រៀនសូត្រ	-10.367
អ្វីមួយ	-10.3672
០០០	-10.3678
ជម្រើស	-10.368
▁mountains	-10.3683
▁ការគ្រប់គ្រង	-10.3687
ទុន	-10.369
ក្រៅប្រទេស	-10.3692
▁patients	-10.3698
ខេត្តព្រះវិហារ	-10.3698
▁Effective	-10.37
▁Information	-10.37
▁severely	-10.3702
▁coastal	-10.3702
ប្រតិបត្តិ	-10.3703
▁networks	-10.3704
ខុស	-10.3705
▁warns	-10.3706
ខេត្តកំពង់ចាម	-10.3713
អង្គុយ	-10.3714
ប្រភេទនេះ	-10.3717
ឧបសគ្គ	-10.372
▁strength	-10.3722
▁certain	-10.3722
ទូទាត់	-10.3723
ខ្យល់	-10.3724
កសិដ្ឋាន	-10.3729
▁ស្នើ	-10.3732
ទទួលបន្ទុក	-10.3733
▁ប្រើ	-10.374
នាពេលអនាគត	-10.3742
▁restore	-10.3743
ម្	-10.3743
▁governor	-10.3748
ជួញដូរ	-10.375
▁មុខ	-10.375
▁defend	-10.375
▁brings	-10.375
▁warned	-10.3755
▁zone	-10.3758
នោះឡើយ	-10.3759
▁lake	-10.3762
▁ក្របខ័ណ្ឌច្បាប់	-10.3764
នោះគឺ	-10.3765
▁វៀតណាម	-10.3767
ទូក	-10.3768
▁expertise	-10.3769
▁បន្ថែមពីនេះ	-10.377
ដើម្បីឆ្លើយតបនឹង	-10.3771
មធ្យោបាយ	-10.3772
ក្នុងអំឡុងពេល	-10.3773
▁gas	-10.3777
▁p	-10.3778
▁root	-10.3779
ជំងឺឆ្លង	-10.3782
▁called	-10.3782
▁soon	-10.3784
បង្ក	-10.3785
ទេ។	-10.3785
គ្នាទៅវិញទៅមក	-10.3785
បណ្តោះអាសន្ន	-10.379
▁Grand	-10.3792
▁គ្រឹះស្ថាន	-10.3796
កង	-10.3797
▁obtain	-10.3799
▁ទន្ទឹមគ្នានេះ	-10.3799
▁អភិវឌ្ឍន៍	-10.3802
សហជីព	-10.3803
ស្ងប់ស្ងាត់	-10.3812
▁ស្ថិរភាព	-10.3812
សូម	-10.3814
ផ្ទាល់ពីបរទេស	-10.382
uk	-10.3822
▁2016	-10.3822
ស្រា	-10.3824
▁currency	-10.3826
អវិជ្ជមាន	-10.3832
យ៉ាងឆាប់រហ័ស	-10.3832
▁find	-10.3835
ជាការ	-10.3837
▁duties	-10.3838
▁participants	-10.3838
▁component	-10.3838
▁reduction	-10.3838
▁await	-10.3839
▁នៃការ	-10.3839
ធានារ៉ាប់រង	-10.384
ពណ៌	-10.3842
▁campaigns	-10.3844
ខ្ចី	-10.3846
នៅលើទីផ្សារ	-10.385
ខាងលើនេះ	-10.385
▁grand	-10.3851
▁sound	-10.3851
▁ត្រូវបានដាក់ចេញ	-10.3853
ក្រុងភ្នំពេញ	-10.3853
សុខភាពសាធារណៈ។	-10.3857
តម្រូវការទីផ្សារ	-10.3858
▁officer	-10.3864
ចំណេញ	-10.3866
▁completion	-10.3872
▁Technical	-10.3872
កង់	-10.3877
co	-10.388
▁ត	-10.3884
▁បណ្ឌិត	-10.3884
ចូលរៀន	-10.3884
▁Srey	-10.3887
▁buyers	-10.3888
▁houses	-10.3891
សម្តែង	-10.3897
▁celebrated	-10.3901
សហការ	-10.3904
ឱ្យបានត្រឹមត្រូវ	-10.3907
ស្លឹក	-10.3913
ទស្សនកិច្ច	-10.3914
ប្រដាប់អាវុធ	-10.3915
▁half	-10.3918
▁vaccine	-10.3919
កំ	-10.3922
សង់	-10.3922
សុខភាពផ្លូវចិត្ត	-10.3925
នៅក្រៅប្រទេស	-10.3925
▁producers	-10.3926
ផលិតផលក្នុងស្រុក	-10.3928
▁emerging	-10.393
▁etched	-10.393
▁hub	-10.3931
គិតថា	-10.3935
យកមក	-10.3939
សម្រាប់អ្នក	-10.3942
▁កត្តា	-10.3948
▁សំដៅ	-10.395
▁alone	-10.3953
▁council	-10.3954
សហការជាមួយ	-10.3959
▁2,	-10.3966
កម្រិតខ្ពស់	-10.3968
▁bonds	-10.397
▁traditions	-10.3972
វែង	-10.3973
▁គ្រោង	-10.3973
ពិន្ទុ	-10.3974
da	-10.3975
ខណ្ឌ	-10.3977
▁ទុក	-10.3978
▁employment	-10.3985
▁សំណង់	-10.3985
▁insurance	-10.3987
▁identify	-10.3987
▁mother	-10.3988
ត្រូវមាន	-10.3989
សំណួរ	-10.3994
▁epidemiologic	-10.3994
▁អត្ថបទ	-10.3996
នៅពេលដែល	-10.3998
ព្រះអង្គ	-10.3998
បំពេញ	-10.3999
▁session	-10.4001
▁Rice	-10.4003
ទឹកជំនន់	-10.4004
AN	-10.4011
ពិធីបុណ្យ	-10.4011
▁Inter	-10.4011
ក្មេង	-10.4014
▁base	-10.4015
▁granted	-10.4016
▁sports	-10.4016
ជួយដល់	-10.4017
ណាស់សម្រាប់ការ	-10.4018
ជាលើកដំបូង	-10.402
▁Paris	-10.4022
▁activist	-10.4024
▁វិច្ឆិកា	-10.4025
ផ្លូវល្បឿនលឿន	-10.403
ប៉ុន្មាន	-10.4032
▁graceful	-10.4036
កាកសំណល់	-10.4037
▁32	-10.4037
ហ្វេសប៊ុក	-10.4038
▁farm	-10.4043
▁មុននឹង	-10.4043
ក្នុងការជំរុញ	-10.4047
▁និងវិបុលភាព	-10.4049
មិនឲ្យ	-10.4049
▁attend	-10.4051
30	-10.4054
៤នាក់	-10.4055
▁Me	-10.4057
▁excellent	-10.4057
សណ្តាប់ធ្នាប់	-10.4061
បានច្រើន	-10.4064
ily	-10.4067
▁aligned	-10.4068
▁multilateral	-10.4069
▁គឺមាន	-10.4071
▁teacher	-10.4072
▁អនុប្រធាន	-10.4072
▁valid	-10.4074
ដ៏ស្ងប់ស្ងាត់	-10.4078
នរោត្ដម	-10.4081
▁locations	-10.4081
ទណ្ឌកម្ម	-10.4086
មូលដ្ឋានគ្រឹះនៃ	-10.4087
របស់មនុស្ស	-10.4091
▁ព	-10.4094
▁neighbor	-10.4095
▁Buddhist	-10.4097
▁០១	-10.4099
▁សាងសង់	-10.41
▁accelerate	-10.4112
▁journalists	-10.4114
▁injuries	-10.4116
▁២២	-10.4116
▁phase	-10.4117
ដាក់ឱ្យដំណើរការ	-10.4117
▁echoed	-10.4117
សមរម្យ	-10.412
ទា	-10.4122
▁60	-10.4123
▁calls	-10.4124
ពុកម្តាយ	-10.4128
អាជីវករ	-10.4128
៦០	-10.4128
▁contact	-10.4129
ំ	-10.4129
▁ការវិនិយោគ	-10.4132
▁built	-10.4133
ខ្មែរ។	-10.4139
▁manufacturing	-10.4139
អាវុធ	-10.4141
▁Regional	-10.4142
▁meetings	-10.4147
▁និងក្រុមហ៊ុន	-10.415
▁Regular	-10.4151
▁Energy	-10.4157
ឆ្នាំ២០២១	-10.4158
មណ្ឌល	-10.4159
របប	-10.4162
▁មករា	-10.4167
ក្រឹត្យលេខ	-10.4169
▁raised	-10.417
▁regions	-10.417
បានសម្រេច	-10.417
▁immediately	-10.417
▁transforming	-10.4171
▁American	-10.4172
បញ្ជាក់ពី	-10.4175
▁outside	-10.4178
reaching	-10.4179
អាកាសយានដ្ឋាន	-10.4179
▁rigorously	-10.4181
▁កើន	-10.4181
ពន្លឺ	-10.4183
ជាថ្មី	-10.4184
-19.	-10.4185
ការលក់	-10.4185
▁horizon	-10.4187
ពិព័រណ៍	-10.419
▁ដែលកំពុង	-10.4192
▁$5	-10.4193
ម៉ាឡេស៊ី	-10.4194
ចាត់វិធានការ	-10.4195
▁rather	-10.4199
▁surveillance	-10.4199
▁missions	-10.4199
វគ្គ	-10.4202
ក្នុងពេល	-10.4203
▁2030	-10.4203
▁លោកបន្តថា	-10.4204
៧នាក់	-10.4207
▁Embassy	-10.421
▁ច	-10.4211
ប្រាក់ដុល្លារ	-10.4212
▁ahead	-10.4213
▁necessitate	-10.4216
▁way	-10.4219
ត្រូវបានគេ	-10.4223
▁ស្ថិត	-10.4224
▁អនុវត្ត	-10.4231
▁សៀមរាប	-10.4233
▁Vi	-10.4236
70	-10.4236
១៦	-10.4239
អំពីការ	-10.424
▁២៣	-10.424
▁act	-10.4241
▁តូច	-10.4242
ប្រគល់	-10.4246
ជនបរទេស	-10.4246
សែន	-10.4246
រយៈពេលវែង។	-10.4249
▁ស៊ី	-10.4252
▁became	-10.4259
ដែក	-10.4262
▁ល្អ	-10.4269
▁Message	-10.427
បានបង្ហាញពី	-10.4272
ខ្	-10.4273
▁ថៃ	-10.4276
អត់	-10.4281
ក៏ដូចជា	-10.4282
▁Poipet	-10.4291
គណបក្សនយោបាយ	-10.4296
▁និងកាត់បន្ថយ	-10.4299
▁បាននិយាយថា	-10.4302
kg	-10.4302
▁port	-10.4305
▁ពាន់	-10.4307
25	-10.4309
ពាក់ព័ន្ធទាំងអស់	-10.4309
▁កិច្ចប្រជុំ	-10.4311
កើតមាន	-10.4312
▁peaceful	-10.4317
▁Long	-10.4321
បក្សកាន់អំណាច	-10.4322
ek	-10.4323
កាតព្វកិច្ច	-10.4323
▁ម៉ានី	-10.4326
▁sign	-10.433
▁validity	-10.433
▁continuous	-10.4332
ស្តាប់	-10.4334
▁possessed	-10.4338
▁pandemic	-10.434
អាស៊ីអាគ្នេយ៍	-10.434
▁remote	-10.4342
▁created	-10.4343
គាំទ្រដល់	-10.4346
ស៊ើបអង្កេត	-10.4348
▁Port	-10.4351
▁anti	-10.4355
▁silk	-10.4357
ថ្នាំ	-10.4363
▁ដើម្បីពង្រឹង	-10.4365
សាខា	-10.4366
ធ	-10.437
ពិចារណា	-10.4378
ពេលនេះ	-10.4382
សាច់ប្រាក់	-10.4385
បុរី	-10.4387
▁sharing	-10.4389
មានសិទ្ធិ	-10.439
▁Former	-10.4391
▁Ma	-10.4394
របស់កម្ពុជា។	-10.4401
▁ឡើយ	-10.4401
▁fans	-10.4404
▁mechanism	-10.4407
▁allows	-10.4408
ដែលបានកំណត់។	-10.441
ដោយគ្មាន	-10.4413
▁ចាន់ថុល	-10.4414
កែប្រែ	-10.4416
▁ណា	-10.4425
ent	-10.4425
▁mirror	-10.4425
▁Rouge	-10.4426
ចាំ	-10.4427
វគ្គបណ្តុះបណ្តាល	-10.443
▁fruits	-10.4438
▁emphasizing	-10.4439
ឱ្យបានច្រើន	-10.4439
ក្នុងការរៀបចំ	-10.4443
▁easy	-10.4443
▁ដឹកនាំ	-10.4443
អំពាវនាវឲ្យ	-10.4446
គេហទំព័រ	-10.4448
ការប្រកួត	-10.4448
▁balance	-10.4452
ខេត្តកំពង់ធំ	-10.4456
▁ដូច្នេះហើយ	-10.446
ខួរក្បាល	-10.4461
បាញ់	-10.4461
▁Academy	-10.4463
▁Chair	-10.4463
tic	-10.4464
ជូនពលរដ្ឋ	-10.4465
▁Master	-10.4469
▁processed	-10.4469
ចាប់តាំងពី	-10.447
▁provision	-10.4473
ជាន់	-10.4474
ផ្ទៀងផ្ទាត់	-10.4475
▁ឌិត	-10.4475
មុខរបរ	-10.4476
▁plants	-10.4477
៦នាក់	-10.4478
▁Seng	-10.448
ជាបន្តបន្ទាប់។	-10.4487
ព្រោះ	-10.4491
▁បទប្បញ្ញត្តិ	-10.4492
▁transformation	-10.4493
▁ក្រសួងការងារ	-10.4495
▁AM	-10.4496
▁won	-10.4496
វិទ្យាស្ថាន	-10.4508
ទាមទារឲ្យ	-10.451
មើលឃើញ	-10.4511
▁clients	-10.4511
ស្តារ	-10.4519
▁planting	-10.452
▁ធៀបនឹង	-10.4521
▁observed	-10.4526
▁ឆ្នាំ២០២២នេះ	-10.4527
time	-10.4527
▁chair	-10.4535
ភាពប្រកួតប្រជែង	-10.4537
▁សាកលវិទ្យាល័យ	-10.4537
ok	-10.4537
▁ផ្ដល់	-10.4537
អាណត្តិ	-10.4537
ិន	-10.4539
បង្ហោះ	-10.454
▁ឧស្សាហកម្ម	-10.4541
ភាពតានតឹង	-10.4542
▁surface	-10.4544
▁Since	-10.4547
ជួយសង្គ្រោះ	-10.4552
14	-10.4558
▁emerged	-10.4562
ដ៏ធំមួយ	-10.4562
▁ដើម	-10.4564
▁mine	-10.4564
▁ជាក់ស្តែង	-10.4564
▁ច្បាប់	-10.4565
លើកទឹកចិត្តឱ្យ	-10.4566
▁painting	-10.4567
▁illuminat	-10.457
បានទទួល	-10.4572
ព្រឹទ្ធសភា	-10.4573
▁Daily	-10.4574
▁bachelor	-10.4579
▁believe	-10.4581
សេចក្តីសុខ	-10.4581
ចែក	-10.4581
▁ដើម្បីកាត់បន្ថយ	-10.4581
▁ទេសចរណ៍	-10.4582
សត្វល្អិត	-10.4582
27	-10.4582
ស្តង់ដា	-10.4586
ញ៉ាំ	-10.4598
▁steadfastly	-10.4606
▁វិទ្យាសាស្ត្រ	-10.4607
មិត្ត	-10.4607
▁organic	-10.4608
រាប់	-10.4609
ial	-10.4609
▁consumption	-10.461
▁Children	-10.4611
▁500	-10.4617
▁alcohol	-10.462
▁wildlife	-10.4622
គណបក្សសង្គ្រោះ	-10.4626
▁allow	-10.4628
ថត	-10.4629
▁និងជំរុញ	-10.463
▁ព្រឹត្តិការណ៍	-10.4631
ស្នើឲ្យ	-10.4632
នាំគ្នា	-10.4632
វិស័យអប់រំ	-10.4632
មកកម្ពុជា	-10.4635
▁initial	-10.4637
កាល	-10.4639
ហ៊ុន	-10.464
▁សត្វ	-10.4642
ស្គាល់	-10.4643
ៈ	-10.4643
▁prioritizes	-10.4647
ក្នុងការអនុវត្ត	-10.4649
▁planned	-10.465
ក្នុងឆ្នាំ	-10.4655
▁Criminal	-10.466
មាន់	-10.4665
▁vote	-10.4671
▁អគារ	-10.4672
គឺជាកត្តាចាំបាច់	-10.4673
ផ្អាក	-10.4674
▁សីហា	-10.4675
ភ្នាក់ងារ	-10.4682
ចុះឈ្មោះ	-10.4684
▁similar	-10.4687
ចោទប្រកាន់	-10.4691
កូវីដ១៩	-10.4696
ភាពស្ងប់ស្ងាត់នៃ	-10.4698
▁seen	-10.47
▁deliver	-10.4701
▁focused	-10.4702
តំណែង	-10.4704
ជំងឺកូវីដ១៩	-10.4707
លើកទី១	-10.471
ចា	-10.4712
ត្រូវបានពង្រឹង	-10.4712
ច្បាប់ស្ដីពី	-10.4713
▁welcomed	-10.4713
ឆ្លងដែន	-10.4714
▁cut	-10.4714
រោង	-10.4717
យប់	-10.4721
▁sugar	-10.4722
ប្រជុំ	-10.4722
▁Central	-10.4728
វេជ្ជសាស្ត្រ	-10.4728
ជំនាញវិជ្ជាជីវៈ	-10.4729
ជាពិសេស	-10.473
▁saw	-10.4734
ទទួលទាន	-10.4734
សាសនា	-10.4735
▁ordered	-10.4736
▁ជាដើម	-10.4737
៧០	-10.474
▁ការស្រាវជ្រាវ	-10.4742
ក្នុងសហគមន៍	-10.4743
▁News	-10.4744
▁Culture	-10.4747
ធម៌	-10.4747
កែលម្អ	-10.4749
▁នាយកដ្ឋាន	-10.4754
▁Agreement	-10.4755
▁preservation	-10.4759
▁quiet	-10.4762
ថ្ងៃនេះ	-10.4766
ក្រសួងទេសចរណ៍	-10.4767
▁remaining	-10.4769
▁teams	-10.4771
▁adorn	-10.4773
▁Germany	-10.4774
▁លោកឧកញ៉ា	-10.4775
▁15,	-10.4778
▁28	-10.4781
▁២០០	-10.4784
▁speech	-10.4784
▁ជនជាប់ចោទ	-10.4785
ខេត្តមណ្ឌលគិរី	-10.4785
សញ្ជាតិខ្មែរ	-10.4787
ការធ្វើពិពិធកម្ម	-10.4788
ពិគ្រោះយោបល់	-10.4789
▁Building	-10.4792
ភាគ	-10.4795
▁Registry	-10.4797
▁Kh	-10.4798
▁books	-10.4798
▁Enhanc	-10.4798
ព្រែក	-10.4799
▁បណ្តុះបណ្តាល	-10.4801
▁losses	-10.4801
ឈាម	-10.4806
▁informal	-10.4807
▁បរទេស៖	-10.4809
លំនៅដ្ឋាន	-10.481
▁blossoms	-10.4813
▁វត្ថុ	-10.4814
កូ	-10.4815
កើន	-10.4818
ក្រសួងឧស្សាហកម្ម	-10.4818
led	-10.4822
▁adheres	-10.4823
▁ទី៣	-10.4827
▁irrigation	-10.4835
▁ពីព្រោះ	-10.4839
▁visited	-10.484
▁enhanced	-10.4841
ខេត្តឧត្តរមានជ័យ	-10.4842
កាប់	-10.4843
▁គណបក្ស	-10.4852
លើកដំបូង	-10.4853
▁បន្ថែមថា	-10.4854
សម្គាល់	-10.4855
26	-10.4859
▁arises	-10.4864
▁East	-10.4865
▁pagoda	-10.4869
23	-10.487
24	-10.487
ដាក់ពាក្យ	-10.4872
▁គឺជាការ	-10.4876
ជនបទ	-10.4881
▁fund	-10.4881
▁matter	-10.4882
នៅតែមាន	-10.4886
មិនត្រឹមតែ	-10.4886
ឆ្នើម	-10.4887
▁Time	-10.4887
▁raising	-10.4887
▁arts	-10.4894
▁ex	-10.4896
រាត្រី	-10.4902
សាធារណជន	-10.4905
យុវជនកម្ពុជា	-10.4906
▁គីម	-10.4908
▁Son	-10.4908
បានធ្លាក់ចុះ	-10.4908
អ្នកចូលរួម	-10.4908
ដ៏ទន់ភ្លន់	-10.491
នៅភ្នំពេញ	-10.491
▁worry	-10.4911
▁តារា	-10.4914
កាន់តែខ្លាំង	-10.4915
ខ្លី	-10.4917
▁និងបទប្បញ្ញត្តិ	-10.4917
ក្រីក្រ	-10.4917
▁perform	-10.4921
បដិសណ្ឋារកិច្ច	-10.4924
▁guidance	-10.4924
▁Ensur	-10.4924
ization	-10.4924
ច្រើនជាងគេ	-10.4925
ជំនាន់	-10.4928
▁មើល	-10.4928
▁flows	-10.4931
សម្លាប់	-10.4932
▁airport	-10.4933
កិច្ចសន្យា	-10.4934
របៀប	-10.4935
▁Ka	-10.4939
ខ្នង	-10.4943
▁letter	-10.4946
▁ផ្ទះ	-10.4948
▁proceed	-10.4949
▁transactions	-10.495
ជារៀងរាល់ឆ្នាំ	-10.4951
▁Lake	-10.4951
▁phone	-10.4953
ចំនួន៥	-10.4955
បានបន្ត	-10.4957
▁mango	-10.496
▁Palace	-10.4962
▁multi	-10.4964
ខេត្តត្បូងឃ្មុំ	-10.4967
ស្ថិតនៅ	-10.4967
ការលើកទឹកចិត្ត	-10.4972
▁landscape	-10.4972
▁ចំណុច	-10.4972
▁informed	-10.4974
▁Chanthol	-10.4975
ddar	-10.4976
ដ៏សំខាន់សម្រាប់	-10.4981
▁courage	-10.4985
▁តុលាការកំពូល	-10.4988
▁VOA	-10.4988
សុ	-10.4991
land	-10.4992
▁widely	-10.4993
▁ស្ថានភាព	-10.4995
▁Green	-10.4995
គណៈរដ្ឋមន្ត្រី	-10.4997
៍	-10.4998
▁followed	-10.5003
បន្ថែមទៀត។	-10.5005
▁Ra	-10.5007
▁ឈុន	-10.5007
នាពេលអនាគត។	-10.5009
ទទួលបានជោគជ័យ	-10.5012
▁កក្កដា	-10.5013
រាជ	-10.5013
ផ្តោតលើ	-10.5014
ហា	-10.5014
ការចូលរួម	-10.502
កណ្ដាល	-10.5024
នឹងអាច	-10.5024
▁មជ្ឈមណ្ឌល	-10.5024
ឡើងវិញ។	-10.5028
▁រៀន	-10.503
▁បានប្រាប់	-10.5035
សមាគមមីក្រូហិ	-10.5035
មិនឱ្យ	-10.5041
ខ្ពស់ក្នុងការ	-10.5042
ការពិត	-10.5042
▁កម្ម	-10.5045
បានបន្សល់ទុកនូវ	-10.5049
▁hard	-10.505
▁depend	-10.5053
▁investing	-10.5054
▁hero	-10.5055
មន្ទីរ	-10.5056
▁Listen	-10.506
ឱ្យកាន់តែ	-10.5061
ខ្នាតតូច	-10.5063
▁residential	-10.5065
▁Chamber	-10.5065
▁born	-10.5066
អំពើ	-10.5067
បុក	-10.5068
▁pursue	-10.507
ភាពជោគជ័យ	-10.5076
កាត់បន្ថយការ	-10.5077
លិខិតឆ្លងដែន	-10.508
ural	-10.5081
ឆ្នាំមុន	-10.5083
គ្រាន់តែ	-10.5084
▁factor	-10.5085
▁trans	-10.509
៤០	-10.5092
មុនពេល	-10.5101
▁degree	-10.5102
▁ពាក់ព័ន្ធនឹង	-10.5102
▁៦០	-10.5103
▁crude	-10.5104
Meanwhile	-10.5104
having	-10.5104
▁និងប្រជាជន	-10.5107
អន្តរក្រសួង	-10.5109
បំភ្លឺ	-10.5112
ឃើញថា	-10.5112
▁Sea	-10.5113
អង់គ្លេស	-10.5113
សេ	-10.5115
ex	-10.5116
▁solar	-10.5117
▁km	-10.5117
▁worldwide	-10.5117
▁concluded	-10.5118
ឡា	-10.5121
ឿន	-10.5126
នាវា	-10.5126
ពលករ	-10.5129
សង្គ្រោះ	-10.5129
បំពេញការងារ	-10.5131
ចាស់ៗ	-10.5132
▁Kang	-10.5134
មានសិទ្ធិទទួលបាន	-10.5136
ក្នុងការអភិវឌ្ឍ	-10.5137
17	-10.5141
ការកាត់បន្ថយ	-10.5146
ភស្តុតាង	-10.5147
▁design	-10.5148
▁យល់	-10.5153
មានលក្ខណៈ	-10.5154
▁societal	-10.5156
ized	-10.5157
គណបក្សភ្លើងទៀន	-10.5157
ជាមូលដ្ឋាន	-10.5159
▁ឯកអគ្គរដ្ឋទូត	-10.5159
រៀបចំផែនការ	-10.5163
▁difficult	-10.5164
ដ៏ស្រស់ស្អាត	-10.5167
▁grandeur	-10.5169
▁2014.	-10.517
▁signing	-10.5171
▁ចម្រើន	-10.5174
▁me	-10.5176
បង្កើនសមត្ថភាព	-10.5178
▁fertilizer	-10.5181
18	-10.5181
▁tapestry	-10.5182
▁majestically	-10.5182
▁Chairman	-10.5182
▁decades	-10.5184
ការអភិវឌ្ឍហេដ្ឋា	-10.5185
▁permanent	-10.5185
មិនល្អ	-10.5191
▁hues	-10.5197
វិញ។	-10.5198
ជូនដល់	-10.52
ព្រមាន	-10.5202
▁strive	-10.5204
▁trends	-10.5205
▁កុមារ	-10.5206
ការបាត់បង់	-10.521
▁less	-10.5212
ដុះ	-10.5215
ថ្មីៗនេះ	-10.5215
▁Pich	-10.5217
▁whisper	-10.5217
▁valuable	-10.5221
▁3,	-10.5222
▁career	-10.5224
▁clearly	-10.5226
ដែលបានកំណត់	-10.5228
▁considered	-10.5229
▁words	-10.5231
▁monitor	-10.5233
ផ្ទុះ	-10.5233
▁volume	-10.5233
▁ចំណូល	-10.5236
▁សង្គម	-10.5238
▁បានឲ្យដឹងថា	-10.5245
long	-10.5248
មានលទ្ធភាព	-10.5249
▁4,	-10.5251
▁ថែមទាំង	-10.5264
ក្នុងគោលបំណង	-10.5265
អាហារូបត្ថម្ភ	-10.5267
▁follow	-10.5269
ទាំងអស់ត្រូវ	-10.527
▁seeks	-10.5271
កិត្តិយស	-10.5273
▁integral	-10.5274
This	-10.5274
▁ការប្រើប្រាស់	-10.5277
▁(1	-10.5278
នេះនឹង	-10.5282
▁ក្រសួងសាធារណការ	-10.5285
ការគាំទ្រ	-10.5286
▁advised	-10.5288
▁kg	-10.5293
▁6.	-10.5295
-19,	-10.5297
▁និងជាប្រធាន	-10.5298
▁halt	-10.5298
▁recognition	-10.53
▁Kak	-10.5302
ភាពយន្ត	-10.5304
ដុំ	-10.5305
▁equivalent	-10.5307
រ៉ុង	-10.5309
CAMBODIA	-10.5314
▁facilities	-10.5314
▁ពាក់ព័ន្ធនឹងការ	-10.5317
ទៅរក	-10.5317
ការប្រុងប្រយ័ត្ន	-10.5321
លក្ខណៈ	-10.5325
ឱសថ	-10.5328
ទាំងមូល។	-10.5331
សមស្រប	-10.5332
ជាងគេ	-10.5333
នៅឆ្នាំ	-10.5338
ប្រព្រឹត្ត	-10.5339
▁Analysis	-10.534
▁Fund	-10.5343
អញ្ជើញជាអធិបតី	-10.5348
ការអនុវត្តច្បាប់	-10.5348
បដិសេធ	-10.5349
វិទ្យាសាស្រ្ត	-10.535
វត្តមាន	-10.5351
ដែលយើង	-10.5353
▁entitl	-10.5353
▁sole	-10.5355
▁ហាក់ដូចជា	-10.5356
▁taxes	-10.5361
ចាប់យក	-10.5361
▁Strict	-10.5367
លើកឡើងថា	-10.5367
ខាងក្រៅ	-10.5368
▁award	-10.5371
ខេត្តក្រចេះ	-10.5372
▁លើកឡើងថា	-10.5374
▁aged	-10.5376
▁endeavors	-10.5383
ការតភ្ជាប់	-10.5384
រយៈពេលដូចគ្នា	-10.5389
▁ease	-10.539
អេកូឡូស៊ី	-10.5391
▁Though	-10.5391
▁drainage	-10.5394
នៅខេត្តព្រះសីហនុ	-10.5396
▁ទិន្នន័យ	-10.5397
ការពង្រឹង	-10.5399
▁Australian	-10.5399
ដើម្បីការពារ	-10.5401
ធ្វើបាតុកម្ម	-10.5404
▁news	-10.5409
ត្រូវតែអនុលោមតាម	-10.5409
▁rapidly	-10.5409
▁underway	-10.541
▁played	-10.541
▁គាត់បាន	-10.5411
▁គណៈប្រតិភូ	-10.5412
ទាក់ទង	-10.542
▁investor	-10.5422
▁អស់	-10.5425
ប្រធានាធិបតី	-10.5429
▁cover	-10.543
▁Follow	-10.5433
▁afternoon	-10.5434
▁II	-10.5441
▁$8	-10.5443
ilateral	-10.5446
▁jurisdiction	-10.5447
▁varieties	-10.5447
▁Memorandum	-10.5447
▁grew	-10.5447
▁slightly	-10.5449
ពិភាក្សា	-10.545
▁ហុង	-10.5451
▁កន្លងមក	-10.5452
ល្បី	-10.5453
មកកាន់	-10.5454
សំរាម	-10.5454
ya	-10.5458
ប្តូរ	-10.5462
11	-10.5462
កិច្ចពិភាក្សា	-10.5463
ឆ្ងាយ	-10.5464
បន្តទៀត	-10.5466
ton	-10.5467
ដ៏មានតម្លៃ	-10.5468
▁ផ្សារ	-10.5471
▁expressway	-10.5475
j	-10.5479
▁ដោយក្នុងនោះ	-10.5481
▁TVET	-10.5486
▁ខេមបូឌា	-10.5487
តាមបទប្បញ្ញត្តិ	-10.5496
ទូលំទូលាយ	-10.5496
▁Para	-10.5499
▁mandatory	-10.5501
▁អាយុ	-10.5501
▁Canada	-10.5504
ors	-10.5505
▁feel	-10.5506
ជឿជាក់ថា	-10.5511
២១	-10.5513
ទាមទារឱ្យ	-10.5516
ទ្ធិ	-10.552
▁Interview	-10.5528
កន្លងទៅ	-10.5529
16	-10.553
▁allocation	-10.553
▁engineering	-10.5531
▁assessment	-10.5532
ឧកញ៉ា	-10.5533
ប្រជាពលរដ្ឋ។	-10.5536
កិច្ចសន្ទនា	-10.5536
▁struggle	-10.5539
រថយន្តអគ្គិសនី	-10.5539
បណ្តាញសង្គម	-10.554
ចុង	-10.5541
▁simple	-10.5542
សម្រស់	-10.5542
▁harm	-10.5546
▁ប៉ុណ្ណោះ	-10.5552
▁curb	-10.5556
ឆាប់	-10.5556
ជំនាញបច្ចេកទេស	-10.5561
ful	-10.5564
▁means	-10.5566
សិក្សាទុតិយភូមិ	-10.5569
ពិ	-10.5571
▁ទីណា	-10.5576
ការសាងសង់	-10.5576
▁took	-10.5576
គ្រប់រូប។	-10.5577
▁requested	-10.5578
▁send	-10.558
សម្ដេចតេជោ	-10.558
អាចជួយ	-10.5582
▁surged	-10.5585
ត្រូវបានដាក់ចេញ	-10.5585
ត្រូវបានប្រកាស	-10.5587
▁តាំង	-10.5589
▁transformed	-10.559
ការចាក់វ៉ាក់សាំង	-10.559
ស៊ីជម្រៅ	-10.559
▁collected	-10.5594
ុ	-10.5596
ទ្រទ្រង់	-10.56
ដាក់ឱ្យអនុវត្ត	-10.5601
ពិនិត្យមើល	-10.5602
*,	-10.5602
ap	-10.5603
▁friends	-10.5605
ដុល្លារអាមេរិក	-10.5608
អញ្ជើញ	-10.5609
▁highlights	-10.5612
▁OPEC	-10.5618
▁29	-10.562
▁distribution	-10.5623
▁flood	-10.5624
សិង្ហបុរី	-10.5624
ួន	-10.5625
▁St	-10.5632
សារៈសំខាន់នៃ	-10.5633
មូលហេតុ	-10.5634
▁reign	-10.5641
មានការចូលរួមពី	-10.5643
▁seal	-10.5643
ច្បាប់។	-10.5644
រចនាសម្ព័ន្ធ។	-10.5646
▁តុលា	-10.5649
▁Cross	-10.5651
▁Jayavarman	-10.5651
▁អគ្គនាយកដ្ឋាន	-10.5652
▁នេះជា	-10.5654
▁stringent	-10.5654
ធ្វើជាម្ចាស់ផ្ទះ	-10.5655
taking	-10.5657
នៅទូទាំង	-10.5657
បណ្ដាញ	-10.5657
សារធាតុ	-10.5658
ស្ទឹង	-10.5663
បុណ្យចូលឆ្នាំ	-10.5664
▁មកពី	-10.5667
▁ចុះថ្ងៃទី០	-10.5669
ទទួលបានការ	-10.5671
▁បានបង្ហាញ	-10.5673
ម៉ឺន	-10.5673
ឈរ	-10.5675
គម្រោងហេដ្ឋា	-10.5676
▁protecting	-10.5684
មេធាវី	-10.5684
រូបថត	-10.5686
លឿន	-10.5687
ប្ដឹង	-10.5688
75	-10.5689
ប្រែក្លាយ	-10.5689
ខេត្តរតនគិរី	-10.569
ម្តាយ	-10.5691
ការទូត	-10.5695
ព្រមទាំង	-10.5699
មានគោលបំណង	-10.5701
▁square	-10.5703
ចូលទៅក្នុង	-10.5703
ហៅ	-10.5705
ឡាន	-10.5706
▁efficacy	-10.5706
▁eight	-10.571
បណ្ណ	-10.5716
លុប	-10.5716
▁stay	-10.5717
ក្រហម	-10.5718
28	-10.572
▁Mao	-10.572
ផ្ដល់ជូន	-10.572
យល់ថា	-10.5723
▁គ្រឿង	-10.5724
ian	-10.5731
▁Serey	-10.5733
▁ceremonies	-10.5733
▁enlightenment	-10.5733
▁wooden	-10.5734
▁ID	-10.5734
▁permits	-10.5735
▁cultivate	-10.5736
▁Prince	-10.5736
▁occasion	-10.5736
▁Ni	-10.5738
▁concern	-10.5739
ជាបន្ទាន់	-10.5739
ខេត្តពោធិ៍សាត់	-10.574
▁wind	-10.5742
▁ស្របពេលដែល	-10.5743
ចរចា	-10.5743
▁2017	-10.5752
វិស័យធនាគារ	-10.5753
នោះដែរ	-10.5755
ខេត្តកំពត	-10.5756
អ្នកផលិត	-10.5757
បែងចែក	-10.5758
▁ពិតជា	-10.5758
័	-10.5759
ក្នុងរយៈពេលកំណត់	-10.5761
ស្រែ	-10.5762
គណបក្សប្រឆាំង	-10.5766
អនុ	-10.5768
ពន្លឿន	-10.5769
ដើមទុន	-10.5774
ពុកម្ដាយ	-10.5775
យ៉ាងហោចណាស់	-10.5775
ខ្លឹមសារ	-10.5778
▁Product	-10.578
▁returned	-10.578
▁verify	-10.5789
សញ្ជាតិ	-10.5789
បង្ការ	-10.579
ភាគរយ	-10.5791
ទៅវិញ	-10.5792
ឱ្យដឹងថា	-10.5794
គោលដៅអភិវឌ្ឍន៍	-10.5797
▁ប្រាប់	-10.5803
▁position	-10.5805
sa	-10.5806
កាយ	-10.5812
izing	-10.5814
▁cast	-10.5815
77	-10.5817
សិប្បកម្ម	-10.5819
▁silently	-10.582
ដ៏ធំធេង	-10.5821
ក្ដីសង្ឃឹម	-10.5824
▁Da	-10.5824
▁២១	-10.5825
▁ones	-10.5827
▁Food	-10.5829
▁កុម្ភៈ	-10.5834
ខេត្តស្វាយរៀង	-10.5835
▁killed	-10.5836
▁call	-10.5838
▁ឯកសារ	-10.5838
ខេត្តកណ្តាល	-10.584
▁បរិសុទ្ធ	-10.5842
២៦	-10.5844
ប្រធានបទ	-10.5844
om	-10.5845
វិបត្តិកូវីដ	-10.5846
▁Real	-10.5847
នឹងទទួលបាន	-10.5847
ut	-10.5848
▁consequences	-10.5852
ឡាយព្រះហស្តលេខា	-10.5856
mo	-10.5857
អត្រាប្តូរប្រាក់	-10.5858
▁soldiers	-10.5858
,”	-10.586
▁course	-10.586
▁Tina	-10.5861
▁noble	-10.5861
តួលេខ	-10.5862
របស់ពលរដ្ឋ	-10.5864
តែម្ដង	-10.5869
យ៉ាងណាក៏ដោយ	-10.5876
ន៍	-10.5877
អ្នកជំងឺ	-10.5879
▁carvings	-10.588
ឧត្តមសិក្សា	-10.588
រញ្ញវត្ថុកម្ពុជា	-10.5881
ភាគហ៊ុន	-10.5884
▁equity	-10.5886
ប្រឹក្សាភិបាល	-10.5896
យ៉ាងម៉ឺងម៉ាត់នូវ	-10.5897
building	-10.5898
ប្រាក់ចំណេញ	-10.59
va	-10.59
ស្លា	-10.5901
អ្នកមាន	-10.5902
▁hand	-10.5902
សម្រាប់គម្រោង	-10.5902
ling	-10.5904
ភា	-10.5906
▁son	-10.5907
ca	-10.5908
▁2,000	-10.5908
▁Monday	-10.5911
▁reliance	-10.5911
ទូរទស្សន៍	-10.5912
រ៉ូ	-10.5913
▁២៤	-10.5916
▁រុស្ស៊ី	-10.5916
▁improvement	-10.5926
សម្អាត	-10.594
▁Ancient	-10.5943
▁បន្ថែម	-10.5944
▁interview	-10.5946
ចរន្ត	-10.5947
▁truck	-10.5948
▁mid	-10.5949
▁ពង្រឹង	-10.595
ចុះហត្ថលេខា	-10.5951
បានចាប់ផ្តើម	-10.5952
AC	-10.5954
ចំការ	-10.5954
▁បានរាយការណ៍ថា	-10.5955
▁អារម្មណ៍	-10.5955
▁Credit	-10.5959
▁transition	-10.5959
▁m	-10.596
ឃ្លាំង	-10.5962
▁meaning	-10.5964
ប្ដេជ្ញាចិត្ត	-10.5965
▁festivals	-10.5968
ចែកចាយ	-10.5969
បេតិកភណ្ឌ	-10.5971
▁Joint	-10.5971
ជំរុញការអភិវឌ្ឍ	-10.5974
ល្អៗ	-10.5977
▁violations	-10.5982
▁ត្រូវបានអនុវត្ត	-10.5982
ក៏ត្រូវ	-10.5983
មែន	-10.5985
▁species	-10.5985
▁Charter	-10.5985
▁accept	-10.5985
▁App	-10.5987
លំបាក	-10.5989
២៨	-10.5992
▁Ya	-10.5995
ដុត	-10.5997
ពន្លឺព្រះអាទិត្យ	-10.5998
▁reviewed	-10.6003
▁resolv	-10.6005
ទម្រង់	-10.6008
▁engage	-10.6008
▁Grade	-10.6009
▁diversify	-10.6013
ប្រជាមានិតចិន	-10.6014
▁recorded	-10.6014
▁welcome	-10.6015
▁ក្នុងនាមជា	-10.6017
▁ideas	-10.6017
ក្រៅ	-10.6024
រយ	-10.6025
▁និងវិជ្ជាជីវៈ	-10.6025
២៧	-10.6026
មកវិញ	-10.6028
ជំនាន់ក្រោយ។	-10.6028
កសិកម្ម។	-10.6031
ខ្ពស់បំផុត	-10.6033
យល់	-10.6034
▁voter	-10.6035
▁Commission	-10.6037
▁ចំណែកឯ	-10.6039
▁Good	-10.604
▁clarify	-10.6042
អចិន្ត្រៃយ៍	-10.6045
ការកើនឡើងនៃ	-10.6047
បំ	-10.6047
ទីកន្លែង	-10.6049
▁closing	-10.6056
▁roots	-10.6057
▁follows	-10.6057
▁shares	-10.6057
▁ទោះបី	-10.606
▁pledges	-10.6061
បំបែក	-10.6063
▁Capacity	-10.6065
▁និងភាព	-10.6065
▁ត្រឹម	-10.6066
▁10,000	-10.607
មានតួនាទី	-10.607
▁warm	-10.6072
▁views	-10.6074
សណ្ឋាគារ	-10.6075
ផ្លូវជាតិលេខ	-10.6076
របស់អាមេរិក	-10.6077
វិភាគ	-10.6078
▁អ្នកឧកញ៉ា	-10.6081
round	-10.6081
▁ដែរ	-10.6081
▁ការពង្រឹង	-10.6083
21	-10.6084
▁colossal	-10.6085
ជិះ	-10.6086
▁resolved	-10.6087
ទារក	-10.6089
សិក្សាស្រាវជ្រាវ	-10.609
▁ធ្វើឲ្យ	-10.6091
▁list	-10.6092
ប្រទេសវៀតណាម	-10.6095
ថ	-10.6095
▁produced	-10.6096
▁និយាយ	-10.6096
▁complex	-10.6096
សហរដ្ឋអាម៉េរិក	-10.61
omprehensive	-10.6101
បានប្រកាស	-10.6101
សត្វព្រៃ	-10.6103
រិទ្ធ	-10.6103
▁independent	-10.6104
▁expresse	-10.6104
ក្រសួងសាធារណការ	-10.6105
វិស័យឧស្សាហកម្ម	-10.6106
▁កងកម្លាំង	-10.611
ter	-10.6112
▁technological	-10.6113
▁បានថ្លែង	-10.6118
▁កែវ	-10.6125
▁ខណៈពេលដែល	-10.6126
គ្រូពេទ្យ	-10.6132
▁healthy	-10.6134
ឈ្មួញ	-10.6136
▁details	-10.6147
$	-10.6147
▁Five	-10.6147
រហូតទៅដល់	-10.6148
▁exhibition	-10.6149
▁គឺដើម្បី	-10.6151
សួរ	-10.6152
រសៀល	-10.6153
▁ហាក់	-10.6154
លាតសន្ធឹង	-10.6154
▁ពិធីបុណ្យ	-10.6155
▁និងប្រព័ន្ធ	-10.6163
ory	-10.6167
▁subjects	-10.6168
▁Biden	-10.6172
▁artistic	-10.6172
▁៨០	-10.6177
ueen	-10.6178
សុខសន្តិភាព	-10.6178
ប្រព្រឹត្តទៅ	-10.6179
ជ្រូក	-10.6179
▁កីឡា	-10.6184
▁visits	-10.6184
មធ្យម	-10.6189
▁sat	-10.6193
▁បានបង្ហាញពី	-10.6194
បេក្ខភាព	-10.6197
▁$7	-10.6199
▁Chi	-10.6199
▁boat	-10.6207
no	-10.6208
▁corruption	-10.6209
▁សហរដ្ឋអាមេរិក	-10.621
▁covering	-10.6211
interference	-10.6215
▁affordable	-10.6215
▁husband	-10.6218
បញ្ញា	-10.6221
ទៅមុខ	-10.6223
មានសមត្ថភាព	-10.6225
សម្រាក	-10.6225
ប្រហែលជា	-10.6226
ក្នុងការដោះស្រាយ	-10.6231
នេះមាន	-10.6232
ចាប់ពីថ្ងៃ	-10.6233
សគល់	-10.6234
▁disaster	-10.6236
ize	-10.6241
ុង	-10.6242
▁carried	-10.6244
▁criticism	-10.6244
▁20,	-10.6246
▁ជន	-10.6254
ការផ្លាស់ប្ដូរ	-10.6256
▁preventing	-10.6258
▁participating	-10.6259
ឯក	-10.626
▁Smart	-10.6265
▁ការធ្វើ	-10.6265
ជនល្មើស	-10.6267
▁ទីបំផុត	-10.6267
សង	-10.6267
13	-10.6268
▁លិខិត	-10.6271
អគ្គនាយកដ្ឋាន	-10.6272
▁កាត់	-10.6272
▁meditation	-10.6273
▁មាស	-10.6273
▁depths	-10.6274
▁accurate	-10.6274
▁ago	-10.6276
គេង	-10.6278
ចល័ត	-10.6283
ទាំងអស់នេះ	-10.6283
បង់	-10.6286
រូបរាង	-10.629
▁applicants	-10.6291
▁specialized	-10.6292
▁ចំ	-10.6292
▁ក្រសួងការបរទេស	-10.6297
▁Strengthening	-10.6302
2021	-10.6302
▁Middle	-10.6303
▁2)	-10.6304
▁tensions	-10.6305
▁វិ	-10.6307
នាយកដ្ឋាន	-10.6309
▁លាននាក់	-10.6309
▁ថ្នាក់ដឹកនាំ	-10.6309
ច្នៃ	-10.6311
▁ភាគច្រើន	-10.6313
mi	-10.6314
▁ignorance	-10.6317
និ	-10.6318
ផ្ទេរ	-10.6319
▁យោងតាមព្រះរាជ	-10.632
កើតចេញពី	-10.6323
▁Pre	-10.6323
សាមគ្គីភាព	-10.6326
hi	-10.6328
▁profits	-10.6329
▁firm	-10.6329
▁themselves	-10.6331
បានរួមចំណែក	-10.6333
ៅ	-10.6335
ឃុំខ្លួន	-10.6338
▁ជួប	-10.6342
▁ប្រធានសមាគម	-10.6344
តភ្ជាប់	-10.6348
ចូលរួមចំណែក	-10.6349
ខេត្តកំពង់ស្ពឺ	-10.6353
▁atmosphere	-10.6361
▁restrictions	-10.6361
▁Pen	-10.6363
▁សេវាកម្ម	-10.6364
នៅក្នុងវិស័យ	-10.6366
▁stretched	-10.6367
ស៊ីហ្គេម	-10.637
▁បំផុត	-10.6371
សម	-10.6372
▁majestic	-10.6375
នៃប្រទេស	-10.638
▁incentives	-10.6381
▁ឆ្លុះបញ្ចាំងពី	-10.6382
▁Beijing	-10.6382
▁declaration	-10.6384
ដ៏តឹងរ៉ឹង	-10.6392
មានតម្រូវការ	-10.6393
ើ	-10.6393
រៀប	-10.6394
របៀបវារៈ	-10.6398
នូវការ	-10.6401
ទ្រ	-10.6404
▁coffee	-10.6405
▁trading	-10.6405
▁fragrant	-10.6405
▁ចក្ខុវិស័យ	-10.6406
រ៉ែ	-10.6407
ច្បាស់	-10.6412
▁1)	-10.6413
▁កម្ពុជាបាន	-10.6414
▁smile	-10.6414
▁diploma	-10.642
Pacific	-10.6421
▁contributes	-10.6422
▁accidents	-10.6423
▁compete	-10.643
▁genuine	-10.6439
▁1.5	-10.6442
ប្រជាជនខ្មែរ	-10.6444
▁ever	-10.6445
▁passing	-10.6446
▁ប្រធានក្រុម	-10.6446
ចុះឈ្មោះបោះឆ្នោត	-10.6448
▁contemplation	-10.6449
តែម្ដង។	-10.6451
បច្ចុប្បន្ន។	-10.6454
▁increases	-10.6456
ក្រៅពី	-10.6457
គូ	-10.6459
ad	-10.646
▁Western	-10.6464
អ្នកនយោបាយ	-10.6464
▁សកម្មជន	-10.6466
ភាពស្ងប់ស្ងាត់	-10.6467
អនុញ្ញាតឲ្យ	-10.6468
▁Men	-10.6469
គួរឱ្យ	-10.6474
▁eliminate	-10.6479
យ៉ា	-10.6481
▁skin	-10.6482
យ៉ាងណាក្តី	-10.6485
▁យល់ដឹង	-10.6487
ដ៏រស់រវើក	-10.6487
ចាកចេញពី	-10.649
គី	-10.6491
ផ្តោត	-10.6493
▁Chh	-10.6497
ពេទ្យ	-10.6499
▁name	-10.6502
ស្រាប់	-10.6504
បម្រើ	-10.6506
ty	-10.6508
▁remarks	-10.6509
▁organizing	-10.6509
អនុម័ត	-10.651
▁Su	-10.6512
អតីតកាល	-10.6514
▁អ្វី	-10.6517
ទីផ្សារការងារ	-10.6521
កំហុស	-10.6524
▁tomorrow	-10.6524
សំបុត្រកំណើត	-10.6524
▁millions	-10.6525
▁branches	-10.6525
▁20,000	-10.6526
រោងចក្រផលិត	-10.6527
pa	-10.6529
ផ្សេងៗ។	-10.6531
▁gender	-10.6532
ASEAN	-10.6532
▁carbon	-10.6535
កម្មករនិយោជិត	-10.6538
▁Street	-10.6539
vi	-10.654
ត្រូវតែអនុវត្ត	-10.6541
អបអរសាទរ	-10.6544
▁បើធៀបនឹង	-10.6546
បើកបរ	-10.6553
នោះឡើយ។	-10.6553
របស់រុស្ស៊ី	-10.6553
ការចុះបញ្ជី	-10.6553
ទី៤	-10.6558
▁អប់រំ	-10.6559
លុបបំបាត់	-10.6559
ប្រព័ន្ធធនាគារ	-10.6562
▁marking	-10.6563
tion	-10.6567
▁បុគ្គលិក	-10.6568
អាល្លឺម៉ង់	-10.6572
▁processes	-10.6575
▁values	-10.6576
▁វិទ្យាស្ថាន	-10.6576
អ្វីខ្លះ	-10.6576
▁Rong	-10.6579
▁grassroots	-10.6584
▁សំអាល់	-10.6584
▁Buddhism	-10.6599
▁gently	-10.6599
រជាន់ខ្ពស់	-10.66
កាហ្វេ	-10.6603
▁longer	-10.6603
សំបុត្រ	-10.6606
▁នាព្រឹកថ្ងៃទី	-10.6607
▁La	-10.6607
តេជោ	-10.6608
▁affecting	-10.6609
ស្ទើរ	-10.6609
the	-10.6609
វិន័យ	-10.661
គ្រប់គ្នា	-10.6611
គ្រឹះសម្រាប់	-10.6612
ល្បឿន	-10.6612
der	-10.6613
៩០	-10.6614
▁internet	-10.6614
▁supporters	-10.6616
▁hopes	-10.6617
ធានាសុវត្ថិភាព	-10.662
សង្ស័យ	-10.662
▁story	-10.6624
▁ម៉ៅ	-10.6625
▁procedure	-10.6625
▁Samal	-10.6625
ក្នុងកិច្ចប្រជុំ	-10.6627
▁collaborating	-10.6629
▁guiding	-10.6629
ចូលមក	-10.6629
▁nine	-10.6629
០០	-10.663
▁មេ	-10.6632
ដោយមិន	-10.6633
8%	-10.6633
▁ជាទូទៅ	-10.6635
ជ័យលាភី	-10.6636
02	-10.6639
▁problems	-10.6639
០១	-10.6639
▁ABA	-10.664
▁servants	-10.6642
បរិភោគ	-10.6643
▁men	-10.6643
▁arduous	-10.6644
▁Exchange	-10.6644
របស់ប្រជាពលរដ្ឋ។	-10.6644
ជាតិអប្សរា	-10.6644
ផ្សាយ	-10.6648
ជនជាតិ	-10.6651
4%	-10.6653
▁electronic	-10.6655
ដើមឈើ	-10.6658
▁accident	-10.6658
▁everything	-10.6659
បាក់	-10.6664
▁43	-10.6665
▁animal	-10.6671
▁ច្បាប់ស្តីពី	-10.6671
▁silence	-10.6671
▁import	-10.6671
▁Most	-10.6675
▁Mo	-10.6678
ប្រឈម	-10.6683
▁ទំនាក់ទំនង	-10.6683
▁heat	-10.6684
▁judge	-10.6686
មើលឃើញថា	-10.6686
មីយ៉ាន់ម៉ា	-10.6687
ated	-10.6687
ផ្ទុក	-10.6689
ត្រជាក់	-10.6689
▁អ្នកវិភាគ	-10.669
▁យោងតាមរបាយការណ៍	-10.6691
▁stage	-10.6692
ការចោទប្រកាន់	-10.6694
op	-10.6697
▁Israel	-10.6698
កូនៗ	-10.6701
សហគមន៍កសិកម្ម	-10.6702
▁sleep	-10.6703
▁inspected	-10.6704
▁competitive	-10.6704
ស្វាយចន្ទី	-10.6708
▁ដើម្បីស្វែងរក	-10.6709
▁negative	-10.671
គួរឲ្យ	-10.671
សម្រាប់ឆ្នាំ	-10.671
▁exercises	-10.6711
ដ្ឋាន	-10.6712
លម្អិត	-10.6712
ក្រុមប្រឹក្សាឃុំ	-10.6714
▁Anti	-10.6715
▁reject	-10.6717
យ៉ាងខ្ជាប់ខ្ជួន	-10.6722
ដែលមិនអាច	-10.6723
▁known	-10.6723
ម្ដង	-10.6726
▁sea	-10.6728
05	-10.6728
របួស	-10.673
បំណង	-10.673
▁secrets	-10.6733
ចូលរួមក្នុង	-10.6734
▁កម្រិត	-10.6734
▁ទ្រង់	-10.6735
▁logistics	-10.6735
▁analysis	-10.6735
▁thinking	-10.6737
កាត់បន្ថយហានិភ័យ	-10.674
សុទ្ធ	-10.674
▁ការរៀបចំ	-10.6742
▁commerce	-10.6744
▁អាហារ	-10.6745
▁ហេដ្ឋា	-10.6746
ទីភ្នាក់ងារ	-10.6747
▁vaccines	-10.6749
បឹងទន្លេសាប	-10.675
▁line	-10.675
សញ្ញាបត្រមធ្យម	-10.675
យុទ្ធសាស្ត្រជាតិ	-10.675
កេរ្តិ៍ឈ្មោះ	-10.6751
60	-10.6755
▁detailed	-10.6755
▁ជាការ	-10.6755
ម៉ែន	-10.6759
ចង់ឃើញ	-10.6762
▁៧០	-10.6762
▁purchase	-10.6763
▁developers	-10.6763
▁Sena	-10.6764
កុំឱ្យ	-10.6764
▁causes	-10.6764
▁formidable	-10.6766
▁គួរបញ្ជាក់ដែរថា	-10.6766
ដើម្បីពង្រឹង	-10.6769
▁underscored	-10.6769
▁districts	-10.6772
បន្ថែមថា	-10.6773
▁window	-10.6776
មិនទាន់មាន	-10.6777
▁decade	-10.6779
ដូង	-10.6779
ស្ថិរភាពម៉ាក្រូ	-10.678
▁supplies	-10.6781
▁priorities	-10.6782
្ត	-10.6783
ឧបត្ថម្ភ	-10.6789
របស់អតិថិជន	-10.6793
ចំណាយពេល	-10.6794
▁3-	-10.6794
▁contributions	-10.6795
▁worker	-10.6795
▁universities	-10.6797
គ្រឿងស្រវឹង	-10.6797
ប៉ះពាល់បរិស្ថាន	-10.68
▁ក្របខ័ណ្ឌ	-10.6805
citing	-10.6806
▁founder	-10.6808
ដែលទទួលបាន	-10.6809
▁certification	-10.6809
rought	-10.6811
▁false	-10.6812
▁instead	-10.6812
▁bequeathed	-10.6813
ism	-10.6825
▁verdant	-10.6828
▁objectives	-10.683
ជាមួយក្រុមហ៊ុន	-10.683
▁augment	-10.6832
▁transparent	-10.6833
សាលាដំបូង	-10.6834
ប៉ា	-10.6835
▁spaces	-10.6841
ដ៏សម្បូរបែប	-10.6842
កងរាជអាវុធហត្ថ	-10.6843
▁prioritizing	-10.6843
ទុក្ខ	-10.6843
▁សហការជាមួយ	-10.6843
▁discussion	-10.6843
▁ព្រះករុណា	-10.6845
▁អេ	-10.6845
ជ័យ	-10.6845
▁សំ	-10.685
ល់	-10.685
▁មានន័យថា	-10.685
ផលិតភាព	-10.6851
សម្ដែង	-10.6851
▁Be	-10.6854
សណ្ដាប់ធ្នាប់	-10.6857
▁relief	-10.6857
▁verdict	-10.6858
▁dropped	-10.6859
បានជាង	-10.6862
▁off	-10.6862
សាន	-10.6864
▁ៗ	-10.6865
▁10,	-10.6866
រូបិយប័ណ្ណ	-10.6869
គិតគូរ	-10.6869
In	-10.6871
សំណើ	-10.6872
ដ៏ល្អ	-10.6872
▁discovered	-10.6873
២៣	-10.6877
បង្កើនផលិតភាព	-10.6877
▁inspire	-10.6879
ការការពារ	-10.688
កម្ពុជាប្តេជ្ញា	-10.6885
អាចទទួលបាន	-10.6886
ណូ	-10.6887
បំណុលសាធារណៈ	-10.6887
ពិភពលោក។	-10.6888
ac	-10.689
▁ដើម្បីទទួលបាន	-10.689
▁crashed	-10.6894
▁សុវណ្ណ	-10.6894
▁steadfast	-10.6895
▁ខ្ពស់	-10.6897
▁showcase	-10.6899
ឆ្នាំចុងក្រោយនេះ	-10.6899
យូរ	-10.6899
ay	-10.6899
ទោស	-10.6903
▁ដើម្បីទប់ស្កាត់	-10.6904
សៀមរាប	-10.6906
ara	-10.6906
បក្សសង្គ្រោះជាតិ	-10.6912
ផ្តល់ជូន	-10.6914
▁លោកជំទាវបណ្ឌិត	-10.6916
៨០	-10.6916
▁រូប៖	-10.6917
វិទ្យុអាស៊ីសេរី	-10.6921
▁customs	-10.6922
▁ពៅ	-10.6922
▁Chhun	-10.6922
មហាជន	-10.6922
▁everyone	-10.6923
បានកន្លងផុតទៅ	-10.6929
រាជរដ្ឋាភិបាលបាន	-10.693
▁ការអប់រំ	-10.693
រងគ្រោះ	-10.6931
by	-10.6933
សម័យ	-10.6938
រដូវកាល	-10.6939
▁6,	-10.6939
▁expedite	-10.6942
▁គឺត្រូវ	-10.6944
▁enforced	-10.6944
យឺតៗ	-10.6945
▁petition	-10.6947
▁ម៉	-10.6947
បកស្រាយ	-10.6949
បួន	-10.695
ស្មើនឹង	-10.6951
របស់គណបក្ស	-10.6951
តម្លាភាព	-10.6953
ហាក់	-10.6954
ក្នុងកម្មវិធី	-10.6954
បន្ទាប់	-10.6955
បញ្ចប់ការសិក្សា	-10.6956
អ៊ីនធឺណិត	-10.6959
▁adopted	-10.6962
▁និងគ្រប់គ្រង	-10.6964
គណៈប្រតិភូ	-10.6964
សហការគ្នា	-10.6964
▁purity	-10.6967
ព្រឹទ្ធបណ្ឌិត	-10.6967
▁ញ	-10.6968
▁បា	-10.6968
ការទូទាត់	-10.697
▁mixed	-10.6974
▁beliefs	-10.6974
▁ចំណេះដឹង	-10.698
នៅថ្ងៃ	-10.6981
អនុវត្តតាម	-10.6981
▁remarkable	-10.6983
▁VII	-10.6983
▁មិថុនា	-10.6985
▁ខេត្តសៀមរាប	-10.6988
▁STEM	-10.6988
UN	-10.6988
▁writing	-10.6989
▁ប៉ែន	-10.6989
ទំនាក់ទំនងការទូត	-10.699
មូលដ្ឋានគ្រឹះ	-10.6991
ru	-10.6992
ដោយឥតគិតថ្លៃ	-10.6992
nother	-10.6994
សង្ឃឹមថា	-10.6994
pe	-10.6995
សម្ពាធ	-10.6996
▁app	-10.6998
▁EV	-10.6999
របស់សម្តេចតេជោ	-10.7
បន្ទុក	-10.7004
▁elevate	-10.7006
▁prioritized	-10.7008
បាននិយាយថា	-10.7009
▁guide	-10.7009
នឹងត្រូវបាន	-10.7009
ហ្វីលីពីន	-10.701
មានទំហំ	-10.7011
ចំណាត់ថ្នាក់	-10.7014
ថា៖	-10.7014
សវនាការ	-10.7018
រះ	-10.7019
ប៉ះ	-10.702
▁ទីតាំង	-10.7021
▁forever	-10.7025
ហេតុផល	-10.7025
▁Kra	-10.7027
▁location	-10.7029
▁evolving	-10.7031
▁Strategic	-10.7035
ល្ងាច	-10.704
▁ចាប់ផ្ដើម	-10.7041
▁flights	-10.7043
▁stipulate	-10.7044
ច្រក	-10.7047
au	-10.7047
▁message	-10.7048
ការរីករាលដាលនៃ	-10.7048
បានដើរតួនាទីយ៉ាង	-10.7048
▁និងការពារ	-10.7051
▁8,	-10.7052
គោលនយោបាយកសិកម្ម	-10.7052
▁ស្ពាន	-10.7054
▁អតិថិជន	-10.7057
ទុនវិនិយោគ	-10.7058
▁material	-10.7059
ល្បីៗ	-10.7061
សាស្ត្រ	-10.7061
▁facilitating	-10.7062
po	-10.7064
តាមនីតិវិធី	-10.7064
ការដឹកជញ្ជូន	-10.7065
ឆេះ	-10.7066
កិច្ចសហប្រតិបត្ត	-10.7066
▁Tea	-10.7067
ពិធី	-10.7068
ពាក់ព័ន្ធ។	-10.7076
ប្រសិនបើ	-10.7077
ក្លែងក្លាយ	-10.7078
គ្រា	-10.7079
▁bustling	-10.708
នៅការិយាល័យ	-10.7081
IP	-10.7082
▁ensures	-10.7082
ែប្រួលអាកាសធាតុ	-10.7085
31	-10.7088
22	-10.7088
▁ដោយបាន	-10.709
វិទ្យាល័យ	-10.709
▁director	-10.7091
របស់ប្រជាជនខ្មែរ	-10.7092
▁Philippines	-10.7095
▁២៦	-10.7096
ធនាគារពិភពលោក	-10.71
ការដាំដុះ	-10.7102
▁stand	-10.7104
ឆ្នាំ២០២៥	-10.7107
បារម្ភពី	-10.711
▁scheduled	-10.7111
មួយ។	-10.7112
បាត	-10.7113
▁និងពង្រីក	-10.7116
ip	-10.7118
▁ក្នុងអំឡុងពេល	-10.7119
▁CGCC	-10.712
ឆ្នាំ២០២០	-10.712
ភ្ញាក់ផ្អើល	-10.712
ទម្លាក់	-10.7122
▁កសិកម្ម	-10.7122
▁passport	-10.7125
▁darkness	-10.7126
▁spent	-10.7126
បានក្លាយជា	-10.7129
▁closed	-10.7133
ការព្យាករណ៍	-10.7134
▁conflicts	-10.7136
▁jointly	-10.7137
Vietnam	-10.7139
▁practical	-10.7141
▁reputation	-10.7141
សហគ្រិនភាព	-10.7143
▁driver	-10.7143
នៅចំពោះមុខ	-10.7143
ទាញ	-10.7146
▁ព្រះរាជអាជ្ញា	-10.7147
▁Applications	-10.7149
ខេត្តតាកែវ	-10.7149
ភាពរឹងមាំ	-10.7154
តែងតាំង	-10.7154
ស្វាយ	-10.7155
▁coconut	-10.7157
០៤	-10.7157
▁internationally	-10.716
▁រួមមាន៖	-10.7161
▁7,	-10.7162
▁$6	-10.7164
▁បានអញ្ជើញ	-10.7165
▁vegetable	-10.7165
▁performance	-10.7168
▁storage	-10.7173
▁ធំ	-10.7173
ure	-10.7175
ជាសកល	-10.7179
▁predict	-10.7182
ប្រទេសថៃ	-10.7182
មានសុវត្ថិភាព	-10.7187
ខុសពី	-10.7188
▁ប្រសើរ	-10.7189
▁ភា	-10.7189
▁victory	-10.7189
▁imbu	-10.7189
បន្ទាន់	-10.7189
យ៉ាងល្អិតល្អន់	-10.719
,500	-10.719
▁និងសេវាកម្ម	-10.719
min	-10.7191
ដាំដំណាំ	-10.7196
បញ្ហានេះ	-10.72
ខែធ្នូ	-10.72
▁Signature	-10.7205
▁mangoes	-10.7207
▁និងសង្គម	-10.7207
ឧ	-10.7208
ឯកអគ្គរដ្ឋទូត	-10.7211
យ៉ាងសំខាន់	-10.7212
ពួក	-10.7213
សម្	-10.7215
▁named	-10.7215
ប្រកាសឱ្យប្រើ	-10.7215
▁Chuon	-10.7215
▁detain	-10.7216
▁ឈ្មោះ	-10.7216
២២	-10.7219
▁Ho	-10.7221
នំ	-10.7222
នេះមានគោលបំណង	-10.7225
ក្នុងការកសាង	-10.7227
បានធ្វើ	-10.7227
អី	-10.7228
▁cards	-10.723
សេចក្តីសម្រេច	-10.723
ខ្លាច	-10.7234
▁ជំងឺ	-10.7236
▁hospital	-10.7237
▁Export	-10.7237
នេះថា	-10.7238
វិស័យមីក្រូ	-10.7238
▁greater	-10.724
▁here	-10.7241
▁Banking	-10.7244
▁pond	-10.7245
▁agro	-10.7246
▁instructed	-10.7249
▁ជាមួយនឹងការ	-10.7252
បណ្ណាល័យ	-10.7253
▁summit	-10.7253
ទិស	-10.7258
▁មានភារកិច្ច	-10.7258
▁និងអភិវឌ្ឍ	-10.726
▁សេចក្ដី	-10.7262
▁កំណត់	-10.7263
▁ផុត	-10.7264
▁repair	-10.7265
▁ឆ្នាំ២០២៤។	-10.7265
ូ	-10.7266
ចុងក្រោយនេះ	-10.7268
IC	-10.7269
▁gaze	-10.7269
▁victim	-10.727
▁ច័ន្ទ	-10.7271
▁urgent	-10.7275
▁70	-10.7278
▁កម្ពស់	-10.728
▁timeless	-10.7282
▁farmer	-10.7289
lecommunications	-10.729
▁negotiations	-10.7291
យក្ស	-10.7291
ប្រពន្ធ	-10.7293
▁questions	-10.7298
ណាស់សម្រាប់	-10.73
▁craving	-10.7302
នៅថ្ងៃទី	-10.7306
US	-10.7308
ស្ថានទូត	-10.7308
បណ្ដោះអាសន្ន	-10.7311
សម្ភារ	-10.7312
▁បញ្ចប់	-10.7314
ងាយ	-10.7315
▁តែង	-10.7317
កំពុងដំណើរការ	-10.7324
▁មុនពេល	-10.733
ព្រះអង្គម្ចាស់	-10.7334
▁Maintain	-10.7334
▁Securities	-10.7334
▁carved	-10.7334
ឆ្លើយតបនឹង	-10.7334
ប័ណ្ណ	-10.7334
ជនពិការ	-10.7339
ai	-10.734
កាន់តែទូលំទូលាយ	-10.7342
▁declined	-10.7343
ហាមឃាត់	-10.7345
▁flooding	-10.7345
▁patience	-10.735
end	-10.735
ត្រឹមត្រូវ។	-10.7351
▁available	-10.7351
▁strongly	-10.7353
អ្នកទិញ	-10.7353
▁selection	-10.7353
▁គ្រូបង្រៀន	-10.7354
សប្បាយរីករាយ	-10.7355
រដ្ឋបាលសាធារណៈ	-10.7361
ថ្កោលទោស	-10.7363
▁threaten	-10.7364
▁losing	-10.7366
សូត្រ	-10.7366
ម្នាក់ៗ	-10.7367
▁Farmers	-10.7368
▁cashew	-10.7368
នៅលើពិភពលោក	-10.7368
នៅប្រទេស	-10.7369
CC	-10.737
▁សុវត្ថិភាព	-10.7371
▁និងប្រសិទ្ធភាព	-10.7375
▁space	-10.7376
▁ជាលទ្ធផល	-10.7377
រួមមាន៖	-10.7383
▁images	-10.7384
រំលឹក	-10.7386
▁Ang	-10.7387
▁dis	-10.7387
ទទួលបានការគាំទ្រ	-10.7387
ទាញយកសំឡេង	-10.7387
▁excessive	-10.7389
របស់ប្រជារាស្ត្រ	-10.7392
របស់រដ្ឋ	-10.7392
▁31,	-10.7393
ក្រមសីលធម៌	-10.7393
▁continuing	-10.7399
▁taste	-10.7402
ភី	-10.7404
▁travelers	-10.7405
▁fierce	-10.7406
▁ត្រូវតែអនុវត្ត	-10.741
ជួយឱ្យ	-10.7412
▁white	-10.7413
ដែនដី	-10.7415
ប៊ី	-10.7418
ច្រៀង	-10.7419
ស្បៀងអាហារ	-10.7419
▁ដែលត្រូវ	-10.7422
ig	-10.7424
ផ្សេងៗគ្នា	-10.7427
ស្ថាន	-10.743
លើពិភពលោក	-10.7431
▁២៧	-10.7432
បើកកិច្ចប្រជុំ	-10.7432
ស្រ	-10.7435
ជាមួយបណ្តាប្រទេស	-10.7437
អភិបាលកិច្ចល្អ	-10.7439
ប្រាក់កម្ចី	-10.7441
▁extended	-10.7442
▁និងកិច្ច	-10.7442
▁01	-10.7443
នៅមិនទាន់	-10.7446
ឧប	-10.7446
អ៊ីស្រាអែល	-10.7448
▁involves	-10.7448
▁បុរស	-10.7448
▁ណារ៉ុន	-10.7448
▁enforce	-10.7448
line	-10.7452
▁Political	-10.7459
▁desires	-10.7459
▁Local	-10.7459
ទីក្រុងឆ្លាតវៃ	-10.7461
អេ	-10.7461
▁saving	-10.7466
▁reality	-10.7467
▁investigating	-10.7476
រវាងកម្ពុជា	-10.7478
▁devotion	-10.7481
▁showcasing	-10.7481
ជំ	-10.7482
▁ម៉ា	-10.7482
ថ្នាក់ក្រោមជាតិ	-10.7486
២៩	-10.7487
តម្រូវ	-10.7488
ស្ថានីយ	-10.7488
▁flowed	-10.7489
ថ្នាល	-10.7489
▁23,	-10.7491
▁enjoy	-10.7492
▁eco	-10.7493
Simultaneously	-10.7497
▁pepper	-10.7497
▁lush	-10.7497
ប្រចាំខែ	-10.7498
▁protocol	-10.75
▁offense	-10.75
▁dedicated	-10.75
ចេក	-10.7503
▁Award	-10.7508
▁និងសេដ្ឋកិច្ច	-10.751
son	-10.7512
▁witness	-10.7512
▁Thong	-10.7515
▁សិរី	-10.7516
▁ពួក	-10.7517
សាមញ្ញ	-10.7519
▁stems	-10.752
ជាមុន	-10.7523
ating	-10.7524
ចាត់ទុក	-10.7526
កម្ពុជាក្រោម	-10.7527
ក្រសួងយុត្តិធម៌	-10.7528
▁speeding	-10.7528
▁cassava	-10.753
▁prosperous	-10.753
នាពេលនេះ	-10.7533
45	-10.7536
ៃ	-10.7541
▁tell	-10.7543
ដទៃ	-10.7546
▁illegally	-10.7546
▁symphony	-10.7547
▁closely	-10.7551
kka	-10.7554
▁outbreaks	-10.7555
ស្ថិតនៅក្រោម	-10.7555
ចូលទៅ	-10.7559
ហូរ	-10.7562
▁aroma	-10.7563
▁001	-10.7565
នឹងមិន	-10.7567
ចូលឆ្នាំថ្មី	-10.757
▁9,	-10.757
▁Family	-10.7571
▁Man	-10.7575
▁ក្រសួងបរិស្ថាន	-10.7576
▁numbers	-10.7578
▁con	-10.758
យឺត	-10.758
ឧក្រិដ្ឋកម្ម	-10.7581
បានធ្វើការ	-10.7582
▁២៨	-10.7583
▁father	-10.7585
មតិ	-10.7587
▁ខេត្តព្រះសីហនុ	-10.7588
ក្រោយពេល	-10.7589
បែក	-10.759
ធម្មជាតិ។	-10.7592
▁select	-10.7593
អភិវឌ្ឍន៍ហេដ្ឋា	-10.7593
សាធារណរដ្ឋកូរ៉េ	-10.7594
ម្ដាយ	-10.7595
▁និងភូតគាមអនាម័យ	-10.7597
▁athletes	-10.7597
រៀបចំការបោះឆ្នោត	-10.7599
កីឡាករ	-10.76
បុណ្យ	-10.7601
▁Young	-10.7604
ភ	-10.7608
មនុស្សធម៌	-10.7609
06	-10.761
▁លឹម	-10.7612
▁400	-10.7612
www	-10.7613
▁perseverance	-10.7613
▁គួរឲ្យដឹងដែរថា	-10.7613
▁ដារ៉ា	-10.7614
ខេមរភូមិន្ទ។	-10.7616
▁tools	-10.7616
▁Once	-10.7616
▁Naron	-10.762
ប្រតិភូ	-10.7621
▁Yu	-10.7621
▁diligently	-10.7621
ប្រើប្រាស់ដីធ្លី	-10.7622
▁America	-10.7622
▁Lao	-10.7623
សក្ដានុពល	-10.7625
ផ្សារទំនើប	-10.7626
ភេសជ្ជៈ	-10.7628
▁បទ	-10.7628
▁Tbo	-10.7628
កាកបាទក្រហម	-10.7629
▁Applicant	-10.763
ស្ងួត	-10.763
▁eye	-10.7637
▁works	-10.7637
មធ្យមសិក្សា	-10.7637
ទូត	-10.7639
▁និងអនុវត្ត	-10.7641
▁និងពង្រឹង	-10.7642
▁securities	-10.7647
▁Mother	-10.7647
បង្	-10.7648
▁បន្ទាប់	-10.7648
▁profit	-10.7649
▁មានប្រសាសន៍	-10.765
▁destination	-10.7651
▁rainy	-10.7653
▁oneself	-10.7665
សម្តែងការគួរសម	-10.767
▁rare	-10.767
▁Sin	-10.7671
▁ភាគរយនៃ	-10.7671
ណាដែល	-10.7671
mandate	-10.7675
លាយ	-10.7676
▁overseas	-10.768
▁ownership	-10.7684
▁ប្រាសាទ	-10.7684
▁subsequent	-10.7687
▁rely	-10.7687
សម្ពោធ	-10.769
ផ្តល់សេវា	-10.769
កន្លងមកនេះ	-10.7692
value	-10.7694
▁31	-10.7695
អ្នកដឹកនាំ	-10.7697
▁denies	-10.7697
08	-10.7698
▁go	-10.7698
ផង។	-10.7699
▁ក្រសួងយុត្តិធម៌	-10.7701
លូតលាស់	-10.7705
▁គោលដៅ	-10.7706
មិនត្រូវ	-10.7707
▁(2	-10.7708
ការពារជាតិ។	-10.7708
▁ទៀ	-10.771
▁prudent	-10.7712
▁things	-10.7715
▁shadow	-10.7718
▁adapt	-10.7719
ដែលគេ	-10.772
▁hardships	-10.7726
បានបង្ហាញ	-10.7729
▁fragrance	-10.7731
ever	-10.7731
▁Service	-10.7735
▁effort	-10.7735
▁sand	-10.7736
ផែនទី	-10.7736
អត្ថបទ	-10.7737
▁photos	-10.7743
▁discover	-10.7744
កាលពីថ្ងៃទី	-10.7746
▁returning	-10.7746
▁ស្វែងរក	-10.7746
ប្តឹង	-10.7746
មិនគួរ	-10.7747
▁Total	-10.7748
▁workforce	-10.7748
▁itself	-10.775
បំពាក់	-10.775
វ៉ា	-10.7751
គីឡូ	-10.7753
យើងមាន	-10.7754
▁architectural	-10.7766
ហ្វឹកហាត់	-10.777
▁ឆ្លងកាត់	-10.777
▁គឺចាំបាច់ដើម្បី	-10.7771
ប្រសិទ្ធភាពនៃ	-10.7771
គីឡូម៉ែត្រ	-10.7773
សូមថ្លែងអំណរគុណ	-10.7773
▁ancestr	-10.7774
▁និងអង្គការ	-10.7775
▁ការពារ	-10.7775
សកល។	-10.7777
ផ្ដោតលើ	-10.7777
▁entering	-10.7781
▁Hall	-10.7785
លើគ្រប់វិស័យ	-10.779
▁Meas	-10.7792
▁inspect	-10.7793
ចៅក្រម	-10.7794
▁Pa	-10.7794
ដៃគូអភិវឌ្ឍន៍	-10.7796
▁feed	-10.78
ខាងត្បូង	-10.7803
▁immediate	-10.7805
▁ប្រៀប	-10.7807
តារា	-10.7807
វិនិយោគនៅកម្ពុជា	-10.7807
អតីតយុទ្ធជន	-10.7809
មិនមែនជា	-10.7812
▁weight	-10.7814
88	-10.7814
▁difficulties	-10.7816
បញ្ជី	-10.7817
▁artists	-10.7818
សីលធម៌	-10.7819
▁គឺការ	-10.782
▁hundreds	-10.7822
0,000	-10.7823
▁harvest	-10.7826
▁star	-10.7827
▁uses	-10.783
សួន	-10.7832
ទ្រព្យ	-10.7833
▁determination	-10.7833
ll	-10.7834
រកឃើញថា	-10.7838
▁3)	-10.7838
▁ឯង	-10.7839
ដែលធ្លាប់	-10.7843
ចប់	-10.7844
▁fourth	-10.7844
ba	-10.7845
ព្រះពុទ្ធសាសនា	-10.7847
▁command	-10.7847
▁wealth	-10.7849
ពូកែ	-10.7849
ស្ដាប់	-10.7849
▁ជាដើម។	-10.785
រងរបួស	-10.7853
▁effect	-10.7856
ប្លាស្ទិក	-10.7856
▁NBC	-10.7857
ដោយក្រុមហ៊ុន	-10.7861
ស្វែងយល់	-10.7862
▁stones	-10.7865
CA	-10.7866
▁together	-10.7867
▁Pech	-10.7868
៕អត្ថបទ៖	-10.7868
▁ទិញ	-10.7869
▁noting	-10.7869
ឡ	-10.787
▁delivered	-10.7871
ដ៏ឧត្តុង្គឧត្តម	-10.7871
▁problem	-10.7872
ស្ថាបនា	-10.7873
បឋម	-10.7875
ទុនវិនិយោគប្រមាណ	-10.7876
▁អូន	-10.7877
តម្លៃប្រេង	-10.7878
ចម្បង	-10.7881
ប្រសិទ្ធភាពខ្ពស់	-10.7883
របស់គេ	-10.7884
03	-10.7887
▁mighty	-10.7888
and	-10.789
▁note	-10.789
នៅក្នុងស្រុក	-10.7891
ដល់អ្នក	-10.7891
បន្ដ	-10.7892
▁ក្នុងនោះមាន	-10.7894
▁និងការវិនិយោគ	-10.7896
tial	-10.7897
▁រស់	-10.7897
ាណាចក្រ។	-10.7897
នាំយក	-10.7899
▁packaging	-10.7901
▁formulation	-10.7901
▁affix	-10.7901
▁outlined	-10.7901
ស្ទើរតែ	-10.7905
តម្រូវឱ្យមាន	-10.7907
▁keep	-10.7908
គុណ	-10.7908
▁ការចុះបញ្ជី	-10.7909
▁បណ្តាលឲ្យ	-10.7911
▁Meng	-10.7913
▁Le	-10.7913
▁22,	-10.7914
ផ្លូវច្បាប់	-10.7917
ខួប	-10.7918
▁commence	-10.7919
▁Khuon	-10.7919
ប្រកាន់ខ្ជាប់	-10.7922
ការច្នៃប្រឌិត	-10.7926
▁sale	-10.7926
04	-10.7929
ទ្រង់ទ្រាយធំ	-10.793
កែ	-10.7936
▁emotions	-10.7943
ការពារបរិស្ថាន	-10.7945
▁នាយឧត្តមសេនីយ៍	-10.7945
មេឃុំ	-10.7946
▁Border	-10.7947
ហ៊ាន	-10.7948
៤៥	-10.7948
▁spend	-10.7949
បានធ្វើឲ្យ	-10.795
▁stock	-10.795
▁រដ្ឋា	-10.7951
បានឃើញ	-10.7951
CS	-10.7953
▁begins	-10.7955
▁amendments	-10.7959
គំរាម	-10.7964
▁f	-10.7965
▁រក្សា	-10.7966
▁inform	-10.7966
មានជម្លោះដីធ្លី	-10.7969
យ៉ាងហ្មត់ចត់	-10.7971
របស់ក្រុម	-10.7971
ការគិត	-10.7971
ពលករខ្មែរ	-10.7974
▁Resources	-10.7976
ដើម្បីឱ្យ	-10.7977
▁inspection	-10.7977
PA	-10.7979
ែល	-10.798
ប៊	-10.7981
សក់	-10.7984
▁មេត្តា	-10.7985
▁models	-10.7988
ប្រើប្រាស់កម្ចី	-10.7992
ត្រូវធ្វើឡើង	-10.7993
▁Don	-10.7996
▁guardians	-10.7996
solving	-10.7998
អូរ	-10.7999
▁precious	-10.8005
▁Media	-10.8005
▁លទ្ធផល	-10.8005
▁lacking	-10.8007
▁សិល្បៈ	-10.8008
▁gained	-10.8008
ហើយ។	-10.8013
ផ្កាយ	-10.8015
tra	-10.8019
▁មន្រ្តី	-10.8021
របស់វា។	-10.8021
ប្ដូរ	-10.8021
ផលិតផលខ្មែរ	-10.8023
ខេត្តកែប	-10.8025
▁Due	-10.8028
▁ហង់ជួ	-10.8028
bar	-10.8031
ចំនួនពីរ	-10.8032
ions	-10.8033
▁ពិតប្រាកដ	-10.8034
▁ថ្នាក់	-10.8036
ជោគវាសនា	-10.8037
▁នី	-10.8038
មរណភាព	-10.8039
ទៅវិញទៅមក	-10.804
▁Non	-10.804
▁($	-10.804
▁thoughts	-10.804
▁earning	-10.8041
07	-10.8042
▁wages	-10.8042
បារម្ភ	-10.8043
▁ខេត្តកំពង់ស្ពឺ	-10.8046
ចំណងមិត្តភាព	-10.8047
សំណល់	-10.8048
Ukraine	-10.8048
▁ផ្កាឈូក	-10.8049
▁និងមិន	-10.8052
▁check	-10.8054
be	-10.8056
▁ព័ត៌មាន	-10.8056
▁declared	-10.8059
▁ឆ្នាំ២០២៣។	-10.8059
ឆ	-10.8061
▁code	-10.8062
▁shift	-10.8063
សម្រាប់ការនាំចេញ	-10.8064
▁100%	-10.8065
▁VOD	-10.8065
▁ខណ្ឌ	-10.8068
▁offered	-10.8069
▁killing	-10.8073
យ៉ាងជិតស្និទ្ធ	-10.8075
▁Sangkat	-10.8078
ត្រា	-10.8087
gone	-10.8094
ស្រលាញ់	-10.8094
▁Tax	-10.8096
▁insights	-10.8097
▁ក្នុងករណី	-10.81
សេវាសាធារណៈ	-10.8101
▁ថ្លែង	-10.8108
▁weaving	-10.8109
▁radiant	-10.8109
▁Tuol	-10.8109
▁ភាគ	-10.811
▁ពិចារណា	-10.811
ខណៈ	-10.8111
▁ជិត	-10.8114
គីឡូក្រាម	-10.8114
នៅមុខ	-10.8114
▁Students	-10.8118
ប្រវែង	-10.812
NA	-10.8121
ថែទាំសុខភាព	-10.8121
ស្បៀង	-10.8126
▁minimal	-10.8127
ភាពជាអ្នកដឹកនាំ	-10.8129
ដំណឹង	-10.8135
អភិវឌ្ឍន៍ទីក្រុង	-10.8136
វិទ្យា	-10.8136
រួមចំណែក	-10.8137
▁earned	-10.8137
ប៉	-10.8141
អាមេរិក។	-10.8144
▁sought	-10.8144
▁detect	-10.8144
▁recommendations	-10.8146
▁Chey	-10.8146
ម៉ាក	-10.8149
ហៅថា	-10.8149
▁matters	-10.8149
នៅពេលនេះ	-10.815
ឱ្យប្រើប្រាស់។	-10.8151
▁និងបន្ត	-10.8151
▁អាស៊ាន	-10.8151
ទីផ្សារអន្តរជាតិ	-10.8153
marked	-10.8155
ជ័យជម្នះ	-10.8156
▁too	-10.8157
▁សុំ	-10.816
រហ័ស	-10.8161
ម្តង	-10.8161
▁ក្រោមប្រធានបទ	-10.8161
ទេវតា	-10.8162
▁recoveries	-10.8162
ative	-10.8166
ដូ	-10.8167
▁reaffirms	-10.8167
▁Gen	-10.8167
▁អ្នកគ្រូ	-10.8169
នៅសហរដ្ឋអាមេរិក	-10.8171
▁14,	-10.8171
រំដោះ	-10.8171
ទេពកោសល្យ	-10.8174
មនុស្សម្នាក់	-10.8174
▁Donald	-10.8175
ទឹកឃ្មុំ	-10.8177
▁Per	-10.8178
▁៥០០	-10.8178
▁chirping	-10.8179
▁stimulate	-10.8179
▁សម្រាប់ការ	-10.8182
នៃការយោគយល់គ្នា	-10.8183
ប្រាជ្ញា	-10.8185
គំនូរ	-10.8186
កាន់តែប្រសើរ	-10.8191
សំណង	-10.8192
▁might	-10.8193
▁lawmakers	-10.8194
▁summons	-10.8195
▁operation	-10.8205
ប្រែប្រួល	-10.8208
▁អង្ករ	-10.8209
ចូលឆ្នាំខ្មែរ	-10.821
ear	-10.821
ot	-10.8211
ចន្លោះ	-10.8212
តួ	-10.8215
eneath	-10.8215
▁12,	-10.8216
ប្រទេសជិតខាង	-10.8216
ព្រះនាង	-10.8218
▁ដូចនេះ	-10.8219
ទុនបម្រុង	-10.822
ka	-10.8225
ner	-10.8228
អាង	-10.8228
គ្រួសារក្រីក្រ	-10.8229
▁ហ	-10.8232
▁House	-10.8233
▁Ko	-10.8233
of	-10.8237
បានរកឃើញ	-10.8238
អ្នកភូមិ	-10.8239
សុខ	-10.8239
ស្សី	-10.8241
ត្រូវធ្វើ	-10.8244
▁ក្រោមការដឹកនាំ	-10.8245
បុរសម្នាក់	-10.8247
កោះហៅ	-10.8249
ប្រមូលផល	-10.825
ត្រូវបានប្រារព្ធ	-10.825
ភាពច្នៃប្រឌិត	-10.825
▁expectations	-10.825
▁Observers	-10.825
▁Saudi	-10.8251
▁prolonged	-10.8252
ធ្វើវិសោធនកម្ម	-10.8252
▁degrees	-10.8253
▁យុវតី	-10.8254
▁Engineering	-10.8254
ការបណ្ដុះបណ្ដាល	-10.8254
រាប់ពាន់	-10.8256
▁bond	-10.826
▁lived	-10.826
▁pro	-10.826
▁method	-10.8262
▁associations	-10.8263
របស់ធនាគារ	-10.8265
ធម្មនុញ្ញ	-10.8267
▁មើលរូបភាពបន្ថែម	-10.8268
▁Taxation	-10.8269
រឿងនិទាន	-10.8271
ថាជា	-10.8279
▁និងពាណិជ្ជកម្ម	-10.8279
ការរៀបចំផែនការ	-10.8284
ពន្យារពេល	-10.8284
ទទួលបាននូវ	-10.8285
▁Buddha	-10.8286
▁លំនៅឋាន	-10.8286
▁mindfulness	-10.8286
ដកហូត	-10.8286
▁logging	-10.8286
▁upper	-10.8287
▁secondary	-10.8292
▁កន្លងទៅ	-10.8292
បន្តពង្រឹងកិច្ច	-10.8293
ts	-10.8295
▁disasters	-10.8295
▁girl	-10.8295
មានតែ	-10.8296
អភិបាលកិច្ច	-10.83
ការកសាង	-10.83
though	-10.8301
ការរៀន	-10.8303
▁declining	-10.8304
▁sentenced	-10.8307
▁bloomed	-10.8307
ួរ	-10.8308
▁constant	-10.8311
ច្បាប់ចម្លង	-10.8314
នាំមកនូវ	-10.8316
▁craft	-10.8316
កាសែត	-10.8317
ចំណេះដឹងផ្នែក	-10.8318
▁ធ្វើឡើង	-10.8318
ធាតុ	-10.8318
▁ម៉ែត្រ	-10.8321
▁biodiversity	-10.8322
▁Foundation	-10.8322
▁និងជំនាញ	-10.8322
▁Si	-10.8323
ប្រារព្ធ	-10.8325
ចក្រភពអង់គ្លេស	-10.8325
▁kilograms	-10.8327
ផ្លែឈើ	-10.833
▁train	-10.8331
▁primar	-10.8336
ខ្សែសង្វាក់តម្លៃ	-10.8339
ការកែច្នៃ	-10.8339
▁sanitary	-10.834
kindness	-10.834
▁range	-10.8342
ដឹកនាំគណៈប្រតិភូ	-10.8343
▁delivery	-10.8345
▁operate	-10.8345
អំពាវនាវ	-10.8348
▁កម្ពុជាមាន	-10.8353
ki	-10.8354
▁មាត្រា	-10.8355
ពោរពេញទៅដោយ	-10.8356
▁suspected	-10.836
▁ដីធ្លី	-10.836
ថយចុះ	-10.8363
ដោយការ	-10.8364
▁រួមជាមួយនឹង	-10.8365
▁parliamentary	-10.8366
▁Clean	-10.8367
ចាំបាច់ត្រូវ	-10.8368
over	-10.837
បញ្ឈប់ការ	-10.8371
នៅប្រទេសកម្ពុជា	-10.8373
▁institutional	-10.8375
▁readiness	-10.8376
▁Google	-10.8376
▁condemn	-10.8376
▁ការនាំចេញ	-10.8378
២០២៥	-10.8378
មេគង្គ	-10.8381
ខ្ពស់ជាង	-10.8382
▁11,	-10.8382
▁Workers	-10.8384
▁chemical	-10.8386
លើកទី២	-10.8387
សុទ្ធតែ	-10.8387
ជួបជុំ	-10.8388
▁Ti	-10.8389
ត្រង់	-10.839
ក្រុមហ៊ុនចិន	-10.8391
ដល់យុវជន	-10.8391
ធ្វើយ៉ាងណា	-10.8392
ដល់ការ	-10.8392
ម៉ាក្រូ	-10.8393
▁paid	-10.8394
▁faint	-10.8396
១០០	-10.8397
way	-10.8399
ទូទាំងប្រទេស។	-10.8399
▁លះបង់	-10.84
ពីចម្ងាយ	-10.8402
ប្រឡងបាក់ឌុប	-10.8403
myr	-10.8403
ពិពិធកម្ម	-10.8404
ស្មៅ	-10.8406
ដល់ពលរដ្ឋ	-10.8407
បោះឆ្នោតជ្រើសរើស	-10.8408
លោកជំទាវ	-10.8409
▁generating	-10.841
ផ្សារភ្ជាប់	-10.841
dy	-10.8412
ឆ្នេរ	-10.8412
▁ដើម្បីដោះស្រាយ	-10.8413
▁ស្តីពីការ	-10.8415
▁integrated	-10.8415
លើទីផ្សារ	-10.8418
▁Today	-10.8418
ងាកមក	-10.8422
ឲ្យមាន	-10.8425
▁ដើម្បីចូលរួម	-10.8426
ពុំមាន	-10.8428
▁operating	-10.843
▁palace	-10.843
9%	-10.8431
មានអ្នក	-10.8433
▁ទន្ទឹមនេះ	-10.8434
orn	-10.8434
▁មេធាវី	-10.8439
ោ	-10.8439
អាវ	-10.8439
បានចូលរួម	-10.844
▁pain	-10.844
្រសួងពាណិជ្ជកម្ម	-10.8441
ពិតប្រាកដ។	-10.8442
▁meets	-10.8442
ទូទាំងព្រះរាជ	-10.8447
▁វង្ស	-10.8448
រាង	-10.8448
ក្រសួងព័ត៌មាន	-10.8448
su	-10.845
យ៉ាងម៉ឺងម៉ាត់។	-10.845
មានបំណង	-10.8453
បោះ	-10.8454
ការធ្លាក់ចុះ	-10.8455
▁Ro	-10.8455
មន្ត្រីជំនាញ	-10.8456
អត្ថន័យ	-10.8456
▁West	-10.8457
ប្រេងឥន្ធនៈ	-10.8459
ធ្វើពិពិធកម្ម	-10.8464
ប្រមូលផ្តុំ	-10.8465
▁Pailin	-10.8466
▁promulgation	-10.8466
តុ	-10.8467
មានភាពងាយស្រួល	-10.8468
▁gambling	-10.8468
ជាយុទ្ធសាស្ត្រ	-10.8468
ប្រទេសជប៉ុន	-10.8469
▁retail	-10.8471
▁context	-10.8477
▁leave	-10.8477
ក្លិន	-10.848
▁directive	-10.848
បេ	-10.8481
▁Van	-10.8481
▁reflected	-10.8483
ជនជាតិវៀតណាម	-10.8483
ពាក់	-10.8484
▁សិស្សានុសិស្ស	-10.8484
▁Bayon	-10.8485
▁hospitality	-10.8485
▁ថ្មីៗនេះ	-10.8485
លុបចោល	-10.8486
▁Chro	-10.8487
ស្មើ	-10.8491
សប្បុរសធម៌	-10.8491
ក្លាហាន	-10.8492
ធ្លាប់បាន	-10.8493
▁សួរ	-10.8496
▁abundant	-10.8502
តេ	-10.8503
▁inaugurated	-10.8504
▁ជុំវិញ	-10.8506
តាមបែប	-10.8513
▁ស្មារតី	-10.8514
▁proposal	-10.8514
ឌ	-10.8514
ឆ្លងមេរោគកូវីដ	-10.8517
▁ព្រោះវា	-10.852
បានចុះហត្ថលេខាលើ	-10.8522
▁indicate	-10.8522
entrepreneurship	-10.8523
▁gaining	-10.8524
▁historic	-10.8525
សម្រាប់នាំចេញ	-10.8528
▁record	-10.8534
មានន័យថា	-10.8535
▁breathtaking	-10.8539
▁machinery	-10.8539
ជំនាន់ក្រោយ	-10.8543
▁សមត្ថភាព	-10.8548
▁videos	-10.8549
▁participates	-10.8552
80	-10.8552
សហ	-10.8553
បម្រែបម្រួល	-10.8554
▁disabilities	-10.8557
▁widespread	-10.8557
▁ប៉ុន្តែវា	-10.8563
ជំរុញកំណើន	-10.8565
▁criticized	-10.8565
កន្លះ	-10.8574
▁bolster	-10.8575
▁hinder	-10.8576
សេដ្ឋកិច្ចសង្គម	-10.8576
▁type	-10.8576
ភារកិច្ច	-10.8577
សព	-10.8577
ក្នុងការការពារ	-10.8578
▁households	-10.8579
សរុបប្រមាណ	-10.8579
ប្រឈមនឹង	-10.8581
នៅឆ្នាំនេះ	-10.8581
ការផ្តល់សេវា	-10.8582
▁candidate	-10.8588
▁ក្នុងឆ្នាំ	-10.8588
▁Arts	-10.8591
▁ជ្រាលជ្រៅ	-10.8595
មុននឹង	-10.8599
▁girls	-10.8602
▁៣៥	-10.8603
បានទេ	-10.8604
▁រ៉ា	-10.8604
▁platforms	-10.8607
▁ចាប់ផ្តើម	-10.8607
▁embrace	-10.8609
តូ	-10.8609
▁remind	-10.861
ស្នូល	-10.8612
អនុវត្តច្បាប់	-10.8613
បង្កើនការ	-10.8614
▁designed	-10.8614
▁13,	-10.8616
▁ឧកញ៉ា	-10.8617
បើកដំណើរការ	-10.8618
▁16,	-10.8619
▁professionals	-10.8619
▁Use	-10.8619
▁terms	-10.862
refore	-10.8623
▁joined	-10.8625
គយ	-10.8627
ពេជ្រ	-10.8627
ការងារជាមួយ	-10.8628
▁meals	-10.8628
▁perceive	-10.8628
▁govern	-10.8629
កាន់តែមាន	-10.8629
▁moral	-10.8631
បែបណា	-10.8632
▁fulfill	-10.8633
រាម	-10.8634
▁ប្រែប្រួល	-10.8635
▁Entrepreneurs	-10.8636
ខ្វះខាត	-10.8639
ហុងកុង	-10.8642
ស្រះ	-10.8644
ឱ្យបានល្អ	-10.8644
នៅខេត្តសៀមរាប	-10.8645
ប្រយោជន៍	-10.8646
ទឹកភ្លៀង	-10.8648
▁daughter	-10.8649
▁solidarity	-10.8649
▁extreme	-10.8649
▁obligated	-10.8649
▁Sector	-10.865
មានសុពលភាព	-10.8651
▁ទំនិញ	-10.8651
ល្បែង	-10.8653
▁ទំហំ	-10.8654
បង	-10.8656
ក្នុងមួយឆ្នាំ	-10.8657
▁kilogram	-10.8657
អំឡុងពេល	-10.8657
middle	-10.8658
រើស	-10.8659
បានរៀបចំ	-10.8659
▁មានគោលបំណង	-10.8664
វិស័យអចលនទ្រព្យ	-10.8667
▁cuisine	-10.8668
▁ចំណាយ	-10.8668
▁preparedness	-10.8669
▁បន្តបន្ទាប់	-10.8671
ពាន់លានដុល្លារ	-10.8671
▁សម្តេចអគ្គ	-10.8672
យ៉ាងណា	-10.8673
▁flowing	-10.8673
សមាជិកព្រឹទ្ធសភា	-10.8674
▁អគ្គលេខាធិការ	-10.8675
▁Naga	-10.8678
ហ្វ	-10.8679
▁Telegram	-10.868
▁integrate	-10.8681
▁weekend	-10.8681
▁seemed	-10.8681
▁លក់	-10.8682
ទីក្រុងប៉ារីស	-10.8682
ប្រតិកម្ម	-10.8682
▁ready	-10.8683
▁protocols	-10.8683
សម្ព័ន្ធ	-10.8685
▁Heritage	-10.8686
▁BYD	-10.8686
▁authorized	-10.8686
▁Tbong	-10.8687
លិច	-10.8687
▁usher	-10.8687
bo	-10.8688
អំណាន	-10.8688
▁consultations	-10.869
▁និងគាំទ្រ	-10.8691
▁រៀល	-10.8693
នេសាទ	-10.8697
រួមទាំង	-10.8698
សេវាថែទាំសុខភាព	-10.8698
▁website	-10.8699
លើកទី	-10.8701
ហិកតា	-10.8701
ប្រភពព័ត៌មានពី	-10.8703
ឯកទេស	-10.8703
បូ	-10.8708
ដូច្នេះ	-10.8709
សញ្ញា	-10.871
និយាយថា	-10.871
របស់យើង។	-10.8712
▁overall	-10.8713
▁pledge	-10.8716
ab	-10.8716
▁residence	-10.8718
▁celebration	-10.8718
ខែសីហា	-10.8721
សប្តាហ៍	-10.8723
▁attractive	-10.8723
▁collect	-10.8724
▁Sovann	-10.8725
▁elderly	-10.8725
▁បានក្លាយជា	-10.8727
▁swiftly	-10.8728
▁applying	-10.8734
បំពេញតម្រូវការ	-10.8734
ឈ	-10.8736
អភិវឌ្ឍន៍ជនបទ	-10.8739
▁commemorate	-10.8742
ស្រួល	-10.8742
ម្សៅ	-10.8742
▁Nature	-10.8742
▁ស្ត្រី	-10.8743
▁Funan	-10.8744
ដែន	-10.8745
គិតត្រឹម	-10.8746
▁grown	-10.8746
ដើម្បីកាត់បន្ថយ	-10.8747
ដាក់ពាក្យស្នើសុំ	-10.8747
ពីបទ	-10.8751
ការប្រឡង	-10.8752
▁អះអាងថា	-10.8752
▁ពីព្រោះថា	-10.8753
សមរភូមិ	-10.8753
ព្រលឹង	-10.8753
ហាក់ដូចជា	-10.8758
▁onward	-10.876
ជាង១	-10.8761
▁boundless	-10.8761
គុណតម្លៃ	-10.8761
▁renewable	-10.8761
ចង្វាក់	-10.8762
▁page	-10.8764
▁mining	-10.8764
ត្រូវអនុវត្ត	-10.8766
មានសកម្មភាព	-10.8766
▁Address	-10.8767
▁ground	-10.8769
▁preserved	-10.8769
▁គឺជាអាទិភាព	-10.8771
▁shifts	-10.8772
▁បើទោះជា	-10.8772
ខែមេសា	-10.8772
▁titles	-10.8772
▁arise	-10.8773
ស្វែងយល់ពី	-10.8775
ical	-10.8776
work	-10.8777
▁temporarily	-10.878
▁melodious	-10.878
▁extraordinary	-10.878
របស់អាស៊ាន	-10.878
▁obligations	-10.8781
▁lay	-10.8785
▁electrical	-10.8786
▁ស្ដីពី	-10.8787
អាស៊ីសេរី	-10.8789
បណ្ដឹង	-10.8793
តាំង	-10.8796
▁មិនមាន	-10.8796
▁enhancement	-10.8798
▁accuracy	-10.8798
ផ្ញើ	-10.8799
▁seasons	-10.8799
តស៊ូ	-10.8799
▁theft	-10.8799
កិ	-10.88
▁shimmering	-10.88
▁17,	-10.8801
ិច	-10.8802
តន្ត្រី	-10.8802
រងរបួសធ្ងន់	-10.8803
▁features	-10.8807
▁ផ	-10.8811
ឥណ្ឌូនេស៊ី	-10.8816
រាប់សតវត្សរ៍	-10.8817
▁maritime	-10.8817
ទំព័រ	-10.8822
▁មាគ៌ា	-10.8826
▁35	-10.8826
▁កាត់បន្ថយ	-10.883
▁fall	-10.8832
▁test	-10.8833
ល្អបំផុត	-10.8836
▁immunity	-10.8836
សាំង	-10.8836
▁Canal	-10.8839
▁circumstances	-10.8839
▁30,	-10.8839
▁cutting	-10.8843
▁remove	-10.8843
▁ធ្នូ	-10.8845
ិត	-10.8846
ប្រសើរ	-10.8847
ជំនឿ	-10.8848
ជំរុញការ	-10.8848
▁ព្រះអាទិត្យ	-10.8851
លើដី	-10.8852
អ្នកលក់	-10.8853
មិនចាំបាច់	-10.8853
▁improves	-10.8855
▁stating	-10.8855
តែប៉ុណ្ណោះ	-10.8858
បានកើតឡើង	-10.8858
រំលោភ	-10.8861
▁mist	-10.8861
យូ	-10.8863
យូរអង្វែង	-10.8863
បាទជ័យវរ្ម័នទី៧	-10.8865
លានដុល្លារ	-10.8865
▁នឹងបន្ត	-10.8867
វិស័យសុខាភិបាល	-10.8867
▁buying	-10.8868
សង្គម។	-10.8868
EN	-10.8869
យ៉ាងតិច	-10.8872
សម្តេចធិបតី	-10.8874
▁glory	-10.8874
ម្ទេស	-10.8874
គម្រោងសាងសង់	-10.8875
ផ្ដល់នូវ	-10.8876
Chief	-10.8882
▁ស្ថិតក្នុង	-10.8884
all	-10.8884
កុំឲ្យ	-10.8885
ផែនដី	-10.8886
ហួស	-10.8889
▁Along	-10.889
សរសើរ	-10.889
ស្មុគស្មាញ	-10.889
▁និងគ្រួសារ	-10.8891
▁ដើរ	-10.8892
សាជីវកម្ម	-10.8893
▁deputy	-10.8893
▁inevitably	-10.8893
▁involvement	-10.8893
ប្រវត្តិសាស្រ្ត	-10.8893
mong	-10.8895
ពីរនាក់	-10.8898
▁ឆ្ពោះ	-10.8899
▁ហើយអាច	-10.89
▁ដើម្បីធានានូវ	-10.8906
សភាពាណិជ្ជកម្ម	-10.8907
▁កូន	-10.8908
លោកអ្នក	-10.8909
រស់នៅក្នុង	-10.891
ឆ្លាតវៃ	-10.891
▁BRICS	-10.8912
▁Am	-10.8913
du	-10.8914
▁ប្រធានាធិបតី	-10.8915
▁surge	-10.8915
ដើម្បីជំរុញ	-10.8916
កាន់កាប់	-10.892
▁បានរៀបចំ	-10.892
▁និងតំបន់	-10.8922
ផ្តល់ជំនួយ	-10.8923
របស់ឯកឧត្តម	-10.8923
▁term	-10.8923
ព្រេងនា	-10.8924
រឹតបន្តឹង	-10.8924
▁crime	-10.8927
អំណោយផល	-10.8929
ក្នុងមួយខែ	-10.893
▁entities	-10.8931
iad	-10.8931
▁don	-10.8931
▁stance	-10.8932
ភាពរីករាយ	-10.8932
▁arrived	-10.8934
29	-10.8937
▁ថ្លៃ	-10.8938
សន្តិសុខជាតិ	-10.8939
ធ្វើអាជីវកម្ម	-10.8941
▁និងចិន	-10.8941
ក្រុមហ៊ុនឯកជន	-10.8941
ទី៥	-10.8945
▁consultation	-10.8947
ក្នុងទីក្រុង	-10.8947
▁gifts	-10.8947
▁Ek	-10.8948
ក្នុងឱកាស	-10.8949
▁hospitals	-10.8949
MA	-10.8949
▁fraud	-10.895
▁concrete	-10.895
ប្រជាពលរដ្ឋខ្មែរ	-10.895
▁updated	-10.8951
សង្គមជាតិ	-10.8952
ស្រមោល	-10.8952
▁Ung	-10.8955
រៀល	-10.8956
ចេញផ្សាយ	-10.8956
ែ	-10.8958
យ៉ាងតឹងរ៉ឹង	-10.8958
▁prompt	-10.8959
មានអារម្មណ៍	-10.8962
▁bears	-10.8963
សិទ្ធ	-10.8963
ទំនួលខុសត្រូវ	-10.8963
ច្រើន។	-10.8968
ពន្ធនាគារ	-10.8968
រឹង	-10.8969
▁និងអនាម័យ	-10.8971
▁ក្រោមអធិបតីភាព	-10.8974
▁សិប្បកម្ម	-10.8974
▁Dith	-10.8975
▁និងវិនិយោគ	-10.8976
អាណាព្យាបាល	-10.8979
▁ជី	-10.8979
▁Chief	-10.898
▁អគ្គ	-10.8982
សាស្ត្រាចារ្យ	-10.8982
អ្នកកាសែត	-10.8982
តែម្តង	-10.8984
▁គម្រោងនេះ	-10.8984
▁ប្រទេសចិន	-10.8984
▁movement	-10.8985
▁បាត់ដំបង	-10.8987
▁Speaking	-10.8988
▁creativity	-10.8988
▁dreams	-10.8989
កំពុងសិក្សា	-10.8995
ដ៏វែងឆ្ងាយ	-10.8999
▁ranks	-10.9001
ដល់ប្រជាជន	-10.9002
▁នាងបាន	-10.9002
អំណោយ	-10.9002
▁ការបណ្តុះបណ្តាល	-10.9002
កត់សម្គាល់	-10.9003
▁wage	-10.9005
អំពើហិង្សា	-10.9006
ជីវភាពរស់នៅ	-10.9007
▁oversight	-10.9007
ខ្សាច់	-10.9007
▁pagodas	-10.9013
▁counsel	-10.9013
ខូចខាត	-10.9013
ួ	-10.9014
ធី	-10.9014
នឹងមាន	-10.9014
▁rooted	-10.9015
សង្រ្គាម	-10.9016
▁Future	-10.9019
58	-10.902
▁រំដោះ	-10.9023
អង្ករកម្ពុជា	-10.9025
ព្រ	-10.9026
ឥរិយាបថ	-10.9026
▁Conference	-10.9026
▁choose	-10.9026
អស់រយៈពេល	-10.9027
▁fr	-10.9031
និរន្តរភាព។	-10.9034
បណ្តុះ	-10.9034
▁មែន	-10.9037
▁បុរសម្នាក់	-10.9037
▁4-	-10.9041
អតីតកាលដ៏រុងរឿង	-10.9042
▁ពេលវេលា	-10.9042
▁commodities	-10.9046
▁oath	-10.9046
▁faster	-10.9047
▁Leng	-10.9048
▁មានសារៈសំខាន់	-10.9049
▁Mon	-10.9052
កូនប្រុស	-10.9052
ភាពប៉ិនប្រសប់	-10.9054
▁relationships	-10.9054
មួយសម្រាប់	-10.9054
ទិវា	-10.9056
ចិត្តយ៉ាងមុតមាំ	-10.9058
កសាងសមត្ថភាព	-10.9062
▁វប្បធម៌	-10.9064
ted	-10.9064
ដំឡូងមី	-10.9065
មរតក	-10.9065
ក្នុងបញ្ជី	-10.9066
▁5-	-10.9068
ឆ្ងាញ់	-10.907
នៅភូមិ	-10.907
▁ក្លាយ	-10.9071
វេចខ្ចប់	-10.9071
ការកើនឡើង	-10.9071
មានវត្តមាន	-10.9073
ក្នុងសង្គម	-10.9075
បំផុតសម្រាប់	-10.9076
▁Cultural	-10.9078
ផែនការមេ	-10.908
ea	-10.9081
▁tale	-10.9082
ជីក	-10.9084
គោលការណ៍ណែនាំ	-10.9086
▁វិភាគ៖	-10.9086
ដែលអ្នក	-10.9088
ក្បែរ	-10.9088
▁electronics	-10.9089
▁និងបូរណភាពទឹកដី	-10.9089
ធន	-10.9091
▁Personal	-10.9101
កូនស្រី	-10.9101
ចងចាំ	-10.9102
▁Efforts	-10.9103
នឹងប្រព្រឹត្តទៅ	-10.9104
រកដំណោះស្រាយ	-10.9106
បណ្ដុះ	-10.9106
▁targeting	-10.9107
▁និងផ្លូវ	-10.9109
Angkor	-10.9111
commerce	-10.9112
ជនជាតិដើមភាគតិច	-10.9112
សំដៅ	-10.9113
▁MoU	-10.9113
85	-10.9114
ជ្រៅ	-10.9115
▁package	-10.9117
▁indigen	-10.9119
▁ឧទាហរណ៍	-10.9123
បុ	-10.9123
▁អ្វីដែល	-10.9127
ពិភាក្សាអំពី	-10.9132
▁UNESCO	-10.9134
ឲ្យដឹងថា	-10.9138
▁10%	-10.9139
▁charge	-10.9139
▁Se	-10.914
▁accompani	-10.9142
▁មួយវិញទៀត	-10.9142
▁democratic	-10.9144
រស្មី	-10.9148
▁questioning	-10.9148
▁TV	-10.9151
▁បញ្ជាក់	-10.9153
▁exporters	-10.9153
▁Omicron	-10.9153
ដែលពោរពេញដោយ	-10.9154
▁bridges	-10.9155
▁solid	-10.9156
៦៧	-10.916
ក្មេងស្រី	-10.9161
លើកស្ទួយ	-10.9161
▁warrant	-10.9162
▁ណ	-10.917
ចម្លើយ	-10.9172
▁$100	-10.9173
ដឹងពី	-10.9176
▁29,	-10.9177
ក្រុមអ្នក	-10.9179
▁commit	-10.918
ចេញទៅ	-10.918
▁heavily	-10.9181
▁intelligence	-10.9181
▁lose	-10.9181
▁ចក់	-10.9182
▁heroes	-10.9184
ice	-10.9186
▁ដែលក្នុងនោះ	-10.9188
គម្រោងនេះ	-10.9188
▁constructed	-10.9193
ពង	-10.9193
យល់ពី	-10.9195
សញ្ញាបត្រ	-10.9196
១នាក់	-10.9196
▁woven	-10.9197
GDP	-10.9197
▁visiting	-10.9199
▁ពណ៌	-10.9199
ការចរចា	-10.9199
▁intellectual	-10.9201
ចាយ	-10.9201
▁options	-10.9202
ការចាប់អារម្មណ៍	-10.9203
▁copy	-10.9204
▁25,	-10.9206
យ៉ាងច្បាស់លាស់	-10.9206
ជាតិគ្រប់គ្រង	-10.9207
បុណ្យភ្ជុំបិណ្ឌ	-10.9208
▁Pan	-10.9208
ជាដៃគូ	-10.9213
▁sides	-10.9213
▁license	-10.9213
សប្បាយចិត្ត	-10.9214
▁profoundly	-10.9214
▁Ba	-10.9216
plete	-10.9216
ក្មេងៗ	-10.9217
ell	-10.9217
▁50%	-10.9219
54	-10.9219
ឹ	-10.922
▁និងសហប្រតិបត	-10.922
គ្រប់គ្រងហានិភ័យ	-10.9225
សម័យកាល	-10.923
ដល់កម្ពុជា	-10.9231
ផលវិបាក	-10.9234
ER	-10.9235
សិល្បករ	-10.9236
▁ភាគរយ។	-10.9237
កោតសរសើរ	-10.9238
▁enterprise	-10.9239
▁lawyer	-10.9239
▁បច្ចេកទេស	-10.924
▁seed	-10.924
▁Toyota	-10.924
▁Board	-10.924
▁Major	-10.924
មានអារម្មណ៍ថា	-10.9243
ក៏កំពុង	-10.9244
▁flourished	-10.9244
▁Officials	-10.9244
ស្ថាប័នរដ្ឋ	-10.9245
័រ	-10.925
មួយចំនួនដែល	-10.9254
▁ស្អាត	-10.9255
ទំនាក់ទំនងរវាង	-10.926
ING	-10.926
អាជ្ញាប័ណ្ណ	-10.926
▁documentation	-10.9262
▁Pro	-10.9263
ទុំ	-10.9263
que	-10.9265
▁initiated	-10.9265
▁និងទទួលបាន	-10.9265
អភិបាល	-10.9265
▁rest	-10.9265
RE	-10.9267
▁ដោយមិន	-10.9268
▁Lang	-10.9272
▁ក្រុមយុវជន	-10.9277
▁dream	-10.9279
▁ethical	-10.9279
ally	-10.928
ចងក្រង	-10.928
“	-10.9281
▁ក្នុងពេល	-10.9286
ចុះពិនិត្យ	-10.9291
កសិ	-10.9294
▁resume	-10.9295
ក្រដាស	-10.9298
▁drivers	-10.93
ាណាចក្រកម្ពុជា។	-10.9301
សម្រាប់កសិករ	-10.9305
▁legally	-10.9305
▁នគរបាល	-10.9307
ភ្លៀង	-10.9308
▁seized	-10.9311
ថ្ងៃទី	-10.9311
▁collaborated	-10.9311
នេះផងដែរ	-10.9313
មួយចំនួនដូចជា	-10.9313
ជំរុញការនាំចេញ	-10.9314
▁80	-10.9315
▁floods	-10.9316
▁ក្រៅ	-10.9317
▁stars	-10.9317
ឃ	-10.9318
▁coordination	-10.9319
▁search	-10.9322
ទុក្ខលំបាក	-10.9322
▁ត្រី	-10.9323
ចំណាយថវិកា	-10.9325
ប្រេងឆៅ	-10.9325
▁៣១	-10.9326
▁cuts	-10.9328
នៅក្នុងទីផ្សារ	-10.9328
▁Bakong	-10.9328
នឹងធ្វើឱ្យ	-10.9332
grade	-10.9332
tr	-10.9334
▁ការថែទាំ	-10.9337
ថៅកែ	-10.9337
▁សូមសរសេរមក	-10.9338
ឆន្ទៈ	-10.9339
▁យើងអាច	-10.9341
▁helping	-10.9344
tor	-10.9345
▁600	-10.9345
▁21,	-10.9345
resilient	-10.9347
▁ហើយការ	-10.9347
▁solemn	-10.9348
▁បំភ្លឺ	-10.9348
ហ្វូណនតេជោ	-10.935
គ្រឹះ	-10.935
▁signs	-10.9353
▁Tang	-10.9355
▁delegates	-10.936
ទឹកប្រាក់	-10.9362
អភិវឌ្ឍន៍កសិកម្ម	-10.9362
▁កម្មវិធីនេះ	-10.9363
▁ស្របពេល	-10.9364
▁Mobile	-10.9364
ព្រះមហាក្សត្រ។	-10.9368
▁សិង្ហបុរី	-10.9371
ទុក្ខសោក	-10.9373
iv	-10.9373
▁ត្រៀម	-10.9374
▁27,	-10.9375
▁ក្លាយជា	-10.9376
ឡូ	-10.9377
▁និងធ្វើ	-10.9377
▁Na	-10.9378
▁forecast	-10.9378
▁wastewater	-10.9379
▁aging	-10.938
▁point	-10.9384
ជួយជំរុញ	-10.9387
ទំ	-10.9389
ខ្សែសង្វាក់	-10.9393
▁addition	-10.9394
៩នាក់	-10.9394
ious	-10.9394
▁parts	-10.9395
▁វេទិកា	-10.9396
នេះក៏	-10.9396
▁ញឹម	-10.9399
▁collided	-10.9399
▁26,	-10.9399
▁You	-10.94
ភាពធន់	-10.9401
▁consumers	-10.9401
សល់	-10.9401
បណ្ដាញសង្គម	-10.9402
▁whispered	-10.9402
សេរី	-10.9403
ឆ្នាំ២០១៩	-10.9406
▁Wildlife	-10.9409
ល្អ។	-10.941
▁Domestic	-10.9412
ទាំងបី	-10.9412
▁demonstrate	-10.9414
▁អ្នកនាង	-10.9415
Re	-10.9416
ny	-10.9416
ពពក	-10.9418
▁Customs	-10.9418
រ៉ូបូត	-10.9418
:00	-10.9419
សំបក	-10.9419
ប្រកាសព័ត៌មាន	-10.9421
▁Pov	-10.9424
បានចំនួន	-10.9427
▁បានទទួល	-10.9427
មានគុណភាព	-10.943
aught	-10.9433
risk	-10.9435
▁battle	-10.9437
បង់ប្រាក់	-10.9437
,000	-10.9438
នៅផ្ទះ	-10.944
មានការរីកចម្រើន	-10.9441
ឆ្	-10.9444
▁contract	-10.9448
ei	-10.945
ការដ្ឋានសាងសង់	-10.9454
ខែឧសភា	-10.9458
▁sharp	-10.9458
▁geopolitical	-10.9458
▁vaccinated	-10.9459
▁អាន	-10.9461
ទប់	-10.9463
▁rendered	-10.9465
នៅប្រទេសថៃ	-10.9466
ចម្លង	-10.9468
▁ព្យាយាម	-10.9468
ទង្វើ	-10.947
wa	-10.9471
ship	-10.9473
ill	-10.9474
▁retain	-10.9474
▁45	-10.9476
▁structures	-10.9476
ផ្សេងទៀត។	-10.9477
ដ៏ល្អិតល្អន់	-10.9478
.....	-10.9479
▁investigate	-10.948
ព្យាបាលជំងឺ	-10.9481
▁mingled	-10.9485
▁$9	-10.9487
▁Kram	-10.9487
ខែវិច្ឆិកា	-10.9495
តិ	-10.9495
ខ្មែរក្រោម	-10.9496
រាំ	-10.9497
ហ្នឹង	-10.9498
ណ៍	-10.9499
▁novel	-10.9499
▁Partnership	-10.9499
ផ្ទៃ	-10.9499
បទចម្រៀង	-10.9501
▁ព្រោះថា	-10.9504
្រ	-10.9504
▁ក៏ប៉ុន្តែ	-10.9508
អ្នកនាំពាក្យ	-10.951
▁ចាស់	-10.9512
សារៈសំខាន់	-10.9512
▁figures	-10.9512
▁នឹងមាន	-10.9512
៦៨	-10.9515
▁ឧត្តម	-10.9515
មីន	-10.9515
▁ប៉ុន្ដែ	-10.9515
មហាសន្និបាត	-10.9516
▁Data	-10.9516
▁៣០០	-10.9517
▁coverage	-10.9519
▁railway	-10.9519
ប្រៀបដូចជា	-10.9521
▁lies	-10.9524
ការនាំចេញកសិផល	-10.9524
q	-10.9526
នៅខេត្ត	-10.9526
យកចិត្តទុកដាក់លើ	-10.9528
ការសន្សំ	-10.9529
IN	-10.9529
បញ្ចកោណ	-10.9531
ប្រសិទ្ធភាពនៃការ	-10.9532
35	-10.9534
ថ្មីៗ។	-10.9536
ម៉	-10.9537
▁branch	-10.9537
មកហើយ	-10.954
▁computer	-10.9541
▁Bar	-10.9544
ក្នុងរង្វង់	-10.9547
ខែតុលា	-10.9549
បក្សភ្លើងទៀន	-10.9554
▁populations	-10.9554
កាត់ដេរ	-10.9554
ឥតឈប់ឈរ	-10.9555
▁7.	-10.9557
រាប់រយ	-10.9557
▁និងប្រើប្រាស់	-10.9559
▁Sreng	-10.956
▁hermit	-10.9561
▁ability	-10.9565
អនុសាសន៍	-10.9566
95	-10.9566
បានជួយ	-10.9567
▁gaps	-10.957
ជាមិត្ត	-10.9573
▁ក្រោយពេល	-10.9573
▁២៩	-10.9575
▁សហជីព	-10.9575
▁rescue	-10.9575
ជលផល	-10.9577
▁លោកបាន	-10.9579
▁testing	-10.958
▁hair	-10.958
▁៩០	-10.9581
▁ផ្កា	-10.9582
៦៩	-10.9585
▁របាំអប្សរា	-10.9585
▁ខេត្តកណ្តាល	-10.9588
▁ខ្មែរ	-10.9589
▁rigorous	-10.9589
▁failed	-10.9591
៦៥	-10.9592
▁សហ	-10.9595
សិទ្ធិសេរីភាព	-10.9597
▁preside	-10.9598
▁encouraging	-10.96
▁favorable	-10.96
▁calm	-10.96
▁memory	-10.96
ការអនុវត្តគម្រោង	-10.9601
▁ខៀវ	-10.9602
▁ឈ្នះ	-10.9607
រាយ	-10.9609
ពូជស្រូវ	-10.9609
▁ហិកតា	-10.9611
រចនា	-10.9612
▁purposes	-10.9612
▁28,	-10.9614
តាមអនឡាញ	-10.9615
សាកសួរ	-10.9619
▁congestion	-10.962
▁honey	-10.962
▁Election	-10.9621
ហ្គា	-10.9621
▁Taiwan	-10.9622
ក្នុងនាមជា	-10.9622
ជាច្រើនបាន	-10.9623
▁determined	-10.9626
▁ទាក់ទងនឹង	-10.9626
វាល	-10.9628
▁tariffs	-10.9634
ធានាថា	-10.9635
▁promulgate	-10.9635
មហាវិទ្យាល័យ	-10.9635
ថវិកាជាតិសម្រាប់	-10.9638
▁issu	-10.9639
▁structure	-10.9639
▁ធនាគារពិភពលោក	-10.9639
▁Padei	-10.964
▁minutes	-10.9643
ស្ថានការណ៍	-10.9646
បន្ថយ	-10.9646
▁ព្រះសីហនុ	-10.9646
▁humanity	-10.9648
▁Africa	-10.9649
▁powerful	-10.9649
ធារាសាស្ត្រ	-10.965
នាក់	-10.9651
ឧត្តម	-10.9651
▁insects	-10.9651
មានដូចជា	-10.9652
ឡេ	-10.9654
▁Indigen	-10.9661
▁movements	-10.9664
▁ខ	-10.9665
▁និងការងារ	-10.9668
▁steps	-10.9668
▁walked	-10.9668
ពេញចិត្ត	-10.9671
▁ភ្ជាប់	-10.9671
▁តម្រូវការ	-10.9672
តួអង្គ	-10.9675
▁នាយកប្រតិបត្តិ	-10.9676
▁APSARA	-10.9681
▁freedoms	-10.9682
ជាមូលដ្ឋានគ្រឹះ	-10.9683
▁pillar	-10.9684
ការផ្តល់	-10.9685
ជាក្រុម	-10.9686
▁ហើយវា	-10.9687
ទាំងក្នុង	-10.9688
▁constructing	-10.9689
▁យន្តការ	-10.9689
▁ករុណា	-10.9693
ច្នៃប្រឌិត	-10.9694
វាយប្រហារ	-10.9695
ែន	-10.97
ឈុត	-10.9701
▁virtue	-10.9704
▁Skills	-10.9704
ក្នុងការចូលរួម	-10.9706
▁ទាមទារ	-10.9707
▁ធនាគារកណ្តាល	-10.9708
▁couple	-10.971
▁suppress	-10.971
▁counter	-10.9711
▁វិបត្តិ	-10.9714
▁clouds	-10.9715
ស្តុក	-10.9716
▁appropriate	-10.9719
ជំហរ	-10.9722
ទាហាន	-10.9722
ចូលក្នុង	-10.9725
ទប់ស្កាត់ការ	-10.9726
ក្នុងការផលិត	-10.9727
ក្រោយពី	-10.9727
▁recalled	-10.973
▁ទូច	-10.973
▁បានដាក់ចេញនូវ	-10.9734
▁ទេព	-10.9735
ប្រចាំនៅកម្ពុជា	-10.9737
▁communes	-10.9738
▁ban	-10.9738
▁How	-10.9739
▁hands	-10.974
ហេតុ	-10.9742
▁captivating	-10.9743
▁transmission	-10.9743
▁different	-10.9743
6%	-10.9745
មីក្រូ	-10.9747
ឃ្លាំមើល	-10.9747
▁lesson	-10.9748
▁38	-10.9748
▁និងផ្តល់	-10.9748
▁dried	-10.9749
▁System	-10.975
បានផ្តល់	-10.975
ការទទួលបាន	-10.9752
▁opened	-10.9753
▁ព្រម	-10.9754
▁endless	-10.9755
▁foreigners	-10.9757
▁casting	-10.9757
សុភមង្គល	-10.9758
▁exporting	-10.9759
សាទរ	-10.976
▁ឆ្នាំ២០១៨	-10.9762
▁បានសម្រេច	-10.9762
▁ដែលមានទីតាំង	-10.9763
▁dissemination	-10.9764
▁proceedings	-10.9764
▁sunlight	-10.9764
វត្តអារាម	-10.9766
email	-10.9766
▁និងជំរុញកំណើន	-10.9766
▁Tan	-10.9768
អាស្រ័យលើ	-10.9769
យ៉ាងទូលំទូលាយ	-10.9771
ពិធីបុណ្យអុំទូក	-10.9772
សារៈសំខាន់ណាស់	-10.9772
▁sentences	-10.9775
▁កំពត	-10.978
▁តំណាងរាស្ត្រ	-10.9782
ចម្អិន	-10.9782
▁detected	-10.9782
▁weapons	-10.9783
▁និងថាមពល	-10.9783
▁Below	-10.9785
▁commenters	-10.9785
▁commended	-10.9788
▁launches	-10.979
▁warmth	-10.9791
អ្នកទេសចរ	-10.9791
os	-10.9793
ឱ្យមានការ	-10.9793
▁size	-10.9794
▁ប្រធានគណបក្ស	-10.9795
ការអាន	-10.9799
▁CDC	-10.9799
សេដ្ឋកិច្ចរបស់	-10.98
▁រស់នៅ	-10.9801
មើលទៅ	-10.9803
ឯង	-10.9803
ក្រុមគ្រូពេទ្យ	-10.9804
ជាដើម៕	-10.9805
▁Radio	-10.9805
▁Hotel	-10.9805
នៅទីក្រុង	-10.9806
វិញ្ញាណ	-10.9807
ហោះ	-10.9807
ជួបសំណេះសំណាល	-10.9809
ដោយមាន	-10.9809
មានអាយុ	-10.9809
▁linking	-10.9815
▁កើតឡើង	-10.9816
ទំហំពាណិជ្ជកម្ម	-10.9816
▁បានបន្តថា	-10.9817
គង់	-10.9817
ការទិញ	-10.9819
▁គុណភាព	-10.9822
បរិ	-10.9823
▁feasibility	-10.9826
▁win	-10.9826
▁domestically	-10.9827
▁constitutional	-10.9828
ថែម	-10.983
▁declares	-10.9831
▁forums	-10.9832
ស៊ីវិល	-10.9835
កាលានុវត្តភាព	-10.9837
▁ដើម្បីគាំទ្រដល់	-10.9838
▁ប្រសិន	-10.9838
របស់ពួកគាត់	-10.9838
ជាអាទិភាព	-10.9839
របស់កសិករ	-10.9841
ហ្គាស	-10.9842
ish	-10.9844
▁easily	-10.9847
▁male	-10.9848
▁artisans	-10.9849
▁បានគូសបញ្ជាក់ថា	-10.9849
ត្រូវបានកំណត់ដោយ	-10.9849
មានសុខភាពល្អ	-10.9853
សន្និបាត	-10.9853
៣១	-10.9854
ផ្លូវថ្នល់	-10.9855
59	-10.9855
ការរំពឹងទុក	-10.9857
ទីផ្សារនាំចេញ	-10.9857
នឹងកើនឡើង	-10.9858
រមណីយដ្ឋាន	-10.9859
ដ៏ច្រើន	-10.9859
▁បានធ្វើឱ្យ	-10.9864
ភ្លាម	-10.9865
រកស៊ី	-10.9865
▁leaf	-10.9865
មេឃ	-10.9865
៨៩	-10.9867
▁formulating	-10.9868
▁ស្លាប់	-10.9868
▁Estate	-10.9868
នៅទីនោះ	-10.9869
ចម្រៀង	-10.987
sh	-10.9871
នាទី	-10.9871
នៃសេដ្ឋកិច្ច	-10.9871
▁ការត្រួតពិនិត្យ	-10.9872
AR	-10.9874
ការធ្វើទំនើបកម្ម	-10.9874
របស់ខ្ញុំ	-10.9874
▁speed	-10.9879
▁variant	-10.9882
អនុវត្តគម្រោង	-10.9882
▁ម៉េង	-10.9883
▁កម្មកររោងចក្រ	-10.9883
tech	-10.9884
បានប្រើប្រាស់	-10.9885
▁ទន្លេមេគង្គ	-10.9887
ខាងកើត	-10.9887
▁Friday	-10.9887
ព្រះបរមរាជវាំង	-10.9888
▁targets	-10.9888
▁Pagoda	-10.9889
▁footwear	-10.9889
វិញ្ញាសា	-10.9891
សាធារណៈប្រកបដោយ	-10.9893
▁(5	-10.9894
use	-10.9895
េង	-10.99
មេរោគ	-10.9901
យល់ដឹងពី	-10.9903
▁បាញ់	-10.9904
រោងចក្រកាត់ដេរ	-10.9905
អាចមាន	-10.9906
ម៉ូដ	-10.9907
▁dam	-10.9907
▁Air	-10.9908
▁timeframe	-10.991
បណ្តឹង	-10.9912
▁គ្រប់គ្រង	-10.9914
▁bird	-10.9917
00	-10.9917
ដែលនឹង	-10.992
ដ៏ខ្ពង់ខ្ពស់របស់	-10.992
វែងឆ្ងាយ	-10.992
ចង់ឱ្យ	-10.9922
▁សេរីភាព	-10.9923
ការស្នើសុំ	-10.9924
▁resides	-10.9927
នាយក	-10.9928
ធ្ងន់	-10.9928
ស្នាម	-10.9931
▁Finally	-10.9933
▁24,	-10.9934
▁But	-10.9935
▁ទាក់ទាញ	-10.9938
67	-10.9939
អរគុណ	-10.9942
▁2-	-10.9942
ម្រេច	-10.9943
▁read	-10.9944
▁ឡើយ។	-10.9945
▁បានធ្វើការ	-10.9945
០៥	-10.9946
ការពិនិត្យ	-10.9948
▁sustained	-10.9948
ឧស្ម័ន	-10.9949
ni	-10.995
▁bamboo	-10.9952
▁challenge	-10.9952
▁convened	-10.9955
▁preparations	-10.9957
ដែលគ្មាន	-10.9959
▁discrimination	-10.9961
ដ៏សំខាន់នៃ	-10.9961
ការវិនិយោគលើ	-10.9962
▁thorough	-10.9962
▁few	-10.9963
▁Last	-10.9965
ie	-10.9966
▁Arabia	-10.9967
▁offices	-10.9968
▁បានបញ្ជាក់	-10.9969
នៅពីក្រោយ	-10.997
រង្វាន់	-10.997
ជាទូទៅ	-10.9971
ឆបោក	-10.9971
ពហុ	-10.9972
ព្រះអាទិត្យ	-10.9972
▁Measures	-10.9973
▁judiciary	-10.9973
កំដៅ	-10.9973
▁migrant	-10.9973
▁assembly	-10.9973
largest	-10.9973
ខេមបូឌា	-10.9973
▁executed	-10.9973
▁needed	-10.9974
▁Wang	-10.9976
ការលំបាក	-10.9977
▁expression	-10.9979
ថាមពលកកើតឡើងវិញ	-10.9979
ត្រូវតែមាន	-10.9983
TI	-10.9984
lin	-10.9984
ទៀត។	-10.9988
▁Ji	-10.9989
ព្រហ្មទណ្ឌ។	-10.9989
01	-10.9991
៨នាក់	-10.9991
ស្នេហា	-10.9992
▁អ្នកអាច	-10.9994
លទ្ធិ	-10.9996
Japan	-10.9996
▁black	-10.9996
ជាប្រព័ន្ធ	-10.9997
▁strengthens	-10.9998
▁1-	-10.9999
bit	-10.9999
លូ	-11.0001
▁និងធ្វើឱ្យ	-11.0002
▁នៅតែបន្ត	-11.0002
AL	-11.0003
ជូនដំណឹង	-11.0003
នៅឡើយ។	-11.0004
▁Prak	-11.0005
ប្រយុទ្ធ	-11.0005
ឈានទៅ	-11.0006
7%	-11.0006
▁ចំណង	-11.0008
ប្រៀបធៀប	-11.0008
▁beneficial	-11.0009
RI	-11.0011
ម្ដេចមហាបវរធិបតី	-11.0015
▁cessation	-11.0015
▁Changvar	-11.0015
▁overcome	-11.0015
▁falling	-11.0015
នាំចេញ។	-11.0016
ប្រាក់ឈ្នួល	-11.0016
អាចត្រូវបាន	-11.0019
▁voice	-11.002
ថវិកាជាតិ	-11.0021
▁ទាំងពួង	-11.0021
▁renewed	-11.0022
១២៣	-11.0022
▁លក្ខខណ្ឌ	-11.0023
▁Min	-11.0027
▁20%	-11.0027
▁ពេញ	-11.0029
សេដ្ឋកិច្ចសកល	-11.0029
▁គោលការណ៍	-11.003
ពីអាជ្ញាធរ	-11.0032
▁exploring	-11.0036
ពាណិជ្ជករ	-11.0036
▁និងការអនុវត្ត	-11.0037
▁Apple	-11.0038
០២	-11.0039
▁minor	-11.0041
សំបូរ	-11.0041
បង្កើតការងារ	-11.0042
សាមគ្គី	-11.0043
▁connection	-11.0044
▁receives	-11.0045
នៃប្រទេសទាំងពីរ	-11.0046
▁brand	-11.0046
ក្នុងចិត្ត	-11.0048
អនុវត្តវិធានការ	-11.005
▁Song	-11.0051
▁ដើម្បីអាច	-11.0053
ប្រុស	-11.0054
ជាទៀងទាត់	-11.0055
like	-11.0056
▁Va	-11.0057
នៃក្រុមហ៊ុន	-11.0057
celes	-11.0058
▁ពាក់ព័ន្ធ	-11.0058
នៅឯ	-11.0059
សេចក្ដីព្រាង	-11.006
បទពិសោធ	-11.0061
09	-11.0061
▁recover	-11.0064
▁audio	-11.0064
ធំបំផុត	-11.0068
friendly	-11.0069
▁esteem	-11.0076
▁ឡាយ	-11.0077
▁embassy	-11.0079
សុខភាពពិភពលោក	-11.0081
ប៉ុស្តិ៍	-11.0082
▁stations	-11.0084
▁ថវិកា	-11.0088
សប្បាយ	-11.009
ងើបឡើងវិញ	-11.009
ការជំរុញ	-11.0097
90	-11.0097
▁mysterious	-11.01
▁suitable	-11.0101
▁instruct	-11.0102
ដោះ	-11.0102
▁rays	-11.0103
ee	-11.0105
▁expenditure	-11.0106
56	-11.0107
utonomous	-11.0109
ប្រឈមមុខនឹង	-11.0112
រាយការណ៍	-11.0113
ប្រទេសសិង្ហបុរី	-11.0113
ដែលធ្វើឱ្យ	-11.0114
▁Han	-11.0114
រីក	-11.0119
រំពឹង	-11.012
ជួញដូរគ្រឿងញៀន	-11.0121
▁Professor	-11.0122
▁output	-11.0122
អ៊ី	-11.0127
▁abandon	-11.0127
▁19,	-11.0127
ចម្ងាយ	-11.0128
ward	-11.0128
ខាតបង់	-11.013
ផ្នត់គំនិត	-11.0131
បំប៉ន	-11.0132
▁diligent	-11.0133
ទេស	-11.0135
▁symbol	-11.0135
▁សម្រេចបាន	-11.0136
ស្ករ	-11.0137
លើកលែង	-11.0137
ដំបូងគេ	-11.014
▁ឱ្យដឹងថា	-11.014
ទំនើបកម្ម	-11.0143
▁softly	-11.0143
▁Numer	-11.0144
សព្វថ្ងៃ	-11.0144
ពាក់កណ្តាល	-11.0144
cent	-11.0146
បង់ពន្ធ	-11.0146
▁affirmed	-11.0149
ផ្ទាំងគំនូរ	-11.0149
ភាពរីកចម្រើន	-11.015
ឡើងទៅ	-11.0151
▁Our	-11.0155
ធ្វើឡើង	-11.0159
ន្ត	-11.0163
▁គម្រោងបង្កើត	-11.0165
▁outstanding	-11.0165
កង្វល់	-11.0166
នៅសល់	-11.0168
▁approach	-11.0168
ពីកម្ពុជា	-11.0169
▁ភាគី	-11.0172
ដល់កសិករ	-11.0172
ជំនុំជម្រះ	-11.0173
ត្រូវបានបែងចែក	-11.0176
per	-11.018
ជួបជុំគ្នា	-11.018
▁CLV	-11.0181
▁pollution	-11.0186
▁utilization	-11.0186
អបអរ	-11.0187
▁download	-11.0187
▁Ki	-11.0189
▁រដ្ឋសភា	-11.0194
▁3,000	-11.0196
89	-11.0196
ការប្រាក់	-11.0199
ពន្យល់	-11.0202
នាគ	-11.0203
ដើម្បីទប់ស្កាត់	-11.0204
▁ខាងមុខនេះ	-11.0204
កម្ពុជាមាន	-11.0205
season	-11.0206
▁wood	-11.0206
▁កាយ	-11.0207
▁spectacle	-11.0208
នៅក្បែរ	-11.0208
បានចាក់	-11.0209
▁tips	-11.0209
▁desire	-11.021
ពេលព្រឹក	-11.0211
▁illuminate	-11.0212
▁ប្រឡង	-11.0214
វិបុលភាព	-11.0214
សន្យា	-11.0214
រួមបញ្ចូល	-11.0216
▁insufficient	-11.0216
ពីមុន	-11.0218
គេអាច	-11.0223
▁disseminate	-11.0225
▁ខាងក្រៅ	-11.0227
សន្និសីទ	-11.0228
ves	-11.0228
▁restoration	-11.0229
▁bitter	-11.0229
ថ្មីសម្រាប់	-11.023
▁ចេញពី	-11.0232
▁reopening	-11.0233
ជើងហោះហើរ	-11.0234
▁ខេត្តកំពត	-11.0235
65	-11.0238
បេតិកភណ្ឌវប្បធម៌	-11.024
ការអភិរក្ស	-11.0241
ចម្ការ	-11.0242
ផលក្នុងស្រុកសរុប	-11.0242
▁becomes	-11.0243
ម្នាក់ទៀត	-11.0244
នៃអង្គការ	-11.0249
ទាន់	-11.0249
▁Convention	-11.0251
▁brain	-11.0251
របបក្រុងភ្នំពេញ	-11.0252
▁Kan	-11.0252
▁examination	-11.0252
ual	-11.0254
driven	-11.0254
▁recognize	-11.0254
▁គម្រោងសាងសង់	-11.0258
▁flavor	-11.0258
▁Country	-11.0259
▁Parliament	-11.0259
▁deployed	-11.026
▁រួមជាមួយ	-11.026
វាសនា	-11.0266
▁reasons	-11.0267
ទើបតែ	-11.0267
អាកាស	-11.0271
ana	-11.0272
▁imprisonment	-11.0273
មាត្រា	-11.0274
ប្អូនៗ	-11.0274
▁licenses	-11.0276
▁Gold	-11.0276
▁នៅតាម	-11.0276
▁disrupt	-11.0278
▁anxiety	-11.0278
ដូនតា	-11.0279
.8%	-11.0279
▁jungle	-11.028
ហូប	-11.0286
▁Lee	-11.0288
▁សាសនា	-11.0289
មានរយៈពេល	-11.0289
▁confront	-11.029
គ្រឹះស្ថានសិក្សា	-11.029
▁ជាពិសេសគឺ	-11.029
បង្កើតជា	-11.0294
▁ប្រព្រឹត្ត	-11.0294
▁multilateralism	-11.0295
សម្លេង	-11.0295
▁seem	-11.03
▁Procedure	-11.0302
ah	-11.0303
ge	-11.0309
▁ពួកគាត់	-11.0313
ឃាត់	-11.0313
អនុគ្រោះពន្ធ	-11.0314
អាណាចក្រ	-11.0315
ការចងចាំ	-11.0316
លើកទី៣	-11.0316
▁plots	-11.0316
ហែម	-11.0318
▁សូ	-11.0321
បង្រ្កាប	-11.0323
▁bags	-11.0324
▁disruptions	-11.0324
ath	-11.0324
▁sword	-11.0325
▁ឈាង	-11.0325
▁troops	-11.0326
២០២៨	-11.0327
▁IT	-11.033
មានឥទ្ធិពល	-11.0331
យុត្តិធម៌។	-11.0334
▁18,	-11.0334
▁Exhibition	-11.0338
▁Industrial	-11.034
កាលពីកុមារភាព	-11.0341
▁perpetually	-11.0341
កាន់តែស៊ីជម្រៅ	-11.0346
▁cars	-11.0346
មហាវិថី	-11.0346
ទៅតុលាការ	-11.0347
▁Member	-11.0349
gov	-11.035
វិល	-11.0351
ដែលពួកគេ	-11.0351
គតិបណ្ឌិត	-11.0352
49	-11.0355
កាន់តែប្រសើរឡើង	-11.0356
ទីក្រុងភ្នំពេញ	-11.0356
សព្វថ្ងៃនេះ	-11.0356
ឱកាសការងារ	-11.0357
លោកខាងលិច	-11.036
▁challenging	-11.036
▁ស្វែងយល់ពី	-11.0361
▁bas	-11.0363
▁Sang	-11.0364
▁និងត្រូវ	-11.0365
▁tradition	-11.0365
ធានាបាននូវ	-11.0365
លំហូរ	-11.0365
ការព្រួយបារម្ភ	-11.0367
▁livelihood	-11.0368
▁repayment	-11.0369
ចំនួន៦	-11.037
កែវ	-11.0376
ថាមពលអគ្គិសនី	-11.0377
▁destinations	-11.0377
ការបង្កើន	-11.0378
អ្នកដែល	-11.0379
▁leisure	-11.0382
▁testimony	-11.0382
▁timber	-11.0382
▁entry	-11.0382
កងទ័ពជើងគោក	-11.0382
▁artistry	-11.0382
▁និងបច្ចេកទេស	-11.0383
មានកម្រិត	-11.0384
▁Card	-11.0384
▁Teachers	-11.0385
ស្វាមី	-11.0386
▁seize	-11.0392
បានប្រមាណ	-11.0394
▁41	-11.0398
▁Lok	-11.0398
▁(3	-11.0401
ទន់	-11.0403
▁politics	-11.0404
សរីរាង្គ	-11.0404
▁spires	-11.0405
ក្នុងកម្រិត	-11.0405
▁flooded	-11.0408
ចម្លាក់	-11.0408
av	-11.0409
ធុរកិច្ចថ្មី	-11.041
ក្នុងមូលដ្ឋាន	-11.041
▁celebrations	-11.041
ក្នុងបេសកកម្ម	-11.0411
នេះហើយ	-11.0411
នឹក	-11.0412
ខាងមុខ។	-11.0416
▁ឥណ្ឌា	-11.0417
មួយក្រុម	-11.0417
ការរស់នៅ	-11.0418
ការចុះបញ្ជីកំណើត	-11.042
ប្រារព្ធទិវា	-11.0422
RCEP	-11.0422
ការសម្របសម្រួល	-11.0423
៥ឆ្នាំ	-11.0424
នាយទាហាន	-11.0424
សាលាឧទ្ធរណ៍	-11.0424
▁meter	-11.0425
ទី៧	-11.0425
ប្ដេជ្ញា	-11.0425
▁parliament	-11.0426
▁wants	-11.0428
▁motorcycles	-11.0428
▁packages	-11.0429
▁accommodation	-11.0429
▁title	-11.0431
នាពេលខាងមុខ	-11.0433
្យ	-11.0434
▁Joe	-11.0434
អាកាសធាតុ។	-11.0435
▁monk	-11.0435
▁Or	-11.0436
ពេលដែល	-11.0439
▁impacted	-11.0442
រយនាក់	-11.0442
▁វណ្ណៈ	-11.0443
កាន់តែរីកចម្រើន	-11.0444
៥ភាគរយ	-11.0444
ដ៏ពិសិដ្ឋ	-11.0445
▁amount	-11.0445
លេខាធិការដ្ឋាន	-11.0446
▁corn	-11.0447
▁selected	-11.0447
▁devices	-11.0448
86	-11.0448
ពង្រឹងទំនាក់ទំនង	-11.0448
▁emissions	-11.0448
បានកើនឡើងដល់	-11.0449
▁dead	-11.0449
ួង	-11.0449
ក្នុងតំបន់អាស៊ាន	-11.045
io	-11.0456
▁stronger	-11.0461
▁ក្នុងនាម	-11.0464
ស្របតាមច្បាប់	-11.0465
សី	-11.0467
▁territory	-11.0471
▁presidency	-11.0471
នៅអាមេរិក	-11.0472
សកលលោក	-11.048
▁think	-11.0481
មួយថ្ងៃ	-11.0485
ព្រលានយន្តហោះ	-11.0485
នគរបាលជាតិ	-11.0486
ត្រូវបានអនុម័ត	-11.0487
▁streamline	-11.0489
▁និងប្រជាពលរដ្ឋ	-11.049
ក្នុងការបង្កើន	-11.0491
ស្នើឱ្យ	-11.0492
▁beverages	-11.0492
▁rooms	-11.0493
▁automotive	-11.0493
នៅក្នុងសហគមន៍	-11.0497
បាវិត	-11.0497
▁environments	-11.0498
មួយក្នុងចំណោម	-11.05
រមណីយដ្ឋានអង្គរ	-11.0502
ការសម្រេច	-11.0506
▁barrel	-11.0507
បង្ការជំងឺកូវីដ	-11.0509
▁ឃួ	-11.0511
ជាមនុស្ស	-11.0511
ទាំងអស់ត្រូវតែ	-11.0512
▁affect	-11.0514
អភិវឌ្ឍន៍អាស៊ី	-11.0515
▁agencies	-11.0515
▁Power	-11.0515
▁បានដឹកនាំ	-11.0518
▁collapse	-11.052
▁producer	-11.0521
ដេ	-11.0522
ida	-11.0522
ភាពក្លាហាន	-11.0522
បំណិន	-11.0525
០៣	-11.0526
ធំជាងគេ	-11.0528
អគ្គលេខាធិការ	-11.053
81	-11.053
▁pass	-11.0531
he	-11.0533
ការរឹតបន្តឹង	-11.0537
▁criteria	-11.0537
អាយុជីវិត	-11.0538
▁ហើយបាន	-11.054
ទាញយក	-11.0541
▁2020.	-11.0541
▁រាជធានីភ្នំពេញ។	-11.0541
អាចធ្វើបាន	-11.0541
▁disseminated	-11.0542
របស់កុមារ	-11.0545
ទីផ្សារមូលបត្រ	-11.0546
អនុរដ្ឋលេខាធិការ	-11.0548
▁កំណែទម្រង់	-11.0549
ឯកសារផ្លូវការ	-11.0551
ក្នុងតម្លៃ	-11.0552
ប្រកប	-11.0556
▁ក្នុងន័យនេះ	-11.0557
▁42	-11.0557
របស់ព្រះអង្គ។	-11.0559
បានចាប់ផ្ដើម	-11.0559
▁undertake	-11.0559
▁weeks	-11.0559
.9%	-11.0559
▁សំរិន	-11.056
▁identified	-11.0561
di	-11.0563
▁ដំបូង	-11.0564
ណាស់ក្នុងការ	-11.0565
▁ធ្វើការ	-11.0565
ចំណង	-11.0565
▁sentence	-11.0566
▁នីតិវិធីនៃការ	-11.0567
▁younger	-11.0568
ADB	-11.0568
▁៣៨	-11.057
▁adequate	-11.0572
វិស័យនេះ	-11.0572
ស្ថិតក្រោម	-11.0574
ការគោរព	-11.0574
ទំនប់	-11.0575
▁Washington	-11.0576
▁កំពុងត្រូវបាន	-11.0577
រោគរាតត្បាត	-11.0577
ខាត	-11.0579
ក្នុងទីផ្សារ	-11.0579
▁assessments	-11.058
▁អនុក្រឹត្យនេះ	-11.0585
ដ៏អស្ចារ្យ។	-11.0591
▁smiles	-11.0591
ជាប្រភេទ	-11.0591
មានការអភិវឌ្ឍ	-11.0592
▁អំពើ	-11.0592
ទូ	-11.0593
▁Before	-11.0596
៣៦	-11.0596
▁ក្លិន	-11.0598
ប្រកាសថា	-11.0598
ម្សិលមិញ	-11.0599
▁rhythm	-11.0602
ard	-11.0602
▁សៀវភៅ	-11.0604
▁plains	-11.0605
▁temporary	-11.0605
▁preliminary	-11.0605
▁Impact	-11.0605
▁waters	-11.0605
▁delay	-11.0607
ទាំង៣	-11.0612
ita	-11.0614
▁pig	-11.0616
ចំនួនជាង	-11.0616
▁relentless	-11.0617
▁instruments	-11.0618
▁ដើម្បីជួយ	-11.0618
បន្តពង្រឹង	-11.0619
ផលប៉ះពាល់នៃ	-11.062
ថ្លែង	-11.0622
ិក	-11.0624
អន្តរ	-11.0624
ក្នុងករណី	-11.0624
មានភាពល្អប្រសើរ	-11.0625
មូល	-11.0626
▁infections	-11.0628
▁appear	-11.0631
▁Sothea	-11.0632
▁ពាក់ព័ន្ធករណី	-11.0633
ពុល	-11.0634
79	-11.0635
ជីវិតប្រចាំថ្ងៃ	-11.0635
ហាម	-11.0637
▁thoroughly	-11.0638
មួយគ្រឿង	-11.0638
▁ការពង្រីក	-11.0639
▁ដោយមានការ	-11.0639
ដែលលោក	-11.064
▁written	-11.0641
រក្សាស្ថិរភាព	-11.0643
សាល	-11.0644
▁occurred	-11.065
ទីពីរ	-11.0652
លាង	-11.0658
▁hosted	-11.0661
របស់សិស្ស	-11.0661
▁boosts	-11.0662
ប៊ូ	-11.0662
▁welcomes	-11.0664
នៅកន្លែង	-11.0664
▁alleviate	-11.0666
▁ប្រភព	-11.0666
▁ភស្តុតាងទាំងអស់	-11.0667
រួចមកហើយ	-11.0667
បានបង្កើត	-11.0667
គឺមានសារៈសំខាន់	-11.0669
▁Dam	-11.0671
▁awards	-11.0672
កាបូន	-11.0675
tu	-11.0676
▁Not	-11.068
គ្រ	-11.068
▁foundational	-11.0681
▁ការិយាល័យ	-11.0682
ធ្វើយ៉ាងណាឱ្យ	-11.0682
▁Goals	-11.0682
DA	-11.0683
▁chip	-11.0684
▁department	-11.0684
ទ័ព	-11.0688
ថ្មីមួយទៀត	-11.0689
▁ព្រមាន	-11.0694
▁beloved	-11.0695
▁impermanence	-11.0695
▁delicate	-11.0695
ជួយសម្រួល	-11.0696
ហើយនោះ	-11.0697
▁parade	-11.0697
▁គន្លឹះ	-11.0697
▁ជ្រើសរើស	-11.0699
ផ្លូវដែក	-11.07
បានបង្ហាញនូវ	-11.0702
ដ៏ថ្លៃថ្លា	-11.0703
ពហុភាគីនិយម	-11.0704
ឆ្លងជំងឺកូវីដ	-11.0706
ឈឺ	-11.0706
▁certified	-11.0706
ដាក់ពន្ធនាគារ	-11.0707
របស់ជប៉ុន	-11.0708
ខែកក្កដា	-11.071
▁ហូរ	-11.071
អុ	-11.0711
▁Pentagon	-11.0712
ក្នុងខេត្ត	-11.0712
ដើម្បីរក្សា	-11.0715
បក	-11.0715
▁និងវៀតណាម	-11.0716
រឿងនេះ	-11.0717
▁pristine	-11.0718
ទឹកចិត្ត	-11.0722
ផ្តន្ទាទោស	-11.0723
សម្រួល	-11.0723
ika	-11.0726
ដាក់ទណ្ឌកម្ម	-11.0729
នៃការប្រើប្រាស់	-11.0729
▁believes	-11.0729
▁ពេជ្រ	-11.0734
ចំណែក	-11.0736
▁ប្រសិនបើអ្នក	-11.0739
▁returns	-11.074
▁minimum	-11.0741
▁Brent	-11.0741
▁Banh	-11.0742
▁clothing	-11.0746
ជាធរមាន។	-11.0747
ដ៏ស្រទន់	-11.0751
▁ប្រទេសកម្ពុជា	-11.0752
២ឆ្នាំ	-11.0752
សហព័ន្ធ	-11.0754
▁Net	-11.0755
▁rules	-11.0756
ox	-11.0757
ប្រធានព្រឹទ្ធសភា	-11.0757
RC	-11.0762
វិធាន	-11.0763
▁ស្រេង	-11.0764
គត់ផ្គង់ទឹកស្អាត	-11.0764
ពណ៌មាស	-11.0764
1%	-11.0765
▁distributed	-11.0767
▁collaborates	-11.0768
វាលស្រែបៃតងខ្ចី	-11.0769
▁នីតិវិធី	-11.0771
ចាត់ទុកថា	-11.0773
ជីវៈចម្រុះ	-11.0774
win	-11.0781
ហ្សា	-11.0781
កំពុងបន្ត	-11.0784
ចរាចរ	-11.0785
▁70%	-11.0786
ប្រជាសហគមន៍	-11.0788
តាមផែនការ	-11.0789
ធម្មនុញ្ញអង្គ	-11.0789
▁witnesses	-11.0789
▁digitalization	-11.0791
បានឲ្យដឹងថា	-11.0792
ត្រូវបានចេញផ្សាយ	-11.0792
សរុបជាង	-11.0793
▁មធ្យម	-11.0793
▁លោកថា	-11.0794
▁announce	-11.0794
ram	-11.0795
▁rivers	-11.0796
ស្លឹកឈើ	-11.0797
ក្នុងពិធី	-11.0798
▁outbreak	-11.0799
៣២	-11.0799
▁interventions	-11.0799
នៅខេត្តបាត់ដំបង	-11.0801
▁achievement	-11.0801
▁pests	-11.0802
▁តាំងពី	-11.0803
គ្រោងនឹង	-11.0803
េះ	-11.0804
▁ពោរពេញ	-11.0805
▁ឆ្លុះបញ្ចាំង	-11.0806
ត្បាញ	-11.0808
▁dedication	-11.0809
សំខាន់ៗ។	-11.081
▁នឹងជួយ	-11.0811
▁attracted	-11.0812
ដាក់លក់	-11.0812
▁Indian	-11.0814
ដៃគូពាណិជ្ជកម្ម	-11.0815
ឲ្យប្រើប្រាស់	-11.0815
▁Mong	-11.0815
▁អ្នកភូមិ	-11.0816
ដែលខ្លួន	-11.0816
▁slow	-11.0818
ពេលបច្ចុប្បន្ន	-11.0819
ver	-11.082
៥៩	-11.0821
អនាគតដ៏ភ្លឺស្វាង	-11.0821
សំណេះសំណាលជាមួយ	-11.0824
គឺជាកាតព្វកិច្ច	-11.0824
ned	-11.0825
▁barrels	-11.0825
ite	-11.0828
ng	-11.0829
▁ប្រតិបត្តិ	-11.083
អន្តោប្រវេសន៍	-11.083
▁Friendship	-11.0832
▁ocean	-11.0832
▁fake	-11.0832
▁encroachment	-11.0832
ខាងមុខនេះ។	-11.0837
▁Yang	-11.0837
▁៣២	-11.0839
▁Commissioner	-11.084
ពង្រីកអាជីវកម្ម	-11.084
ina	-11.084
ពីក្រុមហ៊ុន	-11.0841
ជំហាន	-11.0842
គុណភាពជីវិត	-11.0842
សុទ្ធតែជា	-11.0847
សាង	-11.0847
.4%	-11.0849
▁barriers	-11.0855
3%	-11.0855
▁protesters	-11.0859
ឃ្មុំ	-11.086
▁purchases	-11.0861
រៀងៗខ្លួន	-11.0861
▁ហៅ	-11.0862
if	-11.0864
កាលពីឆ្នាំមុន	-11.0865
លាន	-11.0866
ហោះហើរ	-11.0867
▁equal	-11.0868
ជិះម៉ូតូ	-11.0871
▁nutrition	-11.0872
ដើម្បីពិនិត្យ	-11.0872
នៃជំងឺកូវីដ	-11.0874
▁ប្តេជ្ញា	-11.0874
▁ACU	-11.0877
ត្នោត	-11.0878
▁ប្រាថ្នា	-11.0878
▁Infrastructure	-11.0878
▁requisite	-11.0878
▁delicious	-11.0878
ចុះហត្ថលេខាដោយ	-11.0879
▁brighter	-11.088
ព្រះសីហនុ	-11.088
កាន់តែល្អប្រសើរ	-11.0881
ទាន	-11.0882
ស្ដារ	-11.0883
▁ព្រឹក	-11.0883
▁ពិនិត្យ	-11.0886
▁forgotten	-11.0886
ឯកឧត្ដម	-11.0886
ណ្ឌ	-11.0888
ជារៀងរហូត	-11.089
tourism	-11.089
Khmer	-11.089
េត	-11.0892
តម្លៃសមរម្យ	-11.0892
DC	-11.0896
▁វិធី	-11.0896
▁ក៏ដូចជាការ	-11.0897
▁mentioned	-11.0897
ដោះស្រាយវិវាទ	-11.0899
▁Mu	-11.09
▁ethereal	-11.0901
ចាត់ការ	-11.0902
យុវវ័យ	-11.0902
▁echoes	-11.0902
▁fallen	-11.0903
ខណ្ឌដូនពេញ	-11.0908
អក្សរ	-11.091
▁ស់	-11.0911
▁Learning	-11.0911
▁complaints	-11.0914
▁serious	-11.0915
មេត្តា	-11.0915
កម្ពុជាបន្ត	-11.0916
នៃប្រព័ន្ធ	-11.0918
▁observe	-11.0919
▁park	-11.0919
សំណូមពរ	-11.092
ផ្កាឈូក	-11.092
ឈានដល់	-11.092
▁8.	-11.092
▁Sophea	-11.0922
បណ្ដា	-11.0922
▁ត្រូវបានពង្រឹង	-11.0923
▁steadily	-11.0925
▁diplomacy	-11.0925
ច្បាប់នេះ	-11.0925
អន្ដរជាតិ	-11.0926
▁ពោល	-11.0926
ga	-11.0927
▁sprawling	-11.0928
▁featur	-11.0929
▁ព្រះសង្ឃ	-11.0929
សម្បូរ	-11.0929
▁Im	-11.093
▁២០២៥	-11.093
ទាំងអស់ដែល	-11.0931
▁គំនិត	-11.0933
gi	-11.0933
ធានាប្រសិទ្ធភាព	-11.0935
▁និងបង្កើត	-11.0936
66	-11.0937
▁suspended	-11.0939
▁narratives	-11.0941
▁purpose	-11.0943
▁ឈ	-11.0944
ការប្រើ	-11.0945
ការថែទាំ	-11.0946
▁contracts	-11.0947
ស្ពានអាកាស	-11.0948
▁Corporation	-11.0948
▁splendor	-11.0948
តាមផ្លូវ	-11.0948
▁sovereign	-11.0948
សន្ធិសញ្ញា	-11.095
▁និងសន្តិសុខ	-11.0951
ឈានមុខគេ	-11.0951
នៅតែជា	-11.0954
▁eternally	-11.0955
34	-11.0955
▁និងធានា	-11.0955
▁directives	-11.0957
▁behavior	-11.0958
▁amended	-11.0959
រយៈពេលខ្លី	-11.0959
▁occur	-11.0961
បទប្បញ្ញត្តិថ្មី	-11.0963
▁canal	-11.0964
ow	-11.0964
▁នៅតំបន់	-11.0965
▁តម្រូវ	-11.0966
រូបនាង	-11.0967
▁Cha	-11.0968
ត្រឡប់មកវិញ	-11.097
ជាសមាជិក	-11.0971
សីតុណ្ហភាព	-11.0971
▁profusely	-11.0971
▁CBRE	-11.0971
▁supervision	-11.0972
លាប	-11.0972
ប្រគល់ជូន	-11.0972
ដាក់ឱ្យ	-11.0973
ខែមីនា	-11.0977
▁trained	-11.0981
▁33	-11.0982
ខែមិថុនា	-11.0982
▁pressures	-11.0982
For	-11.0982
វាលស្រែ	-11.0984
មួយចំនួន។	-11.0984
2%	-11.0985
▁5,000	-11.0985
98	-11.099
▁វណ្ណ	-11.0991
▁emerald	-11.0995
▁Small	-11.0995
សិក្ខាសាលា	-11.0995
▁graduates	-11.0996
ទសវត្សរ៍	-11.0999
កញ្ចប់ថវិកា	-11.1001
របស់អ្នកស្រី	-11.1002
ផែនការសកម្មភាព	-11.1003
▁តណ្ហា	-11.1004
▁empower	-11.1005
ស្ដីពីការ	-11.1005
ការដាំ	-11.1007
កម្ចាត់	-11.1009
ប្រាក់ខែ	-11.1009
ប្លែក	-11.101
▁ចំពោះការ	-11.1012
▁flag	-11.1012
▁threatening	-11.1013
ផ្នែកសេដ្ឋកិច្ច	-11.1014
សាក្សី	-11.1015
រៀង	-11.1016
ភាពស្រស់ស្អាត	-11.1016
ឆ្លាក់	-11.1016
រ័ត្ន	-11.1017
បាននាំមកនូវ	-11.1018
ទូទាំង	-11.1018
ខែកុម្ភៈ	-11.1019
▁សុផល	-11.102
▁បញ្ចេញ	-11.1021
▁Is	-11.1027
▁opens	-11.1028
ke	-11.1028
ការធ្លាក់ចុះនៃ	-11.1028
▁functions	-11.1036
មួយរបស់	-11.1041
បានប្តេជ្ញាចិត្ត	-11.1041
sangkat	-11.1041
▁destruction	-11.1042
▁feedback	-11.1042
នៅតែរក្សាបាននូវ	-11.1042
▁ណែនាំ	-11.1043
▁cancer	-11.1044
ដុល្លារ	-11.1046
ប្រវត្តិ	-11.1046
▁ក្នុងពិធី	-11.1049
▁វិជ្ជាជីវៈ	-11.1052
▁operators	-11.1053
សោភ័ណភាព	-11.1055
ដ៏បរិសុទ្ធ	-11.1056
ច្បាប់អន្តរជាតិ	-11.1057
ជួយសម្រួលដល់	-11.106
▁ឧសភា	-11.1062
សម្រាប់តែ	-11.1062
ប្រាំ	-11.1063
▁សុខហួរ	-11.1066
▁ឆ្នាំ២០២២។	-11.1067
▁Six	-11.1068
▁Sunday	-11.1068
នៅឡើយទេ	-11.1071
▁បានប្រកាសថា	-11.1073
តម្រង់ទិស	-11.1074
▁direction	-11.1079
▁agenda	-11.1079
សួនច្បារ	-11.1083
មោទនភាព	-11.1083
▁warn	-11.1083
វិញ្ញាណក្ខន្ធ	-11.1084
▁ផង	-11.1085
▁អនុញ្ញាតឱ្យ	-11.1087
▁ឧត្តមសេនីយ៍ឯក	-11.1087
▁reviewing	-11.1087
ចំពោះកិច្ច	-11.1088
▁intensified	-11.1089
ភាពបរិសុទ្ធ	-11.1089
ឆ្ពោះទៅ	-11.109
នៃសាធារណរដ្ឋ	-11.1093
▁quickly	-11.1095
▁ខេត្តបាត់ដំបង	-11.1096
ពេញមួយជីវិត	-11.1096
▁បានធ្វើ	-11.11
▁សំបុត្រ	-11.11
ជនសង្ស័យម្នាក់	-11.1102
▁chicken	-11.1104
ប្រតិបត្តិករ	-11.1104
▁មិនទាន់	-11.1105
▁Vong	-11.1105
លំ	-11.1107
▁pillars	-11.111
▁forced	-11.111
▁ស្ងប់ស្ងាត់	-11.1111
បន្ទះឈីប	-11.1112
▁សុន	-11.1112
ថ្ងៃព្រហស្បតិ៍	-11.1113
ធៀបទៅនឹង	-11.1113
▁momentum	-11.1113
▁Touch	-11.1114
នៅតែស្ថិតស្ថេរ	-11.1115
▁reaffirmed	-11.1118
▁photo	-11.1119
▁ធម៌	-11.1121
▁emotional	-11.1122
ranked	-11.1124
ការជួញដូរ	-11.1125
នៅបន្ត	-11.1125
បោះបង់	-11.1125
▁5%	-11.1128
▁ការផ្លាស់ប្តូរ	-11.1129
▁បានបន្ត	-11.1134
ព្រួយបារម្ភ	-11.1135
៧១	-11.1136
▁Borvor	-11.1136
▁ratified	-11.1136
▁ព័ន្ធមុនីរ័ត្ន	-11.1136
រលក	-11.1137
ហិង្សា	-11.1137
▁permitted	-11.1139
▁steal	-11.114
▁tobacco	-11.114
▁Mean	-11.1141
▁ទៅជា	-11.1144
▁relie	-11.1145
នៃកិច្ច	-11.1145
go	-11.1147
យ៉ាងខ្លាំងក្លា	-11.1148
▁delays	-11.1149
for	-11.1151
ja	-11.1151
ហេតុការណ៍	-11.1153
សោះ	-11.1155
▁(4	-11.1157
ជុំ	-11.1159
▁outlook	-11.116
▁ជុន	-11.116
▁អ៊ឹង	-11.116
▁brimm	-11.116
▁ចំរើន	-11.116
គោក	-11.1161
ពីកម្មវិធី	-11.1162
▁និងសកម្មភាព	-11.1163
ផ្ទៃដី	-11.1164
▁unions	-11.1164
តិចៗ	-11.1165
ជាបន្ទាន់។	-11.1165
ធ្វើយុទ្ធនាការ	-11.1165
ក្នុងជីវិត	-11.1166
▁clinging	-11.1167
ដ៏រុងរឿង	-11.1167
▁headquarters	-11.1168
ភោជនីយដ្ឋាន	-11.1169
▁clearance	-11.1169
DI	-11.1171
អារ៉ាប៊ីសាអូឌីត	-11.1174
ឯកភាពគ្នា	-11.1175
មេត្តាធម៌	-11.1175
▁striving	-11.1184
▁និងទេសចរណ៍	-11.1186
កូនចៅ	-11.1186
▁stillness	-11.1187
ock	-11.1187
សន្លឹក	-11.1188
▁employ	-11.1188
ទម្ងន់	-11.1189
ោង	-11.1191
▁accounting	-11.1192
▁break	-11.1194
▁ជនជាតិដើមភាគតិច	-11.1196
▁faith	-11.1197
សព្វព្រះរាជហ	-11.1197
បណ្ដាលឱ្យ	-11.1198
ities	-11.1199
▁Services	-11.1201
ដូចគ្នា។	-11.1201
▁៤៥	-11.1203
ខ្សោយ	-11.1203
ជារួម	-11.1203
▁គឺលោក	-11.1206
ភូតគាមអនាម័យ	-11.1207
▁mysteries	-11.1207
▁yourself	-11.1208
របស់យុវជន	-11.1208
▁homeland	-11.1209
▁ម្យ៉ាងទៀត	-11.1209
▁donated	-11.121
លើការងារ	-11.1213
ក្តៅ	-11.1217
mon	-11.1218
▁promptly	-11.122
ធ្វើពាណិជ្ជកម្ម	-11.1221
ឆ្នាំ២០១៦	-11.1222
▁Mountain	-11.1223
វិថី	-11.1224
ជាខ្លាំង	-11.1225
▁move	-11.1227
ទាំង២	-11.1229
ង់	-11.123
ឆ្នេរសមុទ្រ	-11.123
ព្រះទ័យ	-11.1231
សន្ធឹកសន្ធាប់	-11.1231
▁locally	-11.1232
▁Independence	-11.1232
▁broader	-11.1233
▁Penal	-11.1233
▁បណ្តា	-11.1233
ក្នុងការបង្កើត	-11.1236
▁បុគ្គល	-11.1238
▁3000	-11.1238
▁ministers	-11.1239
▁ន៍	-11.124
យ៉ាងម៉ត់ចត់	-11.1241
▁ពលរដ្ឋខ្មែរ	-11.1241
៧៣	-11.1247
▁សូមស្ដាប់	-11.1248
▁និងការគ្រប់គ្រង	-11.125
▁ដើម្បីទាក់ទាញ	-11.1251
▁មេសា	-11.1255
▁Democracy	-11.1255
រឹតតែ	-11.1257
របស់សហគមន៍	-11.1259
▁charged	-11.126
ភ័យខ្លាច	-11.1262
វេន	-11.1265
យុទ្ធ	-11.1265
▁Dara	-11.1265
▁deepen	-11.1267
▁replace	-11.127
ក្រសួងប្រៃសណីយ៍	-11.127
61	-11.127
ទស្សនវិស័យ	-11.1274
បានក្លាយទៅជា	-11.1274
ខេត្តកណ្ដាល	-11.1275
បានគូសបញ្ជាក់ពី	-11.1276
▁ការចូលរួម	-11.1279
▁Registration	-11.1279
▁cooperate	-11.1279
▁harmony	-11.1279
លីត្រ	-11.1279
សេចក្តីប្រកាស	-11.1281
▁ឈរ	-11.1282
▁សហភាពអឺរ៉ុប	-11.1282
ធ្វើពី	-11.1283
រងការ	-11.1284
ប៉ូលិស	-11.1285
▁ត្រូវបានអនុម័ត	-11.1287
ផ្អែកលើ	-11.1287
▁Why	-11.1287
ភព	-11.1289
▁borders	-11.129
▁ដុល្លារអាមេរិក	-11.1293
▁គឺជាអាទិភាពមួយ	-11.1294
▁important	-11.1295
▁mark	-11.1297
រយៈពេលប៉ុន្មាន	-11.1298
កម្រ	-11.1298
គន្លង	-11.1299
គោលនយោបាយជាតិ	-11.1299
ការដាក់	-11.1299
រូបលោក	-11.13
▁foods	-11.1301
▁expanse	-11.1303
▁Legal	-11.1304
▁convert	-11.1304
▁Medical	-11.1304
ហាត់ប្រាណ	-11.1304
▁Ban	-11.1304
▁Factory	-11.1304
ឱ្យក្លាយជា	-11.1306
ier	-11.1306
▁សូម្បីតែ	-11.1307
កម្មសិទ្ធិបញ្ញា	-11.1308
▁unit	-11.131
មានប្រសាសន៍ថា៖	-11.1312
ស្រស់ស្អាត	-11.1312
បានធ្វើឱ្យ	-11.1313
លាក់ខ្លួន	-11.1314
ស្ថាបនិក	-11.1315
▁40%	-11.1316
ម៉ឺនរៀល	-11.1317
១៩។	-11.1318
កម្មវិធីនេះ	-11.132
▁publish	-11.132
▁restaurants	-11.1321
ផែនការអភិវឌ្ឍន៍	-11.1323
ការពឹងផ្អែកលើ	-11.1323
បន្តគាំទ្រ	-11.1325
▁Tep	-11.1325
▁ទ	-11.1325
▁fast	-11.1326
ទួល	-11.1326
ឱ	-11.1327
▁Tuesday	-11.1328
▁Agency	-11.1328
ចូលមកកម្ពុជា	-11.1328
▁Work	-11.1328
▁Reserve	-11.1328
▁advancements	-11.1329
63	-11.1331
▁spanning	-11.1331
ជំនន់ទឹកភ្លៀង	-11.1333
aw	-11.1337
៣ឆ្នាំ	-11.1338
បានចេញ	-11.1339
ប្រទេសបារាំង	-11.1339
▁destroyed	-11.134
▁thrive	-11.134
▁inspections	-11.1343
ប្រចាំការ	-11.1343
▁holiday	-11.1345
បរាជ័យ	-11.1345
សិស្សនិស្សិត	-11.1345
▁2015.	-11.1347
ជាប្រចាំ។	-11.1347
ho	-11.1349
▁places	-11.1349
វិទ្យាស្ថានជាតិ	-11.135
▁Thursday	-11.1352
បើកចំហ	-11.1353
▁ឡេង	-11.1356
▁stages	-11.1358
▁ចូលជួប	-11.1359
ការខាតបង់	-11.1359
កែសម្រួល	-11.136
▁competitions	-11.136
មនុស្សម្នាក់ៗ	-11.136
ability	-11.1363
▁drifted	-11.1364
លម្អ	-11.1364
▁invested	-11.1365
▁ingredients	-11.1365
ថ្លែងការណ៍រួម	-11.1366
▁បានលើកឡើង	-11.1366
ក្រាម	-11.1366
តាមតម្រូវការ	-11.1367
ជាធម្មតា	-11.1368
▁វិស្វកម្ម	-11.1369
▁instance	-11.1369
ខ្លាំងណាស់	-11.1372
នៅក្រោម	-11.1375
▁descended	-11.1377
បាននូវ	-11.138
▁សេវា	-11.138
▁មិនអាច	-11.1382
ប្លង់	-11.1383
តាមប្រព័ន្ធអនឡាញ	-11.1383
Mr	-11.1385
▁វិស័យឯកជន	-11.1387
បានបញ្ចប់	-11.1389
ជញ្ជាំងប្រាសាទ	-11.1389
៣៣	-11.1389
ពិតជាមាន	-11.1389
▁decree	-11.139
ការពារសិទ្ធិ	-11.139
មន្រ្តីរាជការ	-11.1392
យល់ឃើញថា	-11.1395
▁birds	-11.1396
កំណត់ដោយច្បាប់។	-11.1398
▁escape	-11.1398
AS	-11.1398
យ៉ាងសកម្មក្នុង	-11.14
ឹង	-11.1403
▁reinforced	-11.1404
▁Mi	-11.1405
ដែលបានកំណត់ដោយ	-11.1407
រដ្ឋធម្មនុញ្ញ។	-11.1407
ទុកដាក់	-11.1408
ជាច្រើននាក់	-11.1409
▁ផ្ទុយទៅវិញ	-11.1409
87	-11.141
ដ៏អស់កល្បជានិច្ច	-11.1411
ten	-11.1411
▁outlines	-11.1412
ថ្វាយ	-11.1413
ខែមករា	-11.1415
55	-11.1416
របស់បងប្អូន	-11.1417
បេតិកភណ្ឌពិភពលោក	-11.1418
▁ecosystem	-11.1418
ខាងវិញ្ញាណ	-11.142
▁elders	-11.1421
▁character	-11.1422
ឥត	-11.1423
តំបន់ទេសចរណ៍	-11.1424
អានសៀវភៅ	-11.1425
▁ចុងក្រោយ	-11.1425
ស្តង់	-11.1426
▁copies	-11.1426
បានត្រឹមត្រូវ	-11.1427
នៅទីតាំង	-11.1429
▁ឡុង	-11.143
▁courts	-11.1431
កសិកម្មប្រកបដោយ	-11.1431
EU	-11.1432
ពាក់ព័ន្ធនឹងការ	-11.1433
▁civility	-11.1434
មួយឆ្នាំ	-11.1434
▁ព្រៃ	-11.1436
▁turned	-11.1437
វិនិយោគលើ	-11.1439
នេះជា	-11.1441
▁started	-11.1442
▁tears	-11.1444
ក្នុងមួយបារ៉ែល	-11.1444
▁គ្រោងនឹង	-11.1444
នូវគោលនយោបាយ	-11.1444
ហិ	-11.1445
ពុំ	-11.1445
ភាពត្រឹមត្រូវនៃ	-11.1446
▁applied	-11.1449
▁depict	-11.1449
រុញ	-11.1451
▁deposits	-11.1451
សាកល	-11.1453
៧៥	-11.1454
គរ	-11.1455
▁showcased	-11.1456
.3%	-11.1457
ជីវភាពរស់នៅរបស់	-11.1457
▁Sim	-11.1459
▁operates	-11.146
ធ្វើទំនើបកម្ម	-11.1461
▁មានតម្លៃ	-11.1462
▁wise	-11.1464
▁Command	-11.147
វិធានការបង្ការ	-11.1471
គិតពី	-11.1471
តិចជាង	-11.1472
ដែលបានចុះបញ្ជី	-11.1472
▁Cho	-11.1472
▁let	-11.1473
ប្រទេសឥណ្ឌា	-11.1473
RO	-11.1473
▁livestock	-11.1474
ក្នុងក្របខណ្ឌ	-11.1474
▁showed	-11.1475
យា	-11.1476
▁singer	-11.1477
កាណាដា	-11.1478
រិ	-11.148
▁ព្រះធម៌	-11.1484
ជួបបញ្ហា	-11.1484
▁abuse	-11.1484
▁sells	-11.1485
▁ប្តេជ្ញាចិត្ត	-11.1486
ការចិញ្ចឹម	-11.1486
គោលបំណងលើកកម្ពស់	-11.1487
▁WHO	-11.1489
▁ព្រះនាង	-11.1491
ោះ	-11.1491
នាយករដ្ឋមន្ដ្រី	-11.1492
▁courses	-11.1493
breaking	-11.1494
កំពុងអភិវឌ្ឍន៍	-11.1495
មន្ដ្រី	-11.1495
ណាហ្គាវើលដ៍	-11.1496
▁ដេលី	-11.1496
▁Tha	-11.1497
គល់	-11.1497
▁North	-11.1498
រៀបចំគោលនយោបាយ	-11.1498
ខាងលិច	-11.1498
▁collaborative	-11.1498
▁denied	-11.1498
▁Vision	-11.1498
▁aircraft	-11.1499
▁Pe	-11.1499
▁សុខុន	-11.15
▁Seven	-11.1501
▁ការផ្តល់	-11.1504
ខ្លាំង។	-11.1505
▁រីក	-11.1505
ផ្សេងគ្នា	-11.1506
៣៧	-11.1506
ចង	-11.1506
ក្រម	-11.1509
▁departments	-11.1511
▁inherent	-11.1513
វិស័យសំណង់	-11.1513
សមាសភាព	-11.1514
រដ្ឋាភិបាលចិន	-11.1515
វេ	-11.1515
▁developments	-11.1518
▁station	-11.1518
នេះ៕	-11.1518
២ភាគរយ	-11.1519
▁ផលិតកម្ម	-11.1519
អំបិល	-11.1519
▁150	-11.1519
បានបង្កើតឡើង	-11.152
▁mitigat	-11.1522
ទូរស័ព្ទដៃ	-11.1524
▁concealed	-11.1532
រៀបការ	-11.1533
ខូច	-11.1533
▁អត្រា	-11.1533
ការពង្រីក	-11.1534
ការពារធម្មជាតិ	-11.1534
▁2030.	-11.1535
យើងបាន	-11.1538
▁discussing	-11.1538
▁guarantee	-11.1538
នេះឡើង	-11.1542
វិសាមញ្ញ	-11.1544
ឡើងក្នុងគោលបំណង	-11.1547
▁ថោង	-11.1548
▁Hem	-11.155
▁ទី៤	-11.155
តែមួយគត់	-11.1552
ក្នុងមួយ	-11.1552
ឆ្លុះបញ្ចាំង	-11.1553
ចាត់ទុកថាជា	-11.1554
សាច់ញាតិ	-11.1554
ចុះបញ្ជីដីធ្លី	-11.1554
▁90%	-11.1555
▁ពិព័រណ៍	-11.1555
▁និងវប្បធម៌	-11.1556
សាក	-11.1557
សេចក្ដីសុខ	-11.1557
▁Climate	-11.1557
ត្រូវបានកំណត់	-11.1559
▁valued	-11.1559
▁deeper	-11.1561
▁ឬការ	-11.1562
▁៣៣	-11.1564
ទាបជាង	-11.1565
របស់តុលាការ	-11.1565
ធ្វើតេស្ត	-11.1565
▁Tong	-11.1565
▁My	-11.1566
▁positions	-11.1567
▁កសាង	-11.1569
▁មា	-11.1572
▁integrating	-11.1572
▁ងាយស្រួល	-11.1575
▁acquisition	-11.1577
ឯករាជ្យភាព	-11.1578
▁ដើម្បីបង្កើត	-11.1579
▁Visa	-11.1579
▁ខុនដូ	-11.158
ដែលចង់	-11.158
▁បញ្ជាក់បន្ថែមថា	-11.158
បូរណភាពទឹកដី	-11.1581
ph	-11.1582
▁SE	-11.1585
ub	-11.1586
ខ្ពស់ចំពោះ	-11.1587
ក្នុងក្របខ័ណ្ឌ	-11.1587
▁ស្ថាបត្យកម្ម	-11.1589
ដ៏មហិមា	-11.159
តំ	-11.1591
ដោយប្រើ	-11.1592
នាំឱ្យ	-11.1595
ប្រារព្ធឡើង	-11.1596
▁Spokesperson	-11.1597
ធុង	-11.1599
នឹងក្លាយជា	-11.1599
▁nearby	-11.1601
▁ដែលតែងតែ	-11.1602
▁រំពឹងថា	-11.1602
ចុះហត្ថលេខាលើ	-11.1607
▁ពាក្យ	-11.1611
បានមានប្រសាសន៍	-11.1612
ត់	-11.1612
▁blessings	-11.1613
38	-11.1615
យោធិន	-11.1616
ការកំណត់	-11.1616
▁virtues	-11.1619
មិត្តភក្តិ	-11.1619
រស់រវើក	-11.162
មិនដែល	-11.1621
បានអនុម័ត	-11.1621
រួមមានដូចជា	-11.1622
68	-11.1622
▁army	-11.1622
ជំនួយបច្ចេកទេស	-11.1624
44	-11.1624
uality	-11.1626
▁នឹងប្រព្រឹត្តទៅ	-11.1626
ដើម្បីធានានូវ	-11.1627
ព័ត៌មានវិទ្យា	-11.1627
▁animals	-11.1628
ដោយជោគជ័យ	-11.1629
OM	-11.163
▁municipal	-11.1636
ដោយតម្លាភាព	-11.1639
បាតុកម្ម	-11.1639
គ្របដណ្តប់	-11.1641
ក្នុងកិច្ច	-11.1641
មានចក្ខុវិស័យ	-11.1643
ទាំងពួង។	-11.1643
ក្លិនក្រអូបឈ្ងុយ	-11.1643
អភិវឌ្ឍន៍ជាតិ	-11.1644
▁Official	-11.1646
▁components	-11.1646
វិស្វករ	-11.1647
▁accelerating	-11.1647
រំលាយ	-11.1647
▁ច័ន្ទបុត្រ	-11.1647
▁កន្លងទៅនេះ	-11.1648
39	-11.1649
▁ពេជ	-11.1651
▁demonstrated	-11.1652
៤១	-11.1652
ដើម្បីអាច	-11.1654
អេឡិចត្រូនិច	-11.1657
▁ដើម្បីសម្រួលដល់	-11.1658
oc	-11.1658
▁march	-11.1659
ឆ្នាំមកហើយ	-11.166
្តិការទ្វេភាគី	-11.166
ចូលរួមជាមួយ	-11.1662
▁extensive	-11.1662
▁spirits	-11.1662
៩៦	-11.1667
មួយនេះ។	-11.1668
របស់ជាតិ	-11.1669
ប្រាក់បញ្ញើ	-11.167
▁hall	-11.1671
ចាំបាច់សម្រាប់	-11.1671
ក្រោមឆ័ត្រ	-11.1672
ជាប់គាំង	-11.1673
36	-11.1675
▁Khan	-11.1678
▁Chandara	-11.1679
▁ឆ្នាំនេះ	-11.1679
វិស័យការពារជាតិ	-11.168
ប្រារព្ធពិធី	-11.1681
ពោត	-11.1682
▁និងឯកឧត្តម	-11.1686
ជំនួប	-11.1687
▁arrive	-11.1688
ជារឿង	-11.1688
អង្គការអន្តរជាតិ	-11.1688
ទ្វារ	-11.1688
.6%	-11.1691
៣៥	-11.1691
▁incident	-11.1692
បន្ថែមលើ	-11.1693
▁ព្រះអង្គបាន	-11.1694
▁ស្រមោល	-11.1695
▁Amazon	-11.1697
▁Expressway	-11.1697
▁ប្រឈម	-11.1699
ភាពរុងរឿង	-11.17
▁storms	-11.17
កំពត	-11.17
▁talent	-11.1702
និយោជក	-11.1703
សង្គមកិច្ច	-11.1703
▁volunteer	-11.1705
សមាហរណកម្ម	-11.1709
សម្រាប់ផលិតផល	-11.1711
▁និងការអភិវឌ្ឍន៍	-11.1712
ទីប្រជុំជន	-11.1713
តទៅ	-11.1714
ការផ្ដល់	-11.1714
▁សត្វលោក	-11.1718
92	-11.1719
▁guided	-11.1722
▁entertainment	-11.1722
ស្ពៃ	-11.1722
ពិភព	-11.1722
ភូមិន្ទភ្នំពេញ	-11.1722
▁Function	-11.1722
ក្រុងតាខ្មៅ	-11.1723
អាចធ្វើ	-11.1724
▁90	-11.1724
ទោះ	-11.1724
ការស៊ើបអង្កេត	-11.1725
វប្បធម៌ខ្មែរ	-11.1726
▁2-3	-11.1727
▁someone	-11.1728
▁employers	-11.173
ជាកន្លែង	-11.1732
▁encroaching	-11.1732
▁claimed	-11.1733
យ៉ាងសំខាន់ក្នុង	-11.1734
TC	-11.1736
69	-11.1737
▁សាលាឧទ្ធរណ៍	-11.1739
▁respective	-11.174
កម្ពស់	-11.1741
កើនដល់	-11.1743
ជាចម្បង	-11.1743
វិស័យកសិកម្ម។	-11.1743
▁ទន្លេ	-11.1743
▁view	-11.1744
្តិការរវាង	-11.1745
ក្លាយទៅជា	-11.1746
ទីលំនៅ	-11.1747
gazing	-11.1747
▁standard	-11.1752
▁ឃើញថា	-11.1753
▁យោង	-11.1754
នៃកិច្ចព្រមព្រៀង	-11.1754
▁អ្នកឃ្លាំមើល	-11.1756
ពីក្រោយ	-11.1758
▁Can	-11.1759
▁Parents	-11.1759
ដ៏សំខាន់ក្នុងការ	-11.176
▁ten	-11.1761
ដែលបាត់បង់	-11.1764
▁trucks	-11.1764
▁Lay	-11.1765
▁និងផលិតផល	-11.1766
គំរាមកំហែង	-11.1766
ផ្លូវការរបស់	-11.177
វិជ្ជា	-11.1771
រយៈ	-11.1772
▁Executive	-11.1773
▁Secretariat	-11.1773
▁demise	-11.1773
▁collateral	-11.1773
០៨	-11.1776
របរ	-11.1777
សម្លឹងមើល	-11.1778
▁celebrating	-11.178
កំពុងស្វែងរក	-11.1782
បង្កើតគណៈកម្មការ	-11.1783
ទាក់ទាញការវិនិយោ	-11.1786
អនុវត្តកម្មវិធី	-11.1789
ants	-11.1791
▁Support	-11.1796
▁គួរជម្រាបជូនថា	-11.1798
▁Bodhi	-11.1798
ព្យាបាលជាសះស្បើយ	-11.1798
▁nationality	-11.1801
▁Army	-11.1801
ដេក	-11.1802
▁persist	-11.1803
ចូលរួមប្រកួត	-11.1806
ទាន់ពេលវេលា	-11.1807
បើកការដ្ឋាន	-11.1807
▁Yi	-11.1807
ខេត្តព្រៃវែង	-11.1808
ច្រានចោល	-11.1808
ise	-11.1808
យល់ដឹង	-11.181
ផា	-11.1811
▁Unit	-11.1811
▁brilliant	-11.1813
▁surrounding	-11.1814
ណេ	-11.1816
▁song	-11.1819
▁convene	-11.1819
តុលាការកំពូល	-11.182
red	-11.182
រំខាន	-11.1822
▁benevolent	-11.1823
សម្រាប់ប្រជា	-11.1824
ជាលក្ខណៈ	-11.1826
▁30%	-11.1828
▁ជាការឆ្លើយតប	-11.1829
▁suspend	-11.1829
▁ប្រកាន់	-11.183
▁latest	-11.183
▁៣៦	-11.1831
con	-11.1832
សិក្ខាកាម	-11.1832
បានសម្រេចចិត្ត	-11.1835
ផ្សិត	-11.1835
ងាប់	-11.1836
▁emphasizes	-11.1836
▁holding	-11.1837
ជីវ	-11.184
ចំពោះមុខ	-11.184
បានបន្លឺឡើង	-11.1842
ព័ត៌មានមិនពិត	-11.1843
នៃគម្រោង	-11.1845
▁Pra	-11.1845
ជាងមុន។	-11.1845
នៅទីនេះ	-11.1846
ence	-11.1846
លើគម្រោង	-11.1847
ភរិយា	-11.1848
អង់	-11.1849
អត្ថបទដែលទាក់ទង	-11.1849
ជាមួយដៃគូ	-11.1849
▁បុរី	-11.185
ក្របខ័ណ្ឌច្បាប់	-11.1851
ផ្លូវការ។	-11.1851
ការងារបានចំនួន	-11.1851
ដាក់ចេញ	-11.1852
▁graduation	-11.1852
ឈឺចាប់	-11.1852
▁transfers	-11.1852
rich	-11.1852
46	-11.1853
▁Cam	-11.1853
ឈឹម	-11.1853
▁damaged	-11.1854
▁និងពហុភាគី	-11.1854
▁condition	-11.1855
ប្រកបរបរ	-11.1855
▁ជំរុញឱ្យ	-11.1859
ុន	-11.186
ប្រទេសកម្ពុជា។	-11.1862
▁Ratha	-11.1863
▁Lu	-11.1863
វិទ្យុ	-11.1868
▁ទំហំពាណិជ្ជកម្ម	-11.187
▁realm	-11.1874
▁courtesy	-11.1874
▁nothing	-11.1875
▁geographical	-11.1875
ក្នុងគ្រួសារ	-11.1876
ការអភិវឌ្ឍសង្គម	-11.1877
ម៉ឺនតោន	-11.1879
▁វាក៏	-11.1879
GI	-11.188
▁wish	-11.1884
sector	-11.1885
▁គោល	-11.1885
▁មានដូចជា	-11.1889
▁Modern	-11.1889
ey	-11.1889
▁មានតែ	-11.189
ូត	-11.1891
▁flavors	-11.1891
កម្លាំងចិត្ត	-11.1892
ក៏ជា	-11.1893
▁link	-11.1894
AP	-11.1894
ក្	-11.1897
ជនមានពិការភាព	-11.1899
ឥណ្ឌូណេស៊ី	-11.19
▁yuan	-11.19
▁bell	-11.1901
វេទិកាអ្នកស្ដាប់	-11.1901
▁entirely	-11.1903
តៃវ៉ាន់	-11.1904
▁burden	-11.1904
ពង្រឹងកិច្ចសហ	-11.1905
▁micro	-11.1909
ster	-11.191
▁seats	-11.1912
ស្រាល	-11.1913
យ៉ាងស្ងប់ស្ងាត់	-11.1913
ស់ជីវិតលើត្បូង	-11.1916
បានប្រាប់	-11.1916
ការណែនាំ	-11.1919
▁lasting	-11.1919
forming	-11.192
▁storm	-11.1923
▁disabled	-11.1926
និងវិចិត្រសិល្បៈ	-11.1926
ថានឹង	-11.1926
▁គឺជាផ្នែកមួយ	-11.1927
▁treaty	-11.1928
▁invited	-11.1928
▁fertilizers	-11.1928
▁ឥឡូវនេះ	-11.1929
▁និងសុខុមាលភាព	-11.1931
▁attempt	-11.1934
ការវាយប្រហារ	-11.1936
▁និងគុណភាព	-11.1936
វាបាន	-11.1936
បានកំណត់	-11.1939
តម្រូវឱ្យមានការ	-11.194
សុទ្ធតែមាន	-11.1942
ប្រទេសរុស្ស៊ី	-11.1944
▁analysts	-11.1947
អម	-11.1947
▁ចុះថ្ងៃទី	-11.1948
▁container	-11.195
ការឈឺចាប់	-11.1951
ផ្អែម	-11.1951
▁literature	-11.1951
▁allocate	-11.1952
▁អបអរសាទរ	-11.1954
▁Angkorian	-11.1954
យ៉ាងពេញទំហឹង	-11.1959
ការចែករំលែក	-11.196
▁summoned	-11.1961
▁congratulat	-11.1968
សមាជិកគ្រួសារ	-11.1968
ខ្លះទៀត	-11.1971
▁unite	-11.1971
ដែលមានឈ្មោះថា	-11.1974
ផលិតកម្មកសិកម្ម	-11.1974
ការតស៊ូ	-11.1974
រុះរើ	-11.1976
ព្រះករុណាជាអម្ចា	-11.1976
យើងអាច	-11.1977
▁uncertainty	-11.1977
▁Feder	-11.1982
▁ចំណោម	-11.1982
▁prefer	-11.1983
ep	-11.1986
▁ជាអ្នក	-11.1988
wi	-11.1991
នាពេលកន្លងមក	-11.1996
ចុះត្រួតពិនិត្យ	-11.1997
▁រាប់	-11.1997
ern	-11.1998
▁educate	-11.1999
▁samsara	-11.2003
▁neutrality	-11.2003
▁Ampov	-11.2003
▁80%	-11.2004
▁popularity	-11.2004
អចលនវត្ថុ	-11.2005
▁appearance	-11.2005
ក្នុងប្រព័ន្ធ	-11.2009
▁harvesting	-11.201
នៃជីវិត	-11.2011
ក្នុងការធ្វើ	-11.2015
ទៅហើយ	-11.2015
ើង	-11.2015
▁នៃរដ្ឋសភា	-11.2017
ទីក្រុងប៉េកាំង	-11.2017
ជជែក	-11.202
កំពុងរៀបចំ	-11.2025
▁struggles	-11.2026
ក៏មិន	-11.2027
▁donation	-11.2028
▁២០១៩	-11.2029
▁ថវិកាជាតិ	-11.2029
▁Specifically	-11.2029
▁laundering	-11.2029
▁allegations	-11.2029
▁easier	-11.2029
យ៉ាងមុតមាំក្នុង	-11.2031
▁យោ	-11.2034
ការវិភាគ	-11.2035
▁និងអាចបង្កើត	-11.2037
▁And	-11.2039
▁អាស៊ីសេរី	-11.2041
សម្រាប់យុវជន	-11.2042
ក្នុងការសិក្សា	-11.2042
▁fo	-11.2043
៨៦	-11.2045
▁borrowing	-11.2045
hu	-11.2047
តម្កល់	-11.2047
ក្រោមអធិបតីភាព	-11.2049
▁Awards	-11.205
▁នាយករដ្ឋមន្រ្ដី	-11.2052
▁garden	-11.2053
▁advancement	-11.2054
▁Framework	-11.2055
▁Bovor	-11.2055
▁Nagaworld	-11.2055
▁routes	-11.2055
ជ័រ	-11.2057
យល់ព្រម	-11.2064
ស្មោះត្រង់	-11.2067
▁ហើយត្រូវ	-11.2067
▁observers	-11.2069
down	-11.207
មួយអង្គ	-11.2071
▁Eng	-11.2071
▁ប្រកប	-11.2072
▁objects	-11.2075
៧៤	-11.2077
dherence	-11.2078
វិស័យកាត់ដេរ	-11.2079
នៅតាមបណ្តា	-11.208
han	-11.208
▁convenience	-11.2081
▁actress	-11.2081
ហ្គេម	-11.2081
គឺមាន	-11.2083
▁កិច្ចខិតខំប្រឹង	-11.2084
▁kilometers	-11.2085
▁Inclusive	-11.2087
-20	-11.2089
▁attach	-11.209
84	-11.2092
មិនរាថយ	-11.2092
▁កណ្ដាល	-11.2092
▁hotels	-11.2092
មេធាវីការពារក្តី	-11.2094
▁សាលារៀន	-11.2095
បញ្ជាទិញ	-11.2096
▁YouTube	-11.2097
▁Car	-11.2097
▁$10	-11.2098
do	-11.21
ុត	-11.21
▁Programs	-11.2102
▁farms	-11.2104
▁image	-11.2104
▁និងសមត្ថភាព	-11.2104
៤៤	-11.2106
▁milk	-11.2107
▁ខ្លាំង	-11.2107
▁crossing	-11.2107
▁Network	-11.2107
ST	-11.2107
ES	-11.2108
▁Book	-11.2109
▁deposit	-11.211
▁Develop	-11.2113
▁គណបក្សប្រជាជន	-11.2114
មានការធ្លាក់ចុះ	-11.2117
▁allowed	-11.2118
▁អវិជ្ជា	-11.2118
▁ភព	-11.2119
▁បានចូលរួម	-11.2119
▁assert	-11.2119
ថមថយ	-11.212
មានប្រយោជន៍	-11.212
ត្រូវឆ្លងកាត់	-11.2121
ជិះកង់	-11.2123
គណិតវិទ្យា	-11.2128
▁intervene	-11.2129
វារីអគ្គិសនី	-11.213
▁Tra	-11.2131
សប្ដាហ៍	-11.2132
នីតិកាលទី៧	-11.2132
▁clarity	-11.2133
▁evil	-11.2133
▁deeds	-11.2133
អូស្រ្តាលី	-11.2135
▁given	-11.2135
វិបត្តិជំងឺកូវីដ	-11.2135
▁cold	-11.2136
▁wafted	-11.2136
តំណាងឱ្យ	-11.2137
▁weekly	-11.2137
កំណត់អត្តសញ្ញាណ	-11.2138
០៧	-11.2138
ផលចំណេញ	-11.2138
rey	-11.2138
▁passion	-11.2139
▁សែន៖	-11.2139
មុខមាត់	-11.214
ភ័យ	-11.214
▁Go	-11.2141
ប្រព័ន្ធទូទាត់	-11.2143
▁Pol	-11.2146
▁recounted	-11.2147
ទោ	-11.2147
▁politicians	-11.2147
ជំនាន់ថ្មី	-11.2148
▁ទាន	-11.215
our	-11.2151
ពីលើ	-11.2154
បង្គោល	-11.2156
សម្រាប់សិស្ស	-11.2157
▁ម៉ាឡេស៊ី	-11.2158
អ្វីៗទាំងអស់	-11.2158
▁chili	-11.2159
▁និងកម្មវិធី	-11.2159
▁Bopha	-11.216
២០២២	-11.216
▁ពលករខ្មែរ	-11.2161
▁Di	-11.2161
តំបន់នេះ	-11.2162
នាម	-11.2164
ផងនោះ	-11.2164
▁Som	-11.217
បញ្ជូនទៅ	-11.2171
▁smooth	-11.2174
47	-11.2177
ផ្តោតលើការ	-11.2177
▁ក្នុ	-11.2179
▁takes	-11.2179
▁ជារួម	-11.218
ចំណេះ	-11.2183
▁origin	-11.2185
▁route	-11.2185
ប៉ោយប៉ែត	-11.2185
▁និងជួយ	-11.2188
្ន	-11.2188
ពីប្រទេស	-11.2188
▁សេចក្តីប្រកាស	-11.2188
▁ដើម្បីធានាថា	-11.2191
▁burdens	-11.2193
ការឆ្លើយតប	-11.2193
▁សច្ចធម៌	-11.2195
▁round	-11.2196
៧៧	-11.2197
▁NGOs	-11.2198
▁funded	-11.2199
ម្តងទៀត	-11.22
▁ស្ថិតនៅក្នុង	-11.22
គឺជាគន្លឹះ	-11.2202
ជះ	-11.2206
▁reserve	-11.2207
arious	-11.2208
▁contain	-11.2208
កាត	-11.221
ham	-11.2212
▁ដង	-11.2214
▁withdraw	-11.2217
បក្សប្រជាជន	-11.2218
ក្រអូបឈ្ងុយឈ្ងប់	-11.2221
ប្រព្រឹត្តទៅនៃ	-11.2223
ជ្រើស	-11.2226
▁ម៉ុង	-11.2226
ថែមទៀត។	-11.2226
ជនជាប់ចោទ	-11.2228
នៅតាមតំបន់	-11.2229
▁joining	-11.2232
អាចប្រើប្រាស់	-11.2233
ទ្រង់បានឡាយព្រះហ	-11.2233
▁destin	-11.2233
របស់ខ្មែរ	-11.2236
violating	-11.2238
▁earlier	-11.2239
ប្រមាណជិត	-11.2239
▁វិនិ	-11.224
▁៣៧	-11.2241
TVET	-11.2242
មានគោលដៅ	-11.2243
▁អាកាសយានដ្ឋាន	-11.2243
▁ដា	-11.2245
នៃកម្មវិធី	-11.2246
ដឹកជញ្ជូនសាធារណៈ	-11.2246
▁blooming	-11.225
ផ្លូវទឹក	-11.225
នៃកង	-11.2256
▁considering	-11.2256
▁បើសិនជា	-11.2257
53	-11.2258
▁prisoners	-11.2258
▁ក្រសួងទេសចរណ៍	-11.2259
បន្តការសិក្សា	-11.2259
che	-11.2259
▁(7	-11.226
ជាផ្លូវការនូវ	-11.2261
▁almo	-11.2264
គូស	-11.2264
▁Identity	-11.2265
រទេះ	-11.2265
▁អឺរ៉ុប	-11.2265
▁attachment	-11.2265
ថែមទៀតផង។	-11.2265
▁ឯកអគ្គរាជទូត	-11.2269
▁ឈឺ	-11.2271
▁អ្នកជំងឺកូវីដ	-11.2271
ខេត្តប៉ៃលិន	-11.2272
ji	-11.2272
▁persons	-11.2274
▁gestures	-11.2277
ចំនួន៧	-11.2278
▁ប្រកួត	-11.2278
៣៩	-11.2278
ខុសគ្នា	-11.2279
លាបពណ៌	-11.2281
បញ្ជាក់ផងដែរថា	-11.2281
នេះគឺជា	-11.2283
ស្អែកនេះ	-11.2283
ប្រកបដោយតម្លាភាព	-11.2284
96	-11.2286
វាអាច	-11.2287
ការកែទម្រង់	-11.2288
តារាប្រុស	-11.2291
▁salaries	-11.2292
▁ជាប្រភេទ	-11.2295
ស្ស	-11.2296
ទៅក្រៅប្រទេស	-11.2298
▁display	-11.2302
▁Run	-11.2304
នីតិវិធីនៃការ	-11.2307
▁ត្រូវមាន	-11.231
37	-11.231
បរិបទ	-11.2311
ការបង្រៀន	-11.2312
▁incomes	-11.2314
រៀនជំនាញ	-11.2315
fa	-11.2315
របស់អាជ្ញាធរ	-11.2316
▁សុភាព	-11.2316
▁acts	-11.2316
▁គួរតែ	-11.2316
ត្រកូល	-11.2318
▁Wednesday	-11.2318
▁baccalaureate	-11.2318
▁suspension	-11.2318
▁choice	-11.2319
▁សំអន	-11.2319
▁Yong	-11.2321
▁Tin	-11.2324
បម្រុង	-11.2325
▁ទោះជា	-11.2325
▁ពេលនេះ	-11.2325
▁shop	-11.2327
ជួបប្រទះ	-11.2331
លាក់	-11.2333
▁codes	-11.2334
បាត់បង់ជីវិត	-11.2335
▁ទាញយកសំឡេង	-11.2337
▁TikTok	-11.2337
bu	-11.2338
ស់	-11.234
▁Cultivat	-11.2341
▁ការជំរុញ	-11.2341
ត្រឡប់ទៅ	-11.2341
អនុក្រឹត្យ	-11.2342
▁sacrifice	-11.2342
បណ្តាលឲ្យ	-11.2343
▁ជំហាន	-11.2344
ស្ថាបត្យករ	-11.2344
▁pork	-11.2345
ុះ	-11.2345
▁checkpoint	-11.2346
រាល់ថ្ងៃ	-11.235
លោកគ្រូ	-11.2353
▁smoothly	-11.2355
៩៧	-11.2357
ការប្រមូលផល	-11.2358
▁ឧបសគ្គ	-11.2358
ស្ថិតិ	-11.2361
▁និងស្ថាប័ន	-11.2361
ជាអ្នកនាំពាក្យ	-11.2364
▁fate	-11.2365
5,000	-11.2366
យ៉ាងតឹងរ៉ឹង។	-11.2366
▁Scholarships	-11.2366
af	-11.2367
owned	-11.237
▁sagacious	-11.2372
mer	-11.2372
▁properties	-11.2372
▁authorization	-11.2372
ភស្តុភារកម្ម	-11.2372
▁thousand	-11.2373
▁fled	-11.2373
មានសភាព	-11.2374
ក្រអូប	-11.2375
របស់អ្នក។	-11.2377
▁lifelong	-11.2377
▁Ja	-11.2378
យោបល់	-11.2378
32	-11.2379
ស្រូបយក	-11.2381
▁elements	-11.2381
កំពង់ផែស្វយ័ត	-11.2381
▁games	-11.2383
▁principal	-11.2383
បណ្តាលឱ្យ	-11.2384
▁endlessly	-11.2385
ដាច់ខាត	-11.2385
▁ហើយបើ	-11.2385
Korea	-11.2387
▁ឲ្យដឹងថា	-11.2388
ឃុំសង្កាត់	-11.239
នៅមន្ទីរពេទ្យ	-11.2391
▁រូបភាព	-11.2394
វាស់វែង	-11.2394
កាលៈទេសៈ	-11.2397
▁Madam	-11.24
▁4.0	-11.2401
លក់ដូរ	-11.2406
▁joyous	-11.2406
mar	-11.2412
NI	-11.2413
នៅក្នុងការ	-11.2415
ឡុង	-11.2415
បញ្ជាក់បន្ថែមថា	-11.2417
ឆ្នាំ២០២៣នេះ	-11.2417
មូលធន	-11.2418
▁និងរក្សា	-11.2418
ពេលខ្លះ	-11.2418
មកត្រឹម	-11.2421
▁និងមន្ត្រី	-11.2421
▁secur	-11.2421
▁dissolve	-11.2422
៣៨	-11.2422
▁នៅថ្ងៃទី	-11.2422
នៃការអភិវឌ្ឍ	-11.2423
ការវាយតម្លៃ	-11.2424
residing	-11.2425
▁solution	-11.2427
ការអនុម័ត	-11.2427
▁damp	-11.2427
យើងទាំងអស់គ្នា	-11.2428
រំពឹងថានឹង	-11.2428
ធ្វើការជាមួយ	-11.2428
▁Aun	-11.2429
បានប្រព្រឹត្តទៅ	-11.243
រឹបអូស	-11.2434
▁ម៉ោង	-11.2434
▁bestowed	-11.2436
ទំនៀមទម្លាប់	-11.2436
ពីខាងក្រៅ	-11.2437
▁hosting	-11.2438
▁endures	-11.2439
lu	-11.244
ពាន់	-11.2441
បង្ហាញនូវ	-11.2442
អ្នកនិពន្ធ	-11.2443
នូ	-11.2444
▁ដែលធ្វើឲ្យ	-11.2448
ចែង	-11.245
បាត់ដំបង	-11.245
▁exchanges	-11.2451
▁tribunal	-11.2453
▁v	-11.2456
ផែន	-11.2457
▁ភ្នំ	-11.2457
SS	-11.2458
របស់ប្រទេសចិន	-11.2459
មាតិកា	-11.2459
▁gathering	-11.2465
នៅចុង	-11.2465
នៃប្រទេសកម្ពុជា	-11.2468
ផ្សព្វផ្សាយពី	-11.2468
៦១	-11.2469
▁មេដឹកនាំ	-11.2471
▁managed	-11.2471
▁01,	-11.2475
ទឹកដោះគោ	-11.2475
បានថ្លែងថា	-11.2475
បានខិតខំ	-11.248
▁scientific	-11.248
អនុលោមតាម	-11.248
▁fisheries	-11.248
▁formally	-11.2481
ដឹកនាំដោយ	-11.2482
គឺជាមូលដ្ឋាន	-11.2485
▁ងងឹត	-11.2486
▁benefiting	-11.2486
▁pursu	-11.2487
▁បំពេញ	-11.2487
▁Fine	-11.2487
SE	-11.249
ពង្រឹងប្រព័ន្ធ	-11.249
ដែលបានចូលរួម	-11.249
ឆ្នាំក្រោយ	-11.2492
ការដោះស្រាយ	-11.2492
ប្រមូលទិញ	-11.2494
oeng	-11.2495
ko	-11.2496
▁respects	-11.2497
ជូនពរ	-11.2498
នៅឆ្នាំ២០២៤	-11.25
ជុំវិញខ្លួន	-11.2501
▁Ex	-11.2501
អនុក្រឹត្យលេខ	-11.2501
▁Chun	-11.2502
មានចំណែក	-11.2504
▁interested	-11.2505
▁construct	-11.2507
▁offerings	-11.2507
▁dissatisfied	-11.2507
▁hydropower	-11.2507
▁Accurate	-11.2507
▁loving	-11.2508
ការបញ្ជាទិញ	-11.2508
ជាប់ពន្ធនាគារ	-11.2509
▁Nation	-11.2509
▁ទោះបីជាពេលវេលា	-11.2509
បានលាតសន្ធឹង	-11.2513
▁បាននិងកំពុង	-11.2516
៏	-11.2517
▁cultivated	-11.2518
លានតោន	-11.252
ari	-11.2523
៥លានដុល្លារ	-11.253
ឆ្ពោះទៅកាន់	-11.2532
▁conventions	-11.2534
▁អ៊ឹម	-11.2534
▁aspects	-11.2535
Sihanoukville	-11.2535
▁ការស្នើសុំ	-11.2536
ចត	-11.2537
កាស	-11.2538
លិខិតអនុញ្ញាត	-11.2541
▁patterns	-11.2542
៤៩	-11.2544
▁ហេតុនេះ	-11.2545
ដូចជា៖	-11.2547
▁មុខរបរ	-11.2547
គ្រប់វិស័យ	-11.2548
នៅពេលអនាគត	-11.2549
ថែ	-11.2551
របបលោក	-11.2551
▁served	-11.2552
កេរដំណែល	-11.2555
ទូលាយ	-11.2558
▁considers	-11.2558
ខណ្ឌពោធិ៍សែនជ័យ	-11.2561
▁sanctuary	-11.2561
▁44	-11.2563
OT	-11.2565
រណ	-11.2566
▁65	-11.2568
ធម្ម	-11.2568
មិ	-11.2569
មហិច្ឆតា	-11.2574
ទណ្ឌិត	-11.2574
rimary	-11.2577
ត្ត	-11.2579
ពា	-11.258
អាស៊ាន។	-11.2582
ទីមួយ	-11.2583
ស្វែងយល់អំពី	-11.2585
អាកប្បកិរិយា	-11.2589
▁completing	-11.2589
▁something	-11.2589
▁បារាំង	-11.2592
ទទួលស្វាគមន៍	-11.2592
▁កងទ័ព	-11.2592
▁Phan	-11.2595
▁engaged	-11.2597
▁៦៥	-11.2597
ឱ្យបានច្បាស់លាស់	-11.2599
មុ	-11.2603
▁ឥណទាន	-11.2606
▁valiant	-11.2606
តែប៉ុណ្ណោះ។	-11.2612
យ៉ាងលឿន	-11.2614
▁ឆ្នាំ២០២០	-11.2615
▁ប្រេង	-11.2616
ងាយរងហានិភ័យ	-11.2616
▁possible	-11.2616
▁Putin	-11.2616
▁ដំណាំ	-11.2616
▁Vann	-11.2616
ថែរក្សាសន្តិភាព	-11.2618
បំពេញភារកិច្ច	-11.2618
▁Top	-11.2619
▁ADHOC	-11.2621
▁និងទូរគមនាគមន៍	-11.2621
កងទ័ពជើងទឹក	-11.2624
affected	-11.2624
MO	-11.2625
គណៈ	-11.2627
បូជា	-11.2628
ដែលបានចែងក្នុង	-11.263
សារមន្ទីរ	-11.2633
▁Ru	-11.2634
▁2050.	-11.2634
ទាក់ទងនឹងការ	-11.2635
33	-11.2637
▁ទេសចរ	-11.2638
▁articles	-11.2639
▁ក៏ជា	-11.264
▁cited	-11.2641
ថយ	-11.2642
ABC	-11.2642
ដល់អតិថិជន	-11.2642
ទេសរដ្ឋមន្ត្រី	-11.2643
▁អំពាវនាវឲ្យ	-11.2644
▁communal	-11.2644
កាស៊ីណូ	-11.2644
▁ទោះជាយ៉ាងណាក្តី	-11.2645
AM	-11.2647
ដំណាក់	-11.2648
និពន្ធ	-11.2649
អភិបាលខេត្ត	-11.2653
បញ្ជីឈ្មោះ	-11.2654
ក្នុងការពង្រឹង	-11.2654
នីតិរដ្ឋ	-11.2655
91	-11.2655
▁អ៊ុំ	-11.2656
▁Now	-11.2656
សម្ងាត់	-11.2658
ដំ	-11.2661
▁El	-11.2664
បានលើកឡើង	-11.2666
ការយល់ដឹងអំពី	-11.2667
ក្លាយ	-11.2667
▁veterans	-11.2668
កំពុងជំរុញ	-11.267
ក្រមនីតិវិធី	-11.2671
▁ទេស	-11.2673
ក្រសួងវប្បធម៌	-11.2673
អាស៊ីប៉ាស៊ីហ្វិក	-11.2675
▁Production	-11.2676
ជំងឺឆ្លង។	-11.2676
កន្លែងស្នាក់នៅ	-11.2677
ធ្វើឱ្យប្រសើរឡើង	-11.2677
▁vividly	-11.2677
ពាក់ព័ន្ធទៅនឹង	-11.2678
ជះឥទ្ធិពល	-11.268
82	-11.2681
រងផលប៉ះពាល់	-11.2681
បានរីកចម្រើន	-11.2681
▁និងផ្សព្វផ្សាយ	-11.2681
▁Bachelor	-11.2681
▁បានផ្តល់	-11.2682
▁និងសហគមន៍	-11.2688
ក្រុមប្រទេស	-11.269
▁wide	-11.2692
▁ជូនដល់	-11.2693
▁រំពឹង	-11.2694
សុំទោស	-11.2694
▁37	-11.2696
គម្លាត	-11.2697
▁ខេត្តតាកែវ	-11.2698
▁ACLEDA	-11.2699
▁dose	-11.2699
▁relatives	-11.27
▁Neang	-11.27
ឆក់	-11.2701
▁Samrin	-11.2701
ជិតស្និទ្ធ	-11.2704
ការលះបង់	-11.2705
ខ្លះៗ	-11.2707
▁និងយុវជន	-11.2708
▁Con	-11.2708
▁imp	-11.2709
▁traders	-11.2709
ពង្រឹងកិច្ច	-11.2709
មានចំណេះដឹង	-11.2712
IA	-11.2714
▁anticipate	-11.2718
▁សេរី	-11.2721
oung	-11.2722
▁stabilize	-11.2723
▁distribute	-11.2723
▁ធានា	-11.2724
ប្រមូលទិន្នន័យ	-11.2725
▁ដូចជាការ	-11.2726
វិនិយោគិនបរទេស	-11.2727
ពាក្យស្នើសុំ	-11.2728
▁Princess	-11.2728
ភាគច្រើនជា	-11.2729
▁equality	-11.2729
ជាប់គុក	-11.273
ក្របី	-11.273
▁chapter	-11.2731
១ឆ្នាំ	-11.2731
លំដាប់ថ្នាក់	-11.2732
ផ្សែង	-11.2732
កិច្ចការពារ	-11.2733
100	-11.2736
▁specialists	-11.2737
▁ឱកាសសិក្សា	-11.2741
▁coming	-11.2743
ដង្ហើម	-11.2746
ឿង	-11.2746
Our	-11.2748
វិនិច្ឆ័យ	-11.275
ជាវិជ្ជមាន	-11.275
▁៧៥	-11.2752
ប្រទេសអូស្ត្រាលី	-11.2753
ចៅ	-11.2754
ក្លឹប	-11.2754
ទ័យ	-11.2755
▁Patience	-11.2755
▁proficiency	-11.2755
ផ្ដល់អាហារូបករណ៍	-11.2755
▁Traditional	-11.2755
▁estimated	-11.2756
▁ways	-11.2758
អនុញ្ញាត	-11.2758
នយោបាយរូបិយវត្ថុ	-11.2758
res	-11.2758
ស្វីស	-11.2759
▁បន្ថយ	-11.2759
ប្រមាថ	-11.2764
▁net	-11.2768
ការលើកឡើងរបស់	-11.2768
កម្ដៅ	-11.2771
ដ៏អាថ៌កំបាំង	-11.2773
▁Rithy	-11.2773
ដោយអាជ្ញាធរ	-11.2776
កាំ	-11.2778
▁Religion	-11.2783
▁emergencies	-11.2783
▁why	-11.2783
▁ធុជ	-11.2783
▁lacks	-11.2783
▁typically	-11.2784
ពាន	-11.2784
▁ភ្នែក	-11.2785
WTI	-11.2787
▁flight	-11.2787
▁Regulator	-11.2787
ដើម្បីដោះស្រាយ	-11.2789
▁selecting	-11.2789
▁មេបញ្ជាការ	-11.2791
▁ការកសាង	-11.2792
▁isn	-11.2792
▁Keng	-11.2793
▁surpass	-11.2795
▁សួន	-11.2795
ឱ្យដឹង	-11.2795
តម្លៃបន្ថែម	-11.2799
ឥ	-11.2801
ការចូលរួមរបស់	-11.2802
▁workshops	-11.2802
▁entered	-11.2803
អាចធ្វើឱ្យ	-11.2803
របស់ធនាគារជាតិ	-11.2804
សម្ងួត	-11.2811
▁Studies	-11.2811
បូក	-11.2812
ប្រែ	-11.2812
គ្រឿងផ្សំ	-11.2814
ភ្ជុំបិណ្ឌ	-11.2815
▁tens	-11.2815
▁waterfall	-11.2816
▁ស្រស់	-11.2816
**.	-11.2817
▁Meta	-11.2817
បានផ្លាស់ប្តូរ	-11.2817
១១នាក់	-11.2818
▁governments	-11.2819
លក់រាយ	-11.282
ដឹកជញ្ជូនទំនិញ	-11.2821
សិក្សាពី	-11.2821
▁appealed	-11.2822
គ្រឹះសម្រាប់ការ	-11.2827
ប៉ារ៉ាហ្គេម	-11.2827
▁អគ្គិសនី	-11.2827
▁adher	-11.2828
៩៥	-11.2831
tringent	-11.2832
▁connections	-11.2833
▁ភ្ញៀវទេសចរ	-11.2835
▁silver	-11.2835
ជ្រុង	-11.2836
ន្ធ	-11.2836
បានសង្កត់ធ្ងន់លើ	-11.2838
▁34	-11.2839
កំណាព្យ	-11.2839
▁grid	-11.2839
▁dishes	-11.284
ពិនិត្យឡើងវិញ	-11.284
▁Rany	-11.284
▁អតិផរណា	-11.284
នាពេលថ្មីៗនេះ	-11.284
ប្រឡាយ	-11.2841
▁article	-11.2844
▁ស្ថាបនិក	-11.2844
AT	-11.2845
ក៏ពិតមែន	-11.2846
អត្តសញ្ញាណជាតិ	-11.2847
សូម្បីតែ	-11.2848
មិនចង់	-11.2848
នៅក្នុងខេត្ត	-11.285
ដែលមានបំណង	-11.2852
ការសហប្រជាជាតិ។	-11.2856
ដ៏ឈ្លាសវៃ	-11.2857
ចេញចូល	-11.2858
▁War	-11.2858
▁mis	-11.286
ប្រមូលផ្ដុំ	-11.2861
▁add	-11.2862
ទីលាន	-11.2863
▁track	-11.2863
ក្នុងអត្រា	-11.2865
ខណ្ឌទួលគោក	-11.2866
សូន្យ	-11.2867
▁អ្វីៗ	-11.2867
អ៊ីរ៉ង់	-11.2867
▁BBC	-11.2868
▁កម្ពុជាបន្ត	-11.287
▁២០២០	-11.287
ឆៅ	-11.2872
▁Forest	-11.2873
▁bad	-11.2873
▁journalist	-11.2873
ទៀតថា	-11.2874
OR	-11.2874
ពីបរទេស	-11.2875
▁fail	-11.2875
ប្រចាំប្រទេស	-11.2875
គោលដៅទេសចរណ៍	-11.2875
ឆ្វេង	-11.2876
▁color	-11.2876
▁reside	-11.2876
▁Black	-11.2877
▁breeding	-11.2877
▁សោភ័ណ	-11.2878
ថ្នាក់ទី១២	-11.2879
ដ៏សំខាន់បំផុត	-11.2879
ការត្រាស់ដឹង	-11.288
▁រាជធានី	-11.2881
ភាសាខ្មែរ	-11.2882
cha	-11.2883
▁Earth	-11.2885
នៅសាលា	-11.2885
មុខងារសាធារណៈ	-11.2887
▁warning	-11.2889
▁Of	-11.2889
▁ប្រធានរដ្ឋសភា	-11.2889
▁7-	-11.2891
▁normal	-11.2893
▁៤០០	-11.2894
▁sue	-11.2894
▁nuclear	-11.2895
ចំណុះ	-11.2895
▁Natural	-11.2895
▁endorsed	-11.2896
កិន	-11.2896
ចាក	-11.2897
▁donations	-11.2898
ក្នុងឆ្នាំ២០២២	-11.2898
ស្រោចស្រព	-11.2902
▁acting	-11.2902
រៀបចំកម្មវិធី	-11.2902
ដូរ	-11.2902
▁brightly	-11.2904
IB	-11.2904
កង្វះ	-11.2905
ខ្នាតធំ	-11.2906
សាស្រ្តាចារ្យ	-11.2907
ត្រូវបានរកឃើញ	-11.2907
▁HE	-11.2913
ron	-11.2914
ថ្លា	-11.2914
▁Diploma	-11.2914
▁ហាក់ដូចជាកំពុង	-11.2915
ចេញមុខ	-11.2918
បន្តិចម្តងៗ	-11.2919
ទន្លេសាប	-11.292
ល្បីល្បាញ	-11.2921
▁ធ្លាក់	-11.2922
ឆាប់រហ័ស	-11.2924
▁dignity	-11.2924
▁ឆ័យ	-11.2924
▁himself	-11.2924
▁Protection	-11.2925
៤៨	-11.293
century	-11.2931
▁៤៨	-11.2931
ពិនិត្យលទ្ធភាព	-11.2932
▁55	-11.2932
ដ្ឋ	-11.2933
ទ្វេភាគីរវាង	-11.2934
សត្វស្លាប	-11.2935
▁៣៤	-11.2935
▁ដោយសារការ	-11.2935
▁ហើយក៏ជា	-11.2935
បានអនុវត្ត	-11.2936
▁cooking	-11.2938
▁ភិ	-11.294
▁legends	-11.2943
▁ពីបទ	-11.2943
ឱ្យកាន់តែមាន	-11.2944
▁និងវិស័យឯកជន	-11.2946
ភាពមិនច្បាស់លាស់	-11.2948
ត្រូវបានពង្រីក	-11.2949
▁Blue	-11.295
ព្យុះ	-11.2951
east	-11.2951
▁intoxicating	-11.2952
ទិដ្ឋាការ	-11.2952
▁Sal	-11.2952
▁massive	-11.2953
les	-11.2954
▁Ph	-11.2954
ជារៀងរាល់ថ្ងៃ	-11.2955
នៅត្រឹម	-11.2956
▁កម្មការិនី	-11.2956
គ្រោះ	-11.2956
▁intent	-11.2958
រថភ្លើង	-11.2958
▁acknowledged	-11.2959
MI	-11.2961
ព័ត៌មានលម្អិត	-11.2962
FA	-11.2962
ring	-11.2963
▁បែប	-11.2963
ងើប	-11.2965
▁decides	-11.2966
ទំហំទឹកប្រាក់	-11.2966
▁constantly	-11.2968
▁allegi	-11.2969
០៩	-11.2972
▁ដើម្បីឲ្យ	-11.2973
▁priced	-11.2973
ខ្សឹបខ្សៀវ	-11.2974
ប្រណិត	-11.2979
▁Disaster	-11.2981
▁Saturday	-11.2981
▁Boulevard	-11.2981
អាជ្ញាបណ្ណ	-11.2981
▁ត្រូវបានបែងចែក	-11.2982
ber	-11.2985
លើបញ្ហា	-11.2986
▁merit	-11.2986
▁និងអន្តរជាតិ។	-11.2987
ប្រទេសនេះ	-11.2987
ou	-11.2988
២លានដុល្លារ	-11.2989
TO	-11.2994
ប្	-11.2994
ិល	-11.2994
LE	-11.2996
▁ជាមួយគ្នានេះដែរ	-11.2997
ដាក់ពង្រាយ	-11.2999
▁consistent	-11.2999
ជ្រ	-11.2999
ដើម្បីជំរុញកំណើន	-11.3
ចំនួន១	-11.3
ចីរភាព	-11.3001
បុរាណ។	-11.3003
pro	-11.3005
▁ក្លិនផ្កាម្លិះ	-11.3006
74	-11.3007
▁លានបារ៉ែល	-11.3007
ការចាប់ផ្តើម	-11.3008
▁Congress	-11.3009
▁ស្ងប់	-11.301
▁នឹងត្រូវបាន	-11.3011
សហគ្រិនវ័យក្មេង	-11.3012
ដល់ការអភិវឌ្ឍ	-11.3013
▁មិនតែប៉ុណ្ណោះ	-11.3014
ដែនជម្រកសត្វព្រៃ	-11.3015
▁That	-11.3016
▁Online	-11.3016
▁រចនា	-11.302
លើកទី៧	-11.302
CT	-11.3022
រំលេច	-11.3023
ម៉ែត្រ	-11.3023
▁look	-11.3028
▁ទទួលបន្ទុក	-11.3029
▁Mall	-11.3029
▁administrations	-11.303
ពន្លឿនការ	-11.3032
ថ្លែងការណ៍	-11.3032
▁Sh	-11.3035
ព្រឹត្តិការណ៍នេះ	-11.3036
▁weak	-11.3037
ដោយប្រុងប្រយ័ត្ន	-11.3037
hang	-11.3037
ការរចនា	-11.3037
ឆ្នាំ២០២៤នេះ	-11.3038
▁demonstrates	-11.3038
▁Permanent	-11.3038
▁Assessment	-11.3038
▁ការសាងសង់	-11.3038
▁grade	-11.304
▁collectively	-11.3042
▁preventive	-11.3044
▁countryside	-11.3046
ទៅឲ្យ	-11.3047
▁peak	-11.3049
ផលិតករ	-11.3051
▁passengers	-11.3051
សាធារណរដ្ឋ	-11.3052
អាណត្តិទី៧	-11.3053
ទន្លេបាសាក់	-11.3053
SC	-11.3054
ធានាសន្តិសុខ	-11.3054
ធុរជន	-11.3057
សេដ្ឋកិច្ចអាស៊ាន	-11.306
យីហោ	-11.306
▁Full	-11.306
២រូប	-11.3062
48	-11.3062
▁វានឹង	-11.3062
▁coordinate	-11.3062
តាំងតែពី	-11.3063
គុណធម៌	-11.3063
▁attain	-11.3066
▁laughter	-11.3067
កំហឹង	-11.3067
▁indelible	-11.3067
▁កូរ៉េ	-11.3068
ពីបញ្ហា	-11.3069
▁representation	-11.3069
អធិបតេយ្យភាពជាតិ	-11.3069
រកចំណូល	-11.3072
▁Bangkok	-11.3072
▁បានថ្លែងអំណរគុណ	-11.3074
សម្រាប់ប្រជាជន	-11.3074
▁trend	-11.3074
▁question	-11.3078
▁weather	-11.3081
▁ប្រវែង	-11.3083
▁agree	-11.3083
refers	-11.3084
តំណាងរាស្រ្ត	-11.3085
ចិញ្ចឹមសត្វ	-11.3086
កិច្ចខិតខំ	-11.3086
ទោះបីជា	-11.3086
processing	-11.3087
▁និងក្រៅប្រទេស	-11.3088
បណ្ដាប្រទេស	-11.3089
ជាទី	-11.3089
▁អនាគត	-11.309
ឆ្ងាយពី	-11.3091
ចំណាត់ការ	-11.3093
ការព្យាបាល	-11.3093
ដ៏ស្រស់ត្រកាល	-11.3095
▁absorb	-11.3095
▁enigmatic	-11.3095
▁unprecedented	-11.3095
▁creative	-11.3095
▁powers	-11.3096
▁vary	-11.3097
កុង	-11.3097
ថ្ងៃសុក្រ	-11.3097
men	-11.3098
បរិច្ចាគ	-11.3098
▁citizenship	-11.3098
៤៧	-11.3099
បន្	-11.3099
▁Sky	-11.3099
▁room	-11.3102
ada	-11.3102
▁ឧបករណ៍	-11.3103
ប្រជាជន។	-11.3106
low	-11.3108
▁taken	-11.3111
ដេញ	-11.3114
▁meticulous	-11.3114
មេដាយ	-11.3115
▁taught	-11.3115
អរិយធម៌	-11.3116
ao	-11.3116
កែច្នៃត្រី	-11.3118
▁reinforce	-11.312
បន្សល់ទុកនូវ	-11.3121
គិតគូរពី	-11.3121
51	-11.3121
▁watching	-11.3123
▁moonlight	-11.3125
ខ្ទង់	-11.3125
AD	-11.3126
អាំង	-11.3127
ដ៏មាន	-11.3127
▁Sophal	-11.3127
▁និងត្រួតពិនិត្យ	-11.3128
▁និងប្រកបដោយ	-11.313
បំបាត់	-11.313
រាប	-11.313
១លានដុល្លារ	-11.3132
▁Avoid	-11.3133
កាត់ទោស	-11.3133
▁lawsuit	-11.3134
បានដាក់ចេញ	-11.3134
PS	-11.3137
▁shooting	-11.3138
ភ្ញៀវទេសចរជាតិ	-11.3141
ចាកចេញ	-11.3141
គូស្នេហ៍	-11.3141
្តិការសេដ្ឋកិច្ច	-11.3141
ប្រកបអាជីវកម្ម	-11.3142
▁Open	-11.3142
▁tire	-11.3143
ផ្លូវជាតិ	-11.3144
ញុះញង់	-11.3144
▁smaller	-11.3144
▁សតិ	-11.3144
បទបញ្ជា	-11.3146
government	-11.315
០៦	-11.315
ning	-11.315
កាលពីឆ្នាំ	-11.3153
ជួយគាំទ្រ	-11.3153
ឆ្អឹង	-11.3153
▁Weforum	-11.3153
▁execution	-11.3153
▁abilities	-11.3153
▁embark	-11.3153
▁cargo	-11.3154
គ្រឿងចក្រ	-11.3155
ប្រឹងប្រែង	-11.3156
▁Soth	-11.3158
ចិញ្ចឹមជីវិត	-11.3159
ពង្រីកកិច្ចសហ	-11.316
▁MSMEs	-11.316
▁performed	-11.3161
ចោទថា	-11.3162
ឆ្លើយតបបន្ទាន់	-11.3162
▁មីនា	-11.3164
កំណាត់	-11.3165
ថ្មីនៃ	-11.3165
មានប្រសិទ្ធភាព។	-11.3166
ប្រព័ន្ធឌីជីថល	-11.3169
▁ពង្រីក	-11.3172
ការបើក	-11.3174
ប្រសើរឡើង	-11.3174
▁reason	-11.3174
ជម្លោះដីធ្លី	-11.3175
▁ត្រូវបានចាត់ទុក	-11.3175
តុល្យភាព	-11.3176
សម្បត្តិ	-11.3177
ដំរី	-11.3178
ven	-11.3179
▁learned	-11.3179
▁ទុតិយភូមិ	-11.3179
លក្ខខណ្ឌតម្រូវ	-11.3181
▁measure	-11.3181
ការពារផលប្រយោជន៍	-11.3182
▁Tesla	-11.3182
តូចមួយ	-11.3182
បានកាន់តែច្រើន	-11.3182
▁Like	-11.3183
មិនចេះរីងស្ងួត	-11.3184
ជាទីស្រឡាញ់	-11.3184
ជាប្រធានអាស៊ាន	-11.3186
សត្រូវ	-11.3186
ping	-11.3187
▁និយោជិត	-11.3188
ក្នុងការទទួលបាន	-11.3188
▁fears	-11.3189
▁riverbank	-11.319
▁grants	-11.3191
យ៉ាងធ្ងន់ធ្ងរ	-11.3193
▁2013	-11.3195
▁KH	-11.3196
▁gathered	-11.3196
▁ខេ	-11.3198
ក្នុងការប្រយុទ្ធ	-11.3198
លេច	-11.3198
គណនេយ្យភាព	-11.3201
ជ្រើសតាំង	-11.3201
៣០នាក់	-11.3202
ស្ថិត	-11.3205
បដិវត្តន៍	-11.3211
▁Robust	-11.3211
▁voting	-11.3211
rise	-11.3212
▁នៅទីក្រុង	-11.3212
▁magical	-11.3213
▁lawyers	-11.3213
▁និងសេវា	-11.3215
▁បណ្តាញ	-11.3215
ផ្តល់ព័ត៌មាន	-11.3216
▁Malaysian	-11.3218
▁violent	-11.3219
▁បរិស្ថាន	-11.322
ឆ្នាំ២០១៨	-11.3222
rang	-11.3222
លេចធ្លោ	-11.3222
មានជំនាញ	-11.3223
កប់	-11.3223
▁ភ	-11.3224
ថវិការដ្ឋ	-11.3224
▁ឈើ	-11.3224
▁stalls	-11.3224
▁ដែរ។	-11.3224
វិស្វកម្ម	-11.3225
ការប្រកាស	-11.3225
ទៅកាន់ប្រទេស	-11.3225
បង្កើតរោងចក្រ	-11.3229
៥០នាក់	-11.3229
▁attack	-11.3231
▁ជាចុងក្រោយ	-11.3231
▁Ou	-11.3231
ការចាប់ខ្លួន	-11.3232
ងាយស្រួលក្នុងការ	-11.3232
pass	-11.3232
ជឿថា	-11.3234
ព្យួរ	-11.3235
▁revive	-11.3237
េី	-11.3238
៩២	-11.3238
៥៥	-11.3238
▁etc	-11.324
▁reveals	-11.324
▁semiconductor	-11.3241
▁contrary	-11.3241
ការនាំចេញអង្ករ	-11.3241
▁ស៊ូ	-11.3242
ដែលមានតម្លៃ	-11.3245
វីតាមីន	-11.3248
▁habit	-11.3249
▁accusations	-11.325
▁pursuing	-11.3251
មិនព្រម	-11.3252
បង្ហាញខ្លួន	-11.3253
▁removed	-11.3253
៨ភាគរយ	-11.3254
ក្រសួងមហាផ្ទៃ។	-11.3255
បន្ថែម។	-11.3256
▁និងការលះបង់	-11.3261
តើ	-11.3264
pop	-11.3266
▁reminded	-11.3266
▁ជំនាន់	-11.3267
▁ចម្លាក់	-11.3267
គណនេយ្យ	-11.3267
▁ខ្យល់	-11.3269
▁Polytechnic	-11.327
▁dilapidated	-11.327
▁unparalleled	-11.327
ចរ	-11.327
TA	-11.3271
▁អាចនឹង	-11.3271
▁offenders	-11.3271
▁នួន	-11.3273
កំឡុងពេល	-11.3274
▁សិទ្ធិ	-11.3276
BTV	-11.3279
ដូសជំរុញ	-11.3279
▁tests	-11.328
ពួកយើង	-11.328
▁ឱ	-11.3284
ចូលទស្សនា	-11.3286
▁បណ្ដា	-11.3287
តានតឹង	-11.3288
តប	-11.3288
បក្សនយោបាយ	-11.3289
រឿងរ៉ាវនៃ	-11.3292
ថ្នាក់តំបន់	-11.3292
ក្នុងភូមិ	-11.3293
ទៅដោយ	-11.3294
▁ប្រាកដ	-11.3294
ដែលស្ថិតនៅ	-11.3295
▁ឌី	-11.3296
ត្រឡប់មក	-11.3297
រួចទៅហើយ	-11.3299
▁Similar	-11.3299
▁deities	-11.33
▁Action	-11.33
ខ្លា	-11.3302
▁អូស្ត្រាលី	-11.3302
មុនី	-11.3302
សង្រ្គោះជាតិ	-11.3302
▁សម្ដេចអគ្គ	-11.3303
▁Tech	-11.3304
ថ្ងៃទី២១	-11.3305
▁sexual	-11.3305
៦លានដុល្លារ	-11.3306
របង	-11.3307
ក៏នឹង	-11.3307
▁Let	-11.3311
យកលុយ	-11.3311
IS	-11.3312
▁sellers	-11.3312
94	-11.3313
tha	-11.3313
៩៤	-11.3313
▁ទិវា	-11.3314
ផ្តល់សេវាសាធារណៈ	-11.3315
ជំរុញការវិនិយោគ	-11.3315
▁4)	-11.3316
ក្នុងឆ្នាំ២០២១	-11.3316
ថតរូប	-11.3318
▁60%	-11.3318
អធិការកិច្ច	-11.3319
▁វី	-11.332
▁asset	-11.332
រួមចំណែកដល់ការ	-11.3321
ផ្អែកលើភស្តុតាង	-11.3321
PI	-11.3321
បាល	-11.3325
▁impose	-11.3326
▁១៥០	-11.3327
▁Ha	-11.3327
ឆ្លើយ	-11.3328
▁ingenuity	-11.3329
ាំង	-11.3329
▁lament	-11.3329
នៅសៀមរាប	-11.3329
ល្មម	-11.3329
TS	-11.3331
ងាយរងគ្រោះ	-11.3332
គផ្ទាល់ពីបរទេស	-11.3333
ប្រទេសឥណ្ឌូនេស៊ី	-11.3333
ខណ្ឌមានជ័យ	-11.3334
ការពិភាក្សា	-11.3336
ផ្ទាំង	-11.3336
▁$20	-11.3337
▁frequently	-11.3338
ដង្ហែ	-11.3338
▁hardship	-11.3338
▁ឆ្លង	-11.3339
ខែកញ្ញា	-11.334
សំណាង	-11.3341
រដ្ឋមន្ដ្រី	-11.3341
ស្វែង	-11.3342
រៈ	-11.3343
បានបញ្ជាក់	-11.3344
តែម្តង។	-11.3344
ទទួលរងនូវ	-11.3346
ទីក្រុង។	-11.3348
គោលនយោបាយរបស់	-11.3349
ជាឱកាស	-11.335
▁អញ្ជើញជាអធិបតី	-11.335
▁បងប្អូន	-11.335
▁4,000	-11.3351
កើនឡើងដល់	-11.3352
▁allocations	-11.3355
ពាណិជ្ជកម្ម។	-11.3356
ធំមួយ	-11.3356
ចំពោះសុខភាព	-11.3358
២០នាក់	-11.3358
▁Maha	-11.3358
▁convenient	-11.3358
▁HRW	-11.3359
▁Unions	-11.3359
ealand	-11.3359
▁mindset	-11.336
▁designs	-11.3362
▁vows	-11.3365
▁វ៉ា	-11.3368
ស្ថិរភាពថ្លៃ	-11.3368
▁ខេត្តស្វាយរៀង	-11.3369
▁risen	-11.337
ef	-11.3371
▁ដោះស្រាយ	-11.3372
កំពុងមាន	-11.3374
▁define	-11.3375
ចាញ់	-11.3378
រដូវវស្សា	-11.3379
▁Ros	-11.3383
▁initially	-11.3383
អាចកាត់បន្ថយ	-11.3383
ជាតិនៃកម្ពុជា	-11.3384
oom	-11.3385
ឥឡូវនេះ	-11.3386
មានសក្ដានុពល	-11.3387
▁Self	-11.3388
ដំឡូង	-11.3388
▁arising	-11.3388
▁permission	-11.3389
▁studied	-11.339
▁concessional	-11.339
▁accepted	-11.3392
វាមាន	-11.3392
នាពេល	-11.3392
នៅទូទាំងពិភពលោក	-11.3392
CMA	-11.3393
សម្រេចគោលដៅ	-11.3394
not	-11.3394
លំដាប់	-11.3394
▁cherished	-11.3395
▁echoing	-11.3397
បានដាក់	-11.3398
កែទម្រង់	-11.3398
▁pest	-11.3399
▁directions	-11.3401
បានបញ្ចេញ	-11.3401
មហោស្រព	-11.3404
▁មូល	-11.3407
▁សញ្ញាបត្រ	-11.3407
▁aspirations	-11.3408
▁updates	-11.3408
▁មូលនិធិ	-11.3409
oral	-11.341
ព្យាករណ៍ថា	-11.3411
▁យោងតាមប្រភពពី	-11.3413
▁associate	-11.3414
បោក	-11.3414
▁universal	-11.3418
▁proof	-11.3418
▁lending	-11.3419
▁guaranteed	-11.3423
▁ហើយមាន	-11.3424
ទទួលបានចំណូល	-11.3425
▁salt	-11.3425
មនុស្សជាច្រើន	-11.3425
ថ្លែងអំណរគុណ	-11.3426
ដែលមានគុណភាព	-11.3426
▁figure	-11.3428
កៀរគរ	-11.3428
▁completely	-11.3429
លាក់បាំង	-11.3429
▁refreshing	-11.3429
៤ឆ្នាំ	-11.343
▁និងគ្មាន	-11.3431
.7%	-11.3433
▁Other	-11.3433
▁exceptional	-11.3434
ហ្គ	-11.3435
សន្	-11.3436
គឺជាយុទ្ធសាស្ត្រ	-11.3437
▁លេខ	-11.3438
▁addressed	-11.344
water	-11.3441
ដាវ	-11.3442
ទៅសាលាឧទ្ធរណ៍	-11.3442
ហេ	-11.3443
បញ្ជាការដ្ឋាន	-11.3444
នឹងជំរុញ	-11.3444
បុគ្គលដែល	-11.3444
▁fabric	-11.3446
ប្រាក់ឧបត្ថម្ភ	-11.3447
រស់រានមានជីវិត	-11.3448
▁optimism	-11.3448
បទភ្លេង	-11.3448
▁រ៉ានី	-11.3449
អភិវឌ្ឍសមត្ថភាព	-11.3454
lie	-11.3454
pi	-11.3456
ៀង	-11.3456
▁ប់	-11.3456
ចាត់ចែង	-11.3458
▁ដើម្បីពង្រីក	-11.3459
រក្សាការសម្ងាត់	-11.3459
ដីឡូត៍	-11.3461
តម្រូវឲ្យ	-11.3462
យាង	-11.3462
ភាពរុងរឿងនៃ	-11.3463
កសាងហេដ្ឋា	-11.3463
▁និងលោកជំទាវ	-11.3465
▁ឯកជន	-11.3465
និរន្តភាព	-11.3465
ដល់និស្សិត	-11.3468
▁ខាងមុខ	-11.3468
បានថ្លែង	-11.347
លើសេចក្តីព្រាង	-11.347
ក្នុងសំណុំរឿង	-11.347
ឆ្នាំ២០៣០	-11.3471
97	-11.3473
ផលលំបាក	-11.3474
▁effected	-11.3476
▁បង្ក	-11.3476
អាចប្រើ	-11.3477
▁Entertainment	-11.3478
▁Lo	-11.3478
បង្កក	-11.3479
org	-11.3479
កុងតឺន័រ	-11.348
បទប្បញ្ញត្តិនៃ	-11.3482
▁sentien	-11.3482
រួចជាស្រេច	-11.3483
▁គុណធម៌	-11.3484
ម្លប់	-11.3485
▁Vo	-11.3485
▁paper	-11.3488
▁បានបន្ថែមថា	-11.349
▁និងគម្រោង	-11.349
ឈូក	-11.3492
សើម	-11.3492
សួរសុខទុក្ខ	-11.3494
គំនិតច្នៃប្រឌិត	-11.3495
ព្យុះភ្លៀង	-11.3495
សម្រាប់អនាគត	-11.3495
▁គីឡូក្រាម	-11.3497
▁គោរព	-11.3498
▁recovered	-11.3501
▁មុនី	-11.3502
មហាអំណាច	-11.3503
▁មិនមែនជា	-11.3504
ថ្មីរបស់	-11.3505
interest	-11.3505
បោះបង់ចោល	-11.3505
▁approves	-11.3506
▁gatherings	-11.3507
▁ឬអាច	-11.3507
ព្រឹទ្ធាចារ្យ	-11.3508
ស្ដេច	-11.3508
▁Alliance	-11.3508
អង្កេត	-11.3508
▁Borey	-11.3508
▁tender	-11.3509
▁closure	-11.3509
▁Reuters	-11.3513
▁Cheng	-11.3513
ដ៏រឹងមាំ។	-11.3515
▁មកដល់	-11.3516
ចែងចាំង	-11.3517
នៅឆ្នាំក្រោយ	-11.3517
ជារឿយៗ	-11.3517
▁ដែលវា	-11.3518
ត្រូវបំពេញ	-11.3518
ប្រកបដោយភាព	-11.3518
ក្នុងឆ្នាំ២០២៣	-11.3519
▁Sour	-11.3524
នៃរដ្ឋសភា	-11.3524
▁Ri	-11.3526
▁Annual	-11.3528
មូលហេតុដែល	-11.3529
ទិញផ្ទះ	-11.353
ក្នុងពិធីបើក	-11.3531
កក់	-11.3532
មនុស្សចាស់	-11.3532
78	-11.3533
កត់ត្រា	-11.3535
សន្លឹកឆ្នោត	-11.3537
▁finds	-11.3537
ពោះ	-11.3538
ព្រឹកព្រលឹម	-11.3541
heng	-11.3542
មានស្ថិរភាព	-11.3542
សរសៃ	-11.355
ដំណាំស្រូវ	-11.3552
ការកសាងសមត្ថភាព	-11.3553
▁Ford	-11.3553
ហេដ្ឋារចនាសម្ព័	-11.3555
អ្នកណា	-11.3556
▁hikes	-11.3558
▁ក្រុមហ៊ុននាំចេញ	-11.3558
នៅវិទ្យាស្ថាន	-11.3559
▁យោគ	-11.3559
ក្នុងភូមិសាស្ត្រ	-11.3561
ថ្នាំជក់	-11.3561
▁ត្រាស់ដឹង	-11.3562
ជុំវិញពិភពលោក	-11.3562
▁០៩	-11.3563
អំពាវនាវឱ្យ	-11.3563
▁German	-11.3564
▁tariff	-11.3565
▁30,000	-11.3566
ពិធីបុណ្យប្រពៃណី	-11.3566
▁thick	-11.3566
នៅអ៊ុយក្រែន	-11.3568
▁caution	-11.3568
▁ហ្សាការីយ៉ា	-11.3568
▁Musk	-11.3568
▁Thuch	-11.3569
សម្រុក	-11.357
គ្រោះរាំងស្ងួត	-11.357
including	-11.3571
▁insult	-11.3572
▁maximize	-11.3572
▁repay	-11.3575
នៅអាស៊ី	-11.3576
ដែលមានលក្ខណៈ	-11.3577
យាម	-11.358
▁makes	-11.358
▁workplace	-11.3581
▁សណ្ឋាគារ	-11.3584
របបអាហារ	-11.3584
▁ឥត	-11.3584
បានដឹង	-11.3585
▁បន្សល់	-11.3585
▁អំឡុងពេល	-11.3587
▁700	-11.3587
83	-11.359
ពូ	-11.3591
ក្នុងបរិបទ	-11.3591
គូរ	-11.3591
▁ថាមពល	-11.3592
▁BTV	-11.3592
វង្វេង	-11.3592
▁ផា	-11.3592
ថាមពលស្អាត	-11.3593
▁នេះគឺជា	-11.3597
LI	-11.3598
▁នេត្រ	-11.3598
គ្រាប់ពូជ	-11.3598
ប្រែងកំពុង	-11.3598
▁neglect	-11.3598
រថយន្ដ	-11.3598
▁venerable	-11.3599
▁Vanndy	-11.3599
▁beginning	-11.3599
▁Ng	-11.3599
ភូមិឋាន	-11.36
bank	-11.3602
▁អ៊ូ	-11.3602
ឃោសនាបោះឆ្នោត	-11.3603
▁reigned	-11.3603
កែប	-11.3604
National	-11.3604
ស្តង់ដារគុណភាព	-11.3605
ដ៏ស្ថិតស្ថេរ	-11.3605
បានបន្តថា	-11.3606
នៃការអនុវត្ត	-11.3607
▁dismissed	-11.3608
ក្នុងទំហំ	-11.3611
ទៅវិញ។	-11.3613
ដាក់បញ្ចូល	-11.3614
▁upholds	-11.3614
ការចំណាយលើ	-11.3618
ុយ	-11.3619
ផ្តើម	-11.3619
▁Kork	-11.3621
វគ្គសិក្សា	-11.3622
ក្រសួងរ៉ែ	-11.3622
▁48	-11.3625
មានច្រើន	-11.3625
សហប្រជាជាតិ។	-11.3627
ខ្នាត	-11.3627
▁សុខភាព	-11.3629
▁Russey	-11.3629
អគ្គ	-11.363
ជឿនលឿន	-11.363
អ្នកពាក់ព័ន្ធ	-11.3631
CE	-11.3632
▁Bavet	-11.3636
▁playing	-11.3637
អ្នកទាំងពីរ	-11.3637
៧៨	-11.3638
នៃសន្តិភាព	-11.3638
▁Gumball	-11.3639
▁ទីន	-11.3639
▁blue	-11.3641
ប្រទេសឡាវ	-11.3646
យន្ត	-11.3646
មកដល់ពេលនេះ	-11.3647
▁calling	-11.3649
ប្រកបដោយសមធម៌	-11.365
▁និងទាន់ពេលវេលា	-11.3653
កំណត់គោលដៅ	-11.3653
▁ការប្រកាស	-11.3656
កញ្ចក់	-11.3656
តុលាការ។	-11.3657
▁Kampuchea	-11.3659
▁legislative	-11.3659
▁regardless	-11.366
▁Ye	-11.366
▁សង្គ្រាម	-11.3662
ហ្	-11.3664
ជាមិត្ត។	-11.3666
▁Hy	-11.3666
តាមច្បាប់	-11.3667
▁attending	-11.3669
▁audience	-11.3671
▁ចូរ	-11.3672
ក្រៅផ្លូវការ	-11.3672
ត្	-11.3672
ព្រះរាជទាន	-11.3674
គោរពសិទ្ធិមនុស្ស	-11.3674
៤៦	-11.3674
▁recount	-11.3675
គណ	-11.368
មួយកម្រិតទៀត	-11.368
▁កម្ពុជានឹង	-11.3682
លិខិតបញ្ជាក់	-11.3683
▁notes	-11.3683
ត្រូវដាក់ជូន	-11.3684
បរិវេណ	-11.3685
▁ឡាវ	-11.3685
ម្ហូប	-11.3686
បានឡើយ។	-11.3686
▁វណ្ណឌី	-11.3687
អក្ខរកម្ម	-11.3688
▁អ្នកវិភាគថា	-11.3689
▁បើតាមលោក	-11.369
[...]
