<pad>	0
<unk>	0
<s>	0
</s>	0
<2en>	0
<2km>	0
▁	-2.26573
,	-3.73151
.	-3.89989
▁the	-4.10581
។	-4.50392
s	-4.51986
▁and	-4.63764
▁to	-4.66714
▁of	-4.72055
-	-5.02408
▁a	-5.24876
▁in	-5.26288
▁is	-5.35521
▁និង	-5.38799
:	-5.39649
▁for	-5.61139
▁The	-5.80933
និង	-5.81292
)	-5.852
▁(	-5.85577
▁with	-5.97717
ing	-6.0105
▁that	-6.08366
▁you	-6.13563
នៃ	-6.20619
▁on	-6.26031
?	-6.31608
’	-6.31851
/	-6.32591
ដែល	-6.32862
▁are	-6.35892
ed	-6.40085
▁be	-6.42174
▁can	-6.45368
▁I	-6.46756
▁it	-6.47341
សម្រាប់	-6.50691
▁as	-6.54631
▁will	-6.5554
នេះ	-6.58604
របស់	-6.61309
▁at	-6.61797
▁by	-6.62451
▁from	-6.63244
▁or	-6.64931
បាន	-6.70702
▁បាន	-6.71893
▁have	-6.73202
▁ការ	-6.7648
ពី	-6.7687
▁your	-6.77674
d	-6.78892
▁this	-6.82392
t	-6.82536
៖	-6.83709
នៅក្នុង	-6.84953
▁នៅ	-6.85831
▁has	-6.86473
▁ដែល	-6.86685
▁not	-6.86878
ដោយ	-6.88896
មាន	-6.94285
នៅ	-6.94329
▁ហើយ	-6.96136
e	-6.96152
ការ	-7.00528
ក្នុង	-7.04824
▁Cambodia	-7.04841
▁A	-7.05151
▁/	-7.05727
▁“	-7.06308
;	-7.06571
▁1	-7.09234
ជា	-7.12217
ហើយ	-7.15267
ly	-7.16417
▁an	-7.17529
▁ឬ	-7.19766
របស់អ្នក	-7.19909
er	-7.19998
ដើម្បី	-7.20478
▁we	-7.20553
'	-7.21785
y	-7.22647
ឬ	-7.22783
C	-7.23109
មួយ	-7.245
▁ជា	-7.24567
▁all	-7.25765
”	-7.25784
m	-7.27086
▁មាន	-7.27327
!	-7.28197
▁more	-7.29767
ទៅ	-7.30457
គឺ	-7.32699
ជាមួយ	-7.33222
▁3	-7.34421
mm	-7.35946
▁was	-7.36113
▁In	-7.36597
កម្ពុជា	-7.38346
S	-7.39563
"	-7.39655
▁which	-7.4004
▁ដោយ	-7.40372
ដែលមាន	-7.4155
អ្នក	-7.41678
▁"	-7.42041
▁2	-7.42416
▁also	-7.42498
នឹង	-7.45158
2	-7.45201
ត្រូវបាន	-7.47838
▁អ្នក	-7.47851
▁ក្នុង	-7.48667
ថា	-7.49419
al	-7.49498
▁It	-7.49535
▁|	-7.50412
វា	-7.50469
លើ	-7.50606
▁their	-7.51166
▁S	-7.52235
▁លោក	-7.53369
in	-7.5419
▁new	-7.55211
ស	-7.56153
V	-7.56917
n	-7.56979
▁high	-7.57713
D	-7.58396
a	-7.58573
▁ដើម្បី	-7.59476
▁but	-7.59548
▁គឺ	-7.5996
▁10	-7.60121
A	-7.60801
▁This	-7.6183
▁5	-7.62394
▁one	-7.6249
នៅលើ	-7.63664
អាច	-7.64199
▁our	-7.64292
▁4	-7.64538
▁its	-7.64787
ដល់	-7.65656
▁they	-7.6582
▁time	-7.67854
▁so	-7.67883
▁C	-7.70696
r	-7.71699
▁នេះ	-7.72449
x	-7.72806
ចំនួន	-7.7312
▁other	-7.7493
▁like	-7.74989
%	-7.75578
▁China	-7.76911
▁នឹង	-7.76915
▁–	-7.77019
▁P	-7.77347
4	-7.7808
es	-7.78138
▁over	-7.78383
▁use	-7.79815
g	-7.80344
ថ្មី	-7.80785
រ	-7.82388
ក្នុងការ	-7.82858
(	-7.83229
T	-7.83976
នូវ	-7.83998
ទាំងអស់	-7.84142
▁សម្រាប់	-7.84274
com	-7.84484
▁about	-7.84921
▁B	-7.8529
ទេ	-7.8586
3	-7.86009
W	-7.86418
▁should	-7.86927
▁his	-7.87409
▁2021	-7.87686
G	-7.88466
▁do	-7.88823
▁របស់	-7.88824
▁We	-7.89318
▁than	-7.89348
▁he	-7.89539
ផលិតផល	-7.89552
▁យើង	-7.89874
▁if	-7.90377
ជាមួយនឹង	-7.90473
▁ប៉ុន្តែ	-7.91368
▁been	-7.91455
តាម	-7.91831
▁T	-7.91939
▁into	-7.92488
▁must	-7.92491
ក	-7.92866
▁up	-7.93259
ជាច្រើន	-7.93372
ជាង	-7.93551
▁who	-7.93657
ឱ្យ	-7.941
o	-7.9448
▁6	-7.94833
▁when	-7.95744
របស់យើង	-7.96115
▁វា	-7.97209
▁ត្រូវ	-7.97362
L	-7.97499
នោះ	-7.987
ខ្ពស់	-7.99001
▁used	-7.99421
▁នៃ	-7.99474
re	-7.99823
មិន	-8.00013
ប្រព័ន្ធ	-8.00141
th	-8.00281
▁១	-8.00593
▁តើ	-8.01067
យើង	-8.01502
ទឹក	-8.01584
▁after	-8.01943
អំពី	-8.02223
▁them	-8.02316
▁If	-8.02391
▁ទៅ	-8.02528
ប្រតិបត្តិការ	-8.02597
▁products	-8.02849
លោក	-8.0291
i	-8.02953
ការងារ	-8.02987
ត	-8.03255
k	-8.03388
B	-8.03648
p	-8.0399
ផ្នែក	-8.04077
ដូចជា	-8.0444
▁people	-8.0555
កម្មវិធី	-8.05646
▁H	-8.05964
▁water	-8.06234
▁8	-8.06309
▁development	-8.06609
ក្រុមហ៊ុន	-8.06879
or	-8.07204
▁very	-8.07728
▁For	-8.08276
1	-8.09197
ឧបករណ៍	-8.09387
▁គឺជា	-8.09461
H	-8.09821
▁my	-8.10415
គឺជា	-8.10689
▁there	-8.11172
▁need	-8.11249
ម៉ាស៊ីន	-8.11341
▁ពី	-8.11515
▁out	-8.11691
▁F	-8.11694
ចំពោះ	-8.11695
ជាតិ	-8.11866
▁ឆ្នាំ	-8.11958
P	-8.12151
ន	-8.12274
ខ្ញុំ	-8.12514
▁LED	-8.12749
▁12	-8.12843
▁only	-8.12957
ប	-8.1327
▁may	-8.13699
ដំណើរការ	-8.13963
▁+	-8.14032
▁R	-8.14412
▁through	-8.14543
▁no	-8.15799
▁*	-8.15821
▁7	-8.16055
▁២	-8.16115
ល្អ	-8.16325
▁market	-8.16471
ម	-8.16647
▁make	-8.16842
▁And	-8.16846
▁Royal	-8.17221
c	-8.17579
ធ្វើ	-8.17631
ល	-8.17691
▁system	-8.17787
ប្រើប្រាស់	-8.18128
M	-8.18531
▁most	-8.18555
▁quality	-8.18673
▁first	-8.18797
ភាព	-8.19467
▁such	-8.19642
▁20	-8.19998
▁&	-8.20098
▁មិន	-8.20213
▁M	-8.20316
▁good	-8.20654
▁years	-8.20913
▁You	-8.22124
5	-8.22364
F	-8.22544
ប្រើ	-8.22701
ត្រូវ	-8.22771
▁៣	-8.23276
▁អាច	-8.23281
▁D	-8.23419
ផ្សេងទៀត	-8.24368
▁any	-8.24407
▁many	-8.24632
▁E	-8.24907
នៃការ	-8.25854
ឆ្នាំ	-8.26142
w	-8.26171
សេដ្ឋកិច្ច	-8.26251
តម្លៃ	-8.26356
មនុស្ស	-8.26365
ពួកគេ	-8.27103
://	-8.27351
▁Ministry	-8.27522
▁G	-8.27914
E	-8.28049
របស់ពួកគេ	-8.28241
▁work	-8.28561
▁because	-8.28713
▁some	-8.28777
),	-8.29294
▁two	-8.29373
▁Penh	-8.29493
▁To	-8.29494
l	-8.2978
ទីផ្សារ	-8.29949
▁Phnom	-8.30313
▁well	-8.30331
▁these	-8.30343
▁ដូច្នេះ	-8.30437
▁Cambodian	-8.30448
...	-8.30756
ion	-8.31596
▁were	-8.32352
បច្ចេកវិទ្យា	-8.32598
K	-8.32639
បន្ថែម	-8.32692
»	-8.32918
ថាមពល	-8.33218
▁He	-8.33595
ដែលបាន	-8.33632
▁year	-8.33908
b	-8.34462
ទី	-8.34627
▁ថា	-8.35639
ធំ	-8.35737
h	-8.35835
▁public	-8.35884
▁during	-8.36453
▁My	-8.37066
ប្រភេទ	-8.37073
ទាំងនេះ	-8.37148
▁ហ៊ុន	-8.37226
▁ត្រូវបាន	-8.37287
▁me	-8.37445
ផងដែរ។	-8.37669
ង	-8.378
▁us	-8.38298
ic	-8.38701
▁shall	-8.38846
ឧស្សាហកម្ម	-8.39361
▁machine	-8.39705
ការពារ	-8.39767
on	-8.40135
អន្តរជាតិ	-8.40427
គ្រប់គ្រង	-8.40528
able	-8.40563
us	-8.40586
អាជីវកម្ម	-8.40665
▁N	-8.40842
▁best	-8.40859
▁National	-8.40984
6	-8.41053
.”	-8.4127
▁what	-8.41441
▁national	-8.41692
▁her	-8.42423
▁L	-8.42624
▁get	-8.42646
▁Do	-8.42813
▁before	-8.42852
កំពុង	-8.43013
▁under	-8.43186
▁know	-8.43481
▁production	-8.44184
▁health	-8.44264
តំបន់	-8.44342
ច្រើន	-8.44364
របស់អ្នក។	-8.44786
▁support	-8.44807
ផ្លូវ	-8.44896
v	-8.44936
មួយចំនួន	-8.45387
ព័ត៌មាន	-8.45619
ក្រុម	-8.45666
▁ក្រុមហ៊ុន	-8.45669
▁life	-8.45689
មក	-8.45814
ដ៏	-8.46359
▁long	-8.46577
▁ខ្ញុំ	-8.47532
របស់ខ្លួន	-8.47533
▁take	-8.47793
ers	-8.47826
ទិញ	-8.48207
▁Minister	-8.48506
▁15	-8.48517
ទាំង	-8.48611
▁said	-8.48626
▁«	-8.48884
ពាណិជ្ជកម្ម	-8.4892
▁without	-8.48997
ប្រកបដោយ	-8.4931
to	-8.49451
f	-8.49464
▁power	-8.49554
ដាក់	-8.49602
បង្កើត	-8.49723
▁តែ	-8.49792
▁No	-8.49803
an	-8.49937
▁មួយ	-8.50228
N	-8.50726
▁want	-8.50816
ទេ។	-8.51147
៥	-8.51186
▁His	-8.51412
“	-8.51787
▁U	-8.51896
▁small	-8.52203
▁9	-8.52208
៕	-8.52215
ផងដែរ	-8.52401
▁Hun	-8.52546
▁different	-8.52551
en	-8.52746
ation	-8.52913
▁ក៏	-8.53212
▁ensure	-8.53217
▁company	-8.53264
ដី	-8.53317
it	-8.5352
▁world	-8.54103
យ	-8.54143
បន្ត	-8.54158
រចនាសម្ព័ន្ធ	-8.54263
▁•	-8.54667
▁K	-8.55061
▁នៅក្នុង	-8.55155
គាត់	-8.55606
▁៤	-8.55783
▁day	-8.55816
▁design	-8.56476
8	-8.56533
▁50	-8.56735
▁30	-8.5681
ទទួលបាន	-8.57785
ឯកសារ	-8.57805
ចិន	-8.57914
តាមរយៈ	-8.58491
*	-8.58538
▁O	-8.58551
▁៥	-8.58658
▁while	-8.58667
យក	-8.5892
▁help	-8.59006
▁every	-8.59029
▁million	-8.59059
X	-8.59128
▁»	-8.59152
ផលិត	-8.59327
ដែក	-8.59763
២	-8.59862
១	-8.6019
▁economic	-8.60495
▁international	-8.60501
▁made	-8.60707
▁process	-8.60896
▁had	-8.60993
▁product	-8.60993
▁between	-8.6111
រវាង	-8.61194
ឲ្យ	-8.61279
▁government	-8.61454
បង្ហាញ	-8.61526
R	-8.61641
▁គេ	-8.61824
▁how	-8.61878
បន្ទាប់ពី	-8.62193
7	-8.62511
).	-8.62581
សម្រាប់ការ	-8.62795
▁land	-8.63296
ទិន្នន័យ	-8.63362
▁data	-8.63619
▁service	-8.63744
▁technology	-8.64378
តែ	-8.64403
ណា	-8.64575
ពីរ	-8.64602
▁information	-8.64634
le	-8.64663
▁19	-8.64729
▁business	-8.64778
▁សូម	-8.64831
▁find	-8.64861
▁steel	-8.65367
បញ្ហា	-8.65891
▁ដល់	-8.65993
▁control	-8.66247
នៅពេល	-8.66388
st	-8.66655
ធ្វើការ	-8.66667
O	-8.66745
បំផុត	-8.66793
▁100	-8.67193
▁All	-8.67284
▁re	-8.67427
▁would	-8.67694
u	-8.67977
▁light	-8.68374
▁កម្ពុជា	-8.68491
▁ធ្វើ	-8.68612
នេះ។	-8.69031
តម្រូវការ	-8.69034
ហិរញ្ញវត្ថុ	-8.69062
▁see	-8.69097
ចេញ	-8.69126
▁$	-8.69277
10	-8.69302
▁Co	-8.69546
ខ្លាំង	-8.6956
▁Re	-8.69577
J	-8.69873
ផ្ទាល់ខ្លួន	-8.69977
ក៏	-8.70556
ពណ៌	-8.70665
]	-8.71201
▁even	-8.71396
ខ្សែ	-8.71437
ដូច	-8.71494
▁price	-8.72074
▁within	-8.72343
▁de	-8.72397
ថ្ងៃ	-8.72526
ចូល	-8.7267
▁growth	-8.72677
I	-8.72711
▁food	-8.72715
▁As	-8.72752
▁per	-8.72852
របស់ខ្ញុំ	-8.72867
គម្រោង	-8.72871
▁just	-8.72888
▁order	-8.73001
សម្ភារៈ	-8.73002
កញ្ចក់	-8.73003
អតិថិជន	-8.73141
កំដៅ	-8.73211
▁ព្រះ	-8.734
ប្រទេស	-8.73501
សកម្មភាព	-8.73557
ល្អបំផុត	-8.73669
ការប្រើប្រាស់	-8.73701
លក់	-8.73714
សេវាកម្ម	-8.73856
▁ឯកឧត្តម	-8.74009
▁then	-8.74213
▁provide	-8.74417
ជំនាញ	-8.74674
គ្មាន	-8.7491
▁With	-8.75087
រថយន្ត	-8.75125
សុវត្ថិភាព	-8.75264
▁ពេល	-8.7528
um	-8.75287
▁Government	-8.75436
រហូតដល់	-8.75694
▁material	-8.75938
គុណភាព	-8.75964
▁Previous	-8.75966
ដំបូង	-8.76081
យ៉ាង	-8.7609
▁same	-8.76102
▁free	-8.76163
▁am	-8.76248
-19	-8.76501
▁នោះ	-8.76607
កំណត់	-8.76776
▁right	-8.76821
▁go	-8.76842
▁កម្មវិធី	-8.77036
▁សែន	-8.77159
ផ្ទះ	-8.77234
លេខ	-8.77348
▁including	-8.77358
កាត់	-8.77425
▁now	-8.7746
▁How	-8.77465
▁ប្រសិនបើ	-8.77538
ពេលវេលា	-8.77605
▁him	-8.77681
ទំហំ	-8.77802
▁V	-8.7782
កន្លែង	-8.77996
▁where	-8.78194
▁three	-8.78401
ទីក្រុង	-8.7851
▁Sen	-8.78693
▁way	-8.79098
▁project	-8.79186
វីដេអូ	-8.79289
ត្រួតពិនិត្យ	-8.7931
▁What	-8.79313
ស៊ី	-8.79482
ity	-8.79544
គំរូ	-8.79547
របស់គាត់	-8.79562
▁លើ	-8.79579
▁W	-8.79806
ឡើង	-8.8018
▁using	-8.80829
ទៅកាន់	-8.81027
▁back	-8.81034
▁Next	-8.81073
▁large	-8.81134
▁24	-8.81343
ខ្យល់	-8.8145
សុខភាព	-8.81546
ve	-8.81647
▁days	-8.81828
▁Can	-8.81984
te	-8.82029
ណាមួយ	-8.82041
+	-8.82211
ទំនាក់ទំនង	-8.82292
▁agricultural	-8.8235
ដើម	-8.82487
ដែលអាច	-8.82583
គ្នា	-8.83253
▁each	-8.83309
ពិសេស	-8.83619
▁18	-8.83766
▁New	-8.83872
ចេញពី	-8.83913
▁ទេ	-8.83998
▁http	-8.84049
ចាប់ផ្តើម	-8.8423
ពន្លឺ	-8.84415
ផ្លាស់ប្តូរ	-8.84574
បើក	-8.84614
៣	-8.84867
សិក្សា	-8.84945
ផលិតកម្ម	-8.85076
▁មក	-8.85448
អាហារ	-8.85505
el	-8.8552
ឌីជីថល	-8.85533
ប្រសិទ្ធភាព	-8.85552
▁An	-8.85661
▁those	-8.85729
▁ជាមួយនឹង	-8.85831
ច្បាប់	-8.85841
▁factory	-8.85993
et	-8.86018
នាង	-8.86175
The	-8.86248
▁Samdech	-8.86324
▁°	-8.8659
▁temperature	-8.86594
ភាគច្រើន	-8.86981
វ	-8.87011
▁1.	-8.87216
ការផ្លាស់ប្តូរ	-8.87221
▁11	-8.87232
▁important	-8.87531
▁ទាំង	-8.87616
ធម្មតា	-8.87621
▁financial	-8.87693
▁X	-8.87717
▁being	-8.87821
ប្រេង	-8.87851
▁When	-8.87887
▁ពួក	-8.87955
ប៉ុន្តែ	-8.88129
មូលដ្ឋាន	-8.88503
▁both	-8.88509
▁size	-8.88531
▁un	-8.88622
▁៖	-8.88655
ថ្ម	-8.88721
ខ្លួន	-8.88821
ធ្វើឱ្យ	-8.88902
រោងចក្រ	-8.8919
▁law	-8.89309
9	-8.89643
▁investment	-8.89704
ផ្សេងៗ	-8.8978
ស្	-8.89927
▁១០	-8.89928
ទីតាំង	-8.89966
របស់វា	-8.90012
មើល	-8.90118
អាមេរិក	-8.90271
មុន	-8.90333
▁students	-8.90341
▁online	-8.90382
ដូច្នេះ	-8.90589
គោលដៅ	-8.90699
▁etc	-8.90818
is	-8.90852
▁easy	-8.90852
▁Khmer	-8.9095
▁services	-8.90996
▁number	-8.91114
គាំទ្រ	-8.91191
អ្នកប្រើប្រាស់	-8.91303
ar	-8.91333
▁equipment	-8.91428
▁16	-8.91586
ខ្មែរ	-8.91822
▁key	-8.91883
ផ្សព្វផ្សាយ	-8.919
វិញ	-8.92377
▁So	-8.92427
▁ថ្ងៃ	-8.92598
▁due	-8.92809
▁៦	-8.93187
▁Z	-8.93377
na	-8.93629
▁industry	-8.93635
កម្រិត	-8.93701
▁much	-8.9374
▁display	-8.94132
▁ក្រុម	-8.94296
១៩	-8.94306
បំពង់	-8.94308
▁Is	-8.94405
ធម្មជាតិ	-8.9451
id	-8.94637
Y	-8.94795
the	-8.94877
អ	-8.95108
រឿង	-8.95173
▁materials	-8.95213
ស្ថានភាព	-8.95364
ផ្តល់	-8.95493
បណ្តាញ	-8.95557
▁glass	-8.95648
៤	-8.95701
ប្រាក់	-8.95708
▁[	-8.95744
សង្គម	-8.95826
▁sector	-8.95906
ៗ	-8.96163
▁low	-8.96248
▁social	-8.96257
ive	-8.96354
▁ដែលជា	-8.96471
▁14	-8.96601
▁customers	-8.96895
▁Q	-8.97037
▁area	-8.97065
▁home	-8.97096
▁future	-8.97113
▁គាត់	-8.97129
▁does	-8.97161
co	-8.97272
▁ប្រព័ន្ធ	-8.97297
រាជរដ្ឋាភិបាល	-8.97325
បច្ចេកទេស	-8.97361
at	-8.97517
▁great	-8.97518
ត្រូវការ	-8.97575
▁ដូចជា	-8.97659
បរិស្ថាន	-8.97803
ស្វែងរក	-8.97874
ឈ្មោះ	-8.97895
សត្វ	-8.98056
▁ជាមួយ	-8.98238
▁could	-8.98286
cm	-8.98333
▁ពណ៌	-8.98377
z	-8.98437
▁own	-8.9853
រូបភាព	-8.98542
▁ឧបករណ៍	-8.98669
ឡើងវិញ	-8.98675
ance	-8.99047
▁បន្ទាប់ពី	-8.99054
▁ឱ្យ	-8.99137
អាចត្រូវបាន	-8.99205
សហគមន៍	-8.99282
▁ម	-8.99354
▁តាម	-8.99639
se	-8.99793
▁High	-8.99981
▁various	-8.99989
សំខាន់	-9.00071
គេហទំព័រ	-9.00132
កុមារ	-9.00164
▁hours	-9.00281
▁improve	-9.00426
▁according	-9.00548
ស្បែក	-9.00554
▁global	-9.00573
ខ្លះ	-9.00591
▁2019	-9.00654
មុខ	-9.00852
ពេល	-9.00876
ជិត	-9.01039
▁Bitcoin	-9.01121
▁needs	-9.01229
un	-9.01277
▁down	-9.0138
បន្ថែមទៀត	-9.01589
▁research	-9.01631
▁place	-9.01772
កូន	-9.01867
ទាប	-9.01997
មិនមាន	-9.0202
▁2.	-9.02128
ml	-9.02238
▁event	-9.02269
គ្រួសារ	-9.02273
▁On	-9.02281
តូច	-9.02307
▁better	-9.0262
▁around	-9.02665
▁2022	-9.02683
ផ្គត់ផ្គង់	-9.02701
▁ខែ	-9.02711
▁full	-9.02756
▁part	-9.02788
ant	-9.0304
ness	-9.03064
ro	-9.03129
▁Mr	-9.0316
ត្រជាក់	-9.03198
▁change	-9.03223
ជ្រើសរើស	-9.03344
▁color	-9.03401
▁citizens	-9.03506
▁surface	-9.03522
▁2017	-9.03596
ur	-9.03609
▁25	-9.03612
▁2018	-9.03933
▁supply	-9.03998
▁against	-9.04009
នៅកម្ពុជា	-9.0401
នានា	-9.04014
▁construction	-9.04056
▁buy	-9.04272
▁air	-9.04345
▁trade	-9.04512
▁COVID	-9.04782
▁p	-9.048
អនុវត្ត	-9.04951
de	-9.05047
ច	-9.05132
and	-9.05275
20	-9.05355
▁Prime	-9.05357
រៀបចំ	-9.05453
▁set	-9.05722
▁children	-9.05809
ហ្គេម	-9.0586
age	-9.05887
▁she	-9.05945
▁បន្ទាប់	-9.05993
ក្នុងរយៈពេល	-9.05998
▁13	-9.06036
▁By	-9.06132
ជីវិត	-9.06205
ស្តង់ដារ	-9.06209
កម្លាំង	-9.06249
▁type	-9.0625
ដៃ	-9.06404
រយៈពេល	-9.06546
im	-9.06663
est	-9.06833
ព្រះ	-9.06933
12	-9.07173
▁J	-9.07332
អាន	-9.07341
▁ប្រសិនបើអ្នក	-9.07408
▁ជាពិសេស	-9.07505
នោះទេ	-9.07541
▁ប្រទេស	-9.07605
ment	-9.07677
▁human	-9.07803
▁40	-9.07928
ចំណុច	-9.07995
▁ទំហំ	-9.08014
▁working	-9.08096
▁ដ៏	-9.08097
ent	-9.08145
ពិភពលោក	-9.08254
Z	-9.08284
បច្ចុប្បន្ន	-9.084
▁management	-9.08403
▁ៗ	-9.08532
▁case	-9.08556
អាលុយមីញ៉ូម	-9.08738
សំខាន់ៗ	-9.0882
▁hand	-9.08851
អគ្គិសនី	-9.08926
▁Android	-9.08942
ia	-9.0905
▁At	-9.09351
ចូលចិត្ត	-9.09401
ក្បាល	-9.09664
50	-9.09755
—	-9.09843
សីតុណ្ហភាព	-9.09986
សមត្ថភាព	-9.10113
ine	-9.10188
▁ប្រភេទ	-9.10338
▁energy	-9.10382
កាន់តែ	-9.10407
ឆ្លងកាត់	-9.10534
▁2020	-9.10545
▁don	-9.1061
▁screen	-9.10788
រក្សា	-9.10822
&	-9.1083
▁60	-9.10881
▁ស	-9.10925
▁protection	-9.10941
▁There	-9.10947
▁ព័ត៌មាន	-9.10972
អ្វីដែល	-9.10993
▁open	-9.10998
▁non	-9.11006
per	-9.11043
▁here	-9.11296
▁countries	-9.11329
ា	-9.11414
ខាងក្រៅ	-9.11528
ate	-9.1155
▁After	-9.11561
ៈ	-9.11571
ចូលរួម	-9.11634
ul	-9.11819
▁body	-9.11895
ដោយសារតែ	-9.11941
▁application	-9.11981
អា	-9.12231
▁ម៉ាស៊ីន	-9.12304
ry	-9.12313
▁available	-9.12315
▁video	-9.12402
▁since	-9.12479
▁stated	-9.12627
វិទ្យាសាស្ត្រ	-9.12645
ត្រូវបានគេ	-9.12754
up	-9.12835
▁ចំនួន	-9.12887
ទទួល	-9.13024
▁security	-9.13155
លេង	-9.13193
បិទ	-9.13242
▁International	-9.13308
30	-9.13395
▁top	-9.13405
▁និងការ	-9.13445
▁Kingdom	-9.13486
កសិកម្ម	-9.13589
ដ	-9.13665
▁content	-9.13762
ប្រឆាំងនឹង	-9.13832
▁family	-9.13839
▁authorities	-9.13944
ch	-9.14001
▁digital	-9.14218
▁Our	-9.14254
ការគ្រប់គ្រង	-9.14435
ត្រឹមត្រូវ	-9.14658
▁មុន	-9.14668
ដំណោះស្រាយ	-9.1471
▁Ye	-9.14722
▁increase	-9.14856
▁បើ	-9.1511
និយាយ	-9.15123
▁still	-9.15319
ចុងក្រោយ	-9.1549
▁But	-9.15502
▁oil	-9.15513
ក្នុងស្រុក	-9.15519
▁ម៉ោង	-9.15593
▁#	-9.15718
▁game	-9.15834
▁meet	-9.15881
▁God	-9.15881
ប្រមាណ	-9.1599
ជួយ	-9.16005
▁They	-9.16163
ឈើ	-9.16188
ដែរ	-9.1633
រដ្ឋាភិបាល	-9.16348
នីមួយៗ	-9.16354
▁រាល់	-9.16617
ary	-9.16661
▁range	-9.16703
បញ្ចូល	-9.16794
ម្នាក់	-9.1687
ll	-9.17028
▁Instagram	-9.17106
▁report	-9.17186
ដឹកជញ្ជូន	-9.17287
▁ភាព	-9.17301
▁name	-9.17472
▁study	-9.17485
សរុប	-9.17491
▁special	-9.17562
មិនអាច	-9.17584
រដ្ឋ	-9.17683
▁enhance	-9.17761
សូម	-9.18058
▁amount	-9.18137
ដា	-9.18316
▁experience	-9.18371
j	-9.18525
▁result	-9.18564
សាកល្បង	-9.18568
▁end	-9.18589
▁ផលិតផល	-9.18593
▁strong	-9.1864
ជូន	-9.18745
▁local	-9.18827
អភិវឌ្ឍន៍	-9.18845
▁safety	-9.1887
▁legal	-9.1889
▁Model	-9.189
ជំងឺ	-9.18974
ទូរស័ព្ទ	-9.18999
▁●	-9.19027
▁However	-9.19044
តែមួយ	-9.19259
ទៀត	-9.19528
កា	-9.19551
▁become	-9.19585
គំនិត	-9.19594
ទៅនឹង	-9.19631
▁next	-9.19648
ដែលជា	-9.19658
man	-9.19702
▁ដោយសារ	-9.19855
▁ទី	-9.19918
▁ASEAN	-9.19942
▁De	-9.20151
▁access	-9.20265
▁University	-9.20436
▁ល្ងាច	-9.20502
▁post	-9.20656
▁តម្លៃ	-9.20712
នី	-9.2079
មុនពេល	-9.20799
▁ដូច	-9.20874
▁parts	-9.20909
▁continue	-9.20988
▁Bank	-9.21165
▁0	-9.21215
៦	-9.21314
▁country	-9.2138
▁projects	-9.21657
0000	-9.21701
▁cooperation	-9.2184
ប្រហែល	-9.21843
▁ឲ្យ	-9.21856
ករណី	-9.21973
ថ្នាក់	-9.21975
▁performance	-9.22002
អេក្រង់	-9.22019
ដែលត្រូវបាន	-9.22026
ទៅជា	-9.22076
▁test	-9.22192
ត្រី	-9.22197
▁head	-9.22322
▁following	-9.22447
▁Chinese	-9.22531
as	-9.22546
គ្រប់	-9.22601
គេ	-9.2266
▁៨	-9.22709
ផ្ទុក	-9.22809
▁real	-9.2282
បទពិសោធន៍	-9.2282
នៅពេលដែល	-9.22951
▁always	-9.23033
▁last	-9.23033
ដោយប្រើ	-9.23055
តា	-9.23082
ទំនិញ	-9.23204
▁ប្រទេសចិន	-9.23282
40	-9.23341
▁education	-9.23349
▁https	-9.23434
▁~	-9.23436
▁companies	-9.23458
គណនី	-9.23479
មកពី	-9.23881
il	-9.23889
យកចិត្តទុកដាក់	-9.2393
ផ្ទាល់	-9.23947
▁current	-9.23969
៨	-9.24041
▁contact	-9.24054
▁account	-9.24167
បញ្ជូន	-9.24209
ព្រឹត្តិការណ៍	-9.24227
ខ្លួនឯង	-9.24256
▁times	-9.2429
▁PCB	-9.24316
▁Excellency	-9.24513
រៀន	-9.24547
ជម្រើស	-9.24624
cambodia	-9.24631
▁ខ្ញុំនឹង	-9.24632
វេទិកា	-9.25009
▁December	-9.25081
ma	-9.252
=	-9.25309
សារ	-9.25437
▁training	-9.25477
អេ	-9.25565
▁៧	-9.2558
▁pressure	-9.25622
ដោយស្វ័យប្រវត្តិ	-9.25633
▁money	-9.25663
▁CNC	-9.2573
▁21	-9.25903
▁cutting	-9.25983
▁speed	-9.26063
▁នាក់	-9.26088
ចង់	-9.26096
▁community	-9.26302
Q	-9.2646
▁King	-9.26533
ពេញលេញ	-9.2658
កើនឡើង	-9.26593
បន្ទះ	-9.26605
និងការ	-9.26642
▁policy	-9.26775
ប្រកាស	-9.26839
ទទួលយក	-9.2684
▁give	-9.26864
ប្រ	-9.26994
▁come	-9.27019
វិនិយោគ	-9.27042
សញ្ញា	-9.27069
▁rice	-9.27307
▁main	-9.2754
▁rate	-9.27551
ra	-9.27602
▁cost	-9.27659
15	-9.2766
▁essential	-9.27784
រាងកាយ	-9.27847
ក្រដាស	-9.27873
បំពេញ	-9.27978
មុខងារ	-9.28041
ចុះ	-9.28118
▁x	-9.28182
▁clean	-9.28283
ឱកាស	-9.28329
ការរចនា	-9.28544
▁ឡើង	-9.28555
កីឡា	-9.28667
▁official	-9.28705
កុំព្យូទ័រ	-9.28998
▁province	-9.29008
កំពូល	-9.29061
ទូទៅ	-9.29086
ter	-9.29116
មួយដែល	-9.2917
លទ្ធផល	-9.29185
សា	-9.2926
min	-9.29278
▁team	-9.29301
16	-9.29336
▁value	-9.29561
▁17	-9.29673
▁plan	-9.29673
▁ប្រើ	-9.29706
▁billion	-9.29715
▁3.	-9.29719
យ៉ាងខ្លាំង	-9.29834
▁export	-9.29974
ton	-9.29994
18	-9.30161
▁upon	-9.3038
ភ្លើង	-9.30384
▁resistance	-9.30569
▁start	-9.30579
▁too	-9.30585
ប្រជាពលរដ្ឋ	-9.30589
ប្រជាជន	-9.30612
mo	-9.30649
▁ពួកគេ	-9.30667
ចូលទៅក្នុង	-9.30669
▁plastic	-9.30805
▁reduce	-9.30933
▁200	-9.31075
របស់ក្រុមហ៊ុន	-9.31094
នាំចេញ	-9.31267
▁protect	-9.31335
កាត់បន្ថយ	-9.31352
▁News	-9.3137
ជើង	-9.31372
▁Preah	-9.31423
▁found	-9.31522
ចិត្ត	-9.31549
▁Pro	-9.31566
▁bought	-9.31714
▁100%	-9.319
ក្រណាត់	-9.31946
ក្រោម	-9.31985
ម៉ោង	-9.32006
▁Machine	-9.32036
▁customer	-9.32102
▁users	-9.32127
▁especially	-9.32166
▁...	-9.32169
▁peace	-9.3218
ប៉ុណ្ណោះ	-9.32253
បុរាណ	-9.32299
អ្នកអាច	-9.32496
ងាយស្រួល	-9.3259
ជ	-9.32632
▁workers	-9.32685
▁manufacturers	-9.32742
▁site	-9.32915
▁pm	-9.32976
▁man	-9.3299
▁foreign	-9.3302
១០	-9.33126
ប្រអប់	-9.33265
▁among	-9.33297
ផ្សិត	-9.3333
▁level	-9.33408
▁YouTube	-9.33416
រក	-9.33458
▁ភ្នំពេញ	-9.33572
▁line	-9.33591
▁keep	-9.33595
▁city	-9.33691
▁offer	-9.33819
▁ក្នុងការ	-9.33834
ចាប់អារម្មណ៍	-9.33896
▁Please	-9.33949
ក៏ដោយ	-9.34039
គ្រប់គ្រាន់	-9.34052
▁>	-9.34135
▁តាមរយៈ	-9.34152
▁program	-9.34429
រី	-9.34571
ការអភិវឌ្ឍ	-9.34584
_	-9.34608
▁2014	-9.34706
រ៉ា	-9.34709
▁These	-9.3482
អនុញ្ញាតឱ្យ	-9.34827
▁choose	-9.34842
ការអនុវត្ត	-9.34865
បោះពុម្ព	-9.34866
សាធារណៈ	-9.34878
25	-9.3494
▁treatment	-9.34951
ទៅលើ	-9.35001
▁ដុល្លារ	-9.35018
▁sell	-9.35019
▁capacity	-9.35093
▁prices	-9.35125
រឹង	-9.35181
▁US	-9.35188
▁present	-9.35285
▁ដោយសារតែ	-9.35464
សម្ពាធ	-9.35473
នោះទេ។	-9.35582
្	-9.35595
បុគ្គលិក	-9.35614
ខេត្ត	-9.35661
ទម្រង់	-9.35674
▁building	-9.35682
11	-9.35799
▁Power	-9.36049
សហរដ្ឋអាមេរិក	-9.36229
▁January	-9.36362
▁ក៏ដូចជា	-9.36389
ទាំងនោះ	-9.36407
វី	-9.36477
ដោយសារ	-9.36508
▁requirements	-9.36584
▁natural	-9.36608
▁មនុស្ស	-9.36696
▁bag	-9.3681
▁card	-9.36861
▁demand	-9.36876
ម៉ា	-9.36946
យុវជន	-9.3702
ច្រើនជាង	-9.37039
▁past	-9.37041
ឃើញ	-9.37065
ម៉ាក	-9.37092
lo	-9.37114
▁រាជរដ្ឋាភិបាល	-9.3721
▁another	-9.37361
am	-9.37365
▁500	-9.37401
▁face	-9.37492
ស្រាវជ្រាវ	-9.37583
▁heat	-9.37616
ដ៏អស្ចារ្យ	-9.37689
▁ទទួល	-9.3777
៧	-9.3789
▁standard	-9.37903
ត្រូវតែ	-9.37906
▁possible	-9.37936
វប្បធម៌	-9.37941
▁Product	-9.38025
ជី	-9.38162
វិធី	-9.38251
គោលនយោបាយ	-9.38251
▁off	-9.38305
ក្រោយ	-9.38398
▁អ្នកអាច	-9.38446
ព្យាបាល	-9.38448
▁Techo	-9.38486
▁heart	-9.38508
▁period	-9.38655
▁skills	-9.38692
ប្រសិនបើ	-9.38793
0	-9.38855
▁iPhone	-9.38884
▁Y	-9.38979
នៅតែ	-9.39069
▁Windows	-9.39173
60	-9.39281
វិស័យ	-9.39376
▁play	-9.3939
វិជ្ជាជីវៈ	-9.394
▁rights	-9.39408
▁complete	-9.39421
ថ្មី។	-9.39495
▁include	-9.39496
ធនាគារ	-9.39503
▁further	-9.39611
▁វាត្រូវបាន	-9.39615
▁prevent	-9.3965
▁infrastructure	-9.39794
less	-9.39872
ដូចគ្នា	-9.39907
ទាំងមូល	-9.39977
▁November	-9.39989
ដំឡើង	-9.40109
បី	-9.40111
ដឹកនាំ	-9.4028
▁school	-9.40343
▁court	-9.40344
▁Google	-9.40389
ta	-9.40445
▁layer	-9.40532
ផ្ទៃ	-9.40601
បញ្ចប់	-9.40608
▁higher	-9.40625
▁across	-9.40649
ពលរដ្ឋ	-9.40662
▁total	-9.40683
អាស៊ាន	-9.40895
សិស្ស	-9.40939
▁Home	-9.40984
អេស	-9.41063
▁avoid	-9.41163
▁areas	-9.41168
▁22	-9.41181
▁ខណៈ	-9.41326
ដោះស្រាយ	-9.41367
▁Dr	-9.41498
បុរស	-9.41541
▁Mac	-9.41559
▁added	-9.41593
ផែនការ	-9.41658
បង្កើន	-9.41755
ថវិកា	-9.41858
▁metal	-9.41959
ចាក់	-9.41965
▁នៅពេលដែល	-9.41972
អង្គការ	-9.41978
▁state	-9.42007
ce	-9.42099
ភ្ជាប់	-9.42172
ខាងលើ	-9.42184
រាជធានីភ្នំពេញ	-9.42186
ទុក	-9.42248
▁professional	-9.42286
ចាស់	-9.42303
មាតិកា	-9.42362
ne	-9.42433
ជញ្ជាំង	-9.42553
អ្នកផ្គត់ផ្គង់	-9.42675
▁four	-9.4269
ទេសចរណ៍	-9.42723
▁efficiency	-9.42765
▁white	-9.42838
ឡា	-9.42955
ស្ថាប័ន	-9.4296
ការវិនិយោគ	-9.43002
▁officials	-9.43069
រស់នៅ	-9.43142
អោយ	-9.43363
▁technical	-9.43404
▁According	-9.43412
▁One	-9.43414
▁processing	-9.43437
▁PVC	-9.43438
▁device	-9.43442
▁making	-9.43454
▁May	-9.43475
▁She	-9.43476
▁មុន៖	-9.43495
pcs	-9.43498
ជំនួយ	-9.43558
អាកាសធាតុ	-9.43711
▁love	-9.4377
▁visit	-9.43802
តែងតែ	-9.43824
ដើរ	-9.43964
មកដល់	-9.43985
ទាក់ទងនឹង	-9.44077
▁months	-9.44084
▁website	-9.44117
ផ្តល់នូវ	-9.44219
▁Why	-9.44365
សេវា	-9.44479
▁០	-9.4462
រួម	-9.44622
▁required	-9.44675
▁phone	-9.44741
មាស	-9.44935
▁review	-9.44939
ណែនាំ	-9.4495
▁civil	-9.45046
U	-9.45082
ឌី	-9.45097
ភ្នែក	-9.45145
▁suitable	-9.45252
ies	-9.45288
លី	-9.45321
ling	-9.45358
អ្វី	-9.4541
▁sure	-9.45508
នយោបាយ	-9.45618
▁plans	-9.45708
▁things	-9.45721
សៀវភៅ	-9.45745
kg	-9.45748
ដោយផ្ទាល់	-9.45867
ប៊ី	-9.45943
▁green	-9.4605
អប់រំ	-9.46118
▁meeting	-9.46151
▁clear	-9.46159
▁មម	-9.46405
▁mind	-9.46415
▁apply	-9.46433
កាន់តែច្រើន	-9.46512
one	-9.46591
▁operation	-9.46644
សាកលវិទ្យាល័យ	-9.46827
សំណង់	-9.46864
▁media	-9.46941
រង	-9.47
▁Health	-9.47046
×	-9.47059
▁Li	-9.47108
រចនា	-9.47131
ដឹង	-9.47162
▁២០	-9.47201
▁house	-9.47205
នេះគឺ	-9.47409
me	-9.47468
សាងសង់	-9.47527
យុទ្ធសាស្ត្រ	-9.47535
ស្ត្រី	-9.4761
▁often	-9.47619
▁car	-9.4767
▁promote	-9.47693
▁until	-9.47742
▁pre	-9.4778
▁structure	-9.47806
លើសពី	-9.4781
ស្ងួត	-9.47887
▁today	-9.4792
▁example	-9.47939
សន្តិសុខ	-9.4796
▁កំពុង	-9.48048
▁anti	-9.48092
ជំនួស	-9.48268
▁Lord	-9.48337
▁others	-9.48345
▁នៅពេល	-9.48385
រួមមាន	-9.48488
ci	-9.48492
▁គ្មាន	-9.48554
ខែ	-9.48598
របស់យើង។	-9.48625
▁Factory	-9.4863
▁La	-9.48662
▁put	-9.48675
រូប	-9.48693
▁look	-9.48755
អារម្មណ៍	-9.48784
▁series	-9.48852
សម្រាប់អ្នក	-9.48897
rs	-9.49012
ដោយគ្មាន	-9.4903
100	-9.49107
@	-9.49148
២០	-9.49161
កាត	-9.4917
សិល្បៈ	-9.49171
time	-9.49195
▁ទោះបីជា	-9.49232
▁pay	-9.49281
ការត្រួតពិនិត្យ	-9.49282
▁led	-9.49287
សារធាតុ	-9.49296
▁mobile	-9.49323
មេ	-9.49324
▁St	-9.49351
ie	-9.49394
▁military	-9.49437
▁institutions	-9.49479
ថ្នាំ	-9.49582
▁think	-9.49584
▁create	-9.49616
ពាក្យ	-9.49637
▁ផ្លូវ	-9.49646
geeks	-9.49689
▁គម្រោង	-9.49718
ចំណាយ	-9.49723
▁let	-9.49881
▁above	-9.49942
បរិមាណ	-9.49959
▁skin	-9.49986
ថ្មីៗ	-9.50018
▁AC	-9.50035
ad	-9.50062
បា	-9.50074
▁រោងចក្រ	-9.50137
org	-9.50171
▁ខ្ញុំមាន	-9.50221
បរទេស	-9.50262
ក្តៅ	-9.50286
អតិបរមា	-9.50642
ជាក់លាក់	-9.50721
ដោយឥតគិតថ្លៃ	-9.50759
▁youth	-9.50803
ស្រទាប់	-9.50826
▁ខ្លួន	-9.50831
▁effect	-9.5084
▁addition	-9.50849
▁4.	-9.50851
▁fabric	-9.50894
របស់ពួកគេ។	-9.51005
▁ព្រោះ	-9.51092
▁learn	-9.51109
▁ទៀត	-9.51148
▁2015	-9.51282
▁stability	-9.51319
▁weight	-9.51521
▁Ltd	-9.51548
▁daily	-9.51575
នឹងត្រូវ	-9.51598
▁និយាយ	-9.51665
លុយ	-9.51733
កង់	-9.51913
▁live	-9.51929
ជួប	-9.51968
▁environment	-9.51995
19	-9.52058
▁Free	-9.52135
▁private	-9.52162
ខាងក្នុង	-9.52277
ol	-9.52305
▁ខែធ្នូ	-9.52361
go	-9.52373
▁few	-9.52381
មានការ	-9.52457
ទាំងពីរ	-9.52457
▁Kampong	-9.52496
ពិតប្រាកដ	-9.52498
៩	-9.52502
ty	-9.52771
▁Day	-9.52803
កាបូប	-9.52826
ក្រុង	-9.52904
សំឡេង	-9.52949
▁measures	-9.52963
គ្រឿង	-9.53114
អភិវឌ្ឍ	-9.53157
សេ	-9.5333
▁ancient	-9.5334
កែច្នៃ	-9.53375
▁check	-9.53426
▁brand	-9.53476
នឹងត្រូវបាន	-9.53549
ផ្សេងទៀត។	-9.53591
គិត	-9.53601
▁បន្ទាប់មក	-9.53614
ថ្លៃ	-9.53625
ណាស់	-9.5374
តុ	-9.53787
▁‘	-9.53797
០០០	-9.5381
ទំនើប	-9.53815
▁night	-9.53846
គួរតែ	-9.53871
សិទ្ធិ	-9.53902
ព្រៃ	-9.53974
▁care	-9.54135
▁old	-9.54152
កិច្ច	-9.54183
ណ	-9.54197
▁less	-9.54218
▁group	-9.54253
បែបនេះ	-9.54324
គួរឱ្យ	-9.5433
▁women	-9.54393
▁modern	-9.5444
▁hard	-9.54473
▁១០០	-9.54517
ចាំបាច់	-9.54519
សន្តិភាព	-9.54525
da	-9.54539
អាជ្ញាធរ	-9.54597
▁Development	-9.54658
ធាតុ	-9.54692
សំរាប់	-9.54758
▁World	-9.54774
ka	-9.54808
▁តំបន់	-9.54823
▁via	-9.54828
ចលនា	-9.54846
▁little	-9.5487
▁major	-9.54961
▁strength	-9.54994
មជ្ឈមណ្ឌល	-9.55001
សម្អាត	-9.55002
▁Mo	-9.55017
ខ្មៅ	-9.5503
រីករាយ	-9.55035
▁side	-9.55082
ផ្ញើ	-9.55165
▁Be	-9.55223
របស់លោក	-9.55303
ពង្រីក	-9.55309
▁purpose	-9.5532
km	-9.55356
▁Bo	-9.55358
វៀតណាម	-9.55367
▁problem	-9.55502
ការិយាល័យ	-9.55543
▁monitor	-9.55769
▁five	-9.55899
ក្លាយជា	-9.55909
▁party	-9.55949
ការធ្វើ	-9.55953
អូ	-9.56025
ting	-9.56074
/?	-9.561
ful	-9.56101
▁recommend	-9.56399
▁ជាង	-9.56412
▁បន្ថែម	-9.56426
ដែលអ្នក	-9.56449
▁platform	-9.56473
ពង្រឹង	-9.56489
▁short	-9.56591
សាលា	-9.56616
▁black	-9.56786
ដឹងថា	-9.5679
កើតឡើង	-9.56794
វត្ថុ	-9.56824
▁second	-9.56845
▁simple	-9.56919
ដែរ។	-9.5698
▁economy	-9.57074
▁standards	-9.57088
▁កុំ	-9.57124
▁IP	-9.57216
មានភាព	-9.57239
em	-9.57278
out	-9.57333
ចែករំលែក	-9.5742
**	-9.57442
ពន្ធ	-9.57474
▁say	-9.5756
▁self	-9.57655
សាច់	-9.57718
▁សម្ភារៈ	-9.57738
អេឡិចត្រូនិច	-9.57785
▁systems	-9.57827
▁based	-9.57851
ចំណេះដឹង	-9.57875
▁c	-9.57877
-2	-9.57956
13	-9.5799
▁ក្រុមហ៊ុនផលិត	-9.58039
▁sustainable	-9.58045
▁comes	-9.58052
ផ្កា	-9.58097
▁person	-9.58133
ផ្សេងៗគ្នា	-9.58167
ជាក់ស្តែង	-9.58188
▁week	-9.58197
ពេញ	-9.58202
▁United	-9.5821
▁types	-9.58216
គ	-9.58241
end	-9.58268
ir	-9.58322
ល្បឿន	-9.58356
▁going	-9.58366
ធនធាន	-9.58407
រួមគ្នា	-9.5845
▁**	-9.58536
▁lot	-9.5859
500	-9.58653
▁activities	-9.58664
ហេដ្ឋា	-9.58687
▁CO	-9.58914
pe	-9.58922
▁ឈ្មោះ	-9.58925
សរសេរ	-9.58947
រូបរាង	-9.58956
គ្រោះថ្នាក់	-9.58997
▁battery	-9.59018
▁១២	-9.59114
▁conditions	-9.59118
សាមញ្ញ	-9.59124
ang	-9.59206
▁1,	-9.59241
▁យ៉ាង	-9.59289
▁2016	-9.5932
▁personal	-9.59399
ធ្វើដំណើរ	-9.5968
▁feel	-9.59685
ស្តីពី	-9.59797
▁issues	-9.59807
▁form	-9.59862
កញ្ចប់	-9.59876
▁គ្នា	-9.59957
ដំណាក់កាល	-9.60007
▁knowledge	-9.60055
ភ្នំ	-9.60119
▁article	-9.60147
ge	-9.60217
សហគ្រាស	-9.6027
របស់ខ្ញុំ។	-9.60276
យ៉ាងទូលំទូលាយ	-9.60286
រហ័ស	-9.60299
▁app	-9.60356
▁role	-9.6039
di	-9.60407
▁problems	-9.60456
០	-9.60561
កំណើន	-9.60612
▁never	-9.60676
សមុទ្រ	-9.60701
▁cases	-9.60708
▁single	-9.60786
តាមដាន	-9.60817
term	-9.60856
▁effective	-9.60859
រន្ធ	-9.60909
▁Sam	-9.60911
▁fish	-9.61003
▁នាទី	-9.61026
▁Car	-9.6106
▁function	-9.6109
▁Best	-9.61092
▁means	-9.61132
▁Al	-9.61152
▁300	-9.61184
▁hot	-9.61185
▁achieve	-9.6124
ស្លាប់	-9.61246
▁point	-9.61427
▁popular	-9.6145
▁Province	-9.61464
▁di	-9.61675
▁provides	-9.61767
ទ្វារ	-9.61898
របស់នាង	-9.61906
▁October	-9.61912
កិច្ចព្រមព្រៀង	-9.61955
នីតិវិធី	-9.61991
ចែកចាយ	-9.62052
លើក	-9.62092
បន្ទាត់	-9.62101
-1	-9.62126
li	-9.62144
ដៃគូ	-9.62155
ឥឡូវនេះ	-9.62201
គួរ	-9.62285
ឥណទាន	-9.62415
បានទេ	-9.62419
▁យក	-9.62463
▁farmers	-9.62554
បង្កើតឡើង	-9.62613
▁ចិត្ត	-9.62706
▁designed	-9.62741
200	-9.6279
ការនាំចេញ	-9.62874
ឡាស៊ែរ	-9.62886
ការគាំទ្រ	-9.62899
28	-9.62909
▁ខែវិច្ឆិកា	-9.62974
▁show	-9.63011
65	-9.63155
ឈាម	-9.63192
ប្រទេសចិន	-9.63224
▁below	-9.6324
ខ្សែភាពយន្ត	-9.63328
▁tax	-9.63361
–	-9.63386
▁did	-9.6341
នៅទីនេះ	-9.63421
វត្ថុធាតុដើម	-9.63481
lu	-9.63484
▁នាង	-9.6352
▁challenges	-9.63544
po	-9.6355
sh	-9.63582
ធី	-9.63645
17	-9.63648
និយាយថា	-9.63707
ផលប៉ះពាល់	-9.63717
▁Group	-9.63762
ព្យាយាម	-9.63765
ចាន	-9.63767
▁able	-9.63803
▁profound	-9.6386
▁Casino	-9.63922
ពាក់	-9.63933
បាន។	-9.6397
▁software	-9.64056
ex	-9.64187
45	-9.64192
ខាង	-9.64407
▁address	-9.64419
ជុំវិញ	-9.64653
line	-9.64657
▁away	-9.64678
▁says	-9.64687
▁23	-9.64699
ធ្លាក់ចុះ	-9.64724
80	-9.64758
អត្រា	-9.64783
▁អា	-9.64816
មន្ត្រី	-9.64873
កាស៊ីណូ	-9.64921
kh	-9.65031
▁strengthen	-9.65045
បំបែក	-9.65055
▁fire	-9.65058
▁sales	-9.65091
ប្រទេសកម្ពុជា	-9.65105
▁already	-9.65108
We	-9.65111
តុលាការ	-9.65151
ដែលមិន	-9.65191
▁several	-9.65238
ទាំងស្រុង	-9.65238
ជាទូទៅ	-9.65307
ដើម្បីទទួលបាន	-9.65331
▁gas	-9.65374
▁crucial	-9.65462
ខ្លី	-9.65463
ស្អាត	-9.65476
រាល់	-9.65526
ri	-9.65532
▁box	-9.65599
35	-9.65633
▁President	-9.65646
▁plate	-9.6565
ពាក់ព័ន្ធ	-9.65741
ស្រុក	-9.65749
▁ចិន	-9.65779
▁network	-9.65803
ទាក់ទាញ	-9.65805
ព	-9.65813
▁along	-9.65817
▁ម។	-9.65969
អ្នកលេង	-9.6605
យោធា	-9.66135
លក្ខខណ្ឌ	-9.6617
▁មើល	-9.66192
ធានា	-9.66245
tu	-9.66285
យូ	-9.66351
▁called	-9.66366
year	-9.66372
ច្បាស់	-9.66386
▁Water	-9.66387
▁៩	-9.66406
ក្រសួង	-9.66411
ស្គាល់	-9.66484
នៃព្រះរាជាណាចក្រ	-9.66541
▁July	-9.66614
ប្រសិនបើអ្នក	-9.66725
▁space	-9.66727
▁ព្រមទាំង	-9.6677
ប្រឆាំង	-9.6679
▁payment	-9.66797
លើកកម្ពស់	-9.66891
នាយករដ្ឋមន្ត្រី	-9.66894
បុគ្គល	-9.66901
no	-9.66935
▁ចំពោះ	-9.66992
▁markets	-9.67041
▁committed	-9.67072
ist	-9.67086
▁makes	-9.67118
tic	-9.67126
▁Size	-9.67141
▁ដែលមាន	-9.67222
▁benefits	-9.67233
ចាប់	-9.67251
▁model	-9.67356
▁aluminum	-9.67369
▁together	-9.67433
បៃតង	-9.67454
ក្រុមហ៊ុនផលិត	-9.67463
ឡើយ។	-9.67477
ចុះឈ្មោះ	-9.6757
ផ្តល់ជូន	-9.67581
ដប	-9.67628
▁field	-9.6764
ការសិក្សា	-9.67641
~	-9.67706
ឥតគិតថ្លៃ	-9.67793
ឱ្យបាន	-9.67851
01	-9.67863
op	-9.67871
▁path	-9.67901
▁ភាគរយ	-9.67921
ក្នុងតំបន់	-9.67939
របៀប	-9.67943
ure	-9.68003
ke	-9.68046
va	-9.68048
វិធីសាស្រ្ត	-9.68056
▁members	-9.68061
▁offers	-9.68081
ទ	-9.68128
ឈប់	-9.68155
សមាជិក	-9.68158
▁safe	-9.68166
យើងនឹង	-9.6819
ី	-9.68207
▁capital	-9.6828
▁excellent	-9.68341
▁June	-9.68389
▁pro	-9.68415
គ្រាន់តែ	-9.68422
▁traditional	-9.68431
បង្ក	-9.68442
តាមតម្រូវការ	-9.68516
▁domestic	-9.68519
ដក	-9.68571
ak	-9.68603
▁Education	-9.68646
▁cannot	-9.68696
ថៃ	-9.6872
▁film	-9.68738
ization	-9.68741
ពិតជា	-9.68761
▁OEM	-9.68784
▁morning	-9.68829
▁1000	-9.68845
រកឃើញ	-9.6885
អគារ	-9.68886
nd	-9.68977
▁lower	-9.69
មិនបាន	-9.6906
ian	-9.69083
):	-9.69092
ការស្រាវជ្រាវ	-9.69103
ទ្រព្យសម្បត្តិ	-9.69135
tor	-9.69169
អឺរ៉ុប	-9.69241
▁beautiful	-9.69258
▁City	-9.69265
▁office	-9.69366
▁environmental	-9.6937
ខិតខំប្រឹងប្រែង	-9.69379
ជំរុញ	-9.69386
▁រ	-9.69431
▁registration	-9.69442
ជប៉ុន	-9.6946
▁ទ្រង់	-9.69485
▁ក	-9.69509
ដែលកំពុង	-9.69543
វេចខ្ចប់	-9.69582
14	-9.6966
អាក្រក់	-9.69681
90	-9.69688
▁electric	-9.69791
▁budget	-9.69834
▁fully	-9.69859
សម្លៀកបំពាក់	-9.69874
▁wire	-9.69926
ក៏បាន	-9.69931
ចល័ត	-9.69946
▁b	-9.69968
អត់	-9.70006
▁Alton	-9.7007
គ្រាប់	-9.70185
ប្រមូល	-9.70236
មិនមែន	-9.7026
▁method	-9.70283
បន្ទប់	-9.70288
▁board	-9.70367
▁society	-9.70369
▁laser	-9.70375
pa	-9.70384
នេះត្រូវបាន	-9.70408
ng	-9.70547
ac	-9.70585
▁share	-9.70616
▁September	-9.70665
▁Your	-9.70784
▁travel	-9.7079
ត្រូវបានអនុវត្ត	-9.70795
ការព្យាបាល	-9.70854
▁remains	-9.70876
do	-9.70942
កម្មករ	-9.70974
▁continues	-9.7102
ប្រពៃណី	-9.71115
▁maintain	-9.71213
▁receive	-9.71239
ភ្លាមៗ	-9.71405
កណ្តាល	-9.71511
-10	-9.71534
▁saw	-9.71534
មធ្យម	-9.71573
▁បើក	-9.71663
24	-9.71762
ab	-9.71824
ut	-9.71855
▁month	-9.71878
▁អ	-9.71987
▁regional	-9.72015
▁Technology	-9.72069
▁once	-9.72133
ក់	-9.72225
▁Japan	-9.7224
អ៊ី	-9.72307
▁opportunities	-9.72313
ប្តូរ	-9.72352
▁បង្កើត	-9.72406
▁history	-9.72446
រុក្ខជាតិ	-9.72513
ung	-9.72575
▁email	-9.72582
មាត់	-9.72699
ជួរ	-9.72704
កូ	-9.72722
▁child	-9.72813
ទិដ្ឋភាព	-9.72821
▁ខែមករា	-9.72851
22	-9.72865
ពិនិត្យ	-9.72921
▁programs	-9.7294
ទន់	-9.72962
om	-9.73069
ized	-9.73105
▁interest	-9.73156
▁លេខ	-9.73163
ស្រាល	-9.73177
▁why	-9.73205
ជាដើម។	-9.73213
បាត់បង់	-9.73271
ការប្រកួត	-9.73306
ហ	-9.73309
ការរៀបចំ	-9.73316
ញ៉ាំ	-9.73321
ភូមិ	-9.73324
▁policies	-9.73331
▁groups	-9.73368
ated	-9.73372
ដាំ	-9.73405
io	-9.73437
ha	-9.73472
▁grow	-9.73524
▁ត្រូវតែ	-9.73577
▁Over	-9.73623
▁features	-9.73784
▁អ្វី	-9.7383
▁Asia	-9.73854
បង្រៀន	-9.73855
he	-9.73879
លឿន	-9.74031
▁really	-9.74057
របាយការណ៍	-9.74074
>	-9.74095
▁Steel	-9.74106
▁yet	-9.74127
tro	-9.74162
▁responsible	-9.74224
▁March	-9.74251
អត្ថប្រយោជន៍	-9.74311
ជាប់	-9.74439
▁យោងតាម	-9.74478
▁force	-9.74523
សំណើម	-9.74584
ប្រវត្តិសាស្ត្រ	-9.74678
កិច្ចប្រជុំ	-9.74682
▁thin	-9.74721
▁resources	-9.74734
▁Facebook	-9.74751
កម្ម	-9.74779
ផ្តល់ជូននូវ	-9.74804
▁2013	-9.74808
គោលការណ៍	-9.74897
ក្រហម	-9.74923
▁please	-9.74965
▁provided	-9.7499
▁Pre	-9.75063
▁easily	-9.75073
បរិយាកាស	-9.75128
▁cause	-9.75321
▁near	-9.754
▁26	-9.75433
▁again	-9.75448
កំហុស	-9.75503
▁room	-9.75512
26	-9.75516
ឧស្ម័ន	-9.75571
វែង	-9.75581
ស៊េរី	-9.75644
▁goods	-9.75695
be	-9.75744
រក្សាទុក	-9.75797
▁cut	-9.75932
មានគុណភាពខ្ពស់	-9.75935
នា	-9.75977
អត្រានុកូលដ្ឋាន	-9.75988
▁PC	-9.76013
con	-9.76051
ដោយខ្លួនឯង	-9.76145
ពីការ	-9.76157
▁known	-9.76181
មានប្រសិទ្ធភាព	-9.76207
គោរព	-9.76233
▁industrial	-9.76253
ក្នុងអំឡុងពេល	-9.76297
▁deep	-9.76353
ating	-9.76364
និស្សិត	-9.76388
ការធ្វើតេស្ត	-9.76393
ម៉ូតូ	-9.76452
ថ្ងៃទី	-9.76462
ហាង	-9.76469
ការចំណាយ	-9.76475
ពិត	-9.7648
▁variety	-9.76581
▁impact	-9.76595
▁regulations	-9.76636
តិច	-9.76675
ដែលយើង	-9.76691
▁ម៉ាណែត	-9.76714
ជាពិសេស	-9.76721
▁28	-9.7689
▁loss	-9.76977
សំណួរ	-9.77036
▁close	-9.77043
▁discuss	-9.7705
▁MP	-9.7709
▁kind	-9.77117
រង់ចាំ	-9.77156
▁paper	-9.77182
▁hope	-9.77249
▁ក្រោយ	-9.77259
ប្រភព	-9.77298
▁directly	-9.77322
បញ្ជាក់	-9.7733
ical	-9.77357
បន្ទាប់	-9.77372
▁USB	-9.77387
▁perfect	-9.77437
▁date	-9.77474
▁Majesty	-9.77511
ក្នុងចំណោម	-9.77546
bo	-9.77573
▁fast	-9.77623
▁ឆ្នាំ២០២៣	-9.77664
▁co	-9.77714
▁80	-9.77806
ប្លុក	-9.77822
▁dry	-9.77906
▁additional	-9.77974
សក់	-9.78094
ium	-9.78244
q	-9.78293
ni	-9.78332
land	-9.78343
▁potential	-9.78346
▁RFA	-9.78349
ឯកជន	-9.78365
▁៣០	-9.78399
▁ផ្តល់	-9.78402
▁produce	-9.78413
05	-9.78422
▁plant	-9.78432
75	-9.78445
we	-9.78506
In	-9.7856
▁ក្រោម	-9.78614
▁ស្រុក	-9.78642
99	-9.78643
▁ច្រើន	-9.78647
ផ្សារ	-9.78657
▁bottle	-9.78677
ពិបាក	-9.78706
▁Liaibe	-9.78719
រាង	-9.78776
ណាស់។	-9.78851
អាយុ	-9.78926
ប៉ុណ្ណោះទេ	-9.78932
▁red	-9.78973
គីមី	-9.79046
ភី	-9.79048
▁results	-9.79066
for	-9.79137
▁damage	-9.79148
ដែលត្រូវ	-9.79152
៣០	-9.79158
កិច្ចការ	-9.79226
▁established	-9.79357
▁something	-9.79396
ឆ្លង	-9.79399
វ៉ា	-9.7941
ជាបន្តបន្ទាប់	-9.79473
▁understand	-9.79493
▁ចូល	-9.79517
▁Read	-9.79581
▁applications	-9.79608
▁likes	-9.79683
▁noted	-9.797
ទៅដល់	-9.79721
▁certain	-9.79727
បែប	-9.79748
▁direct	-9.79754
ខ្នាតតូច	-9.79801
▁computer	-9.79957
បច្ចុប្បន្នភាព	-9.80025
រត់	-9.80026
ពិចារណា	-9.80134
▁Ra	-9.80139
ម្ចាស់	-9.80146
▁whether	-9.80147
of	-9.80207
រដ្ឋបាល	-9.80295
ការអប់រំ	-9.80344
▁tourism	-9.8042
day	-9.80466
32	-9.80501
#	-9.80506
▁might	-9.80558
▁ចេញ	-9.8064
▁ណា	-9.80681
▁climate	-9.80696
▁increased	-9.80705
វា។	-9.80768
▁events	-9.80801
ឈរ	-9.80829
របស់អតិថិជន	-9.80857
នៅឆ្នាំ	-9.80857
សមាសធាតុ	-9.80862
▁con	-9.8087
▁១៥	-9.80894
អនាគត	-9.80897
ig	-9.80908
▁បង្ហាញ	-9.80978
រឹងមាំ	-9.81123
ការបញ្ជាទិញ	-9.81172
95	-9.81229
▁printing	-9.81232
ah	-9.81241
▁unique	-9.81251
បេះដូង	-9.81359
▁political	-9.81503
300	-9.81549
▁Air	-9.81589
នៅថ្ងៃទី	-9.81608
▁job	-9.81616
▁Tanya	-9.81659
▁Public	-9.81664
▁Ch	-9.81699
ក៏ដូចជា	-9.81739
ម្សៅ	-9.8178
▁គ	-9.81782
▁Apply	-9.81795
ឆ្លាតវៃ	-9.8194
ត្រា	-9.81942
▁whole	-9.81984
▁table	-9.81998
▁documents	-9.82006
▁Type	-9.82017
ស្នើសុំ	-9.8203
ភាគរយ	-9.82032
▁fact	-9.82063
▁ខណៈដែល	-9.82084
▁ឥឡូវនេះ	-9.82092
▁ញុម	-9.82158
▁specific	-9.82166
ប្រាក់ចំណូល	-9.8217
នាំ	-9.82182
មិនត្រឹមតែ	-9.82194
▁medical	-9.82222
▁implementation	-9.82234
កត្តា	-9.82252
▁leading	-9.82256
▁State	-9.82272
ផ្ដល់	-9.82279
បង្ហាញពី	-9.82317
▁step	-9.82317
▁ព្រឹក	-9.82349
▁user	-9.8239
ល្អឥតខ្ចោះ	-9.82407
▁looking	-9.82425
ot	-9.8246
▁Le	-9.82464
00	-9.82548
ឈ្នះ	-9.82592
▁August	-9.82602
ការផលិត	-9.82711
ite	-9.8274
▁តើធ្វើដូចម្តេច	-9.82753
▁develop	-9.82764
▁road	-9.82818
ពន្លឺព្រះអាទិត្យ	-9.82885
▁enjoy	-9.82891
▁sun	-9.82959
▁របៀប	-9.83018
វិបត្តិ	-9.83117
▁storage	-9.83134
▁tool	-9.83243
អត្ថបទ	-9.83244
▁course	-9.8326
▁Court	-9.83276
បម្រើ	-9.83337
▁motor	-9.8335
▁nearly	-9.8343
ឡើយ	-9.83453
ប្រាក់រង្វាន់	-9.83476
▁relevant	-9.83488
▁necessary	-9.83488
▁DC	-9.83494
ted	-9.83498
ស្លាក	-9.83543
▁left	-9.83631
អ្នកជំនាញ	-9.83656
▁5.	-9.83683
▁manufacturer	-9.83704
70	-9.83716
▁គឺដើម្បី	-9.83821
សួរ	-9.83876
ទៅក្នុង	-9.83915
▁នូវ	-9.83923
រូបថត	-9.8396
600	-9.83994
▁ប្រធាន	-9.84042
លើស	-9.84118
▁អង្គការ	-9.84211
▁prohibited	-9.84286
ធ្ងន់ធ្ងរ	-9.84313
▁27	-9.84339
ដែរឬទេ	-9.84354
ថែទាំ	-9.84445
បទប្បញ្ញត្តិ	-9.84454
▁received	-9.84469
▁lead	-9.84475
▁Con	-9.84495
▁reach	-9.84515
ចម្បង	-9.84525
▁South	-9.84529
▁បច្ចុប្បន្ន	-9.84545
▁efforts	-9.84586
▁call	-9.84592
ប្រធានបទ	-9.84607
ខ្លាំងណាស់	-9.84617
មានតម្លៃ	-9.84674
-20	-9.84686
ap	-9.8475
men	-9.84776
la	-9.84781
យន្តហោះ	-9.84854
ti	-9.84859
និន្នាការ	-9.84914
▁build	-9.8499
ការលក់	-9.84991
▁From	-9.84996
▁bank	-9.85069
www	-9.85095
សុទ្ធ	-9.8515
ial	-9.85182
▁wall	-9.85184
▁devices	-9.85254
▁February	-9.85259
បានទទួល	-9.85268
▁big	-9.85277
way	-9.85323
ចុង	-9.8535
▁150	-9.85387
▁Reap	-9.85396
▁ខ្សែ	-9.85398
▁ទីក្រុង	-9.8541
នៅក្នុងតំបន់	-9.85464
ធ្លាក់	-9.85502
▁Party	-9.85543
▁tons	-9.85553
au	-9.85565
ខាងក្រោម	-9.85586
▁ពលរដ្ឋ	-9.85609
ទិន្នផល	-9.8562
CC	-9.85658
▁fiber	-9.85662
ទំព័រ	-9.85666
▁common	-9.85705
▁ដាក់	-9.85774
▁having	-9.85779
▁Siem	-9.85784
▁master	-9.85796
▁allows	-9.85805
មានចំនួន	-9.8583
▁attract	-9.85836
▁costs	-9.85837
▁early	-9.8588
ព្រោះ	-9.85885
▁income	-9.85911
គម្រប	-9.85924
▁pump	-9.85926
ការបង្កើត	-9.85932
▁ក្នុងករណីមាន	-9.85938
ខ្សែសង្វាក់	-9.85965
ft	-9.86011
ត្រូវបានប្រើ	-9.86018
▁Manet	-9.8616
800	-9.8619
▁games	-9.86198
ប្រចាំឆ្នាំ	-9.86211
▁ISO	-9.86216
យូរ	-9.86225
vi	-9.86237
▁drive	-9.8624
▁position	-9.86256
ដែកអ៊ីណុក	-9.8629
ពិនិត្យមើល	-9.86307
°	-9.86315
▁packaging	-9.86361
▁During	-9.86404
តិចតួច	-9.86469
It	-9.86501
▁ប	-9.86573
▁agreement	-9.866
▁list	-9.86605
▁Vietnam	-9.86611
▁practice	-9.86621
86	-9.86642
ភ្នាក់ងារ	-9.86643
▁solutions	-9.86697
ទាំងអស់។	-9.86728
▁April	-9.86731
ថាតើ	-9.86797
បារាំង	-9.86805
▁រួមទាំង	-9.86854
▁police	-9.86872
ish	-9.86876
ong	-9.86898
od	-9.87014
▁គោលបំណងនៃ	-9.87017
os	-9.87103
នឹងមិន	-9.87106
▁dis	-9.8711
បាញ់	-9.87178
បងប្អូន	-9.87213
ព្រំដែន	-9.8722
▁district	-9.87269
▁send	-9.87278
បន្តិច	-9.87295
របស់កម្ពុជា	-9.87321
មានន័យថា	-9.87323
អំណាច	-9.87351
ចំណូល	-9.87383
▁attention	-9.87386
06	-9.87406
′′	-9.87445
ដែកថែប	-9.87455
កម្រិតខ្ពស់	-9.87457
បន្លែ	-9.87459
▁accord	-9.87511
ច្បាស់លាស់	-9.87538
▁2023,	-9.87556
វាយ	-9.87562
▁i	-9.8757
ចរន្ត	-9.87596
▁ចុះ	-9.87597
▁read	-9.8763
ស្រី	-9.87665
▁Law	-9.87682
▁solution	-9.87715
▁base	-9.87756
▁$1	-9.87817
ជាធម្មតា	-9.87823
▁temple	-9.87866
រួមបញ្ចូល	-9.87999
ភ្ញៀវ	-9.88078
▁Ta	-9.88094
ភាគហ៊ុន	-9.88099
02	-9.88198
ដង	-9.88228
ber	-9.88233
▁expected	-9.88367
វាជា	-9.88388
▁ផ្នែក	-9.88477
▁Max	-9.88488
▁mainly	-9.88491
ជួសជុល	-9.88517
▁×	-9.88568
▁release	-9.88577
ជាន់	-9.88581
▁បន្ត	-9.88591
▁45	-9.8866
▁Center	-9.8872
▁front	-9.88748
រ៉ូ	-9.88836
ability	-9.88841
គោលបំណង	-9.88877
ally	-9.88924
▁everything	-9.88944
ដំណាំ	-9.88948
▁announced	-9.8896
មី	-9.88969
▁eye	-9.89013
សកម្ម	-9.89015
▁ល	-9.89048
ិ	-9.89061
▁property	-9.89104
អនាម័យ	-9.89115
តើ	-9.89141
ភាសា	-9.89158
▁AI	-9.89183
▁32	-9.89215
▁ខណៈពេលដែល	-9.89216
អេឡិចត្រូនិក	-9.89247
-4	-9.8926
▁អាន	-9.89264
បានចាប់ផ្តើម	-9.89309
អំណោយ	-9.89422
តូចៗ	-9.89436
នេះគឺជា	-9.89466
បោះឆ្នោត	-9.8948
▁file	-9.89509
យ៉ា	-9.89539
▁allow	-9.89572
cu	-9.89579
ag	-9.89623
▁Decree	-9.89643
ហាមឃាត់សម្រាប់	-9.89676
មួយ។	-9.89735
▁ហេតុអ្វីបានជា	-9.89757
ផ្សេងគ្នា	-9.89757
ពាក់កណ្តាល	-9.89762
▁try	-9.89773
▁add	-9.89829
ប៉ា	-9.89958
មិនមែនជា	-9.89961
▁advanced	-9.89989
មន្ទីរពេទ្យ	-9.90005
-3	-9.90011
ត្រង់	-9.9005
▁Now	-9.90102
▁Road	-9.90139
tion	-9.90147
▁ex	-9.90185
នៅក្នុងប្រទេស	-9.90191
ip	-9.90218
ប្រចាំថ្ងៃ	-9.90278
ទាញយក	-9.90306
កាន់	-9.90387
▁១៩	-9.90431
▁casino	-9.90434
សកល	-9.90458
▁related	-9.90466
▁<	-9.90476
▁credit	-9.90482
មានអារម្មណ៍	-9.90524
ដោះស្រាយបញ្ហា	-9.90544
វិភាគ	-9.90548
មូលនិធិ	-9.90616
▁station	-9.90752
ho	-9.90763
▁developed	-9.90783
MA	-9.90802
▁currently	-9.9083
▁pipe	-9.9092
ous	-9.90931
ê	-9.90963
▁Smart	-9.90972
▁third	-9.90978
▁emphasized	-9.90998
▁Mar	-9.91115
▁helps	-9.91122
▁សម	-9.91206
ya	-9.91306
▁បន្ទាប់៖	-9.91324
▁far	-9.91333
▁wide	-9.91358
ខ្ពស់។	-9.91363
▁maintenance	-9.91365
IN	-9.91366
▁blood	-9.91367
our	-9.91376
ដោយមិន	-9.9138
ើ	-9.91389
▁methods	-9.91395
ញ	-9.91446
▁=	-9.91479
លក្ខណៈ	-9.9159
មានលក្ខណៈ	-9.91599
តិចជាង	-9.91633
▁polyester	-9.91663
▁creating	-9.91673
▁uses	-9.91677
▁អស់	-9.91681
ខ្	-9.91691
▁focus	-9.91693
ផ្លូវការ	-9.91743
មើលទៅ	-9.91755
03	-9.91757
ring	-9.91766
ជាមួយនឹងការ	-9.91778
តារាង	-9.91809
▁families	-9.91827
▁players	-9.91879
ស្តាប់	-9.91889
នាំចូល	-9.91899
▁boost	-9.91972
▁living	-9.91981
▁ម៉ែត្រ	-9.91998
ទិសដៅ	-9.92018
▁acid	-9.92027
ក្នុងវិស័យ	-9.92044
▁Price	-9.92142
▁multi	-9.92177
ផល	-9.922
នៅតាម	-9.92203
ដើម្បីបង្កើត	-9.92205
មានសារៈសំខាន់	-9.92214
ជួល	-9.92215
▁recent	-9.92225
ផ្	-9.92262
នឹងមាន	-9.92307
អាស្រ័យលើ	-9.92341
▁ខេត្ត	-9.92359
▁Ro	-9.92397
▁manufacturing	-9.92443
▁issued	-9.92459
▁ច្បាប់	-9.92464
ថង់	-9.92469
▁More	-9.92469
ជោគជ័យ	-9.925
▁learning	-9.92505
▁news	-9.9251
ten	-9.92526
▁អាចបណ្តាលឱ្យមាន	-9.92575
▁significant	-9.92599
▁វិធី	-9.92629
vo	-9.92644
▁outdoor	-9.92681
រាវ	-9.92704
ការអភិវឌ្ឍន៍	-9.92769
▁document	-9.92799
ក្នុងមួយ	-9.92861
▁នៅថ្ងៃទី	-9.92921
▁≤	-9.92929
ការទូទាត់	-9.92951
▁ឆ្នាំ២០២៤	-9.92978
▁held	-9.93004
▁Some	-9.93017
▁minutes	-9.93021
side	-9.93032
▁ចាប់	-9.9305
ធំៗ	-9.93062
ការណែនាំ	-9.93084
quality	-9.93117
light	-9.93131
▁That	-9.93156
▁page	-9.93165
១១	-9.9318
បើ	-9.93183
▁អ៊ីញ	-9.93185
ការពិត	-9.93218
▁Amazon	-9.9323
▁lost	-9.93231
ការខកខានក្នុងការ	-9.93299
67	-9.9339
▁exchange	-9.93397
son	-9.9347
▁actually	-9.93482
▁eat	-9.93508
សម	-9.93527
▁ball	-9.93533
▁entire	-9.93535
ហា	-9.93577
ក្	-9.93613
ហានិភ័យ	-9.93635
ថត	-9.93644
▁មន្ត្រី	-9.93653
▁ប្រកាស	-9.93726
▁enter	-9.93744
អង្គភាព	-9.93772
▁everyone	-9.93798
សម្គាល់	-9.93873
▁៥០	-9.93902
ពិន្ទុ	-9.93925
▁Material	-9.93932
▁return	-9.94019
▁ដង	-9.94057
▁touch	-9.94159
▁Number	-9.94162
និរន្តរភាព	-9.94162
ដោយមាន	-9.94208
▁art	-9.94215
▁ទឹក	-9.94242
▁stable	-9.94288
ម៉ែត្រ	-9.94294
▁priority	-9.9433
▁young	-9.94372
▁output	-9.94373
បន្ទាប់មក	-9.94404
៥០	-9.94429
ក្នុងឆ្នាំ	-9.9449
▁f	-9.94558
▁installation	-9.94584
ជាអ្នក	-9.94595
▁border	-9.94619
ប្រកួតប្រជែង	-9.94745
តែមួយគត់	-9.94746
កៅស៊ូ	-9.94789
▁widely	-9.94797
res	-9.94824
▁នេះគឺជា	-9.94829
ud	-9.9483
▁អាជ្ញាធរ	-9.94884
លុប	-9.94908
▁deposit	-9.94929
▁center	-9.9494
▁និស្សិត	-9.94941
▁laws	-9.94974
បាល់	-9.9498
បំផ្លាញ	-9.94982
▁Sok	-9.95025
que	-9.95106
▁points	-9.95107
tra	-9.95162
21	-9.95175
▁School	-9.9522
▁General	-9.9523
ផ្តល់ឱ្យ	-9.95251
▁gold	-9.95266
based	-9.95364
▁meters	-9.95412
▁usually	-9.95491
ដ៏ល្អ	-9.95497
▁tell	-9.95502
▁suppliers	-9.9553
▁seen	-9.95531
ទន្លេ	-9.95548
▁bar	-9.95559
36	-9.9566
▁businesses	-9.9567
68	-9.95673
▁source	-9.95697
▁request	-9.95793
▁Year	-9.95796
ize	-9.9581
▁cold	-9.95894
ron	-9.95947
▁physical	-9.9599
▁press	-9.95993
old	-9.9612
ជ័រ	-9.96149
ឡ	-9.96184
▁Of	-9.96203
▁exports	-9.96233
ប់	-9.96243
▁done	-9.96386
កាបូន	-9.96388
▁multiple	-9.96397
បញ្ហាប្រឈម	-9.96449
▁2023	-9.96452
▁Council	-9.96472
▁strategy	-9.96472
nm	-9.9648
▁ញុមចូលចិត្ត	-9.96486
សូម្បីតែ	-9.96493
▁waste	-9.96525
▁cultural	-9.96607
ដើម្បីធ្វើឱ្យ	-9.96654
មួយទៀត	-9.96699
▁general	-9.96718
▁expand	-9.9679
▁វាគឺជា	-9.96803
▁Make	-9.96814
▁Management	-9.96876
វាយតម្លៃ	-9.96882
▁delivery	-9.96995
▁Failure	-9.97119
▁បច្ចេកវិទ្យា	-9.97142
KW	-9.97199
▁Association	-9.97201
▁works	-9.97232
▁Manufacturer	-9.97266
▁providing	-9.97282
អចលនទ្រព្យ	-9.97353
form	-9.97405
tin	-9.97429
66	-9.97462
▁requires	-9.97462
▁បញ្ហា	-9.97501
▁men	-9.97542
ការកំណត់	-9.97595
▁staff	-9.97608
▁transfer	-9.97667
ទទួលស្គាល់	-9.97725
▁2,	-9.97737
ធារាសាស្ត្រ	-9.97771
29	-9.97798
២៥	-9.97945
▁experts	-9.9798
ple	-9.98005
បញ្ជា	-9.98014
▁អ្នកជំនាញ	-9.98017
▁លាន	-9.9805
គូ	-9.98066
▁zithromax	-9.98098
អស់	-9.98127
▁លានដុល្លារ	-9.98145
ក្រៅ	-9.98163
កោសិកា	-9.9818
ដុត	-9.98229
របស់មនុស្ស	-9.98243
▁remain	-9.98256
ផ្លាស្ទិច	-9.98262
▁heavy	-9.98262
ភស្តុតាង	-9.98309
▁aims	-9.98365
mon	-9.98366
▁sectors	-9.98468
ផ្សាយពាណិជ្ជកម្ម	-9.98486
នាពេលបច្ចុប្បន្ន	-9.98491
ស្រស់	-9.98563
ការការពារ	-9.9857
▁save	-9.98709
សមរម្យ	-9.98787
ជន	-9.98836
▁investors	-9.98863
Hz	-9.98907
ត្រ	-9.98924
▁wood	-9.98946
▁highly	-9.98958
កោះ	-9.98959
លំហូរ	-9.98979
ធុង	-9.99002
▁Civil	-9.99003
63	-9.99012
▁Land	-9.99033
ឡាន	-9.99076
មិនទាន់	-9.99084
វេជ្ជសាស្ត្រ	-9.99086
▁urban	-9.99086
▁USD	-9.99099
ors	-9.99113
▁ឧទាហរណ៍	-9.99119
▁សម្តេចតេជោ	-9.99162
ខ	-9.99204
▁death	-9.99261
▁Color	-9.99265
ca	-9.99296
ence	-9.99299
សិក្ខាសាលា	-9.99336
▁enough	-9.99336
▁inside	-9.9938
ទាមទារ	-9.99454
គន្លឹះ	-9.99479
▁studies	-9.99502
▁ឃើញ	-9.99512
ជាផ្លូវការ	-9.99529
ចាប់ផ្ដើម	-9.99545
▁action	-9.99548
▁Deputy	-9.99584
▁least	-9.99587
ពណ៌ស	-9.99638
▁inter	-9.99642
▁Jesus	-9.99667
លើកទឹកចិត្ត	-9.9973
▁ការរចនា	-9.99741
▁stay	-9.99752
▁Sa	-9.99802
▁wear	-9.99814
▁ទំព័រ	-9.99814
ប៉ុន្មាន	-9.99841
88	-9.99887
led	-9.99894
proof	-9.99904
ងាយស្រួលក្នុងការ	-9.99927
▁តើអ្នក	-9.99957
▁videos	-10.0001
▁eyes	-10.0004
▁quickly	-10.0005
▁stainless	-10.0009
▁certificate	-10.0009
បន្ទុក	-10.001
សេចក្តី	-10.0017
▁degree	-10.002
▁យុវជន	-10.0027
▁told	-10.0027
ide	-10.003
▁គួរ	-10.0032
▁mode	-10.0036
បង្វិល	-10.0038
▁nation	-10.0039
▁នាំ	-10.004
▁tube	-10.0041
បណ្តុះបណ្តាល	-10.0041
▁similar	-10.0042
ប៉ះ	-10.0044
ស្ពាន	-10.0045
យ៉ាងឆាប់រហ័ស	-10.0055
ស្រូវ	-10.0056
▁70	-10.0058
▁chemical	-10.0063
បញ្ឈប់	-10.0071
ក្រ	-10.0073
ga	-10.0074
ថ្នាំកូត	-10.0077
▁stop	-10.0077
ដើម្បីការពារ	-10.0084
use	-10.0088
វ៉ុល	-10.009
ដំណើរ	-10.009
គិតថា	-10.0091
▁welding	-10.0092
▁Top	-10.0093
▁ក្នុងនោះ	-10.0095
▁options	-10.0099
▁Department	-10.0101
▁located	-10.0102
ក៏មាន	-10.0103
▁stone	-10.0105
▁sub	-10.0111
▁First	-10.0111
PC	-10.0112
▁tools	-10.0114
ts	-10.0115
▁soft	-10.0116
▁spirit	-10.0117
ម្	-10.012
ping	-10.0125
▁customized	-10.013
27	-10.0132
ver	-10.0137
▁fruit	-10.014
▁option	-10.0142
▁download	-10.0144
ផ្ទេរ	-10.0145
0.0	-10.0145
▁progress	-10.015
▁cap	-10.0151
rd	-10.0151
ru	-10.0152
ចុច	-10.0155
ចាប់ពី	-10.0155
▁guide	-10.0157
កសាង	-10.0161
▁រដ្ឋមន្ត្រី	-10.017
ក្មេង	-10.0173
ន់	-10.0174
▁បានទេ	-10.0175
▁Not	-10.0176
car	-10.0177
over	-10.0178
▁ago	-10.0181
▁ជួយ	-10.0184
▁leaders	-10.0185
▁innovation	-10.0185
▁រដ្ឋាភិបាល	-10.0186
▁culture	-10.0186
▁Mobile	-10.0186
ចម្ងាយ	-10.0193
▁critical	-10.0194
▁positive	-10.0194
វិជ្ជមាន	-10.0202
▁Foreign	-10.0202
▁Apple	-10.0205
▁±	-10.0205
▁web	-10.0207
▁refers	-10.0207
តាមអ៊ីនធឺណិត	-10.021
▁risk	-10.021
ល្បែង	-10.0212
▁Name	-10.0217
▁cover	-10.0218
▁Don	-10.0219
រដ្ឋមន្ត្រី	-10.0224
▁turn	-10.0224
▁អំពី	-10.0232
▁Se	-10.0234
▁liquid	-10.0237
▁region	-10.0238
47	-10.0243
ក្នុងផ្ទះ	-10.0246
▁90	-10.025
គ្រោង	-10.0251
▁Business	-10.0252
▁Ad	-10.026
ប្លាស្ទិច	-10.0262
អាយ	-10.0268
▁success	-10.0272
▁stock	-10.0274
▁door	-10.0277
ឆ្លើយតប	-10.0277
កសិករ	-10.0278
▁[...]	-10.028
▁ខែតុលា	-10.028
▁powder	-10.0284
គី	-10.0284
កាលពី	-10.0292
▁Go	-10.03
▁follow	-10.0301
▁UV	-10.0302
ម៉ូទ័រ	-10.0305
▁bring	-10.0307
ទាញ	-10.0314
▁ក្រសួង	-10.0315
ប្លាស្ទិក	-10.0319
ដោយដៃ	-10.0323
▁admin	-10.0323
អាហារូបករណ៍	-10.0324
ធ	-10.0328
ប្រហែលជា	-10.0333
នៅក្រោម	-10.0333
▁35	-10.0343
▁Post	-10.0344
អ៊ីមែល	-10.0348
,”	-10.0364
▁ល្អ	-10.0368
ពួកវា	-10.0378
លក្ខណៈពិសេស	-10.0378
US	-10.0384
▁ព្រឹត្តិការណ៍	-10.0386
▁Vi	-10.0386
ay	-10.0393
ប៉ះពាល់ដល់	-10.0399
▁load	-10.0409
សាលារៀន	-10.041
សាក	-10.0416
▁Youth	-10.0421
▁Si	-10.0424
▁roller	-10.0427
▁difficult	-10.0427
▁cross	-10.0427
▁មុនពេល	-10.043
▁ceremony	-10.0435
▁Thailand	-10.0436
១២	-10.0436
▁Play	-10.0436
▁longer	-10.0437
ទូរទស្សន៍	-10.0444
▁ដំណើរការ	-10.0444
បាននិយាយថា	-10.0445
mer	-10.0447
ចេះ	-10.0448
31	-10.045
សមាគម	-10.045
យើងអាច	-10.0456
▁length	-10.0463
▁គោលនយោបាយ	-10.0465
▁benefit	-10.0473
ative	-10.0481
តំណាង	-10.0481
▁joint	-10.0484
ចង់បាន	-10.0489
izing	-10.0489
បូ	-10.0489
ខុសគ្នា	-10.0491
▁response	-10.0496
ញុម	-10.0499
$	-10.0501
ស្នើ	-10.0507
ស្ថិតនៅក្នុង	-10.0507
រួច	-10.051
▁items	-10.0512
▁book	-10.0515
ជនជាតិ	-10.0516
▁store	-10.0518
ator	-10.0519
រសជាតិ	-10.0521
▁សាកលវិទ្យាល័យ	-10.0529
▁Ni	-10.0532
ដីធ្លី	-10.0534
▁CE	-10.0534
▁sports	-10.0539
មហាវិទ្យាល័យ	-10.0541
▁Light	-10.0544
der	-10.0545
ill	-10.0545
▁សុ	-10.0546
លាយ	-10.0546
ស៊ុម	-10.0549
▁hair	-10.0551
រលាយ	-10.0553
▁សា	-10.0555
ដ៏រឹងមាំ	-10.0555
▁explore	-10.0558
▁សមត្ថភាព	-10.0559
▁click	-10.056
ជាការ	-10.0563
▁2024,	-10.0568
មុំ	-10.0571
▁rise	-10.0571
ER	-10.0572
▁operations	-10.0577
▁won	-10.0577
▁target	-10.0578
▁បន្តិច	-10.0585
▁iron	-10.0587
▁move	-10.0588
រុស្ស៊ី	-10.0588
▁watch	-10.0589
បានក្លាយជា	-10.059
ដើម្បីឱ្យ	-10.0594
▁convenient	-10.06
▁Every	-10.0601
TS	-10.0601
▁village	-10.0602
▁blue	-10.0603
សិទ្ធិមនុស្ស	-10.0604
អ្នកមាន	-10.0612
ស្នូល	-10.0613
▁ទិញ	-10.0615
ការកើនឡើង	-10.0621
ទាក់ទង	-10.0622
▁លើសពីនេះ	-10.0624
▁outside	-10.0632
▁compared	-10.0634
▁គ្រប់	-10.0635
▁គួរតែ	-10.0636
▁decision	-10.0637
ការតភ្ជាប់	-10.0638
▁App	-10.0643
▁ដែលបាន	-10.0644
នាំមកនូវ	-10.0653
ធ្ងន់	-10.066
▁actively	-10.0662
▁purchase	-10.0662
▁corrosion	-10.0665
pro	-10.0666
នេះមាន	-10.0667
▁Sub	-10.0672
▁flow	-10.0672
ថេរ	-10.0677
អំពូល	-10.0678
eng	-10.0678
មេរោគ	-10.068
▁promoting	-10.0682
ចាប់តាំងពី	-10.0688
▁Therefore	-10.0692
គុណភាពខ្ពស់	-10.0698
▁choice	-10.0698
រលក	-10.0699
ba	-10.0701
ជាមុន	-10.0702
▁reading	-10.0705
ហាក់ដូចជា	-10.071
ឡូ	-10.072
▁Lu	-10.0726
▁និងមាន	-10.0731
400	-10.0734
▁District	-10.0736
ជាដើម	-10.0737
▁cream	-10.0737
38	-10.0743
បានបង្កើត	-10.0743
▁ថ្ងៃទី	-10.0746
▁h	-10.0748
ក្រុមប្រឹក្សា	-10.0751
▁season	-10.0754
អ្នកដែល	-10.0756
មា	-10.0758
វិល	-10.0762
នេះនឹង	-10.0765
ជំនាញវិជ្ជាជីវៈ	-10.0769
▁labor	-10.0772
ថែរក្សា	-10.0774
វីស	-10.0776
អាចត្រូវបានប្រើ	-10.0778
យើងមាន	-10.0782
សម្រេច	-10.0786
▁Institute	-10.0791
▁យើងនឹង	-10.0792
▁growing	-10.0806
▁និងជា	-10.0808
▁handle	-10.081
បាត់	-10.081
ការធ្វើដំណើរ	-10.0811
▁ខាង	-10.0811
អ្នកជំងឺ	-10.0817
▁Su	-10.0819
act	-10.0825
▁Time	-10.0829
របស់វា។	-10.0832
គ្រប់ប្រភេទ	-10.0832
តម្រង	-10.0835
▁effectively	-10.0839
▁ការប្រើប្រាស់	-10.084
ប្រាប់	-10.0841
▁Angkor	-10.0842
▁Assembly	-10.0845
▁communities	-10.0845
▁ground	-10.0847
▁throughout	-10.085
▁taking	-10.0852
▁forest	-10.0853
▁mental	-10.0857
ជំហាន	-10.0861
យឺត	-10.0862
▁volume	-10.0863
▁Sp	-10.0864
▁PM	-10.0869
55	-10.0881
ការដឹកជញ្ជូន	-10.0881
ការផ្គត់ផ្គង់	-10.0882
រាប់	-10.0882
▁ល។	-10.0894
▁chain	-10.0897
▁nature	-10.09
ការប្រែប្រួល	-10.0901
les	-10.0902
ប្រសិទ្ធភាព។	-10.0904
▁thing	-10.0909
កែលម្អ	-10.0909
▁voltage	-10.0912
▁ability	-10.0914
▁words	-10.0915
ធ្មេញ	-10.0915
net	-10.0917
យោងទៅតាម	-10.0918
▁spray	-10.0923
▁went	-10.0923
ដ៏ល្អបំផុត	-10.0933
▁normal	-10.0933
▁កន្លែង	-10.0934
▁Europe	-10.0937
បង្ហោះ	-10.0938
ee	-10.0943
▁famous	-10.0945
ok	-10.0947
ឥទ្ធិពល	-10.0953
របស់ប្រទេសចិន	-10.0955
by	-10.0956
▁បាននិយាយថា	-10.0958
▁partners	-10.0959
▁reported	-10.0959
▁fields	-10.0961
ki	-10.0969
▁របាយការណ៍	-10.0971
▁Medical	-10.0973
▁LCD	-10.0975
កើត	-10.0979
▁procedures	-10.0985
▁shape	-10.0994
▁Or	-10.1004
ប៉ុណ្ណោះ។	-10.1006
▁ផ្ទះ	-10.1006
ស្រា	-10.1009
▁annual	-10.1011
ism	-10.1015
▁Ma	-10.1017
ការថែទាំ	-10.1019
▁Pi	-10.1027
លេខកូដ	-10.1032
ចិញ្ចឹម	-10.1033
▁automatic	-10.1034
▁fresh	-10.1037
▁round	-10.1037
▁raw	-10.1038
ard	-10.1039
▁son	-10.104
▁ការពារ	-10.1044
ត្រឹមតែ	-10.1047
កម្ពស់	-10.1056
ទារក	-10.1058
▁individuals	-10.1061
▁consider	-10.1062
▁English	-10.1071
▁mother	-10.1075
▁Russia	-10.1077
▁vehicle	-10.1078
ត្រៀម	-10.1083
ោ	-10.1085
▁States	-10.1088
ការប្រកួតប្រជែង	-10.1091
Re	-10.1099
AL	-10.1099
អនុញ្ញាតឱ្យអ្នក	-10.1099
ions	-10.1099
red	-10.11
នៅតំបន់	-10.1101
▁UN	-10.1104
បញ្ចេញ	-10.1105
▁earth	-10.1106
ពាក់ព័ន្ធនឹង	-10.1114
▁issue	-10.1116
▁components	-10.1118
មើលឃើញ	-10.1119
បំណុល	-10.1119
ឈានដល់	-10.1121
▁Then	-10.1123
ខិតខំ	-10.113
▁highlighted	-10.1134
វាអាច	-10.1134
▁Kong	-10.1135
ការវិភាគ	-10.1137
▁double	-10.1141
▁believe	-10.1143
ិត	-10.1143
សេះ	-10.1144
អាជ្ញាប័ណ្ណ	-10.1149
ភ	-10.1149
23	-10.1151
▁Online	-10.1155
08	-10.1156
▁Support	-10.1158
ទិដ្ឋាការ	-10.1159
▁ខែកក្កដា	-10.116
រួមទាំង	-10.1162
▁continued	-10.1168
▁ថាមពល	-10.117
▁ស៊េរី	-10.1171
▁micro	-10.1172
នៅផ្ទះ	-10.1173
ចរាចរណ៍	-10.1177
▁approved	-10.1179
▁ខ្ញុំបានទិញ	-10.118
សួន	-10.1181
▁sent	-10.1184
▁run	-10.1185
▁បន្ទះ	-10.1188
▁kinds	-10.119
▁Na	-10.1192
▁San	-10.12
សម្លាប់	-10.1204
កំ	-10.1207
អស្ចារ្យ	-10.1215
▁rubber	-10.1223
វិធីសាស្ត្រ	-10.1224
▁29	-10.1226
▁សេចក្ដី	-10.1227
▁bad	-10.1228
▁250	-10.1228
▁Director	-10.1232
▁American	-10.1232
វិស្វកម្ម	-10.1234
▁later	-10.1235
ចោល	-10.1239
CM	-10.124
49	-10.1242
ពូជ	-10.1246
▁reason	-10.1247
▁behind	-10.1253
▁vital	-10.1254
ឈុត	-10.1258
មេដឹកនាំ	-10.1265
អង្គុយ	-10.1267
យ៉ាងហោចណាស់	-10.1272
តវ៉ា	-10.1272
ពួកយើង	-10.1273
ការដំឡើង	-10.1277
▁Supplier	-10.1278
bar	-10.128
▁coating	-10.1283
ស្មារតី	-10.1284
ការបោះពុម្ព	-10.1285
▁commercial	-10.1291
ក៏ដោយ។	-10.1292
48	-10.1293
▁true	-10.1293
ដែលពួកគេ	-10.1294
បញ្ជី	-10.1295
▁400	-10.1298
▁Many	-10.1299
លទ្ធភាព	-10.13
▁external	-10.13
▁ក្រុង	-10.1301
ភាពយន្ត	-10.1302
▁soil	-10.1304
▁1.5	-10.1306
កូដ	-10.1307
-12	-10.1309
▁king	-10.1318
▁machines	-10.132
▁alloy	-10.1321
តាំងពី	-10.1322
▁understanding	-10.1325
▁ខែកញ្ញា	-10.1331
▁rest	-10.1332
ចម្រុះ	-10.1335
▁urged	-10.1336
▁អនុលោមតាម	-10.1338
សន្លឹក	-10.1348
ទ្រង់	-10.1348
ពហុ	-10.1351
▁provinces	-10.1351
▁sites	-10.1351
▁changes	-10.1359
កាហ្វេ	-10.136
ការលើកកម្ពស់	-10.1372
▁សេចក្តី	-10.1373
▁PP	-10.1373
sa	-10.1374
▁ទូរស័ព្ទ	-10.1375
គ្រឿងបន្លាស់	-10.1376
▁heard	-10.1376
អ្នកប្រើ	-10.1377
▁System	-10.1378
▁2000	-10.1379
▁yourself	-10.1379
▁Here	-10.1383
ធ្វើឲ្យ	-10.1383
board	-10.1389
ជាមួយគ្នា	-10.139
▁square	-10.1392
ភាគី	-10.1398
▁sign	-10.1401
អាជីព	-10.1402
សហប្រតិបត្តិការ	-10.1402
▁university	-10.1405
MM	-10.1406
រាយការណ៍	-10.1407
▁រយៈពេល	-10.1411
អាស៊ីត	-10.1416
ក្តី	-10.1417
▁សុខ	-10.1419
▁require	-10.142
▁install	-10.1424
នៅទីនោះ	-10.1424
▁parties	-10.1427
១៦	-10.1433
▁beauty	-10.1434
▁communication	-10.1434
ណូ	-10.1437
ina	-10.1441
សេចក្ដី	-10.1442
មិត្តភក្តិ	-10.1443
័	-10.1444
▁ទោះយ៉ាងណាក៏ដោយ	-10.1444
▁Use	-10.1454
ភ្នាល់	-10.1456
▁situation	-10.1462
បួន	-10.1464
បានកើនឡើង	-10.1466
លើកទី	-10.1467
▁search	-10.1468
ឆ្ងាយ	-10.1475
-7	-10.1479
អ្នកនឹង	-10.1481
▁unit	-10.1489
▁ឆ្នាំ២០២២	-10.1491
ice	-10.1493
▁soon	-10.1494
ile	-10.1496
▁leave	-10.1501
▁status	-10.1501
ស្វ័យប្រវត្តិ	-10.1501
អត្តសញ្ញាណ	-10.1503
កំណត់ត្រា	-10.1509
▁ចង់	-10.1509
ទៅតាម	-10.151
▁2024	-10.1513
76	-10.1516
▁testing	-10.1516
ជ្រៅ	-10.1516
▁contract	-10.152
ស្ថានីយ	-10.1521
▁approximately	-10.1527
▁strictly	-10.1528
hi	-10.1531
ear	-10.1534
ធ្វើឱ្យប្រសើរឡើង	-10.1538
▁code	-10.1545
កែវ	-10.1547
▁រឿង	-10.1549
▁prepare	-10.1553
▁រក	-10.1559
▁strategic	-10.156
ភាពតានតឹង	-10.156
▁HD	-10.1564
ning	-10.1565
▁version	-10.1566
បាយ	-10.1572
▁smart	-10.1574
ខូច	-10.1576
បង្ហាញថា	-10.1578
ក៏អាច	-10.1581
លម្អិត	-10.1583
រំ	-10.1584
▁disease	-10.1588
▁filter	-10.159
▁final	-10.1591
AT	-10.1595
ប្រតិបត្តិ	-10.1595
lip	-10.1596
កាលបរិច្ឆេទ	-10.16
yl	-10.1601
ដែលនឹង	-10.1602
ការយល់ដឹង	-10.1602
តួ	-10.1605
▁cable	-10.1605
▁language	-10.1607
▁airport	-10.161
នំ	-10.1611
លក្ខណៈសម្បត្តិ	-10.1617
can	-10.162
បណ្ឌិត	-10.162
ms	-10.1622
▁implemented	-10.1623
▁questions	-10.1631
ហ្វ	-10.1634
lin	-10.1637
▁ធនាគារ	-10.1637
▁accuracy	-10.1639
▁មានសិទ្ធិ	-10.1641
▁caused	-10.1646
▁Pursu	-10.1649
ហ្វេសប៊ុក	-10.1649
▁subject	-10.165
-6	-10.1653
▁matter	-10.167
▁particularly	-10.1672
▁កាលពី	-10.1673
▁revenue	-10.1678
▁analysis	-10.1678
▁needed	-10.1679
▁record	-10.1679
▁crypto	-10.1679
58	-10.1681
▁respect	-10.1684
gu	-10.1684
នេះបាន	-10.1692
ភ្លឺ	-10.1697
▁gain	-10.1704
ឱសថ	-10.1708
▁solid	-10.1709
ែ	-10.1711
▁តើអ្នកលក់	-10.1712
▁forget	-10.1712
09	-10.1722
▁hands	-10.1725
EC	-10.1726
▁កញ្ញា	-10.1731
១៨	-10.1732
▁original	-10.1737
▁Twitter	-10.1738
▁largest	-10.1744
ទី១	-10.1745
ស្ទើរតែ	-10.1748
▁carbon	-10.1754
អនឡាញ	-10.1759
អ៊ីនធឺណិត	-10.1761
34	-10.1764
ពួក	-10.1764
▁ensuring	-10.1767
ult	-10.1769
▁framework	-10.177
▁គីឡូក្រាម	-10.1774
▁core	-10.1776
oc	-10.1777
▁vision	-10.1784
ភេសជ្ជៈ	-10.1784
▁consumption	-10.1787
▁កូន	-10.1792
▁ដោយមាន	-10.1793
ម្តាយ	-10.1797
ON	-10.1801
▁details	-10.1807
កៅអី	-10.1807
ពិធីបុណ្យ	-10.1809
▁sale	-10.1814
▁សេវាកម្ម	-10.1817
ឃុំ	-10.1819
ner	-10.182
ផា	-10.1821
ការខូចខាត	-10.1822
▁electronic	-10.1825
តន្ត្រី	-10.1825
១៥	-10.1826
▁primary	-10.1827
សក្តានុពល	-10.1836
សង្គ្រោះ	-10.1836
▁comprehensive	-10.1838
▁កំណត់	-10.1846
▁constitute	-10.1849
▁moment	-10.1849
▁given	-10.185
ការទិញ	-10.1852
▁train	-10.1856
▁remove	-10.1857
ការបង្ហាញ	-10.1857
ស្របច្បាប់	-10.1859
សម្រេចបាននូវ	-10.1863
▁riel	-10.1863
យន្តការ	-10.1863
07	-10.1865
▁Her	-10.1866
បង្អួច	-10.1868
វានឹង	-10.1868
▁age	-10.1868
បាត	-10.1873
តំឡើង	-10.1873
ប្រវែង	-10.1874
រា	-10.1877
▁ទទួលបាន	-10.1889
▁transport	-10.1892
ខាងមុខ	-10.1899
ន៍	-10.1903
▁monitoring	-10.1904
▁terms	-10.1907
▁សុខា	-10.1912
មិនត្រូវបាន	-10.1916
ឯករាជ្យ	-10.1923
▁opposition	-10.1928
ប្រកួត	-10.1931
ផ្តោតលើ	-10.1933
▁]]>	-10.1938
ក្រាស់	-10.1939
▁Bar	-10.1951
មិនចាំបាច់	-10.1953
ឧទាហរណ៍	-10.1955
▁built	-10.1957
ana	-10.196
▁latest	-10.196
▁came	-10.1962
ថ	-10.1964
សរសៃ	-10.1971
ស្បែកជើង	-10.1972
ស្រ	-10.1972
▁Since	-10.1975
▁Black	-10.1978
▁Weight	-10.1982
▁individual	-10.1983
វិធានការ	-10.1983
អនុម័ត	-10.1985
ach	-10.1998
▁clients	-10.2002
▁immediately	-10.2002
ការច្នៃប្រឌិត	-10.2007
កាល	-10.2009
-5	-10.2009
▁half	-10.201
កំណើនសេដ្ឋកិច្ច	-10.201
ek	-10.2013
▁ដែរ	-10.2018
ps	-10.2021
▁illegal	-10.2022
វត្ត	-10.2023
តាមរយៈការ	-10.2023
ran	-10.2027
SP	-10.2028
▁began	-10.2028
តូ	-10.2032
▁Let	-10.2035
▁ព្រះមហាក្សត្រ	-10.2036
ភ្ញៀវទេសចរ	-10.2036
មួយក្នុងចំណោម	-10.2039
▁forward	-10.2039
▁precision	-10.2042
វាមាន	-10.2042
▁តើខ្ញុំអាចរក	-10.2046
gen	-10.2046
fa	-10.2047
dy	-10.2047
▁meat	-10.2048
▁levels	-10.205
SA	-10.2051
▁រួមមាន	-10.2053
ជំនឿ	-10.2058
ះ	-10.206
▁While	-10.2061
▁sound	-10.2063
កម្ពុជា។	-10.2063
អតីត	-10.2063
▁panel	-10.2067
▁shared	-10.2069
ទស្សនៈ	-10.207
▁Part	-10.2072
ទោះជាយ៉ាងណាក៏ដោយ	-10.2073
▁link	-10.2074
▁sample	-10.2075
▁button	-10.2075
លីន	-10.2076
▁ព្រះរាជាណាចក្រ	-10.2077
▁Life	-10.2079
គ្របដណ្តប់	-10.208
▁220	-10.2086
បក្សប្រឆាំង	-10.2087
▁partner	-10.2087
▁Good	-10.2088
ម៉ូ	-10.2091
▁sheet	-10.2093
ស្រឡាញ់	-10.2094
▁files	-10.2097
▁ជីវិត	-10.21
មួយនេះ	-10.2101
មួយស្រទាប់ស្តើង	-10.2102
់	-10.2107
sk	-10.2108
▁គាំទ្រ	-10.2114
▁created	-10.2115
▁six	-10.2115
បំផុត។	-10.2119
▁risks	-10.2121
ដុល្លារ	-10.2122
▁doesn	-10.2122
▁defense	-10.2122
▁voice	-10.2122
▁hotel	-10.2125
ដោយការ	-10.2126
ថ្ងៃនេះ	-10.2137
ប្រាសាទ	-10.2138
▁កាល	-10.2138
ខ្ញុំចូលចិត្ត	-10.2141
ព្យួរ	-10.2141
▁Economy	-10.2143
▁ខ្ញុំណែនាំ	-10.2146
ផង	-10.2154
▁វាជាការ	-10.2155
▁bonus	-10.216
ដោយផ្អែកលើ	-10.2162
▁11:	-10.2163
Fi	-10.2165
ja	-10.2167
គែម	-10.2168
▁1)	-10.2172
▁basic	-10.2174
▁draft	-10.2174
▁wants	-10.2176
si	-10.2176
ផ្តល់ឱ្យអ្នកនូវ	-10.2177
ក្រុមគ្រួសារ	-10.2181
top	-10.2181
▁towards	-10.2183
▁cryptocurrency	-10.2185
▁thickness	-10.2185
▁Market	-10.2186
▁31	-10.219
▁America	-10.219
គំនូរ	-10.2194
ចង្កៀង	-10.2195
▁កាន់	-10.2197
▁Most	-10.2198
▁ភ្នំពេញ៖	-10.2201
▁statement	-10.2203
kw	-10.2203
មានប្រសិទ្ធិភាព	-10.2203
▁traffic	-10.2205
នៃផលិតផល	-10.2211
ទម្ងន់	-10.2211
លែង	-10.2212
▁វាអាច	-10.2218
▁characteristics	-10.2218
ប្រតិកម្ម	-10.2219
▁Long	-10.222
កម្សាន្ត	-10.222
មានប្រយោជន៍	-10.222
វាមិន	-10.2226
▁រួច	-10.2227
▁លើក	-10.2231
AS	-10.2232
រារាំង	-10.2233
យុទ្ធនាការ	-10.2234
ទីពីរ	-10.2234
▁វិញ	-10.2236
ឈានមុខគេ	-10.2237
▁១៨	-10.2239
▁120	-10.2242
61	-10.2244
និងមាន	-10.2246
▁evidence	-10.2247
▁យើងមាន	-10.2248
free	-10.2249
▁teachers	-10.2252
សាសនា	-10.2253
ប័ណ្ណ	-10.2256
អាទិភាព	-10.2259
▁ideal	-10.2261
▁member	-10.2264
▁pain	-10.2271
០០	-10.2275
▁Sun	-10.2276
សំណើ	-10.2276
▁Data	-10.2282
៤០	-10.2285
ជាច្រើន។	-10.2286
ក្រុមការងារ	-10.2286
▁inquirydetail	-10.2289
ST	-10.2296
▁600	-10.2298
▁ទិន្នន័យ	-10.2299
▁scientific	-10.23
▁Solar	-10.23
ម៉ូដែល	-10.2302
ES	-10.2302
នៅតែបន្ត	-10.2307
▁connection	-10.231
រង្វាន់	-10.231
ចំ	-10.2315
▁switch	-10.2319
▁win	-10.232
សម្រាក	-10.232
▁recently	-10.2321
ធ្វើពី	-10.2327
▁former	-10.2329
ko	-10.2329
par	-10.233
▁view	-10.2339
ities	-10.2342
▁collection	-10.2344
▁ជំនាញ	-10.2351
▁operating	-10.2352
▁ពិត	-10.2352
ធូលី	-10.2356
▁២៥	-10.2356
▁ពីព្រោះវា	-10.2356
សម័យ	-10.2357
97	-10.2362
-8	-10.2363
▁internal	-10.2363
▁bo	-10.2365
ប្រាំ	-10.2366
ទី២	-10.2372
▁shop	-10.2373
let	-10.2375
▁bi	-10.2376
▁smooth	-10.2376
▁mold	-10.2377
▁អ្នកស្រាវជ្រាវ	-10.2381
គឺមាន	-10.2382
ឪពុក	-10.2383
▁នាយករដ្ឋមន្ត្រី	-10.2384
គួរតែត្រូវបាន	-10.2391
▁Committee	-10.2395
ខ្ញុំបាន	-10.2397
lan	-10.2399
▁កាបូប	-10.24
ធុរកិច្ច	-10.2405
▁reliable	-10.2406
ហៅ	-10.241
រ៉ែ	-10.2412
ជាប្រចាំ	-10.2416
▁father	-10.2416
រំពឹងថានឹង	-10.2418
ប្រៀបធៀប	-10.2419
▁balance	-10.242
98	-10.2421
សុំ	-10.2421
▁academic	-10.2426
▁Agriculture	-10.2426
យល់	-10.2427
កូវីដ	-10.2427
យុត្តិធម៌	-10.2428
150	-10.243
ឥណ្ឌា	-10.2437
fer	-10.2439
▁aid	-10.244
▁sea	-10.2442
▁image	-10.2443
▁completely	-10.2445
▁collaboration	-10.2448
56	-10.2456
មានស្ថេរភាព	-10.2457
▁writing	-10.2458
▁nations	-10.2461
▁recovery	-10.2462
បោះ	-10.2463
ម៉ាស៊ីនបោះពុម្ព	-10.2466
ផ្ទៀងផ្ទាត់	-10.2468
▁friends	-10.2469
របស់ខ្លួន។	-10.2472
▁cleaning	-10.248
▁estate	-10.248
PE	-10.2484
▁ពិសេស	-10.2486
នោះគឺ	-10.2488
▁Israel	-10.2491
▁រួម	-10.2492
ug	-10.2494
▁People	-10.2497
04	-10.2499
▁valve	-10.2501
69	-10.2502
▁Digital	-10.2505
lay	-10.2507
▁អនុវត្ត	-10.2508
ដែលត្រូវការ	-10.2508
ទោះបីជា	-10.2509
▁2)	-10.2511
oo	-10.2513
រលោង	-10.2516
គណៈកម្មាធិការ	-10.2522
នាក់	-10.2522
33	-10.2523
▁numerous	-10.2523
លំនៅដ្ឋាន	-10.2523
ដទៃទៀត	-10.2527
▁គំរូ	-10.2529
ខេ	-10.2531
ង់	-10.2533
ធំទូលាយ	-10.2538
▁Union	-10.254
បូម	-10.2541
ដឹក	-10.2541
▁Economic	-10.2543
▁appeal	-10.2545
អវិជ្ជមាន	-10.2547
ប៉ះពាល់	-10.255
បដិសេធ	-10.2551
▁ទុក	-10.2558
?”	-10.2559
▁friendly	-10.2563
ពីចម្ងាយ	-10.2565
▁contribute	-10.2565
ជានិច្ច	-10.2567
ចក្ខុវិស័យ	-10.2571
ual	-10.2573
▁PE	-10.2575
ដំបូល	-10.2577
▁almost	-10.2577
▁weather	-10.2579
ដល់អ្នក	-10.258
53	-10.2583
mic	-10.2586
នោះ។	-10.2588
all	-10.2591
54	-10.2594
រយៈពេលវែង	-10.2597
▁includes	-10.2597
▁European	-10.2601
▁farming	-10.2602
ខណៈពេលដែល	-10.2604
▁Port	-10.2604
port	-10.2606
▁charge	-10.2607
▁frame	-10.2608
រាជធានី	-10.2609
▁solar	-10.2612
▁worth	-10.2612
សណ្ឋាគារ	-10.2614
▁completed	-10.2614
៍	-10.2619
កាយ	-10.262
hu	-10.2624
▁Full	-10.2625
mp	-10.263
62	-10.2632
▁campaign	-10.2633
▁debt	-10.2636
▁solve	-10.2637
ast	-10.264
▁significantly	-10.2642
▁poor	-10.2642
ការបណ្តុះបណ្តាល	-10.2648
អាកាស	-10.2652
ត្រូវបានធ្វើឡើង	-10.2652
ពេក	-10.2653
លិខិត	-10.2654
នាវា	-10.2654
ចាំបាច់ណាស់។	-10.2655
row	-10.2656
បានឃើញ	-10.2658
ធានាថា	-10.2678
ផ្គត់ផ្គង់ថាមពល	-10.2682
fe	-10.2684
▁commune	-10.2685
ព្រះអម្ចាស់	-10.2688
▁ស៊ី	-10.2689
កាមេរ៉ា	-10.2689
▁Ti	-10.2695
du	-10.2697
▁rates	-10.2701
កិច្ចសហ	-10.2702
ប្រាក់ចំណេញ	-10.2702
▁48	-10.2703
▁student	-10.2704
▁Finance	-10.2707
:1	-10.2709
▁Hot	-10.2709
▁filling	-10.271
បរិញ្ញាបត្រ	-10.2718
វិទ្យាសាស្រ្ត	-10.2718
ស្វាគមន៍	-10.272
ធ្វើជា	-10.2722
▁2022,	-10.2722
ផែនដី	-10.2726
▁Company	-10.2729
ថ្មីមួយ	-10.2731
▁ក្រណាត់	-10.2731
▁Korea	-10.2731
▁opening	-10.2731
រដ្ឋសភា	-10.2732
▁parents	-10.2733
▁6.	-10.2735
▁jobs	-10.2737
ត្រូវបានរចនាឡើង	-10.274
ens	-10.274
ai	-10.2741
ត្រឡប់មកវិញ	-10.2746
ye	-10.2757
64	-10.2761
ding	-10.2761
av	-10.2763
uk	-10.2774
59	-10.2775
▁select	-10.2777
▁Ethereum	-10.2784
▁មជ្ឈមណ្ឌល	-10.2786
▁ក្នុងនាមជា	-10.2787
:30	-10.2789
if	-10.279
▁ខែមិថុនា	-10.2791
▁@	-10.2791
អ្នកត្រូវ	-10.2792
cal	-10.2795
▁blockchain	-10.2795
▁Min	-10.2798
ack	-10.2798
▁colors	-10.2801
អ៊ីសូឡង់	-10.2806
សារព័ត៌មាន	-10.2807
រឿងរ៉ាវ	-10.2808
ec	-10.2809
▁increasing	-10.2809
▁Super	-10.2812
▁style	-10.2812
▁3,	-10.2815
វាល	-10.2816
▁សារ	-10.2817
▁រក្សា	-10.2821
▁break	-10.2821
▁ប្រ	-10.2822
កំណែ	-10.2831
85	-10.2831
▁Cham	-10.2837
▁prior	-10.2838
ever	-10.2838
▁greater	-10.2845
ពិព័រណ៍	-10.2846
bet	-10.2847
▁នា	-10.2849
▁0.1	-10.2851
▁activity	-10.2851
ការបាត់បង់	-10.2852
ជាមូលដ្ឋាន	-10.2855
ការសម្រេចចិត្ត	-10.2856
▁កម្លាំង	-10.2856
ព្រះរាជាណាចក្រ	-10.2857
xbet	-10.2858
ំ	-10.2859
ិន	-10.2859
ld	-10.2861
▁trust	-10.2864
▁launched	-10.2866
▁Quality	-10.2868
ដ៏ធំ	-10.2874
៨០	-10.2875
ស្មើនឹង	-10.2876
KG	-10.2876
ខុស	-10.2879
▁ជួរ	-10.2881
▁អេ	-10.2883
▁fear	-10.2885
ព្រះមហាក្សត្រ	-10.2891
មូលហេតុ	-10.2891
០១	-10.2893
▁remote	-10.2898
ped	-10.2898
);	-10.29
▁Kem	-10.2901
និមិត្តសញ្ញា	-10.2906
▁Sha	-10.2907
ៃ	-10.2909
▁ខែមេសា	-10.2909
រីកចម្រើន	-10.2912
ខ្ពស់ជាង	-10.2912
បង់	-10.2914
ហេតុផល	-10.2918
▁lives	-10.2919
▁ខែសីហា	-10.2921
▁Man	-10.2923
មានសុវត្ថិភាព	-10.2923
នៅតែមាន	-10.2924
mar	-10.2926
▁cell	-10.2927
សុខាភិបាល	-10.2928
39	-10.2928
ស៊ីឡាំង	-10.2929
នៅជុំវិញ	-10.2931
▁Ka	-10.2936
▁Lo	-10.2943
▁released	-10.2945
មានបញ្ហា	-10.295
▁tourists	-10.295
▁hold	-10.295
បំណែក	-10.2951
ការសាងសង់	-10.2952
▁affect	-10.2956
▁តោន	-10.2964
▁ង	-10.2968
▁ខែមីនា	-10.297
អាពាហ៍ពិពាហ៍	-10.2973
ល្អ។	-10.2976
app	-10.2977
សាច់ប្រាក់	-10.2978
▁លោកស្រី	-10.2978
▁super	-10.298
សង្កាត់	-10.2981
មនុស្សជាច្រើន	-10.2984
▁effects	-10.2986
▁music	-10.2986
ប្រធាន	-10.2988
-30	-10.2992
▁manage	-10.2993
យប់	-10.2994
▁១៣	-10.2996
អ័ក្ស	-10.2996
▁nationwide	-10.2996
▁promulgated	-10.2997
ដ៏សំខាន់	-10.2998
▁took	-10.2999
▁Sokha	-10.3
ជាងមុន	-10.3002
▁war	-10.3003
នៅខាងក្រៅ	-10.3007
វិស័យកសិកម្ម	-10.3009
ស្ថិរភាព	-10.3014
HZ	-10.3014
▁ដែលអាច	-10.3018
▁enhancing	-10.3018
▁Contact	-10.3018
ក្នុងពេល	-10.3019
នៅខាងក្នុង	-10.3022
▁enterprises	-10.3025
▁វាជា	-10.3025
មនុស្សម្នាក់	-10.3026
វគ្គ	-10.3028
▁l	-10.3028
▁promotion	-10.3036
▁schools	-10.3037
▁leadership	-10.3041
▁ណាស់។	-10.3042
▁ask	-10.3044
ger	-10.3045
▁Ms	-10.3049
▁circuit	-10.305
▁adhere	-10.3052
▁sweet	-10.3054
វាត្រូវបាន	-10.3055
▁GB	-10.3056
អាស៊ី	-10.3057
▁inspection	-10.3058
▁Un	-10.3062
សង្គ្រាម	-10.3064
▁paramount	-10.3064
តភ្ជាប់	-10.3071
▁៤០	-10.3071
ជាតិ។	-10.3078
▁ផែនការ	-10.3079
▁marketing	-10.308
រដូវ	-10.3084
▁Di	-10.3085
▁បំពង់	-10.3086
▁accept	-10.3089
▁drop	-10.309
គោ	-10.3095
▁engine	-10.31
លូ	-10.31
▁someone	-10.3104
▁advantages	-10.3105
set	-10.3109
កំរិត	-10.3109
ise	-10.3113
▁custom	-10.3114
ការផ្សព្វផ្សាយ	-10.312
▁bottom	-10.312
▁certification	-10.3121
អ្នកទិញ	-10.3123
▁passed	-10.3125
▁ដឹង	-10.3128
ពេជ្រ	-10.313
មន្រ្តី	-10.3131
▁wish	-10.3131
▁river	-10.3131
▁dark	-10.3132
▁started	-10.3132
មូល	-10.3135
កុំ	-10.3135
IP	-10.3135
កាសែត	-10.3136
សំណាញ់	-10.314
យីហោ	-10.3142
▁woman	-10.3143
▁Standard	-10.3144
▁១១	-10.3145
/#	-10.3147
▁stand	-10.3148
▁election	-10.315
និយាយអំពី	-10.315
លំនាំ	-10.315
37	-10.315
ព័ត៌មានលម្អិត	-10.3151
ម្តងទៀត	-10.3153
▁officially	-10.3154
តេ	-10.3155
▁previous	-10.3159
ny	-10.3161
តំណ	-10.3174
79	-10.3175
▁package	-10.3179
▁Da	-10.3181
▁severe	-10.3182
ឡេ	-10.3182
so	-10.3182
ដឹងពី	-10.3186
▁sand	-10.3187
▁4,	-10.3188
▁rich	-10.3188
▁ways	-10.3188
▁លី	-10.3192
ការបញ្ជាក់	-10.3197
▁opportunity	-10.3201
រឺ	-10.3202
▁cash	-10.3203
den	-10.3204
អាវ	-10.3206
qu	-10.321
▁គ្រូបង្រៀន	-10.3211
▁trading	-10.3212
ស្រស់ស្អាត	-10.3213
▁strict	-10.3213
▁bit	-10.3215
ight	-10.3216
▁Am	-10.3217
▁track	-10.3219
▁Despite	-10.3224
▁Internet	-10.3224
hy	-10.3228
▁warm	-10.3228
ខ្ញុំនឹង	-10.3231
ម្តង	-10.3231
▁>>	-10.3236
▁EU	-10.3236
▁fine	-10.3239
▁ស្លាក	-10.324
▁១៦	-10.324
ផ្ទាំង	-10.3242
ឈឺ	-10.3245
មេកានិច	-10.3247
▁Description	-10.3247
▁block	-10.3247
៦០	-10.3248
▁strengthening	-10.3249
▁ថ្ម	-10.325
▁fall	-10.3254
▁shows	-10.3258
▁នេះជា	-10.3258
▁ដើម	-10.3259
សរីរាង្គ	-10.3259
កំណើត	-10.3262
▁ម្ចាស់	-10.3262
ware	-10.3267
▁Open	-10.3268
▁regarding	-10.3269
ឯកឧត្តម	-10.3276
▁Ar	-10.3276
▁ever	-10.3278
▁maximum	-10.3282
មន្ទីរពិសោធន៍	-10.3282
អិល	-10.3284
▁India	-10.3285
bit	-10.3286
▁kingdom	-10.3293
▁lack	-10.3293
▁២០២១	-10.3297
ស្លឹក	-10.3309
▁0.5	-10.3309
MC	-10.331
tan	-10.3316
សើម	-10.3316
▁Geeks	-10.3316
ze	-10.3317
▁2012	-10.3324
សភា	-10.3326
▁birth	-10.3326
▁camera	-10.3327
▁establish	-10.3328
បានបង្ហាញថា	-10.3329
នៅជិត	-10.333
▁transportation	-10.333
tal	-10.3333
ទទួលបានជោគជ័យ	-10.3334
▁Code	-10.3334
ផ្លែឈើ	-10.3336
▁វាមាន	-10.3336
1%	-10.3337
បណ្តាប្រទេស	-10.3346
AI	-10.3347
▁visa	-10.3353
▁implement	-10.3355
▁height	-10.3355
ទប់ស្កាត់	-10.3356
ភាពធន់	-10.3361
▁truth	-10.3363
▁importance	-10.3364
▁medium	-10.3364
ពេលខ្លះ	-10.3364
ចន្លោះ	-10.3365
អ្នកគាំទ្រ	-10.3368
តួនាទី	-10.337
ការបោះឆ្នោត	-10.3373
▁Me	-10.3373
សំបុត្រ	-10.3374
▁ន	-10.3381
▁យើងអាច	-10.3383
យើងបាន	-10.3385
▁technologies	-10.3393
▁average	-10.3398
tech	-10.3401
are	-10.3401
▁បញ្ជាក់	-10.3405
▁seek	-10.3407
▁tea	-10.3407
និយម	-10.3408
ផ្អែកលើ	-10.3409
ហិរញ្ញប្បទាន	-10.341
ចែក	-10.3412
បេក្ខជន	-10.3417
គ្រោងនឹង	-10.342
ចំណាយពេល	-10.342
ច្រក	-10.342
▁rising	-10.3423
▁UK	-10.3424
▁ក្រាម	-10.3426
វិនិយោគិន	-10.3428
ដ៏ល្អឥតខ្ចោះ	-10.3431
▁River	-10.3434
ake	-10.3434
▁ខែឧសភា	-10.344
ការកាត់បន្ថយ	-10.3441
ផ្លែ	-10.3442
▁factors	-10.3444
▁Sihanouk	-10.3445
នៅកន្លែង	-10.3445
ម៉ូឌុល	-10.3447
▁Jo	-10.3447
▁Koh	-10.3448
:00	-10.3452
NA	-10.3454
▁២៤	-10.3455
cent	-10.3455
ជាន់ខ្ពស់	-10.3455
▁Pa	-10.3456
▁female	-10.3457
▁ministry	-10.3457
96	-10.3458
ថ្លា	-10.3458
pl	-10.3459
▁ឯង	-10.3462
▁ទំងន់	-10.3465
▁wind	-10.3469
អង្គ	-10.3471
▁dream	-10.3475
ក្លិន	-10.3476
▁សំដៅទៅលើ	-10.3477
▁blog	-10.3479
ក្មេងស្រី	-10.3481
CH	-10.3486
▁port	-10.3488
▁conference	-10.3493
▁Laser	-10.3493
▁functions	-10.3496
ដើម្បីបង្កើន	-10.3498
▁ពេលវេលា	-10.3501
▁taken	-10.3502
បន្ថយ	-10.3503
ឧបសគ្គ	-10.3503
ier	-10.3506
បញ្ចប់ការសិក្សា	-10.3507
▁Test	-10.3508
▁resistant	-10.3511
78	-10.3511
▁Key	-10.3515
52	-10.3517
▁Red	-10.3525
dia	-10.3527
▁committee	-10.3528
សោ	-10.3529
▁healthcare	-10.3529
មតិ	-10.3529
សន្សំ	-10.353
នៅលើគេហទំព័រ	-10.3532
អង្គរ	-10.3538
▁Japanese	-10.354
ជាច្រើនដែល	-10.3544
អ្នកផលិត	-10.3547
77	-10.3547
▁gel	-10.3548
▁prefer	-10.3552
▁limited	-10.3553
▁Where	-10.3554
▁stage	-10.3554
នាទី	-10.3556
គឺថា	-10.3562
▁despite	-10.3564
ស្តុក	-10.3568
▁reached	-10.3568
van	-10.3569
57	-10.3571
ING	-10.3576
▁serve	-10.3578
សមស្រប	-10.358
▁Before	-10.3582
ការសម្តែង	-10.3583
ធ្លាប់	-10.3585
ផ្លូវចិត្ត	-10.3587
pi	-10.3587
▁Although	-10.3588
ទឹកដី	-10.3588
xBet	-10.3589
▁36	-10.3597
44	-10.3598
របស់ចិន	-10.3599
អុបទិក	-10.3599
▁driving	-10.36
▁spread	-10.36
▁stress	-10.3603
▁cast	-10.3604
វិទ្យា	-10.3604
អប្បបរមា	-10.3604
▁Aluminum	-10.3605
mi	-10.3609
▁Lin	-10.361
▁ក៏បាន	-10.3611
▁Once	-10.3616
ឆ្លុះបញ្ចាំងពី	-10.3617
ផឹក	-10.3617
▁ម៉ូដែល	-10.3619
តុបតែង	-10.3621
▁competition	-10.3624
42	-10.3624
▁fun	-10.3625
."	-10.3627
▁Design	-10.3629
មានតែ	-10.363
▁supporting	-10.3633
▁starting	-10.3635
សូ	-10.3638
▁feature	-10.3639
ប្រឡង	-10.3644
scale	-10.3644
▁John	-10.3644
▁flat	-10.3646
គ្រូ	-10.3646
សាខា	-10.3647
▁ការសាកសួរលម្អិត	-10.3648
▁diameter	-10.3648
Cambodia	-10.365
▁residents	-10.3651
ទាំងអស់ដែល	-10.3652
▁location	-10.3652
▁លក្ខណៈពិសេស	-10.3653
មីក្រូ	-10.3654
▁រហូតដល់	-10.3656
▁Mon	-10.3658
▁Women	-10.366
▁តុលាការ	-10.366
កងទ័ព	-10.366
▁planning	-10.3661
DA	-10.3661
▁ចាប់តាំងពី	-10.3663
ph	-10.367
ហើយបន្ទាប់មក	-10.3671
សម្របសម្រួល	-10.3673
TP	-10.3673
nic	-10.3677
1000	-10.3685
▁Under	-10.3685
នៅក្នុងការ	-10.3685
▁ផង	-10.3686
▁Christ	-10.3686
ិក	-10.3687
បញ្ជាក់ថា	-10.3689
គណៈកម្មការ	-10.3693
រូបមន្ត	-10.3696
▁1:	-10.3696
▁Human	-10.3697
បានធ្វើ	-10.3697
ចា	-10.3698
▁Series	-10.3699
▁ល្បឿន	-10.3703
▁Bag	-10.3703
ចំពោះអ្នក	-10.3707
▁Global	-10.3708
▁section	-10.371
AM	-10.3712
មធ្យោបាយ	-10.3714
▁finish	-10.3715
ឆ	-10.3715
▁PTFE	-10.3718
%)	-10.3719
▁bags	-10.3719
រៀងរាល់	-10.372
▁floor	-10.372
che	-10.3728
MI	-10.3729
ប្រជុំ	-10.3731
bi	-10.3733
▁welcome	-10.3733
ទទួលខុសត្រូវ	-10.3736
▁Set	-10.3737
ភាពត្រឹមត្រូវ	-10.3739
▁ភី	-10.374
▁Park	-10.3741
▁late	-10.3742
▁complex	-10.3744
▁Products	-10.3746
សម្រេចចិត្ត	-10.3747
ិច	-10.3749
GB	-10.375
▁Head	-10.3751
អាចជួយ	-10.3751
▁ring	-10.3751
▁Games	-10.3752
សហការជាមួយ	-10.3754
ការវេចខ្ចប់	-10.3755
▁hour	-10.3761
ខ្ពស់បំផុត	-10.3764
ការជ្រើសរើស	-10.3768
▁MOQ	-10.3769
▁Through	-10.3769
ស្វាយ	-10.3771
▁30%	-10.3773
OR	-10.3775
ster	-10.3776
ដោះលែង	-10.3777
94	-10.378
▁$2	-10.3781
▁organic	-10.3781
box	-10.3785
សម្	-10.3793
ដេ	-10.3795
▁ទំព័រដើម	-10.3795
This	-10.38
ow	-10.38
ត្រូវបានគេប្រើ	-10.3801
កំពង់ផែ	-10.3801
▁goals	-10.3803
▁rules	-10.381
▁extra	-10.3811
AD	-10.3812
ចុះបញ្ជី	-10.3813
អាចទទួលបាន	-10.3814
▁Industry	-10.3815
ible	-10.3823
កែសម្រួល	-10.3824
ការកាត់	-10.383
▁judgment	-10.383
▁yellow	-10.383
▁ពន្លឺ	-10.383
ទូទាត់	-10.3831
ដើម្បីធានាបាននូវ	-10.3831
▁dispute	-10.3832
▁printer	-10.3834
wa	-10.3837
ជាញឹកញាប់	-10.3837
ការផ្តល់	-10.3838
យ៉ាងដូចម្តេច	-10.3842
▁ready	-10.3842
▁Other	-10.3843
្យ	-10.3844
▁urges	-10.3846
43	-10.3848
▁50%	-10.3848
រស់	-10.3851
41	-10.3853
សុខុមាលភាព	-10.3854
ទម្លាប់	-10.3854
តារា	-10.3856
ដ៏ស្រស់ស្អាត	-10.3857
ស្នាក់នៅ	-10.386
▁developing	-10.3861
ជាលើកដំបូង	-10.3862
▁Because	-10.3863
▁central	-10.3866
អញ្ជើញ	-10.3868
អំពីការ	-10.3868
▁ខែកុម្ភៈ	-10.3869
ular	-10.387
សម្រេចបាន	-10.3872
ច្បាប់ស្តីពី	-10.3872
▁register	-10.3875
នគរបាល	-10.3875
▁បេក្ខជន	-10.388
យានយន្ត	-10.388
▁ផលិត	-10.388
▁plants	-10.388
ចូលរួមក្នុង	-10.3881
▁doing	-10.3886
su	-10.3888
▁Due	-10.3889
▁launch	-10.3891
ចំណាប់អារម្មណ៍	-10.3891
▁exam	-10.3893
▁confirmed	-10.3894
▁ប្រជាពលរដ្ឋ	-10.3894
អង្ករ	-10.3897
ផលប្រយោជន៍	-10.3898
ដើម្បីធ្វើ	-10.3901
ស្ថិតក្នុង	-10.3901
To	-10.3902
▁Look	-10.3905
▁advance	-10.3908
93	-10.3908
▁seal	-10.3908
ពិភាក្សា	-10.3909
▁Ph	-10.391
▁takes	-10.3911
ផង។	-10.3911
ប្តេជ្ញា	-10.3912
នាពេលអនាគត	-10.3915
▁rain	-10.3915
▁provincial	-10.3921
ចំណាត់ថ្នាក់	-10.3927
លិខិតឆ្លងដែន	-10.3929
46	-10.3929
▁១៤	-10.3933
▁active	-10.3934
រួចហើយ	-10.3935
▁Video	-10.3936
▁goal	-10.3936
▁pass	-10.3938
រិះគន់	-10.3938
នារី	-10.3939
AR	-10.394
ប្រជាធិបតេយ្យ	-10.3941
▁transmission	-10.3941
▁ក្នុងអំឡុងពេល	-10.3943
ផ្ទះបាយ	-10.3951
▁offering	-10.3952
ស្នាដៃ	-10.3953
CA	-10.3957
▁Manufacturers	-10.3957
▁techniques	-10.3962
ប្រេកង់	-10.3962
លា	-10.3963
-15	-10.3965
▁Construction	-10.3965
ជាមធ្យម	-10.3965
▁Two	-10.3968
ពួកគាត់	-10.3969
▁itself	-10.397
▁highest	-10.3972
សិប្បកម្ម	-10.3977
យុទ្ធសាស្រ្ត	-10.3978
ព្រះរាជ	-10.3978
▁conducted	-10.3979
BC	-10.398
ភាពជាដៃគូ	-10.3984
តែង	-10.3987
og	-10.3987
▁notice	-10.399
84	-10.399
ade	-10.3992
▁bus	-10.3994
១៣	-10.3997
ទឹកកក	-10.4002
▁properties	-10.4003
▁iOS	-10.4003
▁Page	-10.4004
▁Plastic	-10.4009
ឆ្ងាញ់	-10.4011
▁ប្រាក់	-10.4012
ដើម្បីជួយ	-10.4012
▁considered	-10.4012
back	-10.4013
▁generally	-10.4015
ប្រឹក្សាភិបាល	-10.4015
▁forces	-10.4015
▁Arm	-10.4016
▁Anti	-10.4018
នគរ	-10.4022
ៅ	-10.4023
គឺជាការ	-10.4027
តម្លាភាព	-10.4028
▁ដប	-10.403
▁inner	-10.403
វាស់	-10.4032
ពីព្រោះ	-10.4035
ក្ដី	-10.4036
ខុសច្បាប់	-10.404
▁identify	-10.404
▁Also	-10.4041
បង់ប្រាក់	-10.4043
ប្រដាប់	-10.4044
▁dust	-10.4044
កូរ៉េ	-10.4052
▁Are	-10.4052
▁appearance	-10.4054
▁leaves	-10.4054
▁Valve	-10.4055
បានបញ្ចប់	-10.4055
▁El	-10.4056
▁Fire	-10.4056
▁ចំណែក	-10.4059
SE	-10.4061
▁identity	-10.4065
ខ្ចី	-10.4066
83	-10.4068
▁Ha	-10.4069
ចាក់វ៉ាក់សាំង	-10.4072
គ្រឹះស្ថាន	-10.4074
▁installed	-10.4075
1.5	-10.4077
era	-10.4077
នឹងបន្ត	-10.4079
▁Chan	-10.4081
គ្រែ	-10.4081
▁continuous	-10.4082
▁advantage	-10.4083
tri	-10.4083
▁organized	-10.4088
EN	-10.4092
▁២០២០	-10.4093
▁principles	-10.4094
ការពង្រឹង	-10.4095
ពេញចិត្ត	-10.4097
ash	-10.4097
សុខភាពសាធារណៈ	-10.4099
▁efficient	-10.4101
▁bilateral	-10.4103
ជីវភាព	-10.4103
ស្របតាម	-10.4108
▁Ho	-10.4111
ឹង	-10.4115
វេជ្ជបណ្ឌិត	-10.4122
ពិធី	-10.4125
▁EN	-10.4128
ការវាយតម្លៃ	-10.4131
▁រូប	-10.4131
▁Each	-10.4131
▁analyze	-10.4133
ម្ហូបអាហារ	-10.4134
របស់ប្រទេស	-10.4144
TC	-10.4146
ទូរស័ព្ទដៃ	-10.4147
នៅទីក្រុង	-10.4148
▁signed	-10.415
▁vast	-10.4154
បឹង	-10.4157
ue	-10.4159
បេសកកម្ម	-10.4159
គណបក្ស	-10.4162
▁TikTok	-10.4166
▁strategies	-10.4179
5%	-10.4179
▁basis	-10.4179
ជនបរទេស	-10.418
▁states	-10.4181
▁កិច្ចព្រមព្រៀង	-10.4182
▁ពាន់លានដុល្លារ	-10.4183
▁រូបភាព	-10.4186
▁word	-10.4187
សន្និសីទ	-10.4188
89	-10.4189
bu	-10.419
AC	-10.4191
កន្លងមក	-10.4192
▁commitment	-10.4192
IC	-10.4192
▁cycle	-10.4199
ការដាក់	-10.4201
▁robust	-10.4204
▁ឯ	-10.4204
▁perform	-10.4207
fi	-10.4209
▁produced	-10.4213
▁cards	-10.4214
▁ម៉ោងម្តង។	-10.4217
ប្រភេទនេះ	-10.4218
មិត្ត	-10.4218
▁ក្នុងរយៈពេល	-10.4222
ស្ថិតនៅ	-10.4225
ភេទ	-10.4226
▁prepared	-10.423
▁though	-10.4231
▁class	-10.4231
▁Multi	-10.4235
str	-10.4239
▁Secretary	-10.4242
▁Control	-10.4243
ផ្លាស់ទី	-10.4245
work	-10.425
ស្ថេរភាព	-10.4253
ល្អប្រសើរ	-10.4254
▁sleep	-10.4256
លួច	-10.4259
ជាច្រើនទៀត	-10.426
▁engineering	-10.4263
▁reduced	-10.4264
កំណត់អត្តសញ្ញាណ	-10.4265
▁patients	-10.4266
▁internet	-10.4268
ច្នៃប្រឌិត	-10.4273
:10	-10.4277
▁បង្កើន	-10.4278
ified	-10.428
▁science	-10.4281
ចំហៀង	-10.4281
▁shoes	-10.4285
ភ្នំពេញ	-10.4287
នៅពេលអ្នក	-10.4287
ចាប់ខ្លួន	-10.4287
▁(1)	-10.4289
▁cool	-10.4289
លំដាប់	-10.4291
ព្រ	-10.4292
▁comfortable	-10.4295
បត់	-10.4296
▁signal	-10.4296
ការពង្រីក	-10.4297
រូបិយប័ណ្ណ	-10.4298
ប្រែប្រួល	-10.4302
▁កម្រិត	-10.4303
▁អ្នកស្រី	-10.4303
បទ	-10.4303
ship	-10.4305
▁2011	-10.4305
▁steps	-10.4305
អាវុធ	-10.4306
នៅលើទីផ្សារ	-10.4308
ប្រព្រឹត្ត	-10.4309
អក្សរ	-10.4311
▁Suppliers	-10.4311
ក្នុងកំឡុងពេល	-10.4312
រួមបញ្ចូលគ្នា	-10.4313
vent	-10.4313
ជំនាន់	-10.4316
gi	-10.4318
▁happy	-10.4319
សាជីវកម្ម	-10.4319
▁Motor	-10.4321
ឃ្លាំង	-10.4324
▁getting	-10.4325
ៀ	-10.4335
ធានានូវ	-10.4337
▁rule	-10.4338
2021	-10.4339
រឿងនេះ	-10.4339
អាចប្រើបាន	-10.4342
ចោទ	-10.4342
▁en	-10.4344
និ	-10.4345
▁iPad	-10.4345
▁quantity	-10.4345
▁simply	-10.4345
▁thermal	-10.4345
ការពារជាតិ	-10.4346
ដដែល	-10.4346
uff	-10.4348
▁generation	-10.435
១០០	-10.4352
កំណែទម្រង់	-10.4353
▁closed	-10.4354
▁expansion	-10.4358
ខ្សែក្រវ៉ាត់	-10.4359
មានសមត្ថភាព	-10.4361
▁10%	-10.4362
2000	-10.4366
▁លិខិត	-10.4369
▁museum	-10.4371
ប្រុស	-10.4373
RS	-10.4376
ious	-10.4378
ចក្រភពអង់គ្លេស	-10.4382
▁Battambang	-10.4384
▁Social	-10.4384
▁automatically	-10.4384
▁គ្រាន់តែ	-10.4386
mg	-10.4389
ទេប៉ុន្តែ	-10.4391
▁historical	-10.4392
លាង	-10.4393
កាក់	-10.4395
ធ្វើតេស្ត	-10.4396
mb	-10.4396
▁Provincial	-10.4397
▁existing	-10.4398
▁powerful	-10.4403
▁principle	-10.4405
ុន	-10.4407
:12	-10.4409
▁resilience	-10.441
▁baby	-10.441
▁កឹម	-10.441
ឆ្នាំ២០២៣	-10.4411
ជួញដូរ	-10.4411
▁carry	-10.4414
ត្	-10.4416
▁suffering	-10.4419
យ៉ាងច្រើន	-10.4419
បន្ទាប់ពីការ	-10.4423
▁orange	-10.4423
▁សិស្ស	-10.4424
▁cities	-10.4424
ទ្រង់ទ្រាយ	-10.4426
74	-10.4427
▁procedure	-10.4432
▁difference	-10.4432
ប្រមូលផ្តុំ	-10.4433
ខួង	-10.4434
▁Download	-10.4435
សង	-10.4435
១៤	-10.4435
▁ones	-10.4437
IA	-10.4443
តោន	-10.4444
▁electrical	-10.4444
▁Real	-10.4444
▁មិនមាន	-10.4444
▁តាមរយៈការ	-10.4449
ក្រសួងកសិកម្ម	-10.4451
▁rose	-10.4452
▁activists	-10.4454
▁phase	-10.4456
▁Note	-10.4456
មួក	-10.4457
មិនល្អ	-10.4458
តំណភ្ជាប់	-10.446
លេចឡើង	-10.4463
ick	-10.4464
▁Any	-10.4469
វាបាន	-10.4469
ព្រៃឈើ	-10.4471
▁loan	-10.4472
ការចូលរួម	-10.4473
ខាងក្រោយ	-10.4474
▁Community	-10.4475
ស្ករ	-10.4475
▁authority	-10.4475
ជិះ	-10.4476
នរណាម្នាក់	-10.4481
▁ប្រវែង	-10.4481
។ល។	-10.4482
ងងឹត	-10.4483
ស្រូបយក	-10.4484
▁supplier	-10.4484
87	-10.4486
របស់ព្រះអង្គ	-10.4487
ការភ្នាល់	-10.4494
▁banking	-10.4494
▁En	-10.4495
ham	-10.4498
▁roll	-10.4499
បេ	-10.4499
▁orders	-10.45
▁ជាធម្មតា	-10.4503
▁owner	-10.4504
▁loans	-10.4504
tain	-10.4508
82	-10.4509
ឱ្យមាន	-10.4509
▁បទប្បញ្ញត្តិ	-10.4511
▁obtain	-10.4512
វិស្វករ	-10.4514
▁condition	-10.4518
សម្លេង	-10.4523
ដែលមានស្រាប់	-10.4523
ហ្គា	-10.4527
▁audience	-10.4527
▁improving	-10.4527
long	-10.4528
▁អ៊ី	-10.4529
អ្វីខ្លះ	-10.453
▁question	-10.453
▁កាត់	-10.4532
ថាជា	-10.4533
ថែមទាំង	-10.4535
▁—	-10.4535
▁ចំណុច	-10.4537
សំ	-10.454
ren	-10.4541
លោហៈ	-10.4542
ដែលមិនមាន	-10.4543
▁(1	-10.4544
▁regular	-10.4546
អន្តរជាតិ។	-10.4546
ព្រះអាទិត្យ	-10.4546
▁die	-10.4547
▁៦០	-10.4547
▁vehicles	-10.4548
▁Service	-10.4551
▁75	-10.4559
នៅថ្ងៃ	-10.4559
ធា	-10.4561
▁ចូលរួម	-10.4563
▁expect	-10.4563
▁ប្រអប់	-10.4566
ដើម្បីធានាថា	-10.4569
លុបចោល	-10.4572
អ៊ុយក្រែន	-10.4573
▁forms	-10.4574
ក្រសួងមហាផ្ទៃ	-10.4574
ធន់នឹង	-10.4575
LC	-10.4577
ប៊ូតុង	-10.4578
▁Mini	-10.458
▁slow	-10.4581
២៩	-10.4586
▁Ben	-10.4587
អូស្ត្រាលី	-10.4591
51	-10.4594
កម្ចី	-10.4602
▁គិត	-10.4604
▁facilitate	-10.4609
ID	-10.4609
វិ	-10.4609
ep	-10.4613
៧០	-10.4613
សិ	-10.4614
▁sa	-10.4615
ថ្នាក់ដឹកនាំ	-10.4619
ស្តេច	-10.462
▁ឯកសារ	-10.4621
ឈ	-10.4622
▁ដំបូង	-10.4623
ទាំងឡាយ	-10.4632
▁cook	-10.4635
កិច្ចសន្យា	-10.4636
▁ហ	-10.4636
ray	-10.4642
▁ក្នុងចំណោម	-10.4642
ប្រកបដោយចីរភាព	-10.4643
ហើយ។	-10.4646
រាជ	-10.4647
វិទ្យាស្ថាន	-10.4649
cing	-10.4658
▁Ab	-10.466
មាន់	-10.4664
73	-10.4665
-9	-10.4666
▁confirm	-10.4667
មិនគួរ	-10.4668
▁ដែលត្រូវបាន	-10.467
▁Photo	-10.4673
▁Program	-10.4677
ដុំ	-10.4677
▁មុខ	-10.4685
▁talk	-10.4686
▁Mekong	-10.4686
ស៊ើបអង្កេត	-10.4686
ធនធានមនុស្ស	-10.4688
អាចនឹង	-10.4691
lic	-10.4694
ត្រឡប់	-10.4697
▁gift	-10.4698
ពីមុន	-10.47
▁GPS	-10.4702
ត្រូវបានដាក់	-10.4703
ហូរ	-10.4705
ចំណីអាហារ	-10.4707
ទំនុកចិត្ត	-10.4707
:14	-10.4708
DI	-10.4708
▁photo	-10.471
គួរឱ្យកត់សម្គាល់	-10.4711
▁Up	-10.4717
▁ការគ្រប់គ្រង	-10.4718
ទូក	-10.4721
▁គ្រឿង	-10.4725
▁Application	-10.4726
8%	-10.4726
▁ដោយឡែក	-10.4728
ជំងឺកូវីដ	-10.4728
▁pick	-10.4729
▁Industrial	-10.4734
▁Food	-10.4735
អាថ៌កំបាំង	-10.4737
▁awareness	-10.4739
តូចមួយ	-10.4741
▁screw	-10.4742
កត់ត្រា	-10.4742
▁electricity	-10.4743
▁friend	-10.4744
▁sense	-10.4744
AP	-10.4745
ល់	-10.4747
▁បើតាម	-10.4749
▁កង់	-10.475
ជម្លោះ	-10.4752
ប្រយុទ្ធ	-10.4754
លើផ្ទៃ	-10.4761
▁Thipadei	-10.4766
▁distribution	-10.4766
និងក្រុមហ៊ុនផលិត	-10.4768
▁participate	-10.4768
ុ	-10.4769
ET	-10.4769
:13	-10.4769
ល្អសម្រាប់	-10.477
▁Green	-10.477
▁mean	-10.477
ជ្រុង	-10.4771
▁saying	-10.4773
ret	-10.4774
med	-10.4777
For	-10.4777
បានល្អ	-10.4777
▁industries	-10.478
▁registry	-10.478
▁រង្ស៊ី	-10.478
▁assistance	-10.4781
▁យើងបាន	-10.4781
▁BTC	-10.4784
▁sky	-10.4786
▁TV	-10.4787
▁grill	-10.4792
with	-10.4792
អ្នកដទៃ	-10.4793
▁Investment	-10.4793
▁reducing	-10.4793
▁drink	-10.4796
▁diseases	-10.4797
▁ទោះ	-10.4798
ទឹកស្អាត	-10.48
▁3000	-10.4803
▁hospital	-10.4805
▁fundamental	-10.4807
▁ការងារ	-10.4807
▁trend	-10.4807
សៀគ្វី	-10.4808
ចូលក្នុង	-10.4809
▁800	-10.481
inch	-10.4811
ឱ្យប្រើប្រាស់	-10.4813
king	-10.4815
ចម្លើយ	-10.4819
▁អ្នកគ្រប់គ្រង	-10.482
▁window	-10.4821
▁distance	-10.4823
▁សម្ដេចតេជោ	-10.4823
▁ten	-10.4824
▁workshop	-10.4835
ox	-10.4836
នេសាទ	-10.484
▁Office	-10.484
សាន	-10.4846
តុល្យភាព	-10.4847
▁Glass	-10.4848
▁ដំណើរ	-10.4849
▁quick	-10.4853
▁places	-10.4858
▁hit	-10.4858
▁១៧	-10.4859
▁Th	-10.486
ឆ្លាក់	-10.4861
▁Han	-10.4862
តេស្ត	-10.4863
ឃ	-10.4865
▁Po	-10.4869
▁pure	-10.4871
▁2010	-10.4871
វេន	-10.4874
កាកសំណល់	-10.4874
គម្លាត	-10.4874
មានភាពងាយស្រួល	-10.4881
នៅក្នុងទីផ្សារ	-10.4883
▁Australia	-10.4888
▁interface	-10.4888
71	-10.489
ការធានា	-10.4891
▁expressed	-10.4891
▁letter	-10.4892
ita	-10.4893
បុណ្យ	-10.4895
▁generations	-10.4897
ុង	-10.4897
▁(2)	-10.4897
ជុំ	-10.49
ley	-10.4902
▁bike	-10.4907
▁playing	-10.4908
គោល	-10.491
ជំងឺរាតត្បាត	-10.4912
នាយកដ្ឋាន	-10.4912
▁Even	-10.4913
▁administration	-10.4915
យកទៅ	-10.4919
IS	-10.492
▁improved	-10.4924
វ៉ែនតា	-10.4928
ម្ជុល	-10.4929
គ្រឿងញៀន	-10.4931
ដែលមានគុណភាព	-10.4932
CT	-10.4933
ification	-10.4934
PI	-10.4934
ការបញ្ជូន	-10.4934
CS	-10.4935
ទទេ	-10.494
▁NO	-10.4941
▁អតិថិជន	-10.4942
ចាប់យក	-10.4943
▁worry	-10.4943
▁claim	-10.4943
អាចមាន	-10.4944
▁ដី	-10.4945
▁connect	-10.4946
fu	-10.4946
-200	-10.4948
«	-10.4951
ពិ	-10.4955
▁19,	-10.4957
ដាក់ពាក្យ	-10.4957
bra	-10.4957
វិញ្ញាបនបត្រ	-10.4958
ការតុបតែង	-10.4958
▁included	-10.4963
▁du	-10.4966
▁term	-10.4967
ជាសាធារណៈ	-10.4967
រូបនេះ	-10.4969
72	-10.497
▁បញ្ចូល	-10.4974
▁East	-10.4974
81	-10.4975
▁firm	-10.4979
▁seven	-10.4984
ភាគ	-10.4984
▁integrity	-10.4984
▁French	-10.4984
ការកើនឡើងនៃ	-10.4985
▁ករណី	-10.4986
▁Working	-10.4988
▁ខ្ញុំបាន	-10.4989
▁5,	-10.499
▁Mi	-10.4993
អ្នកលក់	-10.4993
▁advertising	-10.4998
▁resolution	-10.4998
▁running	-10.4998
ពានរង្វាន់	-10.4998
▁secure	-10.5
ពេញនិយម	-10.5
▁15,	-10.5003
ប្រើសម្រាប់	-10.5005
បំពាក់ដោយ	-10.5007
ធ្វើឡើង	-10.5008
▁themselves	-10.5011
ផ	-10.5012
កីឡាករ	-10.5013
:15	-10.5015
▁លើសពីនេះទៀត	-10.5016
ជាមួយអ្នក	-10.5019
ណ៍	-10.502
បុរសម្នាក់	-10.5021
បំពាក់	-10.5022
700	-10.5025
▁applied	-10.5025
▁funds	-10.5026
92	-10.5027
▁organization	-10.5028
នេះអាច	-10.5028
ដោយមិនចាំបាច់	-10.5028
▁paid	-10.503
បំភ្លឺ	-10.5032
ទូលំទូលាយ	-10.5034
ឥតខ្សែ	-10.5036
amp	-10.5038
China	-10.5042
[	-10.5043
▁Step	-10.5047
SH	-10.5047
▁supports	-10.5048
ឆ្នាំមុន	-10.505
កិត្តិយស	-10.5053
▁wisdom	-10.5053
ស្តើង	-10.5053
▁White	-10.5055
នៅទូទាំង	-10.5055
▁host	-10.5058
ទុន	-10.5059
គ្រប់រូប	-10.5064
ដូ	-10.5067
▁fuel	-10.5067
:20	-10.5072
អនុ	-10.5073
ពីរបី	-10.5074
▁channel	-10.5075
▁v	-10.5077
▁វិនិយោគ	-10.508
▁command	-10.508
▁resource	-10.5084
5,000	-10.5085
បទល្មើស	-10.5086
ឹ	-10.5089
EL	-10.5089
អាចរកបាន	-10.509
ev	-10.5093
ប្រគល់	-10.5094
បើកចំហ	-10.5095
▁reflect	-10.5095
ទីភ្នាក់ងារ	-10.5096
▁asked	-10.5101
អាចជា	-10.5102
▁indicator	-10.5106
ការបង្កើន	-10.5107
បូក	-10.5108
យ៉ាងណា	-10.5108
▁Binance	-10.5109
▁Project	-10.5109
ល្អបំផុតសម្រាប់	-10.5109
▁broken	-10.5113
ology	-10.5113
▁ធ្វើឱ្យ	-10.5114
▁ជាទូទៅ	-10.5118
កែ	-10.5119
▁Rainsy	-10.5122
▁population	-10.5122
▁Kim	-10.5123
▁3)	-10.5123
▁7,	-10.5124
▁justice	-10.5125
ey	-10.5126
off	-10.5126
▁transparent	-10.5131
▁ទើប	-10.5134
លាន	-10.5136
ប្រើប្រាស់បានយូរ	-10.5143
▁organizations	-10.5148
▁nothing	-10.515
▁Plan	-10.5151
បញ្ឈរ	-10.5151
▁កញ្ចក់	-10.5153
220	-10.5153
វ៉ាក់សាំង	-10.5161
ចំពោះការ	-10.5161
▁setting	-10.5162
នៅឯ	-10.5163
កែប្រែ	-10.5164
ពពក	-10.5164
សហភាពអឺរ៉ុប	-10.5164
ដែលប្រើ	-10.5165
▁2:	-10.5168
▁ឥឡូវ	-10.517
ការឈឺចាប់	-10.5172
ផលិតផលកសិកម្ម	-10.5173
ជនរងគ្រោះ	-10.5174
▁2023.	-10.5174
ក្រចក	-10.5178
▁mechanical	-10.5178
▁Authorities	-10.5178
សំយោគ	-10.5178
ឺ	-10.5179
ត្រឹម	-10.518
▁RF	-10.518
▁certainly	-10.518
▁22,	-10.5182
ដាច់	-10.5183
▁direction	-10.5183
▁confidence	-10.5183
zi	-10.5184
ស្ថានីយ៍	-10.5188
អ៊ីម៉ែល	-10.5192
ចិញ្ចៀន	-10.5192
▁rural	-10.5192
000	-10.5198
រដ្ឋធម្មនុញ្ញ	-10.5199
▁educational	-10.5204
▁Item	-10.5207
បក្ស	-10.5213
ឆ្នាំនេះ	-10.5217
▁note	-10.5217
ឆ្លើយ	-10.5219
▁safeguard	-10.522
meter	-10.5221
▁ស្តង់ដារ	-10.5221
▁RB	-10.5222
▁indoor	-10.5223
ប្តេជ្ញាចិត្ត	-10.5225
ឹម	-10.5227
2%	-10.5227
▁ស។	-10.5228
▁successfully	-10.5228
2.5	-10.5231
▁ក្រៅពី	-10.5231
▁Metal	-10.5232
▁cm	-10.5233
វិទ្យុ	-10.5234
▁belt	-10.5235
9%	-10.5237
ទ្វេភាគី	-10.5241
បញ្ជាទិញ	-10.5246
▁expensive	-10.5248
▁banks	-10.5252
▁join	-10.5258
ម៉ូដ	-10.5258
ហេ	-10.5263
▁Special	-10.5264
គុណ	-10.5265
▁វិស័យ	-10.527
▁អគារ	-10.5272
▁input	-10.5272
▁soul	-10.5273
សហព័ន្ធ	-10.5276
▁employees	-10.5276
មានអារម្មណ៍ថា	-10.5277
ភ្ញាក់ផ្អើល	-10.528
បានរកឃើញ	-10.528
▁leader	-10.5282
ក្តារ	-10.5283
▁causing	-10.5291
▁និងហិរញ្ញវត្ថុ	-10.5292
▁បុរស	-10.5293
▁supported	-10.5296
91	-10.5296
ការផ្ទុក	-10.5299
ចាំ	-10.53
ភាសាអង់គ្លេស	-10.5304
រចនាប័ទ្ម	-10.5305
ខុសៗគ្នា	-10.5305
▁fiscal	-10.5305
ចម្លង	-10.5305
គាត់បាន	-10.5308
▁Dis	-10.5308
▁forum	-10.5308
▁សំឡេង	-10.5308
រថភ្លើង	-10.5309
▁relations	-10.5314
ខួរក្បាល	-10.5314
▁foundation	-10.5316
▁David	-10.5317
▁ត្រូវប្រាកដថា	-10.5318
▁degrees	-10.5322
▁លក់	-10.5327
level	-10.5328
water	-10.5331
កប្បាស	-10.5333
ប៉ារ៉ាម៉ែត្រ	-10.5334
សហ	-10.5336
បានដាក់	-10.5337
ប្ដូរតាមបំណង	-10.5338
▁CAS	-10.5338
សេរីភាព	-10.5341
ns	-10.5342
BA	-10.5344
ជីក	-10.5346
▁Interior	-10.5348
រអិល	-10.5349
:11	-10.5349
▁productivity	-10.5349
▁Today	-10.5353
▁park	-10.5354
ari	-10.5354
qui	-10.5356
មិនត្រូវ	-10.5357
ទោស	-10.5358
ត្បាញ	-10.5359
ក្នុងករណី	-10.536
ស្មុគស្មាញ	-10.536
ទិវា	-10.5363
ធានារ៉ាប់រង	-10.5364
▁កិច្ច	-10.5365
▁កាស៊ីណូ	-10.5369
▁successful	-10.537
ទស្សនា	-10.5373
ព្រះអង្គ	-10.5374
▁teaching	-10.5375
ត់	-10.5379
▁Card	-10.5379
▁ការសិក្សា	-10.5382
▁Wall	-10.5383
តម្រូវឱ្យ	-10.5384
រំលោភ	-10.5385
នៅក្នុងប្រទេសចិន	-10.5388
▁Tri	-10.5388
ខេត្តព្រះសីហនុ	-10.5389
sha	-10.539
ub	-10.539
អាងចិញ្ចឹមត្រី	-10.5391
▁ផ្សេង	-10.5392
▁container	-10.5392
▁demands	-10.5395
▁អ្នកគួរតែ	-10.54
▁influence	-10.5401
eg	-10.5402
រីក	-10.5402
▁polymer	-10.5405
លោត	-10.5409
▁២០០	-10.541
▁guarantee	-10.5415
ស្រមោល	-10.5419
ពន្យល់	-10.542
ដែលអ្នកអាច	-10.5421
built	-10.5421
ជារៀងរាល់ថ្ងៃ	-10.5421
កម្រាស់	-10.5425
សាច់ដុំ	-10.5426
យោង	-10.543
បានធ្លាក់ចុះ	-10.5431
នៅថ្ងៃនេះ	-10.5432
CO	-10.5445
▁beyond	-10.5448
▁predict	-10.5448
320	-10.5449
▁Bi	-10.5454
មហា	-10.5458
របាំង	-10.546
នៅក្នុងអត្ថបទនេះ	-10.5462
លេចធ្លោ	-10.5462
ប្រតិបត្តិករ	-10.5463
-01	-10.5464
▁Trade	-10.547
លាក់	-10.547
▁Singapore	-10.547
▁harvest	-10.5473
▁update	-10.5475
▁Article	-10.5477
បន្ទះឈីប	-10.5477
▁lamp	-10.5478
▁quite	-10.5478
▁ឆ្នាំ។	-10.5481
ju	-10.5482
កិន	-10.5483
▁Commerce	-10.5484
▁ព្រះរាជក្រឹត្យ	-10.5485
▁frequency	-10.5485
DS	-10.5485
ែន	-10.5488
គ្រីប	-10.5489
ទម្លាក់	-10.5491
▁coffee	-10.5491
▁ពាក្យ	-10.5491
▁idea	-10.5492
ឆ្នាំ២០២២	-10.5492
▁director	-10.5493
▁ពិនិត្យ	-10.5494
▁print	-10.5495
ចន្លោះពី	-10.5498
▁rapid	-10.5498
▁license	-10.5498
▁interesting	-10.5504
វាគឺជា	-10.5505
ត្រូវបានកំណត់	-10.5505
▁Microsoft	-10.5506
▁trees	-10.5513
▁ស្រី	-10.5515
▁arrest	-10.5518
ផុត	-10.5522
▁អត្ថបទ	-10.5524
▁Hong	-10.5528
▁fan	-10.5531
CD	-10.5533
ឆ្អឹង	-10.5533
ara	-10.5533
សួនច្បារ	-10.5535
▁equipped	-10.5535
ផ្លូវភេទ	-10.5543
ឃើញថា	-10.5545
ប៉ុស្តិ៍	-10.5546
▁14,	-10.5548
ស្ថាបត្យកម្ម	-10.5549
កំពុងស្វែងរក	-10.5552
▁authorized	-10.5553
▁apps	-10.5553
ward	-10.5554
ផ្សេង	-10.5557
▁ជាមួយគ្នានេះ	-10.5559
ថ្នាក់ទី	-10.5562
▁Fabric	-10.5564
កិច្ចប្រជុំកំពូល	-10.5564
សហជីព	-10.5564
▁Defense	-10.5564
▁although	-10.5564
ងាយ	-10.5566
គីឡូក្រាម	-10.5568
▁either	-10.5569
លាប	-10.5571
▁North	-10.5574
▁discover	-10.5577
▁models	-10.5578
▁royal	-10.5578
ខ្ញុំចង់	-10.5579
▁About	-10.5579
▁begin	-10.5581
មានឥទ្ធិពល	-10.5582
▁got	-10.5587
br	-10.5588
អ្វីដែលអ្នក	-10.5588
ពាន់លានដុល្លារ	-10.5588
ដប់	-10.5588
▁leg	-10.5589
សូត្រ	-10.5591
ឆាប់	-10.5592
ស្ថានទូត	-10.5593
ប្លង់	-10.5594
▁Ball	-10.5596
▁text	-10.5599
ទើបតែ	-10.5602
▁agriculture	-10.5608
▁Polyester	-10.5608
▁lighting	-10.5611
▁Hi	-10.5612
▁conduct	-10.5617
របួស	-10.5618
wi	-10.5621
ម៉ឺន	-10.5622
ទស្សនិកជន	-10.5622
▁assembly	-10.5622
▁ultrasonic	-10.5622
▁grade	-10.5624
▁photos	-10.5626
វ័យក្មេង	-10.5626
▁សង់ទីម៉ែត្រ	-10.5626
MB	-10.5627
ect	-10.5632
ឆានែល	-10.5637
▁សំ	-10.5638
▁healthy	-10.5639
▁wheel	-10.5639
▁appear	-10.5645
-60	-10.5645
▁Ca	-10.5647
LS	-10.5648
ដូចខាងក្រោម	-10.5648
ទូ	-10.5649
រំលឹក	-10.5654
វិញ្ញាបនប័ត្រ	-10.5654
▁assist	-10.5657
មួយនៃ	-10.5662
▁connected	-10.567
ព្រោះវា	-10.5674
ស្ដីពី	-10.5674
នឹងក្លាយជា	-10.5679
▁selling	-10.568
ទឹកដោះគោ	-10.5681
គ្រីស្តាល់	-10.5681
▁repair	-10.5681
▁rather	-10.5682
BO	-10.5685
បណ្តាញសង្គម	-10.5689
▁Phone	-10.5694
ler	-10.5696
▁Meanchey	-10.5696
ចង	-10.57
▁warranty	-10.57
ob	-10.5703
ញឹកញាប់	-10.5704
ពួកគេនឹង	-10.5705
▁investments	-10.5707
▁Cap	-10.5708
កាំរស្មី	-10.5711
wordpress	-10.5711
▁Get	-10.5711
▁ចូរ	-10.5712
pc	-10.5713
▁PDF	-10.5715
▁registered	-10.5716
cc	-10.5717
zhou	-10.5717
RI	-10.5719
ប្រយោជន៍	-10.5721
▁earn	-10.5723
បរិភោគ	-10.573
▁2.5	-10.573
▁Te	-10.5734
▁crisis	-10.574
▁judge	-10.574
▁beginning	-10.5741
▁hectares	-10.5744
pan	-10.5748
ហៅថា	-10.5749
my	-10.5749
▁កាលពីថ្ងៃទី	-10.575
eth	-10.5751
▁Electric	-10.5752
-40	-10.5752
វីតាមីន	-10.5755
▁Reply	-10.5755
ការបញ្ចប់	-10.5756
ose	-10.5757
ចំណី	-10.5759
ចងចាំ	-10.576
▁involved	-10.5762
ខ្សាច់	-10.5764
▁Germany	-10.5764
▁Take	-10.5765
គ្នាទៅវិញទៅមក	-10.5768
ផ្កាយ	-10.5769
តំលៃ	-10.577
▁became	-10.577
▁guidelines	-10.577
-25	-10.5774
comments	-10.5775
▁ឈុត	-10.5777
អភិរក្ស	-10.5781
120	-10.5783
▁comply	-10.5785
DP	-10.5785
▁heating	-10.5787
▁sold	-10.5788
sen	-10.579
ជូនដំណឹង	-10.579
បានធ្វើឱ្យ	-10.5791
jo	-10.5794
▁profile	-10.5796
CP	-10.5799
ក្រសួងសេដ្ឋកិច្ច	-10.5799
ពិភព	-10.5806
រកមើល	-10.5807
graph	-10.5809
ខ្វះ	-10.581
ព្រលឹង	-10.5815
DC	-10.5815
ឧបករណ៍បញ្ជា	-10.5818
រាត្រី	-10.5822
សិន	-10.5823
▁វិមាត្រ	-10.5824
PR	-10.5825
អះអាងថា	-10.5829
CL	-10.583
ក្រុមហ៊ុនរបស់យើង	-10.583
▁didn	-10.583
▁សីតុណ្ហភាព	-10.5831
▁Additionally	-10.5831
ហើយវា	-10.5832
▁however	-10.5832
ou	-10.5834
ឌ	-10.5837
▁continuously	-10.5839
▁walk	-10.584
ឧ	-10.5843
ឆ្នាំ២០២៤	-10.5845
ram	-10.5845
▁លក្ខណៈ	-10.5845
សីតុណ្ហភាពខ្ពស់	-10.5846
za	-10.5846
cha	-10.5847
▁player	-10.5852
ការប្តេជ្ញាចិត្ត	-10.5855
មន្ទីរ	-10.5856
▁កញ្ចប់	-10.5858
រំកិល	-10.5859
▁passport	-10.586
▁thick	-10.586
-11	-10.5865
ផ្សេងៗទៀត	-10.5867
រោងចក្រផលិត	-10.5868
ផ្សេងៗ។	-10.587
▁lock	-10.587
▁emergency	-10.5875
▁Display	-10.5875
▁hydraulic	-10.5878
វិស័យឯកជន	-10.5881
ព្រឹក	-10.5883
▁Per	-10.5885
ធ្វើការជាមួយ	-10.5886
▁តំណាង	-10.5887
pat	-10.5887
សហការ	-10.5888
▁durable	-10.589
▁journey	-10.589
▁grant	-10.589
▁28,	-10.5891
▁teams	-10.5892
ase	-10.5899
ផ្អាក	-10.5901
ដូច្នេះវា	-10.5901
▁message	-10.5902
▁bearing	-10.5904
រេ	-10.5904
▁prosperity	-10.5905
▁motorcycle	-10.5905
ទា	-10.5905
ការលូតលាស់	-10.5906
▁tank	-10.5907
post	-10.591
អ្នកវិនិយោគ	-10.5911
ប្រពន្ធ	-10.5911
នាំយក	-10.5915
ries	-10.5916
បណ្តា	-10.5917
▁មិនមែន	-10.5919
:16	-10.5923
ming	-10.5923
book	-10.5924
▁ញុមមាន	-10.5927
សប្បាយ	-10.5928
ku	-10.5928
uc	-10.5929
ខុសត្រូវចំពោះការ	-10.5931
អាចប្រើ	-10.5931
បើកបរ	-10.5933
េចក្តីថ្លែងការណ៍	-10.5933
▁anything	-10.5935
ដាំដុះ	-10.5939
bs	-10.5942
របស់យើងគឺ	-10.595
អ៊ីស្រាអែល	-10.595
ស្រដៀងគ្នា	-10.595
អំបិល	-10.595
▁mirror	-10.595
3%	-10.5951
សំលេង	-10.5953
ការរកឃើញ	-10.5954
▁ប្រសិន	-10.5957
▁តើខ្ញុំអាច	-10.596
ED	-10.5965
ការកែលម្អ	-10.5965
▁affected	-10.5965
▁receiving	-10.5965
▁Voltage	-10.5967
េ	-10.5968
ដុល្លារអាមេរិក	-10.5969
▁waterproof	-10.5971
▁ដើម្បីរក្សា	-10.5972
កាស	-10.5973
ដើម្បីស្វែងរក	-10.5974
បោះពុម្ពផ្សាយ	-10.5975
ខ្ញុំមិន	-10.5977
ចរចា	-10.5978
▁សកម្មភាព	-10.5979
▁participation	-10.598
▁Wholesale	-10.598
ផែនទី	-10.5981
បណ្ណ	-10.5981
ត្រៀមខ្លួន	-10.5983
វត្ថុធាតុ	-10.5987
▁interested	-10.599
▁Ja	-10.599
លំបាក	-10.5991
und	-10.5991
DM	-10.5992
ពណ៌បៃតង	-10.5992
បណ្ដាញ	-10.6
កន្លែងដែល	-10.6004
▁machinery	-10.6005
▁gives	-10.6007
▁exercise	-10.6009
▁Ko	-10.601
អាកប្បកិរិយា	-10.6011
▁Short	-10.6012
អ្វីមួយ	-10.6013
▁Sea	-10.6014
សំណង	-10.6015
▁teeth	-10.6016
▁meals	-10.6018
កាតព្វកិច្ច	-10.6019
ដែលធ្វើឱ្យ	-10.6023
រួចរាល់	-10.6024
▁mask	-10.6026
នៅប្រទេសចិន	-10.6028
ivity	-10.6031
▁greatly	-10.6035
lor	-10.6035
▁Men	-10.604
▁doctor	-10.6041
ស្នាម	-10.6042
កាន់កាប់	-10.6047
▁បញ្ចប់	-10.6053
▁cooling	-10.6055
▁chance	-10.6057
ឃាត់ខ្លួន	-10.6058
ល្បឿនលឿន	-10.606
ការពារបរិស្ថាន	-10.6061
ការឆ្លើយតប	-10.6065
អន្តរាគមន៍	-10.6066
▁bed	-10.6068
900	-10.6069
មួយចំនួនដែល	-10.6069
ture	-10.6069
វេជ្ជសាស្រ្ត	-10.6072
គ្លីនិក	-10.6072
▁មុខងារ	-10.6073
២នាក់	-10.6073
▁បិទ	-10.6075
▁Tourism	-10.6076
▁write	-10.6081
បំពេញតម្រូវការ	-10.6084
ura	-10.6084
▁Wi	-10.6086
▁coming	-10.6087
▁format	-10.6087
តួលេខ	-10.609
គ្រឹះ	-10.609
▁38	-10.6091
▁pandemic	-10.6092
ខ្លាច	-10.6092
▁images	-10.6093
▁ថ្នាក់	-10.6096
នៃប្រព័ន្ធ	-10.6099
ជនសង្ស័យ	-10.6102
▁meaning	-10.6103
▁Shenzhen	-10.6103
ath	-10.611
▁CEO	-10.6112
▁lotion	-10.6114
ខ្លឹមសារ	-10.6115
▁answer	-10.6117
ម៉ូលេគុល	-10.6118
▁couple	-10.6118
MS	-10.6118
▁ABS	-10.612
▁establishment	-10.6122
PO	-10.6124
kW	-10.6127
ក្នុងមួយថ្ងៃ	-10.6129
▁thanks	-10.613
▁រៀបចំ	-10.6131
▁thinking	-10.6132
កន្សែង	-10.6133
▁អេក្រង់	-10.6143
▁placed	-10.6143
▁submit	-10.6148
chi	-10.6149
▁3:	-10.615
▁limit	-10.6151
ឆ្លើយតបទៅនឹង	-10.6152
▁រដ្ឋ	-10.6152
being	-10.6154
ជឿជាក់ថា	-10.6158
វាត្រូវបានគេ	-10.616
oz	-10.6164
ប្រាជ្ញា	-10.6165
▁brother	-10.6165
សប្តាហ៍	-10.6168
▁វ៉ុល	-10.6169
▁piece	-10.617
▁33	-10.6171
▁ID	-10.6174
អាង	-10.6175
▁ទាក់ទង	-10.6176
▁deliver	-10.6179
លឿង	-10.618
យ៉ាងពេញលេញ	-10.6182
▁ពោលគឺ	-10.6183
▁Energy	-10.6185
▁mesh	-10.6189
LE	-10.6189
▁Temperature	-10.6191
▁Research	-10.6193
▁Posted	-10.6194
▁Norodom	-10.6195
▁កើត	-10.6199
▁selection	-10.62
ដើមឈើ	-10.62
▁Micro	-10.6207
ច្រើន។	-10.6207
▁9:	-10.621
▁ជាមួយនឹងការ	-10.6216
ជំរុញឱ្យ	-10.6216
២៤	-10.6217
:18	-10.6218
យ៉ាងណាក៏ដោយ	-10.6223
ថ្នាំលាប	-10.6226
ការធ្លាក់ចុះ	-10.6228
គុណភាពនៃ	-10.6229
▁សមាគម	-10.623
▁feed	-10.6234
▁samples	-10.6235
▁17,	-10.6237
គ្រីបតូ	-10.6239
ទាន់សម័យ	-10.624
អាសយដ្ឋាន	-10.6241
មណ្ឌល	-10.6242
▁minimum	-10.6242
▁cabinet	-10.6242
PS	-10.6245
▁replace	-10.6245
▁ពីរ	-10.6246
▁Jun	-10.625
win	-10.6256
▁mutual	-10.6258
កម្មវិធីនេះ	-10.6258
▁gave	-10.6258
▁freedom	-10.6258
▁ស្ត្រី	-10.6259
▁ស្រា	-10.626
ទេសភាព	-10.6262
ven	-10.6262
MT	-10.6265
TA	-10.6268
ឆ្នេរ	-10.6269
RC	-10.6271
▁ឡ	-10.6271
▁met	-10.6273
ned	-10.6278
ery	-10.6278
ពួកគេមាន	-10.6278
សមត្ថកិច្ច	-10.628
ក្នុងតម្លៃ	-10.6281
bin	-10.6284
នៅលើពិភពលោក	-10.6285
បណ្តាលឱ្យ	-10.6286
▁abroad	-10.6289
ក្រឡុក	-10.6289
គ្រោះមហន្តរាយ	-10.6289
បញ្ហានេះ	-10.629
ការដាក់ប្រាក់	-10.6293
▁លោកជំទាវ	-10.6294
ជាតិសរសៃ	-10.6296
សកម្មជន	-10.6298
ជក់	-10.6299
៩០	-10.6301
ថោក	-10.6301
ប៉	-10.6305
▁Inter	-10.6306
▁golden	-10.6308
lit	-10.6312
សេរី	-10.6313
ock	-10.6319
សន្ទះ	-10.632
▁galvanized	-10.632
ធ្វើអោយ	-10.6323
▁Ga	-10.6324
▁story	-10.6325
▁ideas	-10.6328
▁20%	-10.6328
▁regularly	-10.6329
ទៅមុខ	-10.6333
▁offered	-10.6334
▁resolve	-10.6334
សព្វថ្ងៃនេះ	-10.6335
▁publish	-10.6335
ខ្នង	-10.6335
▁wife	-10.6336
▁Net	-10.634
បង្រួម	-10.6343
▁ប្រសិនបើអ្នកមាន	-10.6348
បឋម	-10.6349
▁suit	-10.6351
▁Crypto	-10.6353
▁pot	-10.6356
▁movement	-10.6356
FC	-10.6358
▁hourly	-10.6362
។វា	-10.6363
▁API	-10.6364
▁សាលា	-10.6366
ក៏ជា	-10.6367
លាតសន្ធឹង	-10.6367
▁easier	-10.6367
▁brown	-10.6367
▁upper	-10.6368
សង្ខេប	-10.6369
ស្ពាន់	-10.6369
បានមានប្រសាសន៍ថា	-10.6371
▁France	-10.6371
ដូចជាការ	-10.6372
ស្វែងយល់ពី	-10.6377
ការកសាង	-10.6381
No	-10.6381
▁mountain	-10.6381
ផ្ទៃក្នុង	-10.6383
▁Cutting	-10.6383
lock	-10.6384
▁regulation	-10.6386
oid	-10.6386
▁$3	-10.6386
▁Bearing	-10.6388
▁reasons	-10.6389
▁ជំរុញ	-10.6394
2)	-10.6395
▁cialis	-10.6399
▁empty	-10.6399
▁saving	-10.6402
▁generate	-10.6404
សាល	-10.6405
ប៉ូលីស	-10.6408
▁wine	-10.6408
pp	-10.6408
ស្មា	-10.6412
link	-10.6413
▁angle	-10.6413
cy	-10.6415
▁thousands	-10.6416
ច្រើនបំផុត	-10.6418
▁divided	-10.6418
ឆា	-10.642
▁width	-10.642
លើការ	-10.6422
▁២០២៣	-10.6423
ឯក	-10.6424
air	-10.6425
ទី៣	-10.6427
▁practices	-10.6427
▁transparency	-10.6431
▁combination	-10.6431
▁flexible	-10.6431
▁betting	-10.6432
▁verify	-10.6432
▁អាវ	-10.6433
បរិសុទ្ធ	-10.6434
▁បន្ទប់	-10.6436
ឪពុកម្តាយ	-10.6436
ខ្លាំង។	-10.6439
បែងចែក	-10.6439
▁Science	-10.6439
ប្រឈមមុខនឹង	-10.644
ការវះកាត់	-10.6441
OS	-10.6442
▁approach	-10.6442
ជាចម្បង	-10.6442
រយ	-10.6444
▁Nations	-10.6446
▁sons	-10.6447
▁chicken	-10.6447
រាបស្មើ	-10.6448
▁Information	-10.6451
▁AM	-10.6451
▁ម្នាក់	-10.6452
▁logo	-10.6455
▁label	-10.6459
▁Environment	-10.6463
ទីមួយ	-10.6464
▁ការវេចខ្ចប់	-10.6464
▁ប្រាប់	-10.6467
ML	-10.6468
▁lines	-10.6469
▁profit	-10.6471
▁shock	-10.6471
ស្ទ	-10.6471
ឡុង	-10.6477
រាំ	-10.6477
▁បំផុត	-10.648
▁eating	-10.6483
▁II	-10.6483
ប្រកាន់ខ្ជាប់នូវ	-10.6484
▁drug	-10.6487
លួស	-10.6494
▁factories	-10.6495
▁books	-10.6495
អាចទុកចិត្តបាន	-10.6495
ទ្រទ្រង់	-10.6496
ចំណងជើង	-10.6496
:17	-10.6496
▁exhibition	-10.6498
▁objective	-10.6499
▁ភាសា	-10.65
ផ្ទុះ	-10.6502
OD	-10.6503
▁នាយក	-10.6506
210	-10.6509
គេង	-10.6509
ខេត្តសៀមរាប	-10.6512
ប្រចាំ	-10.6514
2020	-10.6515
បានយ៉ាងងាយស្រួល	-10.6515
ដ្ឋាន	-10.6516
ដែលទទួលបាន	-10.6517
▁ទេ។	-10.6517
▁PET	-10.652
▁contain	-10.6523
ica	-10.6523
▁ក្រុមប្រឹក្សា	-10.6525
▁អង្សាសេ	-10.6526
▁ហើយវា	-10.6526
សេរ៉ាមិច	-10.6526
▁1500	-10.6527
▁អូ	-10.6529
color	-10.6535
▁prevention	-10.6536
របស់ប្រជាជន	-10.6538
សម្ព័ន្ធ	-10.6538
ឲ្យបាន	-10.6539
▁likely	-10.6539
សត្វល្អិត	-10.6542
▁collaborate	-10.6543
▁era	-10.6546
RO	-10.6548
ដំណឹង	-10.6551
▁រយៈ	-10.6554
គណនា	-10.6555
នាឡិកា	-10.6556
ជ្រូក	-10.6558
សន្យា	-10.656
គូរ	-10.6564
ថ្លៃដើម	-10.6565
▁Hand	-10.6566
ម៉ាស៊ីនកាត់	-10.6567
▁2.0	-10.657
ប្រសិទ្ធភាពខ្ពស់	-10.6571
សប្ដាហ៍	-10.6575
▁yesterday	-10.6575
▁shipping	-10.6575
▁ម៉ោង។	-10.6577
▁Ne	-10.6578
▁ឆ្លើយតប	-10.6578
ប្រធានាធិបតី	-10.6578
ache	-10.6585
ឧកញ៉ា	-10.6585
MP	-10.6589
▁map	-10.6589
▁spring	-10.6591
អត្តសញ្ញាណប័ណ្ណ	-10.6592
ភាពត្រឹមត្រូវនៃ	-10.6593
ជីវ	-10.6594
month	-10.6594
កន្លងទៅ	-10.6599
ក្រសួងការងារ	-10.6602
:6	-10.6605
▁express	-10.6605
▁Non	-10.6606
2,	-10.6607
វគ្គសិក្សា	-10.6609
▁26,	-10.6609
▁decline	-10.6612
kin	-10.6613
▁overall	-10.6613
▁Thai	-10.6615
▁operate	-10.6617
ជ្រើស	-10.6618
▁inflation	-10.6618
ib	-10.6619
▁chip	-10.662
មកកាន់	-10.662
ភាពងាយស្រួល	-10.6621
▁speak	-10.6622
▁ក្រុមការងារ	-10.6622
អត្រាការប្រាក់	-10.6624
▁ទទឹង	-10.6627
nt	-10.6628
កែតម្រូវ	-10.6628
បានទេ។	-10.6629
ចុចលើ	-10.6629
▁requirement	-10.6631
សុខភាពផ្លូវចិត្ត	-10.6632
▁Bat	-10.6633
ស័ង្កសី	-10.6639
har	-10.664
▁Wat	-10.664
មនុស្សគ្រប់គ្នា	-10.6642
▁stipulated	-10.6642
▁fertilizer	-10.6643
▁lose	-10.6643
han	-10.6649
▁Russian	-10.665
ME	-10.6652
▁Just	-10.6653
▁Cini	-10.6653
▁2022.	-10.6654
▁bridge	-10.6655
ផលិតផលរបស់យើង	-10.6655
សន្ទះបិទបើក	-10.6656
ចៅក្រម	-10.6656
ស្ថិតិ	-10.6656
ស៊ូ	-10.6659
▁សម្តេចធិបតី	-10.6661
▁raise	-10.6661
▁Cambodians	-10.6662
▁vegetables	-10.6663
ទឹកប្រាក់	-10.6668
▁candidates	-10.6672
▁brought	-10.6672
5.1	-10.6673
GS	-10.6674
មានទំហំ	-10.6678
fin	-10.6679
▁accurate	-10.668
កង	-10.6681
ct	-10.6682
ភ្លៀង	-10.6683
៧៥	-10.6685
របារ	-10.6686
សំលៀកបំពាក់	-10.6688
ពិនិត្យឡើងវិញ	-10.6689
ការរីកចម្រើន	-10.6692
SS	-10.6693
▁អ្វីដែល	-10.6699
lang	-10.6702
St	-10.6703
ហ្វ្រាំង	-10.6704
អនុស្សាវរីយ៍	-10.6704
▁carried	-10.6704
ការចាប់ផ្តើម	-10.6706
rate	-10.6708
ឆ្ពោះទៅរក	-10.6709
val	-10.6709
ដែលវា	-10.671
ប្រភេទនៃ	-10.6711
សមាមាត្រ	-10.6712
PT	-10.6714
បានអនុម័ត	-10.6714
អាល្លឺម៉ង់	-10.6715
▁សហគមន៍	-10.6718
EA	-10.672
▁useful	-10.6721
▁heritage	-10.6721
▁Vietnamese	-10.6721
▁Single	-10.6721
▁honor	-10.6721
00,000	-10.6724
អិន	-10.6726
ការប្រមូល	-10.6729
▁ដឺក្រេ	-10.6734
ហិកតា	-10.6734
លិច	-10.6736
▁ticket	-10.6737
▁medicine	-10.6737
ពែង	-10.674
▁sister	-10.6741
USD	-10.6744
TO	-10.6746
▁paint	-10.6748
down	-10.6751
▁fixed	-10.6752
▁visual	-10.6754
▁permitted	-10.6754
pt	-10.6756
phone	-10.6761
▁selected	-10.6762
▁ដើម្បីបង្កើន	-10.6766
ដើម្បីធានា	-10.6766
▁Master	-10.6768
▁2009	-10.6769
ost	-10.6774
GA	-10.6774
▁expert	-10.6777
គ្រូបង្រៀន	-10.6778
OT	-10.6778
អាចធ្វើបាន	-10.6778
នាថ	-10.6779
រាយ	-10.6779
ដែនកំណត់	-10.678
កំពុងតែ	-10.6781
ត្រូវបានគេហៅថា	-10.6783
▁hosting	-10.6784
▁depending	-10.6785
▁competitive	-10.6785
ក្លឹប	-10.6786
▁library	-10.6786
▁serves	-10.6787
អ្វីៗ	-10.6788
ពេទ្យ	-10.6793
▁roads	-10.6794
នេះជា	-10.6794
▁constant	-10.6795
low	-10.6795
ផងដែរថា	-10.6798
▁អាហារ	-10.6798
▁Ba	-10.6799
▁comments	-10.68
នៅក្នុងវិស័យ	-10.68
▁Paul	-10.68
បាក់តេរី	-10.6803
ដោយជោគជ័យ	-10.6806
▁ព្រោះវា	-10.6806
នឹងទទួលបាន	-10.6806
▁បំពេញ	-10.6808
ji	-10.6808
▁citizen	-10.681
▁សំណួរ	-10.6811
ការងើបឡើងវិញ	-10.6811
មនុស្សពេញវ័យ	-10.6817
250	-10.682
▁origin	-10.6824
imp	-10.6829
cr	-10.6834
▁leaving	-10.6836
▁roof	-10.6836
▁រថយន្ត	-10.6836
▁reduction	-10.6836
7%	-10.6837
សម្រស់	-10.6837
ene	-10.6838
សរសើរ	-10.6839
ប៉ុន្តែវា	-10.6842
las	-10.6842
▁dollars	-10.6848
យល់ថា	-10.685
▁elements	-10.685
ត្រឹមត្រូវ។	-10.6851
មានគោលបំណង	-10.6852
ជនបទ	-10.6852
▁garden	-10.6853
វិទ្យាល័យ	-10.6853
▁sizes	-10.6855
▁evaluate	-10.6858
▁យុទ្ធសាស្ត្រ	-10.6859
កន្លងទៅនេះ	-10.686
ជាសកល	-10.6861
▁reports	-10.6861
▁Review	-10.6861
▁charging	-10.6862
ទទឹង	-10.6865
NO	-10.6865
▁Students	-10.6866
▁maintaining	-10.6867
▁fulfill	-10.6869
▁recommended	-10.687
▁Panel	-10.687
▁សិស្សានុសិស្ស	-10.687
▁Report	-10.6872
▁IN	-10.6873
អតីតកាល	-10.6874
▁កុមារ	-10.6876
▁ការត្រួតពិនិត្យ	-10.6878
▁20,	-10.6879
▁ឧប	-10.6881
ក្រៅពី	-10.6882
▁enterprise	-10.6883
▁Ukraine	-10.6885
▁hack	-10.6886
▁LTD	-10.6886
▁published	-10.6887
▁Brand	-10.6887
▁ការអភិវឌ្ឍ	-10.6892
មម	-10.6893
log	-10.6896
tle	-10.6896
▁ប្រជាជន	-10.6898
▁ដើម្បីការពារ	-10.6902
ខ្ញុំគិតថា	-10.6902
ក្បឿង	-10.6902
ការបញ្ចូល	-10.6903
▁អ្នកនឹង	-10.6903
▁Deposit	-10.6904
▁experiences	-10.6905
fr	-10.6906
▁instead	-10.6907
ឆ្កែ	-10.6911
▁fr	-10.6913
ការប្រើ	-10.6916
▁8,	-10.6916
▁ច	-10.6919
របស់កុមារ	-10.6926
▁rent	-10.6927
ថ្មីនេះ	-10.6927
▁correct	-10.6927
▁ក្បាល	-10.6928
ការ៉េ	-10.6933
ដល់ទៅ	-10.6935
ផលប៉ះពាល់នៃ	-10.6936
▁Stainless	-10.6936
▁alcohol	-10.6936
▁terminal	-10.6936
▁Ju	-10.6939
▁kids	-10.6942
បានបន្ត	-10.6944
ត្រូវមាន	-10.6945
▁Have	-10.6947
▁គាត់បាន	-10.6954
▁taste	-10.6955
uck	-10.6956
ទើប	-10.696
▁dance	-10.696
អង់គ្លេស	-10.6963
សម្តេច	-10.6963
▁inspect	-10.6966
សី	-10.6966
▁ប្រសិនបើអ្នកចង់	-10.6968
▁USA	-10.6969
▁Governor	-10.6969
▁Ri	-10.6969
HE	-10.697
▁tips	-10.6974
មីន	-10.6975
▁fee	-10.6976
កូនប្រុស	-10.6977
ដែលខ្ញុំ	-10.6978
▁Hu	-10.6979
▁protected	-10.6982
រំខាន	-10.6982
▁strip	-10.6983
សម្ងាត់	-10.6983
▁turned	-10.6986
▁ផល	-10.6986
▁accessories	-10.6986
▁bitcoin	-10.6986
IT	-10.6988
អន្តរកម្ម	-10.6994
ថ្មីៗនេះ	-10.6995
▁appropriate	-10.6999
ដែលថា	-10.7001
ខណ្ឌ	-10.7001
▁7.	-10.7001
▁Samsung	-10.7003
ចាំបាច់ត្រូវ	-10.7004
២១	-10.7004
je	-10.7005
vis	-10.7006
▁finished	-10.7006
:19	-10.7009
ករ	-10.7009
▁Web	-10.7009
ទាំងអស់នេះ	-10.7011
កាំបិត	-10.702
▁Poly	-10.702
mail	-10.702
ភា	-10.702
▁ថ្លែង	-10.7021
▁tree	-10.7021
គ្រូពេទ្យ	-10.7021
▁driver	-10.7023
▁officers	-10.7025
▁ធាតុ	-10.7026
▁មិនថា	-10.7029
▁អត្រា	-10.7032
▁ដ្បិត	-10.7032
▁ខ	-10.7036
វិន័យ	-10.7037
▁Labor	-10.7037
▁adopts	-10.7038
▁110	-10.704
▁integrated	-10.7043
ពួកគេអាច	-10.7049
ស្តីពីការ	-10.7049
ender	-10.7052
ឆេះ	-10.7054
ម៉ាស៊ីនត្រជាក់	-10.7055
ធំបំផុត	-10.7061
RA	-10.7062
រុំ	-10.7063
AN	-10.7064
▁SD	-10.7064
ក្របខ័ណ្ឌ	-10.7065
▁mouth	-10.7067
▁Miss	-10.7067
BS	-10.7068
ពួកគេបាន	-10.7069
ពីសំណាក់	-10.707
DF	-10.7071
▁Star	-10.7072
សំណល់	-10.7073
បានប្រាប់	-10.7074
▁allowing	-10.7074
▁impacts	-10.7075
▁Chi	-10.7076
ik	-10.7077
វឌ្ឍនភាព	-10.7077
▁thought	-10.7079
new	-10.7082
▁ហើយបន្ទាប់មក	-10.7083
▁Capacity	-10.7087
ការចែកចាយ	-10.7092
▁Building	-10.7094
ចាកចេញពី	-10.7097
/8	-10.7098
Cr	-10.7099
អបអរសាទរ	-10.7101
ប្រហោង	-10.7103
▁dated	-10.7103
▁capabilities	-10.7104
tail	-10.7105
tar	-10.7106
▁resin	-10.7108
▁faster	-10.7109
សត្វចិញ្ចឹម	-10.7109
▁Yes	-10.711
ឆ្លុះបញ្ចាំង	-10.7111
បារម្ភ	-10.7113
▁ជម្រើស	-10.7115
ស្តារ	-10.7119
ជម្រៅ	-10.7119
▁housing	-10.7121
▁remember	-10.7122
ore	-10.7126
ដាក់ពាក្យសុំ	-10.7128
lt	-10.7131
១៧	-10.7132
និទាឃរដូវ	-10.7138
▁kitchen	-10.7138
សង់	-10.7139
▁attend	-10.7141
▁កើនឡើង	-10.7141
▁ការផ្លាស់ប្តូរ	-10.7141
វ័យ	-10.7142
ker	-10.7142
▁Ly	-10.7143
▁investigate	-10.7144
រំពឹងថា	-10.7145
បកប្រែ	-10.7148
▁សម្តេច	-10.7149
TH	-10.7152
អាចធ្វើឱ្យ	-10.7153
ឧបត្ថម្ភ	-10.7154
កម្ដៅ	-10.7155
▁daughter	-10.7155
▁negative	-10.7155
សន្លាក់	-10.7155
▁bottles	-10.7156
▁13,	-10.7158
គាំទ្រដល់	-10.7162
គឺត្រូវ	-10.7164
មានឱកាស	-10.7166
▁Pipe	-10.7167
ដោះ	-10.7171
នាងបាន	-10.7172
▁ice	-10.7172
▁Three	-10.7172
▁លទ្ធផល	-10.7174
តស៊ូ	-10.7175
ations	-10.7175
▁ទីផ្សារ	-10.7176
ល្បី	-10.7176
▁4:	-10.7178
110	-10.7179
-0	-10.7184
▁filled	-10.7187
ដ៏សំខាន់មួយ	-10.7188
▁16,	-10.7188
▁tomorrow	-10.7189
▁ជំងឺ	-10.719
▁worldwide	-10.7191
▁decoration	-10.7191
អង្កត់ផ្ចិត	-10.7191
az	-10.7194
▁mining	-10.7199
sis	-10.7201
▁ភូមិ	-10.7201
▁fair	-10.7202
▁Yi	-10.7205
▁Forces	-10.7208
LI	-10.7209
”.	-10.721
ដំបង	-10.7211
ទ្រនាប់	-10.7211
យ៉ាងងាយស្រួល	-10.7214
▁encouraged	-10.7215
DR	-10.7217
ការពិនិត្យ	-10.7218
ក្នុងមួយឆ្នាំ	-10.7219
▁urge	-10.7221
▁consumer	-10.7221
▁opened	-10.7221
ស្ដាប់	-10.7222
▁Auto	-10.7223
▁therefore	-10.7224
▁Speed	-10.7224
▁alone	-10.7226
ទំងន់	-10.7226
180	-10.7227
យើងត្រូវ	-10.7227
▁AMS	-10.7228
▁៣០០	-10.7228
ចំណុចទាញ	-10.7229
▁li	-10.7232
▁innovative	-10.7241
▁preparation	-10.7241
អាំង	-10.7241
បានបង្ហាញពី	-10.7242
គ្រឿងម៉ាស៊ីន	-10.7244
▁12,	-10.7247
ប៊ូ	-10.7251
ទទួលបន្ទុក	-10.7252
fl	-10.7253
▁សូចនាករ	-10.7254
សាប៊ូ	-10.7254
▁structures	-10.7256
▁foam	-10.7257
ផ្សែង	-10.7258
▁ointment	-10.7258
▁Mu	-10.7258
រំញ័រ	-10.7258
▁Another	-10.7259
ជាសមាជិក	-10.726
▁star	-10.7265
ត្រូវបានអនុម័ត	-10.7268
head	-10.7271
ទន្លេមេគង្គ	-10.7273
▁buildings	-10.7274
▁silver	-10.7276
▁competent	-10.7276
នៅពេលនេះ	-10.728
▁acrylic	-10.728
អរ	-10.7283
▁accounts	-10.7284
ពេលនេះ	-10.7285
▁decided	-10.7285
អនុវត្តតាម	-10.7287
▁client	-10.7289
សំបក	-10.7291
បេតុង	-10.7293
▁៥០០	-10.7294
▁platforms	-10.7295
រុញ	-10.7295
ខ្សោយ	-10.7297
ក្រោយមក	-10.7299
▁livelihoods	-10.7299
▁មិនត្រឹមតែ	-10.7299
អាយុកាល	-10.7303
▁fat	-10.7303
▁Im	-10.7307
▁seeking	-10.7314
▁adjust	-10.7314
ព្រមាន	-10.7315
▁trial	-10.7319
សម្រួល	-10.7319
ging	-10.732
ឆ្នាំ២០២៥	-10.7323
ole	-10.7324
▁យ	-10.7324
▁owners	-10.7327
លោហធាតុ	-10.7328
ុំ	-10.7328
▁dedicated	-10.7329
ជាងគេ	-10.7332
▁&#	-10.7335
ជំ	-10.7336
៥០០	-10.7336
ign	-10.7338
ជាអ្វី	-10.7339
ប្រឆាំងនឹងការ	-10.7339
ចាក់សោ	-10.734
វិស័យទេសចរណ៍	-10.7341
▁horse	-10.7342
រៀប	-10.7344
ទូទាំងប្រទេស	-10.7345
បរិយាបន្ន	-10.7345
▁removal	-10.7345
▁Art	-10.7348
▁lease	-10.735
▁larger	-10.7358
▁Experts	-10.7361
ero	-10.7362
SC	-10.7362
ផ្អែម	-10.7362
▁senior	-10.7362
▁copy	-10.7363
▁insulation	-10.7363
TM	-10.7363
▁processes	-10.7364
ដែលបានកំណត់	-10.7365
▁dead	-10.7366
▁pieces	-10.7368
mal	-10.737
▁លេខម៉ូដែល	-10.737
ភារកិច្ច	-10.7371
▁សម្រេច	-10.7374
▁push	-10.7374
ម្ហូប	-10.7375
▁chair	-10.7378
គុណសម្បត្តិ	-10.7379
▁injection	-10.7381
uction	-10.7382
ដ៏ទូលំទូលាយ	-10.7383
OP	-10.7383
▁08	-10.7388
ឆ្នេរសមុទ្រ	-10.7388
:21	-10.7391
TU	-10.7396
▁Technical	-10.7396
▁Capital	-10.7397
▁Kampot	-10.7397
▁និងមធ្យម	-10.74
ដ៏មានតម្លៃ	-10.7404
▁Engine	-10.7408
1,	-10.7409
នឹងធ្វើឱ្យ	-10.7411
▁annually	-10.7412
▁Ambassador	-10.7415
▁intellectual	-10.7415
▁House	-10.7415
▁Canada	-10.7416
▁Who	-10.7418
▁producing	-10.7418
▁monthly	-10.742
វដ្ត	-10.7422
▁recognized	-10.7422
ពុល	-10.7423
ចំណេញ	-10.7423
vers	-10.7424
-100	-10.7424
លក់ដុំ	-10.7426
ការផ្តល់ជូន	-10.7427
បន្ទាន់	-10.7428
6%	-10.7433
ស្រ្តី	-10.7433
សមស្របសម្រាប់	-10.7433
▁42	-10.7434
▁presentation	-10.7435
▁tasks	-10.7435
▁bet	-10.7439
លើកលែងតែ	-10.7439
សំណាង	-10.744
▁Small	-10.7443
▁ស្តីពី	-10.7444
បង្កើតជា	-10.7446
ជៀសវាង	-10.7446
▁បានឱ្យដឹងថា	-10.7447
▁ថ្ងៃនេះ	-10.7449
▁Children	-10.745
▁explain	-10.7451
ពឹងផ្អែកលើ	-10.7451
750	-10.7453
lar	-10.7454
▁ឧស្សាហកម្ម	-10.7454
លៃតម្រូវ	-10.7457
បំ	-10.7458
▁21,	-10.7458
▁manual	-10.7461
▁invest	-10.7462
:5	-10.7463
▁picture	-10.7465
GO	-10.7465
IG	-10.7466
▁copper	-10.7468
▁បទ	-10.7469
▁casting	-10.7471
▁Ex	-10.7471
ជាច្រើនប្រភេទ	-10.7471
▁pin	-10.7473
▁PLC	-10.7475
▁mine	-10.7475
ផលិតភាព	-10.7475
▁ផ្នែកទី	-10.7476
ួន	-10.7478
▁180	-10.7478
▁organize	-10.748
▁initiatives	-10.7481
tern	-10.7481
ការបង្រៀន	-10.7483
decree	-10.7485
▁practical	-10.7487
▁ចាន	-10.7487
GP	-10.7489
មុននឹង	-10.7496
/3	-10.75
▁relationship	-10.7501
▁rsquo	-10.7503
គំនិតផ្តួចផ្តើម	-10.7504
▁Network	-10.7505
rin	-10.7505
▁auto	-10.7505
▁thus	-10.7506
រោគសញ្ញា	-10.7508
If	-10.7509
▁Ac	-10.751
អ្នកបាន	-10.7512
▁Financial	-10.7512
▁បានលើកឡើងថា	-10.7513
▁brands	-10.7514
▁Media	-10.7517
▁Citizens	-10.7518
▁cooking	-10.7518
MO	-10.7519
▁integration	-10.7521
ប្រវត្តិសាស្រ្ត	-10.7521
▁NFT	-10.7521
▁ព្យាការី	-10.7523
ហ្វូ	-10.7528
គឺជាអ្វី	-10.7529
អ៊	-10.7531
▁achieved	-10.7533
មានភារកិច្ច	-10.7534
mu	-10.7534
▁ម្ល៉េះ	-10.7535
▁Heng	-10.7535
▁pack	-10.7535
ves	-10.7536
▁deal	-10.7536
ធំជាង	-10.7537
▁សីហមុនី	-10.7538
▁truly	-10.7539
▁sealing	-10.7539
▁មួក	-10.7539
ម្នាក់ៗ	-10.754
TE	-10.7541
▁37	-10.7541
នេះក៏	-10.7544
ដែរថា	-10.7549
sp	-10.7553
▁ដើម្បីធានា	-10.7555
ផ្លុំ	-10.7556
កុងតឺន័រ	-10.7556
រូបិយវត្ថុ	-10.7556
▁Board	-10.7557
▁ពិធី	-10.756
បង្ការ	-10.7564
▁finance	-10.7565
power	-10.7567
▁kill	-10.7567
▁efficiently	-10.7567
ace	-10.7568
▁សូមអរគុណ	-10.7569
អ្នកចូលរួម	-10.7572
យកមក	-10.7572
4.5	-10.7574
▁មិត្តរួមថ្នាក់	-10.7574
អាកាសយានដ្ឋាន	-10.7574
▁Gold	-10.7578
ell	-10.7579
▁ជាដើម។	-10.7582
ប្រុងប្រយ័ត្ន	-10.7582
▁ថ្នាំ	-10.7582
ដាក់ប្រាក់	-10.7582
អ្វីគ្រប់យ៉ាង	-10.7587
▁concerning	-10.7587
HT	-10.7588
ការលំបាក	-10.7588
អតិថិជនរបស់យើង	-10.7589
▁produces	-10.7592
▁demonstrate	-10.7594
▁arm	-10.76
▁សន្លឹក	-10.7603
ប្រទេសជប៉ុន	-10.7603
ino	-10.7604
▁edge	-10.7604
▁បុគ្គលិក	-10.7604
ute	-10.7605
:7	-10.7609
▁RFI	-10.761
hen	-10.761
2-	-10.761
វេ	-10.7611
▁bright	-10.7611
▁followers	-10.7614
▁adapt	-10.7615
▁ខ្មៅ	-10.7615
▁ភាគ	-10.7617
ចូលទៅ	-10.7618
នៅសហរដ្ឋអាមេរិក	-10.7624
▁Svay	-10.7627
ទេសចរ	-10.7629
កម្លាំងពលកម្ម	-10.7629
▁slightly	-10.7629
▁networks	-10.763
CB	-10.7634
ulation	-10.7635
▁faith	-10.7635
▁foster	-10.7639
▁ចំ	-10.764
ks	-10.7642
ន្ត	-10.7642
▁prison	-10.7643
រួមបញ្ចូលទាំង	-10.7644
▁6,	-10.7644
មកវិញ	-10.7644
ស្ថិតនៅក្រោម	-10.7647
រសៀល	-10.7653
▁packing	-10.7654
▁Inc	-10.7654
▁sp	-10.7654
បៀ	-10.7656
ink	-10.7662
កញ្ឆា	-10.7663
▁delegation	-10.7663
▁eliminate	-10.7663
ពន្លឿន	-10.7663
សម្ដែង	-10.7664
▁units	-10.7665
ផ្តោត	-10.767
▁War	-10.767
▁farm	-10.767
▁import	-10.7672
▁cheap	-10.7673
▁ទាញយក	-10.7675
បានបញ្ជាក់ថា	-10.7675
▁comment	-10.7676
mit	-10.7681
▁huge	-10.7681
▁festival	-10.7681
▁expanding	-10.7682
▁listed	-10.7687
▁concerns	-10.7688
ព្រហ្មទណ្ឌ	-10.7691
▁Ki	-10.7692
គ្រា	-10.7693
▁Bun	-10.7694
ពីរដង	-10.7694
ស្ថាន	-10.7695
▁facilities	-10.7699
▁70%	-10.7701
ពេកហើយ។	-10.7702
នៃឧបករណ៍	-10.7705
cho	-10.7707
▁ទម្ងន់	-10.771
ele	-10.771
▁middle	-10.7711
gram	-10.7712
តើអ្នក	-10.7714
ឧបករណ៍ចាប់សញ្ញា	-10.7714
លូតលាស់	-10.7715
ខ្សែភ្លើង	-10.7716
យូរអង្វែង	-10.7716
បង្កើតឡើងដោយ	-10.7717
ហោប៉ៅ	-10.7717
▁gambling	-10.7717
zz	-10.7717
បានចូលរួម	-10.7722
ការដាំ	-10.7727
gate	-10.7728
▁Its	-10.773
យល់ពី	-10.7731
unt	-10.7732
▁cylinder	-10.7735
▁failure	-10.7736
▁representative	-10.7736
▁fit	-10.7738
±	-10.7739
▁clothes	-10.7739
▁Tea	-10.774
ov	-10.7743
ក្រីក្រ	-10.7745
ដែលទាក់ទងនឹង	-10.7749
”,	-10.7751
ក្រសួងអប់រំ	-10.7752
យ៉ាន់ស្ព័រ	-10.7753
បំបាត់	-10.7754
▁obligated	-10.7754
▁pivot	-10.7754
គណៈរដ្ឋមន្ត្រី	-10.7754
សមនឹង	-10.7755
ធម្មតា។	-10.7756
▁arrested	-10.7756
នៅតែជា	-10.7757
▁delay	-10.7758
ធន់	-10.7759
well	-10.776
▁PCR	-10.7763
▁Main	-10.7765
dB	-10.7768
tim	-10.7771
ទុក្ខ	-10.7772
OC	-10.7772
បានផ្តល់	-10.7777
លាននាក់	-10.7779
▁particular	-10.7782
▁បាទ	-10.7785
របស់គាត់។	-10.7786
▁វិនាទី	-10.7787
▁flowers	-10.7788
ជារឿយៗ	-10.779
cord	-10.7792
ភូមិសាស្ត្រ	-10.7792
ក្នុងការផលិត	-10.7794
ស្ទាត់	-10.7794
ជាថ្មី	-10.7796
▁toward	-10.7797
comment	-10.7798
gar	-10.7798
ជួយដល់	-10.7798
▁Mat	-10.7801
ឈឺចាប់	-10.7801
រលាក	-10.7803
យ៉ាងខ្លាំង។	-10.7803
:3	-10.7803
មេឃ	-10.7806
▁waiting	-10.7807
ចំណាំ	-10.7808
សន្ទស្សន៍	-10.7808
បច្ចេកវិជ្ជា	-10.7808
▁sugar	-10.7808
▁summer	-10.7808
បានបង្ហាញ	-10.7809
បុក	-10.7811
ឆ្	-10.7813
ជួបប្រទះ	-10.7813
like	-10.7815
▁30,	-10.7816
▁plays	-10.7816
ផ្លូវដែក	-10.7816
មានសមត្ថកិច្ច	-10.7817
រីករាយជាមួយ	-10.7818
ទីលាន	-10.782
រៀបចំផែនការ	-10.7822
rig	-10.7823
ចាត់ទុក	-10.7824
▁នៅពេលអ្នក	-10.7825
VI	-10.7825
វាពិតជា	-10.7826
▁fell	-10.7827
Pro	-10.783
TR	-10.7831
ប្រកបដោយចីរភាព។	-10.7832
2.1	-10.7833
▁Forex	-10.7836
▁អញ្ជើញ	-10.7839
tile	-10.7839
សៀមរាប	-10.784
rid	-10.7842
ប្លែក	-10.7843
▁ថ្លៃ	-10.7844
ខ្លាញ់	-10.7844
▁milk	-10.7846
rong	-10.7846
បន្ថែមទៀត។	-10.785
ដេក	-10.7851
▁គំនិត	-10.7853
▁Du	-10.7855
▁serious	-10.7855
▁transform	-10.7856
ខាងមុខនេះ	-10.7857
ដែលអ្នកបាន	-10.7861
▁01	-10.7861
▁Br	-10.7862
បន្ទប់ទឹក	-10.7862
:24	-10.7864
▁patient	-10.7865
wing	-10.7867
▁act	-10.7867
▁សូម្បីតែ	-10.7871
▁hat	-10.7872
OM	-10.7872
ត្រូវបានបង្ហាញ	-10.7872
▁whom	-10.7873
▁becoming	-10.7875
▁poly	-10.7875
▁exceed	-10.7877
សុ	-10.7878
បាននិយាយ	-10.7879
▁Shanghai	-10.7879
បានច្រើន	-10.788
▁Transport	-10.7881
▁gentle	-10.7881
ory	-10.7882
សំខាន់បំផុត	-10.7883
▁animal	-10.7884
▁department	-10.7884
▁theme	-10.7888
▁Blog	-10.7888
ស្ងប់ស្ងាត់	-10.7888
▁views	-10.789
gene	-10.7892
ក្តីសង្ឃឹម	-10.7893
▁animals	-10.7897
ពាក្យសុំ	-10.7898
▁Spy	-10.7898
take	-10.7899
ការចុះឈ្មោះ	-10.7901
▁president	-10.7901
▁wash	-10.7901
▁ផ្ទៃ	-10.7902
ការស្វែងរក	-10.7902
▁attack	-10.7903
▁realize	-10.7909
អ្នកនិពន្ធ	-10.7909
MF	-10.791
ges	-10.7912
ដ៏ធំមួយ	-10.7916
យ៉ាងល្អ	-10.7917
▁Festival	-10.7918
ធ្វើឱ្យវា	-10.7919
▁implementing	-10.792
feed	-10.7925
▁Blue	-10.7926
▁Automatic	-10.7927
ភាពជោគជ័យ	-10.7928
សម្រាប់មនុស្ស	-10.7929
កម្មសិទ្ធិ	-10.7929
ដែន	-10.7929
▁spend	-10.7933
▁Bonus	-10.7933
What	-10.7934
សំណាក	-10.7935
BT	-10.7935
▁Western	-10.7936
▁Supply	-10.7937
▁personnel	-10.7937
▁សង្កាត់	-10.7938
ith	-10.7938
▁Back	-10.7939
▁sensor	-10.7939
▁deeply	-10.794
▁partnership	-10.794
▁RFID	-10.7942
ហាត់ប្រាណ	-10.7943
product	-10.7943
▁304	-10.7943
ris	-10.7943
▁រហូត	-10.7943
▁institution	-10.7944
ភាពខុសគ្នានៃ	-10.7945
ផ្សារទំនើប	-10.7946
ថ្នាក់ជាតិ	-10.7948
▁កម្ពស់	-10.7951
ទាបជាង	-10.7954
ឆន្ទៈ	-10.7954
ចេញផ្សាយ	-10.7955
ទៅរក	-10.7956
SI	-10.7965
កសិផល	-10.7966
សេចក្តីសម្រេច	-10.7966
ការបំពេញ	-10.797
ស្រួល	-10.797
▁imported	-10.7972
ខ្នើយ	-10.7973
អាកាសចរណ៍	-10.7973
▁Administration	-10.7974
uch	-10.7974
វីនដូ	-10.7979
-03	-10.7981
ធ្វើតាម	-10.7982
:8	-10.7983
dis	-10.7985
LD	-10.7988
នៅក្នុងហ្គេម	-10.7988
tric	-10.7988
▁Low	-10.799
▁representatives	-10.7991
▁vibrant	-10.7992
You	-10.7993
▁Cable	-10.7993
▁ចាប់ពី	-10.7994
▁smoker	-10.7995
▁holding	-10.7996
ify	-10.7999
សង្គមស៊ីវិល	-10.8001
▁assess	-10.8005
001	-10.8006
▁តាំង	-10.8007
Trans	-10.8012
▁creation	-10.8012
1-	-10.8012
▁៨០	-10.8013
ហើយយើង	-10.8013
បានលើកឡើង	-10.8015
type	-10.8016
▁accused	-10.8016
▁extend	-10.8016
តំណាងឱ្យ	-10.8017
Com	-10.8017
CAD	-10.8018
▁អតីត	-10.8021
សរុបចំនួន	-10.8021
▁sources	-10.8023
សម្រាប់អតិថិជន	-10.8023
7.5	-10.8028
សម្ភារ	-10.8028
ដែលត្រូវបានគេ	-10.8028
▁ជំនួយ	-10.8029
រន្ធដោត	-10.803
អំពើ	-10.8031
▁increases	-10.8032
បង្	-10.8032
▁flavor	-10.8033
ដើម្បីរក្សា	-10.8034
zo	-10.8036
▁scale	-10.8036
EP	-10.8038
▁ត្រូវទៅ	-10.804
Mo	-10.8041
ភាគីពាក់ព័ន្ធ	-10.8044
ric	-10.8047
ថាស	-10.8047
:9	-10.8047
ម៉ោន	-10.8048
▁hearing	-10.8051
▁capable	-10.8053
▁walls	-10.8054
▁fostering	-10.8055
ពេលដែល	-10.8057
អ្នកមិន	-10.8057
General	-10.8057
ជូត	-10.8058
▁Hotel	-10.8059
▁proper	-10.8062
ជេ	-10.8063
ទ្រ	-10.8063
រើស	-10.8064
សាធារណជន	-10.8066
▁Hospital	-10.8067
ភ្ជាប់ជាមួយ	-10.8067
▁memory	-10.8067
មានសិទ្ធិ	-10.8069
▁Asian	-10.8072
▁អ្នកផ្គត់ផ្គង់	-10.8073
▁researchers	-10.808
▁flood	-10.8082
ចំណង	-10.8083
▁3-	-10.8084
សុបិន្ត	-10.8085
▁គណៈកម្មាធិការ	-10.8085
មេរៀន	-10.8085
qua	-10.8086
ឧបករណ៍ភ្ជាប់	-10.8086
ប្រាក់កម្ចី	-10.8088
▁2024.	-10.8088
ណាមួយ។	-10.8089
▁forth	-10.8089
▁meter	-10.8089
SO	-10.8091
ចំណុចប្រទាក់	-10.8091
បានសម្រេច	-10.8095
▁ព	-10.8095
▁mo	-10.8099
ដែលមិនអាច	-10.8102
▁Summit	-10.8104
▁factor	-10.8105
▁ការអនុវត្ត	-10.8108
យោធពលខេមរភូមិន្ទ	-10.8109
read	-10.8111
▁Guide	-10.8112
▁trip	-10.8114
▁Live	-10.8116
▁buying	-10.8116
▁និ	-10.8117
▁Battery	-10.8117
យ៉ាងច្បាស់	-10.8118
ពណ៌ខៀវ	-10.8119
▁council	-10.8123
▁intricate	-10.8123
▁himself	-10.8124
▁Box	-10.8124
-02	-10.8125
សារមន្ទីរ	-10.8126
▁intelligent	-10.8126
ទឹកជំនន់	-10.8127
▁Prey	-10.8128
▁វិញ្ញាបនបត្រ	-10.8129
iz	-10.813
▁ធនាគារជាតិនៃ	-10.8133
សីលធម៌	-10.8133
បានចេញ	-10.8135
ទាំងមូល។	-10.8136
មតិយោបល់	-10.8137
▁360	-10.8138
ស្នេហា	-10.8142
លំនៅឋាន	-10.8142
▁stakeholders	-10.8142
▁pink	-10.8148
▁mentioned	-10.815
នាំមុខ	-10.815
លះបង់	-10.8151
▁មើលន	-10.8153
▁ឃុំ	-10.8153
▁Op	-10.8154
ការរំពឹងទុក	-10.8156
Me	-10.8156
ផ្សំ	-10.8156
ផ្សព្វផ្សាយសង្គម	-10.8157
មិនសូវ	-10.8159
▁sometimes	-10.8161
ស្រលាញ់	-10.8161
▁experienced	-10.8161
▁បរិមាណ	-10.8163
ភេទដូចគ្នា	-10.8165
▁bond	-10.8165
put	-10.8166
ការយល់ដឹងអំពី	-10.8167
AA	-10.8167
▁protest	-10.8167
IR	-10.8169
ឥដ្ឋ	-10.8169
gan	-10.8171
យើងកំពុង	-10.8173
ត្រូវបានបញ្ចប់	-10.8174
▁សមាជិក	-10.8175
▁weeks	-10.8176
▁កុំព្យូទ័រ	-10.8176
high	-10.8178
ទូរសព្ទ	-10.8178
សមិទ្ធផល	-10.818
▁unwavering	-10.818
ជ្រ	-10.818
▁Keep	-10.8181
▁Kh	-10.8182
ប្រឈម	-10.8183
ប្រេងឥន្ធនៈ	-10.8184
រស់នៅក្នុង	-10.8186
ដែលគ្មាន	-10.8188
អេសអេស	-10.819
ជិះកង់	-10.819
ហើយអ្នក	-10.819
▁initial	-10.8191
សំណុំរឿង	-10.8191
UN	-10.8191
របស់អង្គការ	-10.8193
▁brush	-10.8194
ជាក់លាក់មួយ	-10.8198
▁wild	-10.8198
▁creative	-10.8199
▁Check	-10.8199
▁audio	-10.8199
▁upcoming	-10.8201
1.8	-10.8203
▁23,	-10.8209
▁អារម្មណ៍	-10.8212
ទំ	-10.8214
▁sharing	-10.8217
ហើយអាច	-10.8218
▁Kandal	-10.8218
▁Police	-10.8218
▁29,	-10.8218
ប្រា	-10.8218
រៀល	-10.8219
yan	-10.8223
▁sides	-10.8223
កូនស្រី	-10.8224
ត្រូវធ្វើ	-10.8225
ប្រសើរឡើង	-10.8226
▁painting	-10.8228
bl	-10.8229
អតិផរណា	-10.8232
ola	-10.8233
▁Sc	-10.8234
▁Sports	-10.8234
ពីលើ	-10.8236
ទំនងជា	-10.8237
▁wait	-10.8241
ស៊ីវិល	-10.8241
សំរាម	-10.8242
ការសរសេរ	-10.8243
ពាន់	-10.8244
▁Pump	-10.8246
រង្វង់	-10.8246
▁និងនេសាទ	-10.8248
៩៩	-10.8249
▁regions	-10.825
ដ្រាយ	-10.8255
ម៉ាស	-10.8258
ជួយឱ្យ	-10.826
▁Training	-10.8261
ស្មើ	-10.8261
ក៏នឹង	-10.8263
VAC	-10.8264
▁bear	-10.8264
▁Paris	-10.8265
▁independent	-10.8265
▁6:	-10.8265
ដើម្បីបំពេញ	-10.8266
▁component	-10.8266
▁rock	-10.827
ប្រែ	-10.8273
ខ្សែស្រឡាយ	-10.8275
▁Affairs	-10.8275
▁administrative	-10.8275
▁visitors	-10.8277
▁PH	-10.8278
▁Lead	-10.8278
▁defend	-10.8279
រុករក	-10.828
មួយសម្រាប់	-10.8283
▁កម្រាស់	-10.8284
▁cl	-10.8285
▁ថង់	-10.8286
PP	-10.8288
not	-10.8289
NC	-10.8291
បានកើតឡើង	-10.8292
មានការកើនឡើង	-10.8293
▁proposal	-10.8294
▁diamond	-10.8294
▁យល់	-10.8294
FT	-10.8294
ស្មោះត្រង់	-10.8295
▁meticulously	-10.8295
▁eight	-10.8295
ពន្ធនាគារ	-10.8297
▁មានប្រសាសន៍ថា	-10.8297
▁noise	-10.8299
▁Forum	-10.8299
press	-10.8301
យា	-10.8305
ការព្រួយបារម្ភ	-10.8305
ប្រើវា	-10.8306
កំឡុងពេល	-10.8306
▁foot	-10.8306
▁fix	-10.8307
nes	-10.8308
ជក់បារី	-10.8311
▁slot	-10.8312
▁Monitor	-10.8313
▁species	-10.8313
នរណា	-10.8315
▁allowed	-10.8317
▁Tech	-10.8318
អ្នកគ្រប់គ្រង	-10.8318
din	-10.8319
▁duty	-10.832
yo	-10.8321
tur	-10.8321
ans	-10.8325
▁Comp	-10.8326
▁salt	-10.8326
▁pool	-10.8326
ស៊ីជម្រៅ	-10.8327
ួ	-10.8332
▁Sihamoni	-10.8332
▁responsibility	-10.8332
CI	-10.8332
▁theories	-10.8332
តាមអ៊ិនធរណេត	-10.8332
istic	-10.8333
▁la	-10.8333
▁2008	-10.8334
▁extremely	-10.8336
ក្រៅប្រទេស	-10.8336
▁whose	-10.8337
▁looked	-10.8338
▁career	-10.8339
LO	-10.8339
▁Tags	-10.834
roll	-10.834
សហគ្រិន	-10.8345
សមហេតុផល	-10.8349
ធ្វើការងារ	-10.8352
▁trying	-10.8356
▁ថ្ងៃ។	-10.8358
:4	-10.8359
បរាជ័យ	-10.836
▁Kit	-10.8361
ត្រូវបានបង្កើត	-10.8361
▁Work	-10.8362
មិត្តភាព	-10.8362
▁match	-10.8363
ea	-10.8364
ផ្សាយ	-10.8365
ធម៌	-10.8369
▁spot	-10.8369
ក្លែងក្លាយ	-10.8371
ធ្វើសកម្មភាព	-10.8371
▁percent	-10.8372
▁សិក្សា	-10.8375
▁smile	-10.8375
▁អាមេរិក	-10.8376
លោកស្រី	-10.8377
មានមុខងារ	-10.8379
1.6	-10.8382
▁root	-10.8384
អ្នកដឹកនាំ	-10.8386
ស្មៅ	-10.8387
ទ្វេ	-10.8389
ជែល	-10.839
កាបូបស្ពាយ	-10.839
280	-10.8391
▁James	-10.8391
▁Using	-10.8393
ក្នុងប្រទេស	-10.8394
▁Buy	-10.8395
ame	-10.8399
▁centers	-10.8399
ដែលមានសមត្ថភាព	-10.8399
កម្តៅ	-10.84
ព្រះជាម្ចាស់	-10.8401
▁clearly	-10.8401
ដោត	-10.8402
▁evening	-10.8402
hai	-10.8404
▁provisions	-10.8406
▁amid	-10.8407
លោកអ្នក	-10.8408
▁0.3	-10.8409
oth	-10.8409
▁moisture	-10.8409
កើតមាន	-10.841
▁TO	-10.841
▁Monday	-10.841
▁optical	-10.8413
▁នេះបើយោងតាម	-10.8414
▁written	-10.8418
▁ជួល	-10.8422
▁Easy	-10.8423
bag	-10.8424
ប្រាក់បញ្ញើ	-10.8425
មូលបត្រ	-10.8426
ella	-10.8426
ត្រចៀក	-10.8429
▁hidden	-10.8429
▁រុក្ខាប្រមាញ់	-10.8429
▁batteries	-10.8429
ភាពជឿជាក់	-10.8431
▁numbers	-10.8431
▁ទ្រឹស្តី	-10.8431
Ah	-10.8432
▁reforms	-10.8433
មួយចំនួន។	-10.8435
▁crops	-10.844
▁fees	-10.8441
▁ស្វែងរក	-10.8441
▁Je	-10.8441
សំខាន់ក្នុងការ	-10.8443
ទទួលបានការ	-10.8443
bal	-10.8444
ព្រលានយន្តហោះ	-10.8446
កំប៉ុង	-10.8448
▁concrete	-10.8448
▁plasma	-10.8448
▁cells	-10.8449
▁gender	-10.8449
▁announcement	-10.8449
▁Thom	-10.8451
ភាពជាក់លាក់	-10.8451
ការចាប់អារម្មណ៍	-10.8453
▁បានបញ្ជាក់ថា	-10.8456
លេងហ្គេម	-10.8458
▁34	-10.8459
▁Chea	-10.8463
លើកដំបូង	-10.8466
ដើម្បីផ្តល់	-10.8466
ទេពកោសល្យ	-10.8467
▁robot	-10.8468
រំដោះ	-10.8468
▁cnc	-10.8468
កងកម្លាំង	-10.8474
ប្រទេសថៃ	-10.8474
▁Fri	-10.8474
▁វាក៏	-10.8476
▁weak	-10.8483
HI	-10.8484
▁convert	-10.8489
▁retain	-10.849
ដំណើរទស្សនកិច្ច	-10.8491
▁ជន	-10.8494
គ្រី	-10.8495
ពូ	-10.8496
ក្បែរ	-10.8497
▁mixed	-10.8498
▁Thu	-10.8503
gsm	-10.8505
ទ្រព្យ	-10.8506
ឯកសណ្ឋាន	-10.8506
នគរូបនីយកម្ម	-10.8507
ដល់អតិថិជន	-10.8509
▁ដៃ	-10.8509
4%	-10.8511
rating	-10.8511
បទពិសោធ	-10.8514
▁Win	-10.8517
ដកហូត	-10.8517
▁ក្រសួងសុខាភិបាល	-10.8517
▁ដើម្បីឱ្យ	-10.852
▁ដូច្នេះហើយ	-10.852
▁ឡើយ	-10.8521
▁agreements	-10.8521
បញ្ជាក់ពី	-10.8522
▁usage	-10.8522
ធៀបនឹង	-10.8523
ធនាគារកណ្តាល	-10.8526
កុំព្យូទ័រយួរដៃ	-10.8526
▁Street	-10.8526
▁stomach	-10.8526
▁វានឹង	-10.8527
▁smaller	-10.8528
▁depends	-10.8528
ហើយខ្ញុំ	-10.8529
▁Like	-10.8531
▁determine	-10.8533
▁beach	-10.8533
ត្រូវតែមាន	-10.8535
ទសវត្សរ៍	-10.8539
ដែលជាកន្លែងដែល	-10.8539
▁smoke	-10.8543
▁valid	-10.8544
៣នាក់	-10.8545
▁marriage	-10.8546
▁Fiber	-10.8546
ផ្សេងៗគ្នា។	-10.8553
▁flower	-10.8554
ទូទាំង	-10.8555
វិមាន	-10.8556
iv	-10.8556
កាណាដា	-10.8557
ផ្លាក	-10.8559
ឆ្នាំ២០២១	-10.8559
ចូលមក	-10.856
របស់ពិភពលោក	-10.8562
ការគំរាមកំហែង	-10.8563
ខកខាន	-10.8565
រមៀល	-10.8565
រ៉ោតទ័រ	-10.8565
▁sustainability	-10.8566
▁moving	-10.8567
ទាំងអស់នៃ	-10.8568
ដែលគេ	-10.8569
▁27,	-10.857
▁consumers	-10.8571
ants	-10.8572
គ្រ	-10.8577
▁facing	-10.8578
-50	-10.8578
lot	-10.8579
▁detailed	-10.858
អ្នកណា	-10.8582
ការចុះបញ្ជី	-10.8582
▁Wire	-10.8585
កង្វះ	-10.8585
▁Urban	-10.8585
▁Bottle	-10.8585
▁Village	-10.8586
▁net	-10.8587
▁removed	-10.8587
ដែលអ្នកចង់	-10.8588
ការជំរុញ	-10.859
ទឹកថ្នាំ	-10.859
▁decide	-10.8595
ix	-10.8596
តម្លៃនៃ	-10.8596
PL	-10.8597
ងើបឡើងវិញ	-10.8597
អឹម	-10.8598
▁Clean	-10.8601
▁construct	-10.8604
▁exported	-10.8604
▁investigation	-10.8605
▁Christmas	-10.8605
ឱ្យបានត្រឹមត្រូវ	-10.8606
រំភើប	-10.8607
▁Oil	-10.8608
បានផ្លាស់ប្តូរ	-10.8608
របស់របរ	-10.8609
lon	-10.8609
បារ	-10.8609
▁ship	-10.8611
មនុស្សដែល	-10.8614
▁wet	-10.8614
ដាវ	-10.8616
ភោជនីយដ្ឋាន	-10.8617
▁Last	-10.8618
កង្ហារ	-10.8624
ស្មាតហ្វូន	-10.8624
▁ជូន	-10.8626
▁Total	-10.8629
អ្នកផ្តល់សេវា	-10.8629
ប្រសិទ្ធិភាព	-10.863
សារធាតុគីមី	-10.863
▁២០១៩	-10.863
9001	-10.8633
រុ	-10.8635
ការស៊ើបអង្កេត	-10.8635
▁THE	-10.8639
Ma	-10.8639
▁និងកីឡា	-10.864
▁prioritize	-10.864
▁presence	-10.8644
ប្រមាណជា	-10.8645
▁Book	-10.8646
▁interview	-10.8646
rum	-10.8647
សំខាន់នៃ	-10.8647
▁បី	-10.865
ទូរស័ព្ទចល័ត	-10.8653
ពង្រឹងសមត្ថភាព	-10.8655
LA	-10.8655
▁មេ	-10.8657
របស់ព្រះ	-10.8658
hr	-10.8658
▁raised	-10.8659
▁Grade	-10.866
បាក់	-10.866
២២	-10.8661
TT	-10.8661
▁សៀវភៅ	-10.8663
▁43	-10.8664
▁residence	-10.8664
▁bicycle	-10.8664
មួយផ្សេងទៀត	-10.8665
▁pair	-10.8666
កាប់	-10.8669
TI	-10.867
▁tested	-10.8672
អាស៊ីអាគ្នេយ៍	-10.8672
ឯកទេស	-10.8672
house	-10.8673
HA	-10.8675
▁effort	-10.8675
▁harm	-10.8676
▁secret	-10.8676
▁អនុញ្ញាត	-10.8676
▁ជ្រើសរើស	-10.8677
▁complaint	-10.8679
▁fans	-10.8679
load	-10.868
▁designs	-10.868
▁កុំភ្លេច	-10.8681
▁neighbor	-10.8684
វ៉ាត់	-10.8684
តឹង	-10.8684
▁Rights	-10.8684
សាច់អាំង	-10.8685
ការនាំចូល	-10.8686
ការទទួលបាន	-10.8686
▁ចុច	-10.8689
▁mini	-10.8689
▁adjustment	-10.869
ចូលទៅកាន់	-10.8692
▁calculate	-10.8693
▁ប្រាក់រង្វាន់	-10.8694
▁Ke	-10.8695
នឹងចេះ	-10.8696
ដែលបណ្តាលមកពី	-10.8696
អន្តរ	-10.8698
អ្នកបើកបរ	-10.8698
▁សមត្ថកិច្ច	-10.8701
ភាពធន់នឹង	-10.8702
▁NEC	-10.8703
▁Address	-10.8704
ics	-10.8705
រួមជាមួយ	-10.8707
នៅសល់	-10.871
▁Currently	-10.8711
▁ម៉ូតូ	-10.8711
បង្គោល	-10.8719
ម៉ឺននាក់	-10.872
▁ហាង	-10.872
-18	-10.872
យ៉ាងលឿន	-10.8722
▁គេហទំព័រ	-10.8722
▁diploma	-10.8722
▁CNRP	-10.8724
▁Travel	-10.8725
▁Srey	-10.8728
ដែលអនុញ្ញាតឱ្យ	-10.873
ភាពធន់ទ្រាំ	-10.8732
នៃប្រទេស	-10.8733
▁ក្នុងករណី	-10.8735
▁65	-10.8738
▁ការធ្វើតេស្ត	-10.8739
តង់	-10.8741
▁ដុំ	-10.8741
▁Tu	-10.8742
រំលាយ	-10.8742
ការគោរព	-10.8743
ខ្លួនអ្នក	-10.8745
ez	-10.8747
▁dog	-10.8748
oli	-10.875
បំផុតសម្រាប់	-10.8751
▁detained	-10.8751
កាន់តែប្រសើរ	-10.8752
គ្រាប់បាល់	-10.8754
ប៊	-10.8755
ប្រជាជនកម្ពុជា	-10.8756
កសិដ្ឋាន	-10.8757
អ្នកគួរតែ	-10.8761
នៃកម្មវិធី	-10.8763
▁($	-10.8764
▁Study	-10.8764
▁stood	-10.8764
▁9,	-10.8764
តួអង្គ	-10.8767
▁សំខាន់	-10.877
មែន	-10.8773
ឡាវ	-10.8776
▁31,	-10.8777
ជំហរ	-10.8778
▁count	-10.8779
សហប្រជាជាតិ	-10.8783
▁៩០	-10.8785
▁Jack	-10.8786
▁hole	-10.879
▁revealed	-10.879
អ្នកទទួលបាន	-10.8793
▁cup	-10.8795
▁បច្ចេកទេស	-10.8797
រូ	-10.8798
▁names	-10.8798
មានរយៈពេល	-10.8798
GE	-10.88
ably	-10.88
▁mat	-10.8801
▁lessons	-10.8802
៣៣	-10.8803
យ៉ូ	-10.8803
ធ្វើវា	-10.8805
▁Stung	-10.8807
អាល់	-10.8809
▁character	-10.8811
▁ខ្ញុំត្រូវបាន	-10.8812
:22	-10.8813
ក្នុងពេលតែមួយ	-10.8816
លេប	-10.8817
▁5%	-10.8817
ទាន	-10.8818
▁Africa	-10.8818
យល់ព្រម	-10.8819
▁គ្រាប់	-10.8819
ដើម្បីកាត់បន្ថយ	-10.8819
▁ដែលមិន	-10.882
▁updated	-10.882
▁fight	-10.8821
▁Works	-10.8822
▁comfort	-10.8822
▁followed	-10.8823
▁teacher	-10.8823
▁generator	-10.8824
lab	-10.8825
▁គណៈកម្មការ	-10.8831
cam	-10.8834
▁Dec	-10.8835
▁feet	-10.8838
:23	-10.884
▁សុំ	-10.8842
304	-10.8842
សេចក្តីព្រាង	-10.8844
▁Kindle	-10.8844
▁Policy	-10.8844
▁happiness	-10.8844
▁ministries	-10.8844
▁cotton	-10.8845
▁employment	-10.8845
រីករាយនឹង	-10.8846
▁ត្រូវតែបញ្ចប់	-10.8848
-16	-10.8848
▁យល់ព្រម	-10.8849
6000	-10.885
▁inch	-10.8851
▁1.2	-10.8852
▁RS	-10.8855
ពល	-10.8856
ដែលពាក់ព័ន្ធ	-10.8857
▁adjustable	-10.8857
▁yield	-10.8858
▁ស់	-10.886
▁rivet	-10.8861
អ្នក។	-10.8861
គ្រប់ពេល	-10.8863
▁completion	-10.8865
▁laboratory	-10.8865
ប៊ិច	-10.8865
▁Both	-10.8866
▁និងផ្គត់ផ្គង់	-10.8868
▁destroy	-10.8868
▁២០២២	-10.887
cut	-10.8875
FS	-10.8876
យោបល់	-10.8876
▁Professional	-10.8877
▁ស្បែកជើង	-10.8878
ប្រទេសទាំងពីរ	-10.8879
▁Line	-10.8879
ដំបូងគេ	-10.888
▁DIN	-10.888
▁presented	-10.8881
ត្រូវបានរៀបចំឡើង	-10.8882
ប្ដូរ	-10.8884
▁bread	-10.8886
▁ព្រលានយន្តហោះ។	-10.8887
ែល	-10.8888
ទូទាំងពិភពលោក	-10.8895
▁រដ្ឋមន្រ្តី	-10.8898
ត្នោត	-10.8899
pos	-10.8901
ទ្រី	-10.8902
នឹងជួយ	-10.8904
ភាពជាក់លាក់ខ្ពស់	-10.8904
▁Chhnang	-10.8905
▁cultivation	-10.8905
▁WhatsApp	-10.8905
ទាំងអស់គ្នា	-10.8905
▁detection	-10.8908
ផ្តល់សេវាកម្ម	-10.891
និងសេវាកម្ម	-10.891
▁Ver	-10.8912
ោះ	-10.8914
ដើម្បីអនុវត្ត	-10.8914
ថយចុះ	-10.8916
ភ្លាមៗ។	-10.8918
▁looks	-10.8918
▁គីឡូម៉ែត្រ	-10.8925
គឺជាអាទិភាពចម្បង	-10.8926
អត្ថន័យ	-10.8926
▁quiet	-10.8926
▁skill	-10.8926
▁Covid	-10.8927
ition	-10.8928
▁View	-10.8929
វត្តមាន	-10.8931
▁គន្លឹះ	-10.8932
បែក	-10.8932
៣៦	-10.8937
bringing	-10.8938
50,000	-10.8939
ឆ្លងដែន	-10.8939
shi	-10.894
៥៥	-10.8941
▁plug	-10.8941
ada	-10.8942
▁Thus	-10.8942
▁Fe	-10.8945
ការវាយប្រហារ	-10.8945
▁pen	-10.8947
បោះបង់	-10.8947
▁ព្រម	-10.8948
made	-10.8948
▁giving	-10.895
▁(2	-10.8951
5.5	-10.8953
នៅប្រទេស	-10.8954
▁introduced	-10.8954
▁រចនា	-10.8957
▁អ្នកនាំពាក្យ	-10.8957
▁joy	-10.8957
ប្រតិបត្ដិការ	-10.8958
▁claims	-10.8964
▁Para	-10.8965
hang	-10.8966
▁វាសំខាន់ណាស់	-10.8969
▁relatively	-10.8971
▁មិថុនា	-10.8971
▁2021,	-10.8971
ផ្នែករឹង	-10.8972
កម្រាល	-10.8972
DO	-10.8974
ប៉ូលី	-10.8975
កេរ្តិ៍ឈ្មោះ	-10.8976
mAh	-10.8976
៤៥	-10.8979
▁និងបង្កើន	-10.8985
អាគុយ	-10.8987
▁vitamin	-10.8987
ផ្ទៃដី	-10.899
▁measurement	-10.899
ការប្រកាស	-10.8993
▁Yan	-10.8993
▁ទ	-10.8994
▁18,	-10.9002
▁Double	-10.9003
▁Show	-10.9003
សម្រាប់កុមារ	-10.9005
rea	-10.9005
▁shown	-10.9005
▁privacy	-10.9008
▁Cross	-10.9008
ត្រូវតែសិក្សា	-10.9008
▁gradually	-10.9009
Co	-10.901
ប្រកាន់	-10.901
ជំងឺឆ្លង	-10.9011
obrag	-10.9011
ត្រូវបានផ្តល់ជូន	-10.9014
key	-10.9014
▁អាចកែលម្អ	-10.9015
អស់រយៈពេល	-10.9017
ដើម្បីពង្រឹង	-10.9019
ich	-10.9021
▁Call	-10.9022
▁Yu	-10.9022
▁Mark	-10.9022
art	-10.9024
▁recover	-10.9025
▁survey	-10.9028
ណេ	-10.903
▁West	-10.9033
▁ពួកគេបាន	-10.9034
▁protective	-10.9035
gg	-10.9035
▁combined	-10.9038
សុខ	-10.9044
CE	-10.9046
wear	-10.9047
reflecting	-10.9048
FA	-10.9048
▁twice	-10.9049
▁forecast	-10.9049
ស្រេចចិត្ត	-10.9049
ert	-10.905
នៃជីវិត	-10.9051
▁reform	-10.9059
itch	-10.9059
ការទទួលខុសត្រូវ	-10.9061
▁faces	-10.9061
rain	-10.9061
បន្ថែមថា	-10.9061
▁adhesive	-10.9062
អាចបង្កើត	-10.9063
ព័ត៌មានបន្ថែម	-10.9064
▁wireless	-10.9064
ផ្សេងទៀតដែល	-10.9065
▁Store	-10.9065
ដូចគ្នា។	-10.9065
MPa	-10.9065
*1	-10.9067
▁sets	-10.9069
▁posts	-10.9069
▁chief	-10.9069
dle	-10.907
▁kit	-10.9071
eu	-10.9072
▁appeared	-10.9072
▁died	-10.9072
ទុកឱ្យ	-10.9072
ការភ្ជាប់	-10.9073
▁seems	-10.9074
▁Pen	-10.9077
ព្រះយេស៊ូវ	-10.9079
ao	-10.9084
សេដ្ឋកិច្ច។	-10.9084
រួមចំណែក	-10.9085
friendly	-10.9087
▁rack	-10.9087
ប្រសិនបើយើង	-10.9087
▁processed	-10.9089
គ្រឿងសំអាង	-10.909
សូន្យ	-10.909
អ្នករាល់គ្នា	-10.9091
▁Among	-10.9091
▁Big	-10.9091
▁Senior	-10.9091
▁Great	-10.9092
▁ដើម្បីលើកកម្ពស់	-10.9094
▁born	-10.9095
▁55	-10.9097
ឆ្នាំងសាក	-10.9098
ទឹក។	-10.9099
រំពឹង	-10.9104
របស់វាគឺ	-10.9105
▁Manufacture	-10.9106
ដោយប្រុងប្រយ័ត្ន	-10.9106
▁HP	-10.9109
មិនឱ្យ	-10.911
▁Indonesia	-10.9111
▁preparing	-10.9111
▁stories	-10.9111
▁purple	-10.9111
▁ឧសភា	-10.9111
▁sufficient	-10.9112
grade	-10.9114
សាធារណៈ។	-10.9115
ដំណឹងល្អ	-10.9118
ភាពខុសគ្នា	-10.9118
▁Security	-10.9118
pm	-10.912
▁changed	-10.9123
▁mechanism	-10.9128
▁disc	-10.9131
▁Supreme	-10.9132
ការជួញដូរ	-10.9132
ពណ៌លឿង	-10.9133
សន្សំសំចៃ	-10.9135
▁wooden	-10.9137
He	-10.9137
▁ទីតាំង	-10.9138
ae	-10.9139
ដកដង្ហើម	-10.914
ala	-10.9141
តាំង	-10.9141
▁ព្រះអង្គ	-10.9143
▁treat	-10.9145
▁អ្នកទាំងអស់គ្នា	-10.9145
▁controlled	-10.9148
របស់រដ្ឋាភិបាល	-10.9149
▁husband	-10.9152
▁bio	-10.9153
ផ្លូវជាតិលេខ	-10.9154
▁អិល	-10.9155
អ្នកជក់បារី	-10.9155
▁Van	-10.9155
ចប់	-10.9156
rant	-10.9156
speed	-10.9157
ខា	-10.9158
▁Matt	-10.9161
SL	-10.9162
ឡើងវិញ។	-10.9163
mA	-10.9163
តាមរបៀប	-10.9164
ហាក់	-10.9164
នៅទូទាំងប្រទេស	-10.9164
៣៨	-10.9165
រដូវក្តៅ	-10.9166
លុបបំបាត់	-10.9167
▁lights	-10.9167
0.5	-10.9169
▁witness	-10.9169
ail	-10.9169
គ្រូឧទ្ទេស	-10.9173
សវនាការ	-10.9173
▁pagoda	-10.9173
▁Trump	-10.9173
ហើយពួកគេ	-10.9175
pon	-10.9178
នីមួយៗ។	-10.9179
នៅក្បែរ	-10.9184
ជាផ្នែកមួយនៃ	-10.9185
ភាពរឹង	-10.9186
Pa	-10.9189
hereby	-10.919
ឧទ្យាន	-10.919
but	-10.9191
ដើម្បីកែលម្អ	-10.9191
▁module	-10.9191
▁drawing	-10.9191
ប្រែក្លាយ	-10.9193
សញ្ញាបត្រ	-10.9193
▁concept	-10.9193
▁ធ្នូ	-10.9193
អ្នកអាន	-10.9194
▁prevail	-10.9194
▁Prophet	-10.9194
De	-10.9195
ទាំងនេះ។	-10.9195
▁gear	-10.9195
▁delivered	-10.9196
ដូច្នេះអ្នកអាច	-10.9197
▁task	-10.9199
មិនជ្រាបទឹក	-10.92
បាយ។	-10.92
អ្នកបង្កើត	-10.9202
ធ្វើអ្វី	-10.9202
tr	-10.9202
▁shot	-10.9202
Ch	-10.9203
▁Gen	-10.9203
យ៉ាងសកម្ម	-10.9204
▁Their	-10.9204
▁tech	-10.9208
▁ជំហាន	-10.9208
▁instruments	-10.9211
▁ឥត	-10.9212
សែល	-10.9214
យុគសម័យ	-10.9215
▁anniversary	-10.9215
ក្រាហ្វិក	-10.9215
▁Innovation	-10.9215
ព្រែក	-10.9215
ស្តង់ដា	-10.9216
▁cur	-10.9218
រលូន	-10.9222
:25	-10.9226
▁Bio	-10.9226
ើរ	-10.9228
ផ្ទុយ	-10.9228
vert	-10.9228
ement	-10.9229
▁សួរ	-10.923
ប៊ីត	-10.923
105	-10.9233
ជារៀងរាល់ឆ្នាំ	-10.9234
▁7:	-10.9234
▁agent	-10.9235
ស្ថាបនិក	-10.9236
▁Analysis	-10.9236
ments	-10.9236
▁ad	-10.9237
▁backpack	-10.9237
▁ក្នុងឆ្នាំ	-10.9237
▁Range	-10.9239
coin	-10.9239
nder	-10.9242
គម្រោងអភិវឌ្ឍន៍	-10.9242
▁Well	-10.9243
▁CBD	-10.9244
នៃការប្រើប្រាស់	-10.9245
កម្ពុជាបាន	-10.9247
▁participants	-10.9251
យើងទាំងអស់គ្នា	-10.9251
បង្ក្រាប	-10.9252
យើងមិន	-10.9252
▁Wa	-10.9252
មរណភាព	-10.9253
ត្រឡប់ទៅ	-10.9253
▁រន្ធ	-10.9253
▁សណ្ឋាគារ។	-10.9254
▁mass	-10.9256
ជឿថា	-10.9257
▁ការបង្កើត	-10.9257
▁Protection	-10.9257
cor	-10.9258
ដ៏ជ្រាលជ្រៅ	-10.9258
▁unto	-10.9259
ម្ខាង	-10.926
ឿន	-10.9261
ពិភពលោក។	-10.9262
▁វេទិកា	-10.9262
ការបែងចែក	-10.9266
▁compare	-10.9267
▁anyone	-10.9269
អ្នកនឹងទទួលបាន	-10.9269
ចូលរួមជាមួយ	-10.927
▁boat	-10.927
បិទជិត	-10.9274
គួរតែវិភាគ	-10.9274
ួង	-10.9275
▁កា	-10.9275
សញ្ជាតិ	-10.9275
លំហាត់	-10.9278
▁declaration	-10.9278
▁vacuum	-10.9278
▁09	-10.9279
▁អាចរៀន	-10.9283
ម៉ាស៊ីនភ្លើង	-10.9283
▁មែន	-10.9284
វិញ។	-10.9284
▁$4	-10.9284
អ្នកកំពុង	-10.9284
▁ឱកាស	-10.9284
▁manager	-10.9285
▁កម្មករ	-10.9287
ម៉ាក់	-10.9289
បន្ទះសៀគ្វី	-10.9291
កម្រ	-10.9292
economic	-10.9292
ល្អជាង	-10.9293
▁cat	-10.9293
អ៊ីតាលី	-10.9294
អ្នកត្រូវតែ	-10.9294
▁Ku	-10.9298
mor	-10.9298
tract	-10.9299
static	-10.9299
▁ceramic	-10.93
▁virtual	-10.93
▁hear	-10.93
នឹងអាច	-10.93
▁commission	-10.93
▁Pressure	-10.93
ការបរទេស	-10.93
PA	-10.9301
ening	-10.9301
កណ្ដាល	-10.9303
សមរម្យសម្រាប់	-10.9305
▁Sal	-10.9305
▁improvement	-10.9305
:28	-10.931
▁10,	-10.931
ដើម្បីដោះស្រាយ	-10.9311
នៅក្នុងកម្មវិធី	-10.9313
solving	-10.9313
▁គ្រួសារ	-10.9315
៦៥	-10.9316
▁PU	-10.9317
▁drill	-10.9319
ភាគច្រើននៃ	-10.9319
សណ្តាប់ធ្នាប់	-10.9321
▁magnificent	-10.9321
លាងសម្អាត	-10.9322
▁វីដេអូ	-10.9323
▁1,000	-10.9324
របស់អ្នកហើយ	-10.9325
ការពិតដែលថា	-10.9325
late	-10.9325
ពីរនាក់	-10.9326
នៅពីក្រោយ	-10.9327
▁OF	-10.933
▁ហេង	-10.9332
▁សារមន្ទីរ។	-10.9333
▁Fast	-10.9335
▁driven	-10.9337
▁prince	-10.9341
ជម្រុញ	-10.9342
ប្រឈមនឹង	-10.9342
ដោយសេរី	-10.9343
▁Switch	-10.9344
▁អភិបាល	-10.935
▁25,	-10.9352
▁Chrome	-10.9353
ផ្តាច់មុខ	-10.9354
▁Constitution	-10.9355
LT	-10.9355
▁coated	-10.9358
ប្រសិនបើអ្នកចង់	-10.9359
▁pattern	-10.9362
សំភារៈ	-10.9363
បញ្ច្រាស	-10.9363
ស្ម័គ្រចិត្ត	-10.9363
ទាំងបី	-10.9363
▁Features	-10.9363
▁ក្នុងឱកាស	-10.9364
បណ្ណាល័យ	-10.9364
▁manufacture	-10.9367
សង្ស័យ	-10.9367
សូចនាករ	-10.9369
▁fill	-10.9369
Sh	-10.937
▁តែងតែ	-10.937
FP	-10.9371
▁ដែលនឹង	-10.9373
▁mid	-10.9373
▁assets	-10.9375
shaped	-10.9377
ស៊ីន	-10.9377
▁contains	-10.9378
ទុកចិត្ត	-10.9379
ណាមួយដែល	-10.938
▁See	-10.9381
ដេរ	-10.9382
▁attended	-10.9384
ទេវតា	-10.9385
▁Central	-10.9385
▁currency	-10.9385
▁straight	-10.9385
សេចក្ដីថ្លៃថ្នូរ	-10.9385
▁expanded	-10.9386
▁អង្កត់ផ្ចិត	-10.9386
អេហ្វ	-10.9386
▁inform	-10.9389
▁Fu	-10.939
ending	-10.9391
▁reject	-10.9391
arch	-10.9393
▁properly	-10.9393
▁ដូចដែល	-10.9395
ទៀត។	-10.9396
ប្រាកដថា	-10.9396
ride	-10.9401
▁operational	-10.9402
កាស៊ីណូអនឡាញ	-10.9402
▁aim	-10.9403
▁thousand	-10.9405
០២	-10.9407
ប្រសិនបើវា	-10.9408
▁suspect	-10.941
stone	-10.9411
សម្តែង	-10.9412
toxic	-10.9412
អំឡុងពេល	-10.9413
▁goes	-10.9414
550	-10.9416
▁Out	-10.9416
▁follows	-10.9417
៤៨	-10.9422
ទិស	-10.9422
▁menu	-10.9424
cl	-10.9425
ដែលត្រូវបានប្រើ	-10.9427
▁ឃ	-10.9427
របស់រដ្ឋ	-10.9428
▁lu	-10.9428
វាយប្រហារ	-10.9429
▁ផ្តល់នូវ	-10.9429
បាល់ទាត់	-10.9432
BR	-10.9432
▁អចលនទ្រព្យ	-10.9432
▁5:	-10.9433
FI	-10.9435
ម៉ូត	-10.9441
▁union	-10.9443
ឱ្យអ្នក	-10.9443
▁machining	-10.9449
▁Outdoor	-10.9449
ព្រះវិហារ	-10.945
des	-10.945
ថ្មម៉ាប	-10.9451
▁FOB	-10.9451
▁grinding	-10.9452
▁calls	-10.9453
▁hydr	-10.9455
▁ban	-10.9456
▁mill	-10.9457
ជើងហោះហើរ	-10.9457
▁actions	-10.9458
▁End	-10.9461
ប្រជា	-10.9461
▁(3)	-10.9463
ទាន់ពេលវេលា	-10.9463
សូមមើល	-10.9464
មែនទេ	-10.9466
បំប្លែង	-10.9467
▁occur	-10.947
ក្រសួងបរិស្ថាន	-10.947
▁FileCatalyst	-10.947
▁patent	-10.947
▁seconds	-10.9471
CF	-10.9471
▁អំពូល	-10.9472
▁Ve	-10.9473
▁controller	-10.9473
្រ	-10.9473
អេកូ	-10.9477
សង្ឃឹម	-10.9477
▁Only	-10.9481
▁Packing	-10.9483
ថា៖	-10.9484
▁certificates	-10.949
▁DN	-10.9491
▁Thanks	-10.9491
▁aquarium	-10.9492
▁artificial	-10.9492
▁criminal	-10.9492
▁heaven	-10.9492
▁ចាន់	-10.9493
▁Airport	-10.9493
ផ្ទះល្វែង	-10.9494
▁និងឧបករណ៍	-10.9494
lex	-10.9494
▁tests	-10.9495
ខែកក្កដា	-10.9496
▁Ru	-10.9503
អ្នកចង់	-10.9503
▁tape	-10.9503
▁male	-10.9506
ទីកន្លែង	-10.9508
ចម្រៀង	-10.9508
▁Son	-10.9509
▁achievements	-10.9511
▁មានកាតព្វកិច្ច	-10.9512
ហ្សា	-10.9513
អុកស៊ីសែន	-10.9513
commerce	-10.9513
▁attempt	-10.9513
list	-10.9514
ធានាបាននូវ	-10.9518
សមត្ថភាពក្នុងការ	-10.9521
▁GDP	-10.9523
កិច្ចសហប្រតិបត្	-10.9523
3/	-10.9527
▁Pe	-10.9528
▁Char	-10.9532
បាច់	-10.9534
▁Delivery	-10.9534
▁Agricultural	-10.9535
▁afternoon	-10.9535
▁reputation	-10.9535
ក្តីសុបិន្ត	-10.9536
▁shopping	-10.9536
3000	-10.9538
យល់ដឹង	-10.9538
▁palm	-10.9539
ដែលអ្នកត្រូវការ	-10.9543
▁Gra	-10.9544
▁density	-10.9545
ដោយក្រុមហ៊ុន	-10.9546
mark	-10.9547
▁disputes	-10.9552
អាចធ្វើទៅបាន	-10.9552
▁neck	-10.9554
RP	-10.9556
▁4)	-10.9557
▁violence	-10.9557
សម្រាប់កម្មវិធី	-10.9557
ចៀម	-10.9557
▁ការផលិត	-10.9559
▁MC	-10.956
▁វ	-10.956
មិនត្រឹមត្រូវ	-10.9562
▁electro	-10.9562
len	-10.9564
:26	-10.9564
ស៊	-10.9566
បានដាក់ចេញនូវ	-10.9567
▁expenses	-10.9568
▁សុវត្ថិភាព	-10.9568
▁girl	-10.9571
ជាមនុស្ស	-10.9572
160	-10.9572
ប្រទេសជាតិ	-10.9573
▁crystal	-10.9578
សែន	-10.9578
▁silk	-10.9578
ក្របខណ្ឌ	-10.9579
ជ័យលាភី	-10.9579
gra	-10.9579
▁technological	-10.9579
▁household	-10.958
ទស្សនកិច្ច	-10.958
▁shift	-10.958
▁41	-10.9583
als	-10.9584
▁Block	-10.9584
ហ្គូ	-10.9585
rank	-10.9586
ជឿ	-10.9586
ហ៊ី	-10.9587
▁២២	-10.9588
ដូចគ្នានឹង	-10.959
▁សិទ្ធិ	-10.9591
tes	-10.9592
▁trends	-10.9593
▁permanent	-10.9593
▁formula	-10.9593
បញ្ញា	-10.9594
ទេហើយ	-10.9594
site	-10.9595
បម្លែង	-10.9596
PCS	-10.9599
▁universities	-10.96
FR	-10.9601
ble	-10.9602
▁nice	-10.9604
▁edit	-10.9604
0.1	-10.9605
pur	-10.9606
ការជូនដំណឹង	-10.9606
▁Listen	-10.9607
ដែលមានតម្លៃ	-10.961
ឆ្មា	-10.961
▁sin	-10.9616
របស់អតិថិជន។	-10.9617
ck	-10.9619
ថេ	-10.962
▁submitted	-10.9623
មួយដែលមាន	-10.9623
▁24,	-10.9624
▁competitiveness	-10.9624
/1	-10.9625
▁Touch	-10.9625
▁attractive	-10.9626
▁printed	-10.9627
២៣	-10.9628
ម៉ាស៊ីនកិន	-10.9628
▁detail	-10.9631
▁causes	-10.9633
▁កែវ	-10.9634
▁German	-10.9637
▁shell	-10.9637
▁cloth	-10.9637
▁កំណត់ចំណាំ	-10.9638
▁behavior	-10.9638
▁វិទ្យាស្ថាន	-10.9639
▁ផោន	-10.9639
របបអាហារ	-10.964
មូលដ្ឋានគ្រឹះ	-10.9641
ោង	-10.9642
ណាដែល	-10.9642
▁oxygen	-10.9644
ឡានក្រុង	-10.9646
▁កំណែ	-10.9646
▁សរុប	-10.9646
1%9	-10.9648
និងអ្នក	-10.9648
▁obtained	-10.965
▁Zone	-10.965
ថ្មីនៃ	-10.9651
▁diet	-10.9652
ចោទប្រកាន់	-10.9656
ties	-10.966
ប៉ាន់ស្មាន	-10.9662
ដើម្បីជៀសវាង	-10.9662
្ត	-10.9663
បំលែង	-10.9663
ef	-10.9664
▁Fan	-10.9664
បម្រុងទុក	-10.9665
ស៊ីម៉ងត៍	-10.9666
លេ	-10.9667
HP	-10.9667
▁scientists	-10.9667
▁session	-10.9668
ខៀវ	-10.9669
▁dress	-10.9673
ដំណើរការនៃការ	-10.9675
OL	-10.9675
▁www	-10.9677
▁brings	-10.9677
▁nor	-10.9678
មនុស្សយន្ត	-10.9679
330	-10.9679
ជាជម្រើស	-10.968
▁sexual	-10.9684
Ro	-10.9684
កាន់តែប្រសើរឡើង	-10.9684
▁QC	-10.9685
មានបំណង	-10.9685
▁fashion	-10.9686
▁mis	-10.9686
her	-10.9687
▁ទន្ទឹមនឹងនេះ	-10.9687
▁វិច្ឆិកា	-10.9687
ដាច់ដោយឡែក	-10.9687
របស់ប្រជាពលរដ្ឋ	-10.9688
kar	-10.9688
▁requiring	-10.9688
គ្រឿងអលង្ការ	-10.9688
មុខរបរ	-10.9689
ins	-10.9689
▁favorite	-10.9689
ដុះ	-10.969
ពោត	-10.9691
▁Bet	-10.9694
ពួកគេ។	-10.9696
គួរតែពិភាក្សា	-10.9697
350	-10.9698
▁កក្កដា	-10.9698
ការចងចាំ	-10.9698
▁trans	-10.9699
មិនចង់	-10.97
▁PS	-10.9701
ចៅ	-10.9702
▁para	-10.9706
▁Screen	-10.971
▁convenience	-10.971
សាកថ្ម	-10.971
▁MT	-10.9713
៣៥	-10.9716
ទីបី	-10.9716
នៅសាកលវិទ្យាល័យ	-10.9717
ប្រចាំខែ	-10.9718
hua	-10.9719
▁century	-10.9719
ប៉េ	-10.9721
▁Wed	-10.9721
ក្រសួងការពារជាតិ	-10.9721
:27	-10.9723
គណបក្សប្រជាជន	-10.9724
ហ្គាស	-10.9724
▁actual	-10.9725
ទាប។	-10.9727
ជំងឺមហារីក	-10.973
dge	-10.9731
▁glorious	-10.9732
125	-10.9733
▁diverse	-10.9733
វ៉ាល់	-10.9733
▁combat	-10.9733
rom	-10.9733
▁vertical	-10.9735
los	-10.9738
នីតិ	-10.974
▁speaking	-10.9743
▁ម្សៅ	-10.9744
ធិ	-10.9744
អគ្គនាយកដ្ឋាន	-10.9745
▁និងសេវាកម្ម	-10.975
▁សំបុត្រ	-10.975
តែប៉ុណ្ណោះ	-10.975
ជាច្រើនដូចជា	-10.9751
េត	-10.9752
Pacific	-10.9754
▁approval	-10.9754
▁conservation	-10.9754
▁Kratie	-10.9754
ភួយ	-10.9754
▁Speu	-10.9755
ដើម្បីទាក់ទាញ	-10.9756
▁brain	-10.9756
និងឧបករណ៍	-10.9757
អ៊ូ	-10.9758
ផ្សារភ្ជាប់	-10.9758
ខាងមុខ។	-10.9759
▁នរោត្តម	-10.9759
ភាគល្អិត	-10.976
care	-10.9761
ការស្ទង់មតិ	-10.9762
▁agrees	-10.9762
▁ចង់ទិញ	-10.9763
ken	-10.9764
▁ខៀវ	-10.9765
សង្ឃឹមថា	-10.9765
▁ease	-10.9765
ម្ចាស់ផ្ទះ	-10.9765
▁និងអាច	-10.9765
▁វិធីសាស្រ្ត	-10.9765
▁previously	-10.9769
កាំភ្លើង	-10.9772
cast	-10.9774
▁refuses	-10.9775
នៅចុង	-10.9777
▁retail	-10.9777
▁ahead	-10.9778
▁charges	-10.9782
នាយករដ្ឋមន្រ្តី	-10.9782
cer	-10.9785
▁petition	-10.9786
▁houses	-10.9786
▁vote	-10.9787
ខាងត្បូង	-10.9787
សិង្ហបុរី	-10.9788
NS	-10.9788
gal	-10.9792
PD	-10.9796
ការស្លាប់	-10.9797
ប្រូតេអ៊ីន	-10.9799
▁Scholarship	-10.9799
▁kept	-10.9799
▁និងដឹកជញ្ជូន	-10.98
▁11,	-10.9802
▁0.2	-10.9803
▁objects	-10.9807
▁Friday	-10.9809
កាត់បន្ថយការ	-10.981
▁ប្រភព	-10.9811
▁extract	-10.9816
ប៉ាក់	-10.982
▁យ៉ាងណាមិញ	-10.9821
▁servo	-10.9821
ប្រជារាស្ត្រ	-10.9824
និងបង្កើត	-10.9824
shan	-10.9826
▁សីហា	-10.9826
អនុញ្ញាត	-10.9828
▁mission	-10.9828
▁យើងខ្ញុំនឹង	-10.983
▁demanding	-10.9832
ដែលមានលក្ខណៈ	-10.9833
នៅក្នុងទីក្រុង	-10.9836
ពា	-10.9841
▁Environmental	-10.9842
រោង	-10.9843
រួចទៅហើយ	-10.9844
អ្នកត្រូវការ	-10.9845
Cl	-10.9845
▁collect	-10.9846
▁truck	-10.9847
▁focused	-10.9848
▁rope	-10.9848
▁64	-10.9848
lie	-10.9848
▁detect	-10.985
pin	-10.9851
ការទាមទារ	-10.9855
▁ត្រី	-10.9855
▁encourage	-10.9857
▁ពីព្រោះ	-10.9857
IM	-10.9857
របស់អ្នកនិង	-10.986
0.00	-10.9861
AH	-10.9864
▁pollution	-10.9866
ឆ្នាំមកហើយ	-10.9868
ទំនាក់ទំនងជាមួយ	-10.9868
wo	-10.9869
អ្នកប្រហែលជា	-10.9872
ផ្សាភ្ជាប់	-10.9882
ដែលអាចប្រើបាន	-10.9886
អំឡុង	-10.9887
▁populace	-10.9888
នៅឡើយ	-10.9888
ពិភាក្សាអំពី	-10.989
cation	-10.989
/5	-10.9891
▁clothing	-10.9891
មានសុពលភាព	-10.9893
កិច្ចសហការ	-10.9894
ជាជាង	-10.9894
/60	-10.9894
ព្រះសង្ឃ	-10.9895
▁shoulder	-10.9896
▁ដើម្បីជំរុញ	-10.9902
3.2	-10.9903
ុក	-10.9904
មេធាវី	-10.9906
▁បើអ្នក	-10.9906
ល្ងាច	-10.991
ឆ្លាត	-10.991
ឥតឈប់ឈរ	-10.991
▁valuable	-10.991
▁Notably	-10.9911
▁reference	-10.9911
ការព្យាករណ៍	-10.9912
▁ទោះយ៉ាងណា	-10.9913
▁Act	-10.9914
▁instrument	-10.9915
ផងដែរ៕	-10.9917
បំពាន	-10.9918
▁និងអ្នក	-10.992
▁fishing	-10.992
itation	-10.9921
▁signs	-10.9922
▁measure	-10.9923
▁quarter	-10.9925
▁becomes	-10.9927
▁scholarships	-10.9927
▁អ្នកសិក្សា	-10.9929
▁race	-10.9929
អ្នកដំណើរ	-10.9929
គឺជាប្រភេទ	-10.9934
▁EV	-10.9934
▁$5	-10.9936
បកស្រាយ	-10.9938
▁garment	-10.9938
ពង	-10.9941
▁ensures	-10.9942
ការណ៍	-10.9942
ាស់	-10.9943
▁rod	-10.9943
នាម	-10.9946
▁exist	-10.9946
ភ្លេច	-10.9946
▁increasingly	-10.9949
▁ហេតុ	-10.995
ភាពច្នៃប្រឌិត	-10.9951
ចម្លាក់	-10.9952
▁រោងចក្រផលិត	-10.9952
▁connecting	-10.9953
▁ផ្សារទំនើប	-10.9953
SM	-10.9954
ហ្នឹង	-10.9954
រទេះ	-10.9955
ចម្លែក	-10.9955
▁intervention	-10.9956
pen	-10.9956
▁wrong	-10.9956
pal	-10.9959
២៧	-10.9959
▁២៣	-10.996
▁carefully	-10.9962
▁Growing	-10.9962
▁២១	-10.9962
គ្រប់ទីកន្លែង	-10.9966
គឺមិន	-10.9968
▁Ge	-10.9968
▁Grand	-10.9968
របប	-10.9976
▁carrying	-10.9976
ខ្ពស់និង	-10.9976
កន្លះ	-10.9978
▁Pursat	-10.9978
▁finger	-10.9979
ការទទួលស្គាល់	-10.998
▁enable	-10.9981
▁2020,	-10.9983
តែងតាំង	-10.9984
▁focusing	-10.9984
max	-10.9984
ជំរើស	-10.9985
ដើម្បីចាប់ផ្តើម	-10.9992
▁phones	-10.9993
ការបើក	-10.9996
ral	-11
▁evaluation	-11.0001
អាណាចក្រ	-11.0001
បានប្រកាស	-11.0004
▁អាយុ	-11.0004
ili	-11.0004
▁Jan	-11.0007
▁soup	-11.0008
pu	-11.001
វះកាត់	-11.0011
បានថ្លែង	-11.0013
ដូចនេះ	-11.0013
ក្នុងពិធី	-11.0015
Our	-11.0015
បានកំណត់	-11.0017
▁Malaysia	-11.0017
រដូវកាល	-11.002
អគ្គនាយក	-11.0021
VA	-11.0022
▁College	-11.0024
ជាសះស្បើយ	-11.0025
LB	-11.0029
ei	-11.0031
▁ដុល្លារ។	-11.0032
ខួប	-11.0033
គម្រោងនេះ	-11.0033
សម្រាប់ផលិតផល	-11.0033
▁discussed	-11.0035
▁Chen	-11.0037
បទបញ្ជា	-11.0037
matic	-11.0037
▁ម៉ា	-11.0039
▁upgrade	-11.0039
រមណីយដ្ឋាន	-11.0039
▁title	-11.0041
និងជា	-11.0041
អាងហែលទឹក	-11.0047
សម្ពោធ	-11.0047
▁hose	-11.0048
ម៉ាឡេស៊ី	-11.0049
▁តូច	-11.0052
▁charger	-11.0054
▁ដោយ៖	-11.0055
▁ST	-11.0056
▁arrive	-11.0058
ជជែក	-11.0059
បញ្ចូលមតិ	-11.006
ane	-11.0061
▁ស្ថិត	-11.0061
190	-11.0061
▁Will	-11.0062
▁ផ្សារ។	-11.0063
4)	-11.0064
▁cancer	-11.0064
២០០	-11.0064
ការកែច្នៃ	-11.0065
កោង	-11.0065
▁44	-11.0065
▁Personal	-11.0066
ពលរដ្ឋខ្មែរ	-11.0067
▁imports	-11.0069
ត្រូវការអនុវត្ត	-11.0069
romneath	-11.0069
និម្មិត	-11.0069
▁atmosphere	-11.0069
យក្ស	-11.0069
▁advice	-11.0069
ក្មេងប្រុស	-11.007
▁Sar	-11.0071
▁Convert	-11.0071
ចាត់វិធានការ	-11.0076
▁សញ្ញា	-11.0076
ប្រវត្តិ	-11.0077
▁Jul	-11.0077
ដែលមានទំហំ	-11.0078
ការតស៊ូ	-11.0079
resistant	-11.008
ani	-11.0081
▁Coin	-11.0081
jet	-11.0081
dam	-11.0081
ទៀតផង។	-11.0082
▁កំពុងតែ	-11.0084
ួរ	-11.0085
AB	-11.0088
ភីកសែល	-11.0092
ផ្សាយតែម	-11.0092
▁<<	-11.0092
ជេរប្រមាថដល់	-11.0093
សីតុណ្ហាភាព	-11.0094
ហ្វា	-11.0095
Al	-11.0097
ភ័យខ្លាច	-11.0098
▁error	-11.0099
▁respond	-11.01
▁គុណភាព	-11.0101
▁involve	-11.0103
▁Does	-11.0104
▁Pol	-11.0104
នាយក	-11.0106
ធ្វើបទបង្ហាញ	-11.0107
តិណា	-11.0107
ត្រូវបានរកឃើញ	-11.011
▁កសិករ	-11.011
▁Korean	-11.0111
អ្វីដែលយើង	-11.0111
អាគារ	-11.0114
▁Equipment	-11.0115
កូរ៉េខាងត្បូង	-11.0116
▁ចាប់ផ្តើម	-11.0116
មិនត្រូវការ	-11.0116
▁ញុមឃើញ	-11.0118
1800	-11.0121
ការបំពុល	-11.0123
▁leads	-11.0124
dio	-11.0126
ឯកតា	-11.0128
ened	-11.0128
នូវការ	-11.0128
ហ្គី	-11.0131
ati	-11.0131
pel	-11.0131
▁played	-11.0131
▁equal	-11.0132
▁ទំនាក់ទំនង	-11.0135
សិស្សានុសិស្ស	-11.0136
កញ្ញា	-11.0138
▁Rescue	-11.0138
▁changing	-11.014
ពុំ	-11.0141
ជានិច្ច។	-11.0142
?"	-11.0143
កាត់ឡាស៊ែរ	-11.0144
▁កែប្រែ	-11.0147
កាន់តែងាយស្រួល	-11.0148
days	-11.0149
▁celebrate	-11.015
▁380	-11.0152
▁សណ្ឋាគារ	-11.0152
មានផាសុកភាព	-11.0153
ក្មេងៗ	-11.0153
Con	-11.0155
▁Ag	-11.0156
▁Press	-11.0158
ការតំឡើង	-11.0159
▁កាត់បន្ថយ	-11.016
ម៉ាញេទិក	-11.016
▁nutrition	-11.0161
▁gaming	-11.0161
▁ongoing	-11.0161
▁យោបល់	-11.0165
័រ	-11.0166
ធ្វើឱ្យមាន	-11.0166
▁band	-11.0169
គួរតែរំលឹក	-11.0169
គណបក្សសង្គ្រោះ	-11.017
▁permit	-11.0172
▁zone	-11.0172
formation	-11.0172
ការដក	-11.0173
▁នឹងស្វែងយល់	-11.0174
▁scholarship	-11.0177
នេះដែរ	-11.0183
LP	-11.0184
xi	-11.0184
▁leather	-11.0184
អ្នកដទៃប៉ុណ្ណោះ។	-11.0185
▁Unit	-11.0185
af	-11.0185
▁Ya	-11.0185
▁addressing	-11.0188
លើកទឹកចិត្តដល់	-11.0189
''	-11.019
០៥	-11.0191
▁clinic	-11.0192
ភ្ជាប់មកជាមួយ	-11.0193
oon	-11.0198
▁beef	-11.0202
បានធ្វើការ	-11.0204
លើបណ្តាញ	-11.0205
▁compliance	-11.0205
ប្រាំមួយ	-11.0209
ette	-11.0209
ប៉ូល	-11.0211
ម៉ាស៊ីនបូមទឹក	-11.0211
▁ទំនិញ	-11.0211
▁Custom	-11.0212
មានលទ្ធភាព	-11.0212
-04	-11.0213
▁តើអ្នកមាន	-11.0215
កាដូ	-11.0216
▁ODM	-11.0216
ការចោទប្រកាន់	-11.0216
▁Game	-11.0217
គេស្គាល់ថាជា	-11.0217
▁stick	-11.0219
▁flame	-11.022
មួយឆ្នាំ	-11.0221
មានអាយុ	-11.0222
▁sharp	-11.0223
្វ័យប្រវត្តិកម្ម	-11.0223
ច្រើនទៀត	-11.0224
ject	-11.0224
▁ស្រទាប់	-11.0226
ផ្សេងៗទៀត។	-11.0228
ប្រាក់ឈ្នួល	-11.0228
េន	-11.023
▁mono	-11.023
▁Organization	-11.023
អាវយឺត	-11.0231
mount	-11.0232
vol	-11.0232
▁Local	-11.0232
មិនថា	-11.0233
▁aspects	-11.0235
មានប្រជាប្រិយភាព	-11.0236
បណ្តោះអាសន្ន	-11.0239
និងងាយស្រួល	-11.0239
▁pan	-11.0239
▁Pan	-11.0241
▁spy	-11.0242
hip	-11.0243
▁adopted	-11.0245
▁ពិភពលោក	-11.0245
អនុវត្តគោលនយោបាយ	-11.0246
▁street	-11.0246
▁អភិវឌ្ឍ	-11.0247
ration	-11.0248
▁wanted	-11.0249
ចម្អិន	-11.0249
▁PV	-11.025
លើវិស័យ	-11.0252
ក្នុងនាមជា	-11.0253
ប្រសិនបើអ្នកមិន	-11.0253
ឯកអគ្គរដ្ឋទូត	-11.0254
▁Municipal	-11.0254
ទូរគមនាគមន៍	-11.0254
▁talent	-11.0254
▁មេធាវី	-11.0258
យាន	-11.0259
▁File	-11.0262
▁cloud	-11.0262
▁specialized	-11.0267
▁គិតត្រឹម	-11.0267
▁corner	-11.0268
650	-11.0269
▁ប្រសើរ	-11.0271
សុពលភាព	-11.0272
ថ្ងៃសុក្រ	-11.0273
កប៉ាល់	-11.0277
▁Academy	-11.0277
▁Vihear	-11.0277
▁illuminat	-11.0277
aimed	-11.0279
ដើមកំណើត	-11.0279
▁Start	-11.0279
▁forests	-11.0279
▁seed	-11.028
អ្នកអភិវឌ្ឍន៍	-11.0281
▁reasonable	-11.0282
▁pet	-11.0284
▁router	-11.0284
market	-11.0285
▁seat	-11.0291
នៃទីក្រុង	-11.0294
▁សរសេរ	-11.0294
▁Fund	-11.0294
ដ្ឋ	-11.0295
▁130	-11.0295
▁CH	-11.0295
ខ្ញុំមាន	-11.0297
កុងតាក់	-11.03
ជាប់លាប់	-11.03
▁forbidden	-11.03
▁Film	-11.03
ទូរទឹកកក	-11.0301
HD	-11.0301
▁lawyer	-11.0301
▁achiev	-11.0301
ranking	-11.0304
ផ្នែកខាងលើ	-11.0304
▁350	-11.0304
▁ដំណោះស្រាយ	-11.0305
▁និងប្រព័ន្ធ	-11.0306
▁CPP	-11.0308
▁vaccine	-11.0309
▁occasion	-11.031
▁បានប្រកាស	-11.0311
ឱ្យកាន់តែ	-11.0311
ផ្តាច់	-11.0312
រំអិល	-11.0313
body	-11.0315
អោយប្រសើរឡើងនូវ	-11.0316
ម៉	-11.0317
ប្ប	-11.0317
▁feeling	-11.0318
▁90%	-11.0318
▁Class	-11.0319
▁pepper	-11.0323
លាបថ្នាំលាប	-11.0323
▁affordable	-11.0325
តំណាងរាស្ត្រ	-11.0325
table	-11.0325
ចេញមក	-11.0325
អាស្រ័យ	-11.0329
ព្រះរាជក្រឹត្យ	-11.0329
ដែលអាចបត់បែនបាន	-11.033
វ៉ាន់	-11.0331
▁purposes	-11.0332
ពណ៌ក្រហម	-11.0332
▁1.1	-11.0333
ona	-11.0333
៥នាក់	-11.0333
▁crop	-11.0334
1-2	-11.0334
mas	-11.0335
▁constantly	-11.0335
ឱ្យដឹងថា	-11.0336
ការរួមបញ្ចូលគ្នា	-11.0337
▁Tube	-11.0338
▁4-	-11.0339
មានសុខភាពល្អ	-11.0339
High	-11.0339
▁ខ្លាំង	-11.0342
គ្មាននរណាម្នាក់	-11.0342
នៅឡើយទេ	-11.0347
▁poverty	-11.0347
ច្រៀង	-11.0348
star	-11.0348
▁ញុមមិនដែល	-11.0348
មានតម្រូវការ	-11.0348
▁workpiece	-11.0349
ដូង	-11.035
ឆ្នាំ២០២០	-11.035
3,000	-11.0351
▁concepts	-11.0351
ការលើកទឹកចិត្ត	-11.0352
▁ratio	-11.0352
ក្រុមហ៊ុនផលិតនិង	-11.0354
អាចធ្វើ	-11.0354
iss	-11.0358
spect	-11.0358
ឧត្តម	-11.036
▁combine	-11.036
GSM	-11.0361
▁DE	-11.0362
គ្មានអ្វី	-11.0363
▁និងសុវត្ថិភាព	-11.0365
▁Current	-11.0366
ឌីស	-11.0367
បន្តថា	-11.037
yn	-11.0371
បាតុភូត	-11.0371
▁mSpy	-11.0371
hether	-11.0372
▁អ្នកក៏អាច	-11.0372
▁២០១៨	-11.0373
ប្រាសាទ។	-11.0374
▁flash	-11.0374
▁separate	-11.0375
wood	-11.0382
DN	-11.0383
ឆ្នាំ២០	-11.0385
បានឆ្លងកាត់	-11.039
▁សូ	-11.039
point	-11.039
:31	-11.0392
▁reliability	-11.0394
▁Exchange	-11.0395
▁copyright	-11.0395
យាង	-11.0396
▁values	-11.04
សុបិន	-11.04
ចំណែក	-11.0402
ដទៃ	-11.0404
តំរូវការ	-11.0404
ព្រះនាង	-11.0406
សត្រូវ	-11.0407
▁កាមេរ៉ា	-11.0408
ខែកញ្ញា	-11.0411
▁solder	-11.0411
អេម	-11.0412
▁ហៅ	-11.0413
តង់ស្យុង	-11.0415
▁មករា	-11.0416
▁មកពី	-11.0417
MHz	-11.0417
តេជោ	-11.0418
▁និងលើកកម្ពស់	-11.0418
▁fraud	-11.0418
▁adding	-11.0419
▁vaccination	-11.0419
▁Click	-11.0421
flow	-11.0424
▁arts	-11.0425
រួមមាន៖	-11.0426
សាន់	-11.0427
-24	-11.0428
ដែលអាចធ្វើទៅបាន	-11.043
▁flight	-11.0431
▁transactions	-11.0431
▁clamp	-11.0432
ការប្រមូលផ្តុំ	-11.0432
ពិតជាបាន	-11.0435
ដែលផលិត	-11.0435
ប៉ម	-11.0436
▁holds	-11.0438
ess	-11.044
▁ordinary	-11.0442
▁Ministers	-11.0442
▁Know	-11.0443
▁ណាស់	-11.0446
▁Rock	-11.0447
▁Case	-11.045
ជាទៀងទាត់	-11.0451
មកលើ	-11.0451
▁ដើម្បីទទួលបាន	-11.0456
ការបន្ថែម	-11.0458
សាស្ត្រ	-11.0461
cover	-11.0464
ដំឡូង	-11.0465
អាម៉េរិក	-11.0465
▁crises	-11.0465
មូលធន	-11.0466
▁Remember	-11.0466
▁entrepreneurs	-11.0467
▁girls	-11.0467
រៀង	-11.0467
▁Earth	-11.0468
hour	-11.0468
នៅពេលដែលអ្នក	-11.0469
ហ្គីតា	-11.0469
បរិ	-11.0471
▁5000	-11.0473
▁spending	-11.0473
▁Mc	-11.0474
នៅក្នុងប្រព័ន្ធ	-11.0476
▁Reg	-11.0476
ibility	-11.0477
អ្នកអាចប្រើ	-11.0481
▁maintained	-11.0481
Th	-11.0481
▁radio	-11.0483
▁80%	-11.0483
UT	-11.0484
▁Production	-11.0486
▁turning	-11.0488
ចុះហត្ថលេខាលើ	-11.0489
0.9	-11.0489
បោះបង់ចោល	-11.049
▁background	-11.049
▁បច្ចុប្បន្ននេះ	-11.0492
ទៅឱ្យ	-11.0493
ម្រាមដៃ	-11.0495
ល្បីល្បាញ	-11.0497
*2	-11.0497
ប្រសិទ្ធភាពនៃ	-11.05
▁accident	-11.05
ក្រសួងការបរទេស	-11.0501
0.7	-11.0503
▁39	-11.0504
▁wonder	-11.0504
▁ពេញ	-11.0505
សេចក្តីជូនដំណឹង	-11.0507
Following	-11.0509
EX	-11.0511
▁IEC	-11.0512
▁warehouse	-11.0513
ពន្ធដារ	-11.0514
▁Payment	-11.0516
សព	-11.0517
atch	-11.0518
▁ប៊ុន	-11.0519
XL	-11.0519
Do	-11.0521
ការអនុញ្ញាត	-11.0521
▁កំពង់ផែ	-11.0521
រក្សាសិទ្ធិ	-11.0521
▁ហើយក៏	-11.0521
ខែមិថុនា	-11.0522
ផលិតផលដែល	-11.0523
ហាងលក់	-11.0526
ធម្មនុញ្ញ	-11.0526
nu	-11.0528
▁3.0	-11.0528
/10	-11.053
▁(3	-11.0532
layer	-11.0532
▁Cat	-11.0535
▁asset	-11.0535
គ្រាប់ពូជ	-11.0536
ស្រាបៀរ	-11.0537
បន្ទាយមានជ័យ	-11.0537
សិល្បករ	-11.0537
អូឌីយ៉ូ	-11.0537
▁fluid	-11.0537
ៀន	-11.0539
គ្រឿងផ្សំ	-11.0541
▁mechanisms	-11.0542
សាំង	-11.0542
▁appointed	-11.0542
ស្អិត	-11.0543
▁ងាយស្រួល	-11.0547
▁IT	-11.0549
ក្រឡា	-11.055
ចុះក្រោម	-11.0552
បើកដំណើរការ	-11.0552
▁pond	-11.0553
▁warrant	-11.0554
▁សហគ្រាស	-11.0555
▁finally	-11.0556
ឆ្ងាយពី	-11.056
▁Ang	-11.056
▁lithium	-11.0561
▁engagement	-11.0563
ជារៀងរហូត	-11.0563
▁payments	-11.0563
▁named	-11.0565
ave	-11.0567
uring	-11.0568
▁Filling	-11.0568
ខេត្តបាត់ដំបង	-11.0569
ត្រូវបានរក្សាទុក	-11.0569
▁stands	-11.0571
▁Cor	-11.0576
▁providers	-11.0576
▁RE	-11.0577
ជំនួយការ	-11.058
▁ទោះបីជាមាន	-11.0581
▁បដិសេធមិន	-11.0581
tru	-11.0582
▁សត្វ	-11.0583
ការខាតបង់	-11.0583
តាក់តែង	-11.0585
▁exquisite	-11.0585
▁covered	-11.0586
▁អំណាច	-11.0586
៤២	-11.0586
បទសម្ភាសន៍	-11.0586
rough	-11.0588
ving	-11.0589
▁Us	-11.0592
ដែលមានន័យថា	-11.0593
មួយដើម្បី	-11.0593
▁pull	-11.0595
▁Area	-11.0595
▁forming	-11.0596
លានដុល្លារ	-11.0596
▁Sand	-11.0599
ros	-11.0601
rr	-11.0601
ឺរ	-11.0604
ធ្វើឱ្យអ្នក	-11.0604
pot	-11.0604
▁កត្តា	-11.0605
ដែលមានអាយុ	-11.0607
▁Va	-11.0607
យកចិត្តទុកដាក់លើ	-11.0608
▁delicious	-11.0609
បានហាមឃាត់មិនឱ្យ	-11.0609
▁Middle	-11.0609
▁landscape	-11.061
បានរកឃើញថា	-11.0612
▁specifications	-11.0613
room	-11.0621
ហេតុ	-11.0621
ធ្វើពាណិជ្ជកម្ម	-11.0622
▁slowly	-11.0623
mat	-11.0626
ហ្វីត	-11.0628
▁settings	-11.0629
▁draw	-11.063
ដែលទាក់ទង	-11.0633
ថេប្លេត	-11.0633
ស៊ុប	-11.0633
▁cannabis	-11.0633
▁Alloy	-11.0634
bas	-11.0637
▁Drive	-11.0638
ខូចខាត	-11.0639
សាធារណរដ្ឋ	-11.0641
BI	-11.0644
▁listen	-11.0644
កម្មសិទ្ធិបញ្ញា	-11.0644
្ល	-11.0646
▁និងអន្តរជាតិ	-11.0646
គិតអំពី	-11.0647
អ្វីៗទាំងអស់	-11.0648
▁ឌី	-11.065
▁magnetic	-11.0651
ida	-11.0652
▁គណបក្ស	-11.0654
▁interests	-11.0657
ដែលយើងបាន	-11.0658
▁១៥០	-11.0658
▁HDMI	-11.0658
ក្នុងការបង្កើត	-11.066
SU	-11.0661
▁កិច្ចសហប្រតិបត្	-11.0662
▁shirt	-11.0664
▁ឬក៏	-11.0666
ការគិត	-11.0668
▁globally	-11.067
រោគ	-11.0672
tom	-11.0673
hydro	-11.0675
គណៈប្រតិភូ	-11.0677
▁Storage	-11.0682
ចំណង់ចំណូលចិត្ត	-11.0682
ក្រាហ្វិច	-11.0682
អំណោយផល	-11.0682
▁discount	-11.0682
ភាគីទីបី	-11.0682
▁Add	-11.0682
▁existence	-11.0682
▁នៅពេលដែលអ្នក	-11.0683
▁else	-11.0683
▁et	-11.0685
▁Hack	-11.0686
▁បញ្ជី	-11.0686
▁សម្ពាធ	-11.0687
ដែលមិនមែនជា	-11.0689
▁រដ្ឋបាល	-11.069
▁១០០០	-11.069
cher	-11.0692
▁SS	-11.0692
ហ្គោ	-11.0694
▁rapidly	-11.0695
នៅម៉ោង	-11.0697
បាត់ដំបង	-11.0697
▁តុលា	-11.0701
▁glory	-11.0706
▁granite	-11.0706
▁compensation	-11.0706
ពាណិជ្ជករ	-11.0706
▁Kids	-11.0707
ខឹង	-11.0708
បុណ្យណូអែល	-11.0709
▁coil	-11.0712
▁ធ្លាប់	-11.0717
ភាពក្រីក្រ	-11.0718
▁និងការអភិវឌ្ឍ	-11.0719
បានបើក	-11.0721
សម្រាប់អ្នក។	-11.0723
បង្ហាប់	-11.0724
រស់រវើក	-11.0728
ម្យ៉ាងវិញទៀត	-11.0731
សមតុល្យ	-11.0731
▁irrigation	-11.0731
▁trouble	-11.0731
▁ប្រហែល	-11.0731
ula	-11.0735
band	-11.0737
បានយ៉ាងល្អ	-11.0742
▁rail	-11.0744
485	-11.0746
តំណែង	-11.0746
▁អញ	-11.0746
ច្នៃ	-11.0748
ជាក្រុម	-11.0748
▁Abu	-11.075
tone	-11.0751
▁exclusive	-11.0754
▁struggle	-11.0755
ដោយរបៀបណា	-11.0755
▁brake	-11.0755
▁Republic	-11.0756
▁Fisheries	-11.0756
own	-11.0758
តម្លៃទាប	-11.0758
ological	-11.0758
៩៥	-11.0759
▁ផ្លាស់	-11.0759
អគ្គលេខាធិការ	-11.0759
ពណ៌ខ្មៅ	-11.0759
ural	-11.0759
▁pipes	-11.076
▁ក៏មាន	-11.0761
▁វិធានការ	-11.0761
▁observed	-11.0764
កំពុងត្រូវបាន	-11.0764
▁បានធ្វើ	-11.0765
▁អ្នកវិភាគ	-11.0766
▁websites	-11.0767
▁Ji	-11.0768
អ្នកមិនអាច	-11.077
ទៅវិញ	-11.0772
កាត់ដេរ	-11.0774
▁participated	-11.0775
ដីកា	-11.0776
▁QR	-11.0777
៨៥	-11.0778
▁funding	-11.0778
ស្ងាត់	-11.0779
▁តើអ្វីទៅជា	-11.078
ស៊ីលីកុន	-11.078
កំប្លែង	-11.078
រាប់ពាន់	-11.078
អ្នកនឹងឃើញ	-11.078
lines	-11.078
ព្រួយបារម្ភ	-11.0781
▁tire	-11.0781
តាមប្រព័ន្ធ	-11.0782
នៃកម្ពុជា	-11.0783
▁transformation	-11.0785
▁sc	-11.0786
LY	-11.0786
▁វត្ថុ	-11.0787
ano	-11.0787
▁Har	-11.0789
មានលក្ខណៈពិសេស	-11.0791
សត្វព្រៃ	-11.0791
ភាពបត់បែន	-11.0792
របៀបដែល	-11.0792
ក្នុងតំបន់។	-11.0793
ado	-11.0793
▁hundred	-11.0794
សម្រាប់គោលបំណង	-11.0795
ទ្វេដង	-11.0796
EM	-11.0796
FL	-11.0796
▁Eco	-11.0796
ction	-11.0802
:29	-11.0804
▁Tag	-11.0804
▁covering	-11.0804
▁judicial	-11.0804
ឆ្នាំសារពើពន្ធ	-11.0804
amine	-11.0805
២៨	-11.0805
▁ញុមនឹង	-11.0805
ជាពិសេសសម្រាប់	-11.0805
លើកឡើង	-11.0805
ខាងស្តាំ	-11.0807
▁ការការពារ	-11.0808
ល្អប្រសើរជាងមុន	-11.0809
នឹក	-11.0811
2.3	-11.0811
▁tales	-11.0812
▁surge	-11.0813
មិនដែល	-11.0814
▁៧០	-11.0816
▁vegetable	-11.0818
▁ធានា	-11.0819
ដ៏ខ្ពង់ខ្ពស់	-11.082
-80	-11.082
ស្លាកសញ្ញា	-11.0821
ការលេង	-11.0822
▁desire	-11.0822
ស្វែងយល់	-11.0824
▁កាត	-11.0826
បរិវេណ	-11.0826
គឺជាឧបករណ៍	-11.0827
▁adjusted	-11.0828
ស្ដង់ដារ	-11.0828
▁នេះគឺ	-11.0828
bed	-11.0828
▁មានតែ	-11.0828
ចំនុច	-11.0829
ជម្ងឺ	-11.0829
▁Cooperation	-11.0829
▁ultra	-11.0829
▁giant	-11.0829
ពពុះ	-11.0831
▁conveyor	-11.0831
fold	-11.0833
ចូលរួមយ៉ាងសកម្ម	-11.0836
របង	-11.0837
នៅក្នុងផ្នែក	-11.0841
ក្នុងមួយខែ	-11.0842
ior	-11.0842
▁declare	-11.0842
ខេត្តកំពត	-11.0842
គិតពី	-11.0845
បញ្ចូលគ្នា	-11.0845
bell	-11.0852
FO	-11.0853
▁discussion	-11.0853
សមា្ភារៈ	-11.0853
▁umbrella	-11.0853
អំពើពុករលួយ	-11.0853
លាបក្រែមលាប	-11.0854
▁Safety	-11.0854
▁Body	-11.0855
បន្	-11.0855
ទេស	-11.0858
ពូកែ	-11.086
rap	-11.0861
▁assessment	-11.0862
▁reaction	-11.0864
BE	-11.087
រៀបរាប់	-11.0871
▁ផ្ដល់	-11.0872
pre	-11.0874
▁អេ។	-11.0876
▁ផែនទី	-11.0877
▁២០២៤	-11.0877
▁password	-11.0878
▁serving	-11.0878
▁Rieng	-11.0879
101	-11.088
▁ពិតជា	-11.0881
នៅទូទាំងពិភពលោក	-11.0884
▁Comments	-11.0887
ឆាក	-11.0888
ត្រូវបានណែនាំ	-11.0889
បានរៀបចំ	-11.0889
▁Em	-11.089
-08	-11.0893
cra	-11.0893
▁អត្ថប្រយោជន៍	-11.0893
▁Order	-11.0893
▁ហើយគាត់បាន	-11.0895
▁mostly	-11.0895
▁seeds	-11.0895
related	-11.0896
ដំណើរការផលិត	-11.0896
▁Change	-11.0897
សកលលោក	-11.09
ហួស	-11.0901
ការស្នើសុំ	-11.0902
▁thy	-11.0902
▁resilient	-11.0903
▁Federation	-11.0903
▁mathematics	-11.0903
▁Related	-11.0904
ក្នុងការធ្វើ	-11.0906
1.2	-11.0906
ឆក់	-11.0906
▁នាយកដ្ឋាន	-11.0907
ច្បាប់ចម្លង	-11.0907
rk	-11.0908
▁Four	-11.0911
HY	-11.0912
▁គង់	-11.0916
▁decrease	-11.0917
ឆ្វេង	-11.0917
ដែលត្រូវគ្នា	-11.0919
▁blade	-11.092
fil	-11.092
ថតរូប	-11.0921
ខុសពី	-11.0922
▁partnerships	-11.0924
▁Heat	-11.0926
មរតក	-11.0927
▁affairs	-11.0928
▁supplies	-11.0928
លាបឡេលាប	-11.0928
|	-11.0929
▁គោលការណ៍	-11.0929
ស្រោម	-11.0929
ស្កេន	-11.0933
ការព្យាបាលដោយ	-11.0935
ទាន់	-11.0938
Se	-11.094
នៃសាកលវិទ្យាល័យ	-11.094
▁outer	-11.0945
▁tablet	-11.0945
នុ	-11.0948
▁drops	-11.0949
▁zones	-11.0949
▁រូបថត	-11.0951
burg	-11.0952
▁tri	-11.0952
មគ្គុទេសក៍	-11.0953
▁Minecraft	-11.0953
▁testimony	-11.0953
៤៤	-11.0953
តួអក្សរ	-11.0954
▁Authority	-11.0954
▁Pin	-11.0954
ên	-11.0959
bot	-11.096
▁240	-11.096
សម្រាប់គម្រោង	-11.0962
ប្រកប	-11.0962
▁proposed	-11.0963
ខែតុលា	-11.0964
ទៀតទេ	-11.0965
គណនីរបស់អ្នក	-11.0966
▁Large	-11.0966
ឥឡូវ	-11.0967
▁foods	-11.0968
សេដ្ឋកិច្ចជាតិ	-11.0968
ស៍	-11.097
WD	-11.097
ត្រូវបានធ្វើ	-11.0972
▁ការដឹកជញ្ជូន	-11.0972
▁តាមដាន	-11.0973
vel	-11.0975
▁dual	-11.0976
ជិតស្និទ្ធ	-11.0978
▁swimming	-11.0978
▁battle	-11.0978
▁discipline	-11.0978
ត្បូង	-11.0978
▁locations	-11.098
បានបង្កើតឡើង	-11.0981
នៅដើម	-11.0981
ម៉ាកយីហោ	-11.0982
▁aiming	-11.0983
▁secondary	-11.0983
▁ពូជ	-11.0984
ការដឹកនាំ	-11.0986
▁នៅតែ	-11.0986
ចំនួនទឹកប្រាក់	-11.0986
លាបជែល	-11.0988
▁scooter	-11.0989
▁score	-11.0989
▁ចុង	-11.099
▁tower	-11.099
ប្រព្រឹត្តទៅ	-11.0991
ខ្ញុំសូម	-11.0994
▁ultimate	-11.0995
ហ្គ	-11.0997
ងាយនឹង	-11.1
ចេ	-11.1
east	-11.1001
០៨	-11.1001
ទ្រូង	-11.1003
▁tissue	-11.1003
▁FOR	-11.1003
▁alarm	-11.1004
បង្ខំ	-11.1004
0%	-11.1004
▁formed	-11.1005
▁នៅឆ្នាំ	-11.1006
ដាក់ឱ្យដំណើរការ	-11.1006
ពិពណ៌នា	-11.1007
ដ៏ល្បីល្បាញ	-11.1007
យំ	-11.1008
ដំបូន្មាន	-11.101
▁អនុប្រធាន	-11.101
uv	-11.1011
tel	-11.1013
▁consult	-11.1014
▁mark	-11.1019
making	-11.1019
ដំបូងនៃ	-11.102
▁guest	-11.1021
ឬការ	-11.1024
▁intelligence	-11.1028
ates	-11.1029
▁Riel	-11.103
▁Led	-11.103
គឺជាផ្នែកមួយនៃ	-11.103
▁presided	-11.1031
camp	-11.1032
ស្រោមដៃ	-11.1036
តុលាការកំពូល	-11.1037
ពិធីជប់លៀង	-11.1037
▁provider	-11.1037
ជំពូក	-11.1038
Mpa	-11.1038
▁ការស្រាវជ្រាវ	-11.1043
▁ពាន់	-11.1043
▁XNUMX	-11.1047
▁ស្ថាប័ន	-11.1048
ខ្វះខាត	-11.1048
▁encourages	-11.1049
វិជ្ជា	-11.1049
▁Hall	-11.1049
▁chat	-11.105
រាជរដ្ឋាភិបាល។	-11.105
gone	-11.1051
▁Banteay	-11.1053
ប្រដាប់ក្មេងលេង	-11.1053
ស៊ុត	-11.1053
អ្នកសារព័ត៌មាន	-11.1055
260	-11.1055
▁Everyone	-11.1055
▁marking	-11.1056
ម៉េស	-11.1056
ចាកចេញ	-11.1057
ខ្នាត	-11.1057
នេះមិន	-11.1057
ONE	-11.106
▁stream	-11.106
▁Gi	-11.1061
▁reality	-11.1064
រូបចម្លាក់	-11.1065
▁វិ	-11.1066
▁Pass	-11.1066
ប្រទេសវៀតណាម	-11.1068
លាបថ្នាំបាញ់	-11.1069
២៦	-11.107
ខែសីហា	-11.1071
▁holes	-11.1071
▁threats	-11.1071
គណៈ	-11.1073
AF	-11.1073
mil	-11.1076
▁investor	-11.1076
ប្រកបដោយគុណភាព	-11.1076
▁sight	-11.1077
▁scene	-11.1078
ស្អប់	-11.1078
▁លក់ដុំ	-11.1078
▁vocational	-11.1078
ខ្ចប់	-11.1079
▁បើទោះបីជា	-11.1081
ចុងក្រោយនេះ	-11.1081
▁winter	-11.1081
កខ្វក់	-11.1081
▁Output	-11.1082
៤នាក់	-11.1086
▁ត្រូវបានប្រើ	-11.1086
បាល	-11.1087
គយ	-11.1088
▁ការពិពណ៌នា	-11.1089
សំណុំ	-11.1091
ata	-11.1091
▁panels	-11.1091
៨០០	-11.1096
▁បរទេស	-11.1097
▁feeding	-11.1097
▁សម្ដេច	-11.1097
▁Bit	-11.1099
អេច	-11.1099
ធាតុផ្សំ	-11.1102
▁chains	-11.1103
ជាឧទាហរណ៍	-11.1103
ចង្វាក់	-11.1103
វេបសាយ	-11.1104
▁Spirit	-11.1104
▁protein	-11.1104
▁sovereignty	-11.1104
▁discharge	-11.1104
ដើម្បីមើល	-11.1105
០៤	-11.1105
▁សេវា	-11.1109
▁ear	-11.111
▁prescribed	-11.1111
រក្សាបាននូវ	-11.1111
316	-11.1112
បានជួប	-11.1112
fill	-11.1118
▁ថ្មីៗនេះ	-11.1126
▁records	-11.1127
▁chemistry	-11.1127
គម្ពីរ	-11.1128
ស្នោ	-11.1129
▁humidity	-11.113
▁ASTM	-11.113
▁eco	-11.113
ហិ	-11.1132
គួរឲ្យ	-11.1134
wan	-11.1136
▁ប្រចាំ	-11.1136
នាយកប្រតិបត្តិ	-11.1136
មានផ្ទៃពោះ	-11.1141
ធនធានធម្មជាតិ	-11.1142
▁កុម្ភៈ	-11.1145
មូលហេតុដែល	-11.1145
▁counter	-11.1145
ការប្រឡង	-11.1148
TF	-11.1149
▁plus	-11.1149
ម៉ាស៊ីនមេ	-11.1149
▁160	-11.1149
▁និងកាត់បន្ថយ	-11.1151
ផ្ទាល់ខ្លួន។	-11.1151
▁និងសំណង់	-11.1152
ដង់ស៊ីតេ	-11.1152
▁experiments	-11.1152
lam	-11.1154
ការងារ។	-11.1154
បន្ថែមលើ	-11.1154
▁អ្នកត្រូវ	-11.1154
▁Roller	-11.1154
▁knife	-11.1155
▁Gift	-11.1155
hood	-11.1156
hand	-11.1159
▁Services	-11.116
pri	-11.116
▁pH	-11.1161
ធ្វើឱ្យប្រាកដថា	-11.1165
get	-11.1169
ការអាន	-11.1172
▁challenge	-11.1174
▁song	-11.1174
យ៉ាងម៉ឺងម៉ាត់	-11.1177
របាំ	-11.1178
ភាពរឹងមាំ	-11.1178
ឆ័ត្រ	-11.1178
ត្រីមាស	-11.118
▁inclusive	-11.118
▁Place	-11.1181
▁សំដៅ	-11.1181
ប្លក់	-11.1181
▁pork	-11.1181
▁brightness	-11.1182
ល្អបំផុត។	-11.1182
▁1/2	-11.1184
▁portable	-11.1185
▁praised	-11.119
▁hundreds	-11.119
▁hub	-11.1191
ហូ	-11.1192
ឡើងទៅ	-11.1192
កម្រៃ	-11.1197
▁soap	-11.1197
minute	-11.1197
▁crack	-11.1197
ភ្ជាប់ទៅនឹង	-11.1198
▁5)	-11.1199
ឃ្លាំមើល	-11.1199
អំបោះ	-11.1199
គីឡូម៉ែត្រ	-11.1201
▁បែប	-11.1203
▁10,000	-11.1204
▁deaths	-11.1206
កាលៈទេសៈ	-11.1206
▁ហេតុអីបានជា	-11.1206
▁Self	-11.1206
▁Italy	-11.1206
នៅក្នុងប្រទេស។	-11.1211
អណ្តាតភ្លើង	-11.1211
▁links	-11.1211
▁covers	-11.1211
▁Natural	-11.1212
អត្ថប្រយោជន៍ពី	-11.1214
ទី៤	-11.1214
▁Senate	-11.1218
▁borrow	-11.1218
▁Tan	-11.1218
▁MS	-11.1219
▁burn	-11.1219
ច្រើនពេក	-11.122
ដកស្រង់	-11.122
▁Exp	-11.1221
សំលេងរំខាន	-11.1221
▁ji	-11.1221
រហូត	-11.1223
គ្រប	-11.1224
ចុងក្រោយបំផុត	-11.1229
ised	-11.123
យ៉ាងមុតមាំ	-11.1231
▁Forestry	-11.1232
▁gifts	-11.1233
▁returned	-11.1234
▁វ៉	-11.1235
បច្ចុប្បន្ននេះ	-11.1237
សកល។	-11.1237
អាចកាត់បន្ថយ	-11.1239
ឆ្នាំ២០១៨	-11.124
០៩	-11.124
bus	-11.1241
ians	-11.1242
វិមាត្រ	-11.1242
hal	-11.1246
.000	-11.1247
play	-11.1249
ការពេញចិត្ត	-11.1251
នោះដែរ	-11.1252
och	-11.1252
▁Wood	-11.1255
▁Hua	-11.1256
និយោជក	-11.1257
▁otherwise	-11.1257
▁purchasing	-11.1257
ទីន	-11.1259
▁languages	-11.1259
ភព	-11.1259
▁Lock	-11.1262
ពួកគេមិន	-11.1263
អ្នកអាចទទួលបាន	-11.1264
▁seller	-11.1265
ហើយដូច្នេះ	-11.1266
una	-11.1266
met	-11.1269
នៃសម្ភារៈ	-11.1269
ប្រសើរជាង	-11.1271
បោះចោល	-11.1272
ជូ	-11.1272
សម្រាប់ក្រុមហ៊ុន	-11.1274
ម្រេច	-11.1275
អ្នកនឹងត្រូវ	-11.1277
▁Sihanoukville	-11.1277
▁restaurant	-11.1278
▁thread	-11.1279
▁វិធីសាស្ត្រ	-11.128
▁mitigate	-11.1282
រាប	-11.1282
ឈ្មួញ	-11.1282
ទទួលទាន	-11.1282
▁campaigns	-11.1282
បានយូរ	-11.1282
▁insurance	-11.1283
▁overseas	-11.1283
▁ព្យាយាម	-11.1283
ផ្តល់សិទ្ធិឱ្យ	-11.1283
▁breach	-11.1283
▁Foundation	-11.1283
ថ្មក្រានីត	-11.1284
illa	-11.1284
ខ្មែរ។	-11.1285
-14	-11.1285
gri	-11.1286
ជូនដល់	-11.1288
កក់	-11.1289
ប្រទាន	-11.129
▁employer	-11.129
មានន័យ	-11.129
▁Takeo	-11.1292
▁visited	-11.1295
▁ដើម្បីកាត់បន្ថយ	-11.1296
▁codes	-11.1296
▁distribute	-11.1297
ome	-11.1305
Ex	-11.1306
យោងតាម	-11.1308
ជាលិកា	-11.1309
▁Square	-11.1309
▁verdict	-11.1309
410	-11.1309
▁ដែកអ៊ីណុក	-11.131
▁ញុមចង់បាន	-11.131
▁Daily	-11.1311
គ្រាន់តែជា	-11.1312
គិតគូរ	-11.1312
▁ក្លាយ	-11.1312
ត្រឡប់មក	-11.1312
▁Flat	-11.1313
នៅខាងក្រោម	-11.1315
▁Moha	-11.1316
▁grand	-11.1316
▁Mesh	-11.1316
▁mere	-11.1317
▁Pu	-11.1317
SR	-11.1318
អ្នកកាន់	-11.1319
▁shapes	-11.1319
ថែទាំសុខភាព	-11.132
ស្រូប	-11.1321
ក៏ដោយក៏	-11.1321
▁យុទ្ធនាការ	-11.1321
▁២៦	-11.1323
-35	-11.1324
អធិស្ឋាន	-11.1324
▁និងអភិវឌ្ឍន៍	-11.1325
▁deed	-11.1326
▁damaged	-11.1326
▁guard	-11.1326
▁2-	-11.1327
ុល	-11.1327
▁drugs	-11.1327
NE	-11.1328
▁hearts	-11.1329
une	-11.1331
sur	-11.1333
ការរក្សា	-11.1333
630	-11.1333
▁cancel	-11.1334
▁Oxford	-11.1335
▁PayPal	-11.1335
▁laptop	-11.1335
▁gym	-11.1335
ប៉ូលា	-11.1337
▁consistently	-11.134
▁effectiveness	-11.134
▁ជាប់	-11.1341
បានមកដល់	-11.1343
▁Pay	-11.1343
eon	-11.1344
ខ្ញុំពិតជា	-11.1346
អ៊ីន	-11.1347
▁stores	-11.1348
▁Fair	-11.1348
បរិស្ថាន។	-11.1349
ដើម្បីកំណត់	-11.1351
TL	-11.1353
▁Visa	-11.1355
នេ	-11.1355
មានទីតាំងនៅ	-11.1357
▁Table	-11.1357
អត្ថបទនេះ	-11.1359
UP	-11.1359
▁Jin	-11.136
ចរាចរ	-11.136
អេកូឡូស៊ី	-11.136
បន្តិចបន្តួច	-11.136
▁literacy	-11.1361
▁compact	-11.1361
▁juice	-11.1361
ខេត្តកោះកុង	-11.1361
▁uphold	-11.1362
▁entering	-11.1364
ក្នុងទីក្រុង	-11.1365
▁Deep	-11.1365
▁suggest	-11.1366
អាប់	-11.1369
▁ជំហានទី	-11.1371
នៃបច្ចេកវិទ្យា	-11.1373
▁បញ្ចេញ	-11.1375
និងហិរញ្ញវត្ថុ	-11.1377
▁flag	-11.1377
មានបទពិសោធន៍	-11.1377
អី	-11.1379
លើកឡើងថា	-11.138
liver	-11.138
ជ្រើសរើសយក	-11.138
▁strengthened	-11.1382
បែបប្រពៃណី	-11.1386
អាជីវករ	-11.1387
▁Cannabis	-11.1387
▁ecosystem	-11.1387
▁DIY	-11.1387
▁ប្រាស់	-11.1387
class	-11.1388
▁CR	-11.1389
ផ្ញើសារ	-11.1389
រឹតបន្តឹង	-11.1391
▁ក្រ	-11.1391
បុ	-11.1393
▁ការបង្ហាញ	-11.1393
▁51	-11.1395
▁minor	-11.1397
អេក្រង់បង្ហាញ	-11.1397
ជឿនលឿន	-11.1399
ការលេចធ្លាយ	-11.14
▁labeling	-11.14
សាកសួរ	-11.1401
▁towel	-11.1401
▁Watch	-11.1404
▁mall	-11.1405
ដ៏ល្អសម្រាប់	-11.1405
ការភ័យខ្លាច	-11.1406
vy	-11.1408
នឹងចាប់ផ្តើម	-11.141
បាញ់ថ្នាំ	-11.1412
អិម	-11.1413
ចង្ក្រាន	-11.1413
សាស្រ្តាចារ្យ	-11.1413
▁immense	-11.1413
ូន	-11.1413
▁trafficking	-11.1413
▁enduring	-11.1414
▁រាប់	-11.1414
ដ៏ច្រើន	-11.1418
▁shipment	-11.1419
ជាការពិត	-11.142
▁craft	-11.1421
ដឹងអំពី	-11.1421
មកយើង	-11.1423
ama	-11.1424
ពោះ	-11.1424
▁reviews	-11.1425
ឃី	-11.1425
ណែនាំឱ្យ	-11.1426
-05	-11.1427
ទាមទារឱ្យ	-11.1427
ជាប្រភេទ	-11.1428
ការរំខាន	-11.1428
▁reduces	-11.1429
សម្ពាធខ្ពស់	-11.143
ការផ្ទេរ	-11.143
កំសាន្ត	-11.1431
ការប្រុងប្រយ័ត្ន	-11.1433
▁Zhejiang	-11.1439
▁extensive	-11.1439
សមាសភាព	-11.1439
▁ប្រាប់ញុម	-11.144
5°	-11.144
វ៉េ	-11.144
▁enforcement	-11.144
ព្រមទាំង	-11.1442
▁drilling	-11.1443
▁Email	-11.1444
ដើម្បីលើកកម្ពស់	-11.1444
▁adopt	-11.1445
duct	-11.1447
ន័យ	-11.1447
▁formal	-11.1449
▁scheduled	-11.1449
ចំនួនពីរ	-11.145
នូវអ្វីដែល	-11.1454
ក្លាហាន	-11.1454
និងធ្វើឱ្យ	-11.1459
▁316	-11.1459
5.0	-11.146
▁នៅទីនេះ	-11.1461
ខោអាវ	-11.1463
▁sentence	-11.1463
▁explained	-11.1464
ភ្លាម	-11.1464
រុះរើ	-11.1465
អន្ដរជាតិ	-11.1465
▁Military	-11.1465
▁biggest	-11.1465
▁instance	-11.1465
▁stronger	-11.1465
▁wholesale	-11.1466
បើប្រៀបធៀបទៅនឹង	-11.1466
នីឡុង	-11.1467
ប្រារព្ធ	-11.1467
▁Sale	-11.147
ពណ៌ប្រផេះ	-11.1471
▁PA	-11.1471
ប្រៀប	-11.1472
▁semi	-11.1476
▁stones	-11.1476
▁ជប៉ុន	-11.1477
▁Parts	-11.1481
▁town	-11.1484
▁Hey	-11.1488
1080	-11.1488
▁Cam	-11.1491
▁Shandong	-11.1491
▁barrel	-11.1492
▁ក្រសួងអប់រំ	-11.1494
កក	-11.1494
▁decisions	-11.1494
▁noticed	-11.1495
៣៧	-11.1495
ណ្	-11.1496
▁enabl	-11.1498
▁rust	-11.1498
▁គ្រូពេទ្យ	-11.1499
▁stored	-11.15
▁និងនវានុវត្តន៍	-11.1501
▁Site	-11.1502
ជួយសង្គ្រោះ	-11.1507
▁pad	-11.1508
▁និងបច្ចេកវិទ្យា	-11.1509
you	-11.1511
TV	-11.1512
HS	-11.1513
Kg	-11.1514
▁ទស្សនា	-11.1517
nit	-11.1517
▁conversion	-11.1518
sales	-11.1519
▁kg	-11.1519
ដើម្បីគ្រប់គ្រង	-11.1519
script	-11.1519
▁granted	-11.152
នាពេលអនាគត។	-11.1521
rip	-11.1523
មន្ត្រីជាន់ខ្ពស់	-11.1523
ឃ្លា	-11.1524
▁Indian	-11.1526
តប	-11.1529
ការជួល	-11.1531
នេះសម្រាប់	-11.1534
▁តម្រូវឱ្យ	-11.1535
▁ត្រូវបានប្រកាស	-11.1536
ខែមេសា	-11.1537
ខ្ញុំបានឃើញ	-11.1537
ធ្	-11.154
▁BS	-11.154
DE	-11.1541
pit	-11.1542
▁អស្ចារ្យ	-11.1544
▁armed	-11.1544
ឥរិយាបថ	-11.1544
ចិត្ដ	-11.1544
▁Certificate	-11.1544
▁Quartz	-11.1544
▁bamboo	-11.1544
▁spokesperson	-11.1544
▁pursue	-11.1544
▁tempered	-11.1544
អំពើហិង្សា	-11.1545
ខ្ញុំត្រូវការ	-11.1546
wel	-11.1548
▁ne	-11.1549
ជនជាតិចិន	-11.155
round	-11.1551
ទទួលបាននូវ	-11.1556
▁upload	-11.1559
នាំឱ្យ	-11.156
វិញ្ញាណ	-11.1561
ងាយស្រួលប្រើ	-11.1561
នៃក្រុមហ៊ុន	-11.1564
ខាងជើង	-11.1564
ets	-11.1564
▁Direct	-11.1567
ប្រាប់ឱ្យ	-11.157
រំពឹងទុក	-11.157
▁false	-11.1571
▁football	-11.1571
▁bacteria	-11.1573
សំបកកង់	-11.1574
បង្កប់	-11.1575
zer	-11.1575
▁យប់	-11.1576
▁traditions	-11.1577
▁pages	-11.1577
បានអនុវត្ត	-11.1578
▁designated	-11.1579
▁ទីបំផុត	-11.158
▁Find	-11.1581
▁Med	-11.1582
ដោយមិនមាន	-11.1586
ការសាកល្បង	-11.1587
អាជ្ញាធរមូលដ្ឋាន	-11.1588
ដើរតួនាទីយ៉ាង	-11.1591
▁៤០០	-11.1591
▁ពួកវា	-11.1593
▁chips	-11.1597
▁Apsara	-11.1597
▁amazing	-11.1597
▁salad	-11.1597
▁York	-11.1597
▁Vo	-11.1598
▁Bridge	-11.1599
▁hardware	-11.1599
▁Peter	-11.16
លិខិតអនុញ្ញាត	-11.1601
border	-11.1601
▁cutter	-11.1602
▁Surface	-11.1604
ដើម្បីបញ្ចប់	-11.1605
HB	-11.1605
ដើម្បីរៀបចំ	-11.1605
ខាងលិច	-11.1606
▁រក្សាទុក	-11.1606
សណ្តែក	-11.1606
រហូតដល់ទៅ	-11.1608
▁Ham	-11.1609
▁បង្កើតបានជា	-11.1611
▁Tra	-11.1612
▁Shi	-11.1613
អគ្គ	-11.1614
ខ្ញុំអាច	-11.1615
នៅពេលក្រោយ	-11.1616
ដែលអាចធ្វើទៅបាន។	-11.1616
GR	-11.1616
ប្រាក់រៀល	-11.1617
Host	-11.1619
▁Cho	-11.162
lumin	-11.1621
កាលពីថ្ងៃទី	-11.1622
▁faced	-11.1624
▁lucidum	-11.1624
▁Southeast	-11.1625
aga	-11.1625
▁Xin	-11.1627
ណាន	-11.1627
បង្កគ្រោះថ្នាក់	-11.1627
▁replacement	-11.1627
▁2030	-11.1628
ក្រម	-11.163
pic	-11.1631
▁molding	-11.1632
យកចេញ	-11.1632
▁ព្រះអម្ចាស់	-11.1634
▁elections	-11.1635
▁scan	-11.1637
tha	-11.1637
ក្រោយពេល	-11.1638
ode	-11.1638
▁holder	-11.1641
▁sum	-11.1642
yang	-11.1643
ផ្នែកខាងមុខ	-11.1645
ways	-11.1645
បណ្តុះ	-11.1646
which	-11.1648
ប្រយុទ្ធប្រឆាំង	-11.1649
សំអាត	-11.1651
▁suspension	-11.1651
▁glue	-11.1651
ហាមឃាត់	-11.1652
▁fund	-11.1652
ស៊ីលី	-11.1653
dom	-11.1653
ឱ្យបានច្រើន	-11.1654
▁seem	-11.1655
▁frequently	-11.1656
▁Rena	-11.1659
ពិសោធន៍	-11.1659
ការរលាក	-11.1662
▁បង់	-11.1662
▁0,	-11.1663
▁០០០	-11.1665
▁suspended	-11.1666
▁bean	-11.1666
▁សម្ដេចធិបតី	-11.1666
▁លីត្រ	-11.1667
▁ties	-11.1667
▁DNA	-11.1668
ភាពរុងរឿង	-11.1669
សុន	-11.167
ទុនវិនិយោគ	-11.1672
▁Veng	-11.1673
ប្រមូលផល	-11.1675
-22	-11.1676
▁uniform	-11.1676
ពលករ	-11.1676
ទ្រង់ទ្រាយធំ	-11.1677
▁remaining	-11.1677
rac	-11.1677
បរិក្ខារ	-11.1677
មគ្គុទ្ទេសក៍	-11.1678
▁recognition	-11.1678
▁Packaging	-11.1678
សាច់ញាតិ	-11.1678
▁disclose	-11.1678
ល្មម	-11.1678
▁Planning	-11.1678
▁Beacon	-11.1679
▁suspects	-11.1679
▁wealth	-11.1679
▁programming	-11.1679
▁ទូល	-11.168
▁regulatory	-11.1681
8.5	-11.1682
ត្រូវបានពង្រឹង	-11.1685
▁finding	-11.1685
▁yuan	-11.1688
សាលាដំបូង	-11.1688
នានា។	-11.1688
ភាពជាអ្នកដឹកនាំ	-11.1691
ចេញ។	-11.1693
ចាត់	-11.1695
ក៏ត្រូវ	-11.1695
128	-11.1696
ថែមទៀត	-11.1699
ដោយគ្មានការ	-11.1699
▁និងលោក	-11.1702
ទទួលស្គាល់ថា	-11.1703
▁optional	-11.1703
គ្រឿងសង្ហារឹម	-11.1704
▁equivalent	-11.1704
▁welfare	-11.1704
▁Focus	-11.1705
▁Cloud	-11.1705
FE	-11.1705
▁remained	-11.1705
ប្រជាជាតិ	-11.1705
មិត្តរួមការងារ	-11.1706
▁align	-11.1707
បទដ្ឋាន	-11.1707
ដើម្បីទប់ស្កាត់	-11.1708
RF	-11.1709
pass	-11.1709
ថ្វាយ	-11.171
▁hardness	-11.1711
ខែមករា	-11.1712
▁SEA	-11.1713
នៅស្រុក	-11.1715
▁learners	-11.1716
សម្តេចតេជោ	-11.1716
ល្បីល្បាញដោយសារ	-11.1717
ជាមួយក្រុមហ៊ុន	-11.1721
ឹក	-11.1721
ស្រែក	-11.1722
អ្នកទស្សនា	-11.1722
តម្រូវឱ្យមាន	-11.1724
ត្រូវបានដាក់ចេញ	-11.1725
ប្រូ	-11.1725
ខណៈដែល	-11.1726
ists	-11.1726
▁casinos	-11.1726
ងាក	-11.1727
ទុយោ	-11.1729
▁nail	-11.173
▁Say	-11.1731
ស្ទីល	-11.1731
អណ្តែត	-11.1731
ire	-11.1731
ទាក់ទងទៅនឹង	-11.1732
▁Those	-11.1732
▁រីឯ	-11.1733
riv	-11.1733
ថ្មីសម្រាប់	-11.1733
គ្រាប់ចុច	-11.1733
មានកំណើន	-11.1736
▁promoted	-11.1739
▁វេលា	-11.1739
cus	-11.1741
▁ឆ្នាំ២០២១	-11.1742
ទៅកាន់ទីផ្សារ	-11.1743
រកប្រាក់	-11.1743
▁TM	-11.1744
អាហារូបត្ថម្ភ	-11.1744
OE	-11.1745
ដើម្បីបង្ហាញ	-11.1746
ដើម្បីអាច	-11.1748
សង្កេត	-11.1748
▁collected	-11.1751
ខែមីនា	-11.1752
ត្រូ	-11.1753
ស្រប	-11.1755
ទោះបី	-11.1755
ឆ្នោត	-11.1757
យ៉ាងជ្រាលជ្រៅ	-11.1757
pixel	-11.1758
▁vulnerable	-11.1758
▁default	-11.1759
ស្លាបព្រា	-11.1759
▁Justice	-11.1759
ពីបទ	-11.1759
▁ក្រៅ	-11.1759
▁club	-11.1759
▁commonly	-11.176
2.0	-11.1761
ប្រភពដើម	-11.1761
ជាបន្តបន្ទាប់។	-11.1761
▁សប្តាហ៍	-11.1762
test	-11.1762
▁lend	-11.1763
▁vary	-11.1763
តម្រូវ	-11.1765
អ្នកភូមិ	-11.1765
▁អគ្គ	-11.1765
uni	-11.1766
▁Cover	-11.1766
6.5	-11.1768
KN	-11.1768
page	-11.1768
គុណវិបត្តិ	-11.1769
ដែលផ្តល់	-11.1769
▁Meeting	-11.177
សង្	-11.177
អនុសាសន៍	-11.1771
ការផ្សាភ្ជាប់	-11.1772
តំ	-11.1773
▁បានរៀបចំ	-11.1774
ific	-11.1774
បន្ថែម។	-11.1775
ការកែតម្រូវ	-11.1775
អាកាសធាតុ។	-11.1777
នៅព្រឹកថ្ងៃទី	-11.1777
▁អ្នកនិពន្ធ	-11.1777
▁obstacles	-11.178
សារពើពន្ធ	-11.1785
▁Galaxy	-11.1786
▁premium	-11.1786
▁Saint	-11.1786
▁victim	-11.1786
▁concentration	-11.1787
ពោរពេញដោយ	-11.1787
▁ណ្តា	-11.1787
▁apple	-11.1788
▁Without	-11.1793
▁developers	-11.1794
▁ក្នុងគោលបំណង	-11.1794
▁125	-11.1795
មកហើយ	-11.1796
រហូតមកដល់ពេលនេះ	-11.1797
▁pig	-11.1798
oke	-11.18
តែមួយ។	-11.1801
ជុំវិញពិភពលោក	-11.1801
ហ៊ាន	-11.1804
▁enforce	-11.1804
▁exporter	-11.1806
សោះ	-11.1807
ali	-11.1807
▁Hang	-11.1809
ទីក្រុងប៉ារីស	-11.1809
SF	-11.1809
▁welcomed	-11.1811
=3.	-11.1813
ក្រសួងសុខាភិបាល	-11.1813
ម៉ូនីទ័រ	-11.1813
អុកស៊ីតកម្ម	-11.1813
▁Visit	-11.1813
▁ញ	-11.1815
▁Plate	-11.1817
▁shade	-11.1817
HR	-11.1818
▁topic	-11.1818
▁Dy	-11.1821
កំពុងដំណើរការ	-11.1822
មានទីតាំងស្ថិតនៅ	-11.1823
សម្រាប់លក់	-11.1826
មានគុណសម្បត្តិ	-11.1826
នៅក្នុងផ្ទះ	-11.1826
ចូលប្រើ	-11.1828
អាចលៃតម្រូវបាន	-11.1828
អំពើបាប	-11.183
▁HS	-11.183
▁sacrifice	-11.1831
លេខសម្គាល់	-11.1832
▁improves	-11.1833
ខូ	-11.1834
▁និងការពារ	-11.1836
អ្នកនឹងមិន	-11.1837
សម្បូរបែប	-11.1839
វីរុស	-11.184
▁breeze	-11.184
▁delegate	-11.184
▁issuance	-11.184
▁succeed	-11.184
▁legacy	-11.184
▁termination	-11.184
▁disaster	-11.1841
▁surgery	-11.1841
▁បែបនេះទេ។	-11.1841
▁jacket	-11.1841
▁beam	-11.1842
▁chest	-11.1842
ក្នុងការអភិវឌ្ឍ	-11.1842
▁ប្រវត្តិ	-11.1843
▁ជាដើម	-11.1843
▁exactly	-11.1845
ក្រុងព្រះសីហនុ	-11.1846
អាចមើលឃើញ	-11.1847
កាន់តែខ្លាំង	-11.1847
So	-11.1848
▁ភោជនីយដ្ឋាន	-11.185
គឺជាអ្នក	-11.1852
ខាងឆ្វេង	-11.1852
▁miss	-11.1853
▁arrived	-11.1853
▁ការដាំ	-11.1853
▁ac	-11.1854
▁concerned	-11.1854
▁72	-11.1854
អ្វីទាំងអស់	-11.1855
▁46	-11.1857
▁សញ្ញាបត្រ	-11.1859
▁recognize	-11.1859
▁ក្រៅពីនេះ	-11.186
ផ្គូផ្គង	-11.1861
rt	-11.1863
▁Way	-11.1866
ហិង្សា	-11.1867
ណាស់ក្នុងការ	-11.1867
▁Commune	-11.1867
▁contributing	-11.1867
▁Engineering	-11.1867
ភិ	-11.1867
លីនុច	-11.1867
▁employee	-11.1869
▁regard	-11.1869
ការពិនិត្យឡើងវិញ	-11.187
▁RM	-11.1871
oC	-11.1871
▁Rec	-11.1874
▁index	-11.1876
ហើយមិន	-11.1878
ងូតទឹក	-11.1881
▁gather	-11.1881
សិប្បនិម្មិត	-11.1885
វិនិច្ឆ័យ	-11.1886
NB	-11.1886
1600	-11.1887
nce	-11.189
ភាពស្មោះត្រង់	-11.1891
ឆ្នើម	-11.1892
bon	-11.1894
ជលផល	-11.1894
▁choosing	-11.1895
▁Floor	-11.1895
▁Effective	-11.1895
▁Spins	-11.1896
▁dangerous	-11.1897
ក្រសួងសាធារណការ	-11.1897
▁messages	-11.1899
TY	-11.19
▁relief	-11.19
eb	-11.1901
cept	-11.1901
▁Safe	-11.1901
ext	-11.1905
yu	-11.1906
▁tourist	-11.1906
420	-11.1906
3)	-11.1907
ax	-11.1908
coming	-11.191
▁ដែលធ្វើឱ្យ	-11.1911
២០២៣	-11.1912
▁Front	-11.1913
▁studying	-11.1914
ជំនួប	-11.1916
បង្កឱ្យមាន	-11.1917
▁Ganoderma	-11.1919
▁depend	-11.1919
បានសរសេរ	-11.1919
ពលកម្ម	-11.192
hol	-11.192
កត់សម្គាល់	-11.192
▁proceed	-11.1922
ទាំងពួង	-11.1922
បរិយាប័ន្ន	-11.1922
▁Mondulkiri	-11.1922
▁Recovery	-11.1922
▁corporate	-11.1922
▁iTunes	-11.1922
▁disorder	-11.1922
▁entertainment	-11.1923
▁Farmers	-11.1924
▁ស្របតាម	-11.1924
ឆ្នាំ២០១៩	-11.1924
450	-11.1925
uth	-11.1925
▁entered	-11.1925
▁agreed	-11.1932
ការផ្ទុះ	-11.1933
140	-11.1934
រ៉ូប	-11.1935
▁Sign	-11.1937
▁inspire	-11.194
សម្រាប់ប្រព័ន្ធ	-11.194
▁restore	-11.1941
▁Sheet	-11.1941
ខាងកើត	-11.1942
CN	-11.1942
Di	-11.1944
▁skilled	-11.1945
ទម្ងន់ស្រាល	-11.1945
:34	-11.1945
មេបញ្ជាការ	-11.195
▁compete	-11.195
▁territorial	-11.195
▁marble	-11.195
▁Quick	-11.195
▁residential	-11.195
▁Taiwan	-11.195
កម្ចាត់	-11.195
សូឡា	-11.1951
៤១	-11.1952
▁Customized	-11.1953
SD	-11.1953
RE	-11.1954
អែល	-11.1955
រ៉េ	-11.1962
▁cons	-11.1963
ថ្ងៃឈប់សម្រាក	-11.1963
ការលះបង់	-11.1963
CR	-11.1963
▁ប្រហែលជា	-11.1966
▁schedule	-11.1966
ទំហំនៃ	-11.1967
ដឹងពីរបៀប	-11.1967
230	-11.1968
▁Gar	-11.1969
▁extended	-11.1974
PM	-11.1975
ឧបករណ៍វាស់	-11.1976
ប្តី	-11.1977
អូស្រ្តាលី	-11.1977
▁Kildare	-11.1977
▁gracious	-11.1977
▁jurisdiction	-11.1977
▁probably	-11.1977
ហ្សែន	-11.1978
▁ម៉ែត្រការ៉េ	-11.1979
5000	-11.1979
ស្នាមញញឹម	-11.1979
Chief	-11.1979
▁pictures	-11.1981
ពីអ្នក	-11.1981
បុរី	-11.1981
▁tight	-11.1982
▁ទិន្នផល	-11.1982
ឆ្នាំចុងក្រោយនេះ	-11.1982
ចេក	-11.1982
-06	-11.1985
កាន់តែច្រើន។	-11.1985
ប៉ូ	-11.1986
2018	-11.1987
ប្រណាំង	-11.1987
▁Plus	-11.1988
▁និងរោងចក្រ	-11.1991
II	-11.1993
គេច	-11.1993
និងបច្ចេកវិទ្យា	-11.1997
ature	-11.1998
▁និងបាន	-11.1998
បានដឹកនាំ	-11.1999
និងភាព	-11.2001
▁layers	-11.2001
▁socio	-11.2001
▁រស់	-11.2004
▁Strategy	-11.2005
▁sorrow	-11.2005
▁welded	-11.2005
▁ហេតុអ្វី	-11.2006
▁trademark	-11.2007
▁បង្ហាញពី	-11.2008
▁ស្អាត	-11.2012
▁teach	-11.2014
ទិញទំនិញ	-11.2014
▁requests	-11.2016
▁consultation	-11.2016
▁stretch	-11.202
ically	-11.202
106	-11.2021
▁projected	-11.2022
នៃឧស្សាហកម្ម	-11.2023
▁linked	-11.2025
▁លក្ខខណ្ឌ	-11.2025
DX	-11.2026
ខែឧសភា	-11.2026
▁Fa	-11.2027
រដ្ឋមន្រ្តី	-11.2027
heat	-11.2028
▁normally	-11.2029
ច្រាស	-11.203
cap	-11.2031
កម្មវិធីបម្លែង	-11.2031
▁transformer	-11.2032
▁notify	-11.2032
▁យេហូវ៉ា	-11.2033
▁40%	-11.2033
▁governance	-11.2034
▁winning	-11.2034
▁max	-11.2035
▁infection	-11.2036
lasting	-11.204
stro	-11.2041
ឡើងថ្លៃ	-11.2043
▁Try	-11.2043
▁ផ្សារ	-11.2043
តាមផ្លូវ	-11.2045
▁accepted	-11.2045
▁Stone	-11.2046
ព្រួយបារម្ភអំពី	-11.2046
ក្នុងឱកាស	-11.2047
▁Vice	-11.2047
មានវត្តមាន	-11.2047
▁កើន	-11.205
នៅពេលដែលយើង	-11.2053
▁ក្នុងអំឡុងពេលនៃ	-11.2054
▁បណ្ណាល័យ	-11.2055
រចនាសម្ព័ន	-11.2055
អ្នកត្រួតពិនិត្យ	-11.2057
gin	-11.2057
▁axis	-11.2057
▁engineers	-11.2057
កូនចៅ	-11.2059
តាមបែប	-11.2059
▁3.5	-11.206
▁financing	-11.2061
▁Function	-11.2061
▁charged	-11.2063
ល្អណាស់	-11.2064
▁Phase	-11.2064
▁Finally	-11.2064
▁សូមបញ្ជាក់ថា	-11.2065
FF	-11.2065
PN	-11.2066
ទន់ភ្លន់	-11.2066
▁នាទី។	-11.2067
LM	-11.2068
លឺ	-11.2068
▁FDA	-11.2069
vice	-11.2069
uy	-11.207
ភ័យ	-11.2072
គ្រប់គ្នា	-11.2072
**:	-11.2073
▁លាននាក់	-11.2073
ផ្នែកហិរញ្ញវត្ថុ	-11.2076
eo	-11.2077
ព្រះបន្ទូល	-11.2078
san	-11.2081
ការបញ្ចុះតម្លៃ	-11.2084
ឆ្នាំថ្មី	-11.2084
ការសម្អាត	-11.2084
▁Ningbo	-11.2089
transposh	-11.2089
▁True	-11.2089
▁Software	-11.2089
▁feedback	-11.2089
▁anywhere	-11.2089
▁lake	-11.2091
▁Turn	-11.2092
របស់អ្នកនឹង	-11.2092
▁Round	-11.2092
▁element	-11.2093
urg	-11.2093
▁Cup	-11.2093
ena	-11.2094
ត្រូវបានផលិត	-11.2094
ក្រុមអ្នក	-11.2094
ក៏ត្រូវបាន	-11.2095
▁weekend	-11.2096
▁Dan	-11.2097
ផ្លូវច្បាប់	-11.2097
ធំជាងគេ	-11.2098
▁washing	-11.21
សិទ្ធ	-11.2101
ចាត់ទុកថា	-11.2102
នៅឆ្នាំនេះ	-11.2103
រៀនសូត្រ	-11.2104
ដាក់វា	-11.2107
▁Cash	-11.2112
verse	-11.2112
▁GD	-11.2114
គណិតវិទ្យា	-11.2116
mus	-11.2116
▁scent	-11.2116
▁durability	-11.2117
▁Impact	-11.2117
រង្វាស់	-11.2117
▁imperative	-11.2117
plan	-11.2118
TER	-11.2119
▁alternative	-11.2121
▁dense	-11.2121
សម្បត្តិ	-11.2127
▁Hydraulic	-11.2129
▁2007	-11.2129
▁reviewed	-11.213
និងការគ្រប់គ្រង	-11.213
មានប្រសាសន៍	-11.2133
ចំនួនបី	-11.2137
eck	-11.2139
▁សេចក្តីប្រកាស	-11.2142
នៃទីផ្សារ	-11.2142
ora	-11.2142
iness	-11.2143
▁professionals	-11.2144
▁Regard	-11.2144
សុភមង្គល	-11.2145
▁earlier	-11.2145
▁summarize	-11.2145
▁Which	-11.2145
សរសៃឈាម	-11.2146
▁Spring	-11.2146
ហុង	-11.2147
pad	-11.2149
▁provision	-11.215
/2	-11.2151
ខេត្តកំពង់ឆ្នាំង	-11.2151
iah	-11.2151
▁buyers	-11.2152
▁វិនិយោគិន	-11.2153
យ៉	-11.2156
bor	-11.2156
pil	-11.2158
ដែលគាត់	-11.2162
ព័ទ្ធជុំវិញ	-11.2162
▁audit	-11.2163
▁ធុង	-11.2164
អ្នកគ្រាន់តែ	-11.2165
ចូលរៀន	-11.2169
ព្យាករណ៍	-11.2171
▁verification	-11.2173
▁monetary	-11.2173
▁instructors	-11.2173
▁server	-11.2173
▁interior	-11.2173
សម្ដេច	-11.2173
oxide	-11.2174
▁requested	-11.2175
ជាថ្មីម្តងទៀត	-11.2177
▁បានបង្ហាញ	-11.2178
ប្រាក់ខែ	-11.218
ស្ត	-11.218
ត្រូវបានជ្រើសរើស	-11.218
▁Lake	-11.2183
Can	-11.2186
▁ពាក់ព័ន្ធ	-11.2187
iff	-11.2187
3.1	-11.2187
ផ្ទៃខាងក្រោយ	-11.2188
▁integrate	-11.219
▁ស្លាប់	-11.2191
▁remind	-11.2191
▁carton	-11.2196
របស់ក្រុម	-11.2198
known	-11.2199
parent	-11.2199
izer	-11.22
▁literature	-11.2201
▁5-	-11.2201
▁flange	-11.2201
▁stopped	-11.2202
▁permission	-11.2203
▁Sap	-11.2205
▁Portable	-11.2207
ជាច្រើនឆ្នាំ	-11.2207
ម៉ាស៊ីនបំពេញ	-11.2208
៤៣	-11.2208
ពេញមួយជីវិត	-11.2209
បង្កើនល្បឿន	-11.221
រយៈពេលខ្លី	-11.221
អំពូលភ្លើង	-11.2214
▁Slot	-11.2216
ស្សី	-11.222
▁២៨	-11.222
▁OS	-11.2221
បោកគក់	-11.2222
▁operators	-11.2226
អ័ព្ទ	-11.2229
▁pillow	-11.2229
▁Peace	-11.223
ប៉ាតង់	-11.223
និងមិន	-11.2233
ក្នុងការស្វែងរក	-11.2234
ជំនួញ	-11.2234
មុខវិជ្ជា	-11.2234
▁1200	-11.2235
salla	-11.2236
▁examine	-11.2236
▁sport	-11.2237
ឥទ្ធិពលនៃ	-11.2238
▁plates	-11.224
អនុលោមតាម	-11.2242
▁reside	-11.2243
▁Ste	-11.2243
▁លោកបាន	-11.2246
▁មានការ	-11.2246
▁ដង់ស៊ីតេ	-11.2246
អ្នកស្រី	-11.2248
▁Extract	-11.2248
▁2025	-11.2249
▁protests	-11.2249
▁និងភាព	-11.225
▁នាយករដ្ឋមន្រ្តី	-11.2251
-21	-11.2251
850	-11.2254
តែម្នាក់ឯង	-11.2257
▁ការិយាល័យ	-11.2257
▁nylon	-11.2258
ផលវិបាក	-11.2258
▁jump	-11.2258
សម្លឹងមើល	-11.2258
▁duties	-11.2258
ចាញ់	-11.2258
▁woven	-11.2259
▁កិច្ចការ	-11.2259
▁ជឿ	-11.226
ញត្តិ	-11.226
▁02	-11.2262
▁Gary	-11.2262
អេស្ប៉ាញ	-11.2262
▁201	-11.2263
▁sword	-11.2263
ការរស់នៅ	-11.2264
▁គ្រឿងបន្លាស់	-11.2267
▁នែ	-11.227
ព្រីន	-11.227
▁ink	-11.2273
480	-11.2274
បង	-11.2277
▁possess	-11.2277
តម្លៃសមរម្យ	-11.2278
▁ពិសោធន៍	-11.2278
ប្រមាណជាង	-11.2278
uan	-11.2283
▁ser	-11.2286
▁Beijing	-11.2286
▁Wheel	-11.2286
រវល់	-11.2286
▁bucket	-11.2286
ជាតិដែក	-11.2287
▁grain	-11.2288
ប៊ឺ	-11.2291
លក្ខណៈបច្ចេកទេស	-11.2291
▁Linux	-11.2292
240	-11.2292
៧០០	-11.2294
▁compatible	-11.2295
▁tent	-11.2295
▁rental	-11.2298
Lo	-11.2298
▁Share	-11.2299
ដឹកនាំដោយ	-11.2301
trained	-11.2302
របស់ម៉ាស៊ីន	-11.2302
ការទទួលយក	-11.2302
▁strap	-11.2302
▁Camp	-11.2303
▁propose	-11.2304
▁lifting	-11.2307
▁(4	-11.2308
-09	-11.2308
▁info	-11.2312
កោស	-11.2313
សប្បុរស	-11.2314
ចម្រាញ់	-11.2315
▁architecture	-11.2315
▁managing	-11.2316
▁entry	-11.2316
▁oven	-11.2316
ត្រូវបានកំណត់ដោយ	-11.2317
▁fitness	-11.2317
▁កិច្ចសន្យា	-11.2318
បណ្ដា	-11.2318
ជាងនេះ	-11.2318
▁តោះ	-11.2319
▁Bl	-11.2319
អ្នកផ្សេងទៀត	-11.232
ប្រៃ	-11.232
អាណត្តិ	-11.2321
-07	-11.2322
mission	-11.2325
ough	-11.2326
jar	-11.2327
income	-11.2327
▁connector	-11.2328
ដែលអ្នកចូលចិត្ត	-11.233
កុ	-11.2331
ពាន់នាក់	-11.2331
▁introduce	-11.2332
With	-11.2332
RAM	-11.2334
▁0.8	-11.2334
បក	-11.2337
▁founded	-11.2337
ប្រសិនបើអ្នកមាន	-11.2339
ators	-11.2339
▁marks	-11.234
ស្តាំ	-11.2341
▁showed	-11.2341
នេះគឺជាការ	-11.2342
print	-11.2342
ស្រមៃ	-11.2343
▁gratitude	-11.2344
etatrader	-11.2344
ដែលមានមូលដ្ឋានលើ	-11.2344
អាចទទួលយកបាន	-11.2347
ម្ចាស់អាជីវកម្ម	-11.2348
គង់	-11.2351
ព្រះករុណាព្រះបាទ	-11.2353
នៅក្រៅប្រទេស	-11.2353
▁2500	-11.2354
▁loved	-11.2355
▁Tue	-11.2355
elect	-11.2356
▁min	-11.2358
ពេលណា	-11.2362
≤	-11.2362
ដរាបណា	-11.2362
មានទំនាក់ទំនង	-11.2362
▁មាស	-11.2363
▁Near	-11.2364
ជះឥទ្ធិពល	-11.2366
សេដ្ឋកិច្ចពិសេស	-11.2366
ៀង	-11.2367
វាំងនន	-11.2367
380	-11.2368
នៅលើវេទិកា	-11.2369
អាហ្វ្រិក	-11.237
ការកែប្រែ	-11.237
▁អាហារូបករណ៍	-11.2371
ូ	-11.2371
០៣	-11.2371
▁peaceful	-11.2372
សង្កត់	-11.2372
▁regime	-11.2373
ហោះហើរ	-11.2374
▁foil	-11.2374
▁ឡី	-11.2374
▁planned	-11.2374
active	-11.2375
Bo	-11.2375
ដើម្បីធ្វើការ	-11.2376
HF	-11.2376
▁initiative	-11.2379
:33	-11.238
▁dollar	-11.238
▁គ្រាន់	-11.238
សូមស្វាគមន៍	-11.238
ឥណ្ឌូនេស៊ី	-11.2382
ការសម្របសម្រួល	-11.2383
ឯកភាព	-11.2383
ពីរបៀប	-11.2384
ដែលក្នុងនោះ	-11.2385
ended	-11.2386
យើងចង់	-11.2389
<	-11.239
រិទ្ធ	-11.2391
ភាពសប្បាយរីករាយ	-11.2396
ត្រូវបានគេស្គាល់	-11.2396
▁wheels	-11.2398
ចងក្រង	-11.2401
ទង់ដែង	-11.2401
▁genuine	-11.2401
▁excessive	-11.2402
ហែលទឹក	-11.2402
▁closing	-11.2402
ផ្ត	-11.2404
▁injury	-11.2404
ចាត់តាំង	-11.2404
▁symbol	-11.2404
▁mountains	-11.2405
តែម្តង	-11.2405
តិ	-11.2408
announces	-11.2408
ធំ។	-11.2408
ក្នុងករណីនេះ	-11.2409
▁figure	-11.2409
ពោរពេញទៅដោយ	-11.241
▁Access	-11.2412
ខេត្តកំពង់ចាម	-11.2412
▁bonuses	-11.2413
▁Australian	-11.2413
ភ្លើងបំភ្លឺ	-11.2414
ដែលនៅសល់	-11.2414
▁reaching	-11.2415
▁Ban	-11.2415
▁ខុស	-11.2416
៣៤	-11.2416
▁recorded	-11.2421
រងរបួស	-11.2421
បានឱ្យដឹងថា	-11.2422
ទប់	-11.2422
ប្រភេទសត្វ	-11.2422
ព្	-11.2423
UM	-11.2424
hz	-11.2425
national	-11.2427
ហាត់	-11.243
▁guidance	-11.243
គ្រាប់ធញ្ញជាតិ	-11.243
HC	-11.243
▁evil	-11.2431
វគ្គបណ្តុះបណ្តាល	-11.2431
▁spiritual	-11.2431
▁breath	-11.2432
▁slide	-11.2433
បន្ទាប់បន្សំ	-11.2433
▁Five	-11.2433
▁UPS	-11.2435
▁resort	-11.2435
▁SEO	-11.2435
▁moon	-11.2436
fish	-11.2438
dica	-11.2439
▁mandated	-11.244
ដែលល្អបំផុត	-11.2441
ការហៅ	-11.2441
ល្អនិង	-11.2443
hon	-11.2445
▁(4)	-11.2446
រោងចក្ររបស់យើង	-11.2448
direct	-11.2449
ដែលធ្លាប់	-11.2449
▁ស្ថិតនៅ	-11.245
▁item	-11.245
សេន	-11.2454
PG	-11.2454
ដែលមាននៅក្នុង	-11.2456
យើងខ្ញុំ	-11.2458
▁windows	-11.2458
▁independence	-11.2459
▁WordPress	-11.2459
▁felt	-11.246
▁sallam	-11.246
ខ្សែក្រវាត់	-11.246
▁Allahu	-11.2461
DD	-11.2461
▁IC	-11.2462
▁meetings	-11.2462
▁novel	-11.2463
▁allocated	-11.2463
វាមិនមែនជា	-11.2463
មើលឃើញថា	-11.2465
▁hall	-11.2466
▁calm	-11.2467
ការថែរក្សា	-11.2467
-13	-11.2469
គេហទំព័រនេះ	-11.2472
ពាក្យសម្ងាត់	-11.2472
:32	-11.2472
2019	-11.2473
▁អ្នកត្រូវតែ	-11.2478
រះ	-11.248
លេងល្បែង	-11.248
▁log	-11.2481
▁boxes	-11.2481
▁សន្តិភាព	-11.2482
អំពាវនាវ	-11.2482
ផ្សារដែក	-11.2483
▁protecting	-11.2483
▁លើសពីនេះទៅទៀត	-11.2484
០៧	-11.2485
ក្នុងជីវិត	-11.2485
▁spouse	-11.2488
សមធម៌	-11.2488
▁ដូចគ្នានេះផងដែរ	-11.2488
▁superior	-11.2488
▁expertise	-11.2489
▁Chair	-11.2489
▁thou	-11.2489
▁renewable	-11.249
វាជាការ	-11.249
▁coastal	-11.2491
▁វាយតម្លៃ	-11.2491
GM	-11.2491
▁batch	-11.2492
សព្វថ្ងៃ	-11.2492
ចម្អិនអាហារ	-11.2494
▁ពិព័រណ៍	-11.2496
▁ingredients	-11.2497
▁grid	-11.2497
បំពង់ដែក	-11.2502
▁token	-11.2504
នឹងផ្តល់	-11.2507
ឧបករណ៍ផ្ទុក	-11.2509
វាទៅ	-11.251
រីករាលដាល	-11.2512
▁Sample	-11.2513
ការប្រយុទ្ធ	-11.2514
ខែវិច្ឆិកា	-11.2514
▁Operating	-11.2517
▁clarify	-11.2517
▁phenomena	-11.2517
▁broadcast	-11.2517
til	-11.2518
▁Mount	-11.2518
បក្សី	-11.2519
ជាម្ចាស់	-11.2519
ទី៥	-11.2519
▁Waterproof	-11.2519
▁worked	-11.252
▁browser	-11.252
midst	-11.2521
ពាង	-11.2522
សហគ្រាសធុនតូច	-11.2522
bir	-11.2523
ជាក់លាក់។	-11.2524
ចំនួន៣	-11.2525
អ្នកចែកចាយ	-11.2526
ទីលំនៅ	-11.2526
ទប់ទល់នឹង	-11.2527
ori	-11.2528
▁Ruan	-11.2528
ស័ក្តិសមសម្រាប់	-11.2531
▁engage	-11.2534
▁approve	-11.2535
ប្រាថ្នា	-11.2536
ខេត្តកណ្តាល	-11.2537
បិទភ្ជាប់	-11.2544
▁happen	-11.2544
Be	-11.2545
▁Val	-11.2545
▁LORD	-11.2546
▁ancestors	-11.2546
▁segment	-11.2546
▁microfinance	-11.2547
ធម្មជាតិ។	-11.2547
ជាតិខ្លាញ់	-11.2547
▁wave	-11.2548
ប្រជាប្រិយភាព	-11.2549
▁2006	-11.2549
ទៅវិញទៅមក	-11.255
ញ្ញាសិប្បនិម្មិត	-11.2554
ច្បាប់។	-11.2554
▁មី	-11.2554
▁Roll	-11.2555
មានជម្រើស	-11.2555
▁Ten	-11.2556
ដើមទុន	-11.2557
NI	-11.2557
ther	-11.2558
ពន្យារពេល	-11.2566
នេះហើយ	-11.2567
▁ថ្ងៃបន្ទាប់ពី	-11.2567
▁Mal	-11.2569
▁អាណាព្យាបាល	-11.2569
▁បារ	-11.2569
▁fruits	-11.2571
ហេតុអ្វីបានជា	-11.2572
pr	-11.2572
ប៉ុណ្ណា	-11.2576
យេនឌ័រ	-11.2576
សមរភូមិ	-11.2576
▁HXHV	-11.2576
▁carbide	-11.2576
▁zinc	-11.2576
▁alihi	-11.2576
▁priest	-11.2576
▁អាសយដ្ឋាន	-11.2576
ដួងចិត្ត	-11.2576
▁signature	-11.2576
ដ៏ល្អមួយ	-11.2577
សង្គ្រោះបន្ទាន់	-11.2577
សាច់ជ្រូក	-11.2577
កម្មវិធីសិក្សា	-11.2577
▁Learn	-11.2579
▁ជួសជុល	-11.2579
▁តាមពិត	-11.258
yard	-11.2581
▁fla	-11.2582
▁ត្រឹម	-11.2584
មួយរបស់	-11.2584
▁Face	-11.2584
▁conflict	-11.2585
▁Specification	-11.2586
▁blow	-11.2586
IL	-11.2588
ALL	-11.2589
gel	-11.259
▁focuses	-11.2593
▁ខ្លាំងណាស់។	-11.2594
cin	-11.2595
ការចែករំលែក	-11.2596
▁instructions	-11.2596
ធ្យូងថ្ម	-11.2598
CAP	-11.2598
បានត្រឹមត្រូវ	-11.2599
នៃការផលិត	-11.2603
ទេប៉ុន្តែថែមទាំង	-11.2604
VDC	-11.2604
▁trillion	-11.2605
និងឧស្សាហកម្ម	-11.2605
▁strive	-11.2606
▁textile	-11.2606
▁nozzle	-11.2606
ទាំងអស់ត្រូវបាន	-11.2607
▁Town	-11.261
ជាងមុន។	-11.2611
▁articles	-11.2613
▁WP	-11.2614
រយៈពេលប៉ុន្មាន	-11.2614
▁nose	-11.2615
ឥត	-11.2616
▁Pra	-11.2616
ជាផ្លូវការ។	-11.2616
▁virus	-11.2617
អស់រយៈពេលជាច្រើន	-11.2618
pet	-11.2618
បានស្លាប់	-11.2618
ដ៏ធំបំផុត	-11.2619
▁wallet	-11.262
▁៣៥	-11.262
▁ភ្ជាប់	-11.262
ឱ្យប្រសើរឡើងនូវ	-11.2622
▁except	-11.2623
ម៉ានី	-11.2625
▁newly	-11.2625
អ្នកមិនចាំបាច់	-11.2626
▁Sat	-11.2626
3.3	-11.2627
ចាត់ទុកថាជា	-11.2627
យុ	-11.2628
▁graduates	-11.2631
▁knowing	-11.2633
គាត់នឹង	-11.2634
▁furniture	-11.2635
សៀងហៃ	-11.2635
▁Meanwhile	-11.2635
យ៉ូហាន	-11.2635
▁Opposition	-11.2635
▁detention	-11.2635
▁Tonle	-11.2636
▁ordered	-11.2637
ការបញ្ចេញ	-11.2637
▁Length	-11.2637
▁alongside	-11.2637
▁helped	-11.2638
▁Recently	-11.2638
▁perfectly	-11.2639
▁ការធានា	-11.2643
▁appears	-11.2645
រោម	-11.2646
▁cars	-11.2647
▁ញុមទៅ	-11.265
កម្មវិធីជំនួយ	-11.2653
uri	-11.2653
▁សាស្ត្រាចារ្យ	-11.2653
▁Cons	-11.2653
ការជួសជុល	-11.2653
▁Made	-11.2654
ខែកុម្ភៈ	-11.2657
នៅចំពោះមុខ	-11.2657
លទ្ធភាពទទួលបាន	-11.2658
ការបន្ត	-11.2659
▁channels	-11.2661
ann	-11.2662
របស់ទ្រង់	-11.2663
នៅលើផ្ទៃ	-11.2663
អាស័យដ្ឋាន	-11.2663
ធនាគារពិភពលោក	-11.2663
ជួយកសិករឱ្យ	-11.2664
▁strike	-11.2664
បង្គាប់	-11.2664
▁friendship	-11.2665
tub	-11.2665
▁Treng	-11.2666
BB	-11.2667
ធំមួយ	-11.2667
ឈាន	-11.2668
▁Sunday	-11.2668
▁modify	-11.2669
ii	-11.2669
នៅគ្រប់	-11.2669
ថ្ងៃសៅរ៍	-11.267
▁withstand	-11.267
dding	-11.267
▁Lee	-11.2674
▁Wow	-11.2674
▁association	-11.2675
▁900	-11.2675
An	-11.2676
▁pop	-11.2676
▁Cal	-11.2677
▁suspend	-11.2677
▁0.6	-11.2679
ព្រឹទ្ធសភា	-11.2679
▁bolt	-11.268
▁SC	-11.268
គ្រប់គ្រងដោយ	-11.2682
▁rear	-11.2682
▁promise	-11.2683
ប្រកាន់ខ្ជាប់	-11.2683
COVID	-11.2684
សាច់គោ	-11.269
▁ទោះជាយ៉ាងណា	-11.269
▁កង	-11.2691
ចីរភាព	-11.2692
hot	-11.2694
ប្រណីត	-11.2694
អវកាស	-11.2694
▁បង្គំ	-11.2694
ទៀន	-11.2694
▁ADB	-11.2696
ស្វ័យ	-11.2696
KH	-11.2697
▁adoption	-11.2697
▁styles	-11.2697
bb	-11.2698
គ្របដណ្តប់លើ	-11.2699
HL	-11.27
▁associated	-11.27
ចរ	-11.2705
យូដា	-11.271
such	-11.2712
▁homes	-11.2712
ការងាររបស់	-11.2712
ដើម្បីផ្តល់នូវ	-11.2713
IF	-11.2713
law	-11.2713
▁Dia	-11.2717
leak	-11.2718
ការប៉ះទង្គិច	-11.2718
ទ្រឹស្តី	-11.2719
▁depth	-11.2719
កាន់តែមាន	-11.2719
▁1.0	-11.2719
UV	-11.272
ស្វែងយល់បន្ថែម	-11.272
ជាកម្មសិទ្ធិរបស់	-11.2722
៦៨	-11.2723
▁700	-11.2723
តៃវ៉ាន់	-11.2723
ល័ក្ខខ័ណ្ឌ	-11.2724
ស្ដេច	-11.2724
▁furnace	-11.2724
ក្រែម	-11.2724
▁Thickness	-11.2724
▁Ivan	-11.2724
ឯង	-11.2724
▁Sin	-11.2724
▁compassion	-11.2724
▁diplomatic	-11.2725
1/4	-11.2725
ហួត	-11.2726
នោះទេប៉ុន្តែ	-11.2726
▁cake	-11.2726
ខ្សែដៃ	-11.2727
▁2020.	-11.2729
ធ្វើម្ហូប	-11.273
▁Him	-11.2733
ដើម្បីចូលរួម	-11.2734
▁sustain	-11.2734
▁Christian	-11.2735
ល្	-11.2736
ព្រះយេស៊ូ	-11.2737
ook	-11.2739
មេដែក	-11.2742
នាពេលខាងមុខ	-11.2742
1.0	-11.2743
▁Printing	-11.2745
▁determined	-11.2747
ជ្រាបទឹក	-11.2748
សាយ	-11.2748
▁talking	-11.2749
▁Ask	-11.2749
RH	-11.2751
នៅព្រឹក	-11.2753
▁ការកំណត់	-11.2753
ច្រមុះ	-11.2753
▁Gu	-11.2754
បញ្ចូលទៅក្នុង	-11.2755
▁outstanding	-11.2755
ថ្នាំជក់	-11.2755
ឃុំខ្លួន	-11.2758
▁Chain	-11.2758
.5%	-11.2758
ឆ្នាំ២០១៧	-11.2759
-00	-11.2759
▁ឧបករណ៍ចាប់សញ្ញា	-11.276
▁Sav	-11.2761
ប្រសើរ	-11.2763
ធ្វើរោគវិនិច្ឆ័យ	-11.2763
▁សាលារៀន	-11.2763
▁ឯកឧត្ដម	-11.2767
▁lotus	-11.2767
crea	-11.2767
osis	-11.2768
▁Understanding	-11.2769
▁firmly	-11.2771
គ្រប់ពេលវេលា	-11.2771
អូស	-11.2772
កណ្តុរ	-11.2773
ហ្ស	-11.2776
១២០	-11.2777
▁Oh	-11.2778
▁doors	-11.2778
គ្រប់ជ្រុងជ្រោយ	-11.2784
ជម្រះ	-11.2784
ធ្នឹម	-11.2784
▁Should	-11.2784
រៀងៗខ្លួន	-11.2784
▁worse	-11.2784
▁Camera	-11.2784
RCEP	-11.2784
yr	-11.2785
សាច់មាន់	-11.2785
បទចម្រៀង	-11.2785
▁Andrew	-11.2786
▁laminated	-11.2787
▁transition	-11.2787
▁loose	-11.2787
▁85	-11.2787
VO	-11.2788
ធ្នូ	-11.2789
ប្រាក់ដុល្លារ	-11.279
▁characters	-11.2794
CK	-11.2794
▁វ៉ាវ	-11.2798
០៦	-11.2799
សក្ដានុពល	-11.28
sol	-11.2801
លក់រាយ	-11.2801
▁04	-11.2801
ការប្រណាំង	-11.2803
▁consideration	-11.2803
៣២	-11.2804
%),	-11.2805
▁fork	-11.2806
▁ប៉ុន្មាន	-11.2806
▁៣១	-11.2809
ទំនេរ	-11.2809
ការឆ្លងមេរោគ	-11.281
ការគាំទ្រពី	-11.2811
លំ	-11.2812
ទ្វីប	-11.2812
ខេមបូឌា	-11.2814
▁bathroom	-11.2814
ទៅអត្ថបទ	-11.2815
កាលវិភាគ	-11.2815
វាត្រូវបានគេប្រើ	-11.2816
card	-11.2817
▁សាលក្រម	-11.2818
ដ៏អស្ចារ្យ។	-11.2821
សោភ័ណភាព	-11.2823
ហ្វឹកហាត់	-11.2825
និងការប្រើប្រាស់	-11.2826
▁absorb	-11.2826
▁refer	-11.2828
លទ្ធផលនៃ	-11.2829
គម្រោងវិនិយោគ	-11.283
App	-11.283
▁happened	-11.2831
Month	-11.2831
ត្ត	-11.2831
ប្រសិនបើពួកគេ	-11.2832
▁ទីប្រឹក្សា	-11.2834
▁coll	-11.2834
ដុសធ្មេញ	-11.2835
▁buyer	-11.2835
ស្ងៀមស្ងាត់	-11.2836
បានមានប្រសាសន៍	-11.2838
▁វិធាន	-11.284
:45	-11.2841
ក្នុងនាម	-11.2842
ផ្លាស់ប្ដូរ	-11.2842
▁ផ្ទុយទៅវិញ	-11.2843
ក្រពះ	-11.2844
▁smoking	-11.2844
▁shaft	-11.2844
▁distant	-11.2844
▁agency	-11.2844
▁brick	-11.2845
oh	-11.2847
GL	-11.2847
▁pertain	-11.2848
បានយក	-11.2848
▁ផ្លូវពេញ	-11.2849
ម្យ៉ាង	-11.2849
▁07	-11.2849
La	-11.2851
▁aging	-11.2853
building	-11.2853
ការប្រាក់	-11.2854
ient	-11.2854
ការអធិស្ឋាន	-11.2856
ស្រទាប់ខាងក្រោម	-11.2856
▁adults	-11.2857
▁award	-11.2857
▁Tips	-11.2857
▁Commission	-11.2862
▁busy	-11.2862
ras	-11.2866
▁Holy	-11.2867
ចេញទៅ	-11.2868
▁បាននិយាយ	-11.287
▁Second	-11.2873
ប្រទេសបារាំង	-11.2873
មូលដ្ឋានគ្រឹះនៃ	-11.2874
រស់រានមានជីវិត	-11.2874
▁logistics	-11.2874
ជម្រាប	-11.2874
▁viscosity	-11.2874
ministerial	-11.2876
▁specifically	-11.2876
ខែធ្នូ	-11.2876
ដែលមានបទពិសោធន៍	-11.2878
ett	-11.2879
DT	-11.2882
ប្	-11.2884
lim	-11.2885
nar	-11.2887
ស្គរ	-11.2887
ការបង្វិល	-11.2888
ធន់ទ្រាំនឹង	-11.289
រ៉	-11.2893
ឡើងដោយ	-11.2893
បារី	-11.2894
▁បរិសុទ្ធ	-11.2897
សប្បាយរីករាយ	-11.2898
ជំរុញឲ្យ	-11.2899
▁environments	-11.2899
▁450	-11.2899
ជាងការដាំ	-11.2903
2022	-11.2904
▁Spanish	-11.2904
▁connectivity	-11.2905
គីឡូ	-11.2905
អេឡិចត្រូត	-11.2906
▁bulk	-11.2906
ទស្សនវិស័យ	-11.2906
អាចផ្លាស់ប្តូរ	-11.2907
▁សូមធានាថា	-11.2909
▁closely	-11.2909
▁ងាយ	-11.2911
លម្អ	-11.2914
▁muscle	-11.2918
▁៤៥	-11.2918
ត្រូវបានបែងចែក	-11.2918
ការអភិរក្ស	-11.2918
ក្នុងការអនុវត្ត	-11.2921
និងផ្គត់ផ្គង់	-11.2921
ike	-11.2923
▁praise	-11.2923
▁corn	-11.2926
▁immediate	-11.2927
ons	-11.2927
រក្សាសន្តិភាព	-11.293
សាលក្រម	-11.293
Option	-11.2931
itive	-11.2931
ound	-11.2933
ស្នប់	-11.2935
▁Beyond	-11.2935
▁Official	-11.2935
▁cooperate	-11.2935
▁religious	-11.2935
ការ៉េម	-11.2935
▁Member	-11.2935
▁supermarket	-11.2935
/20	-11.2935
▁contributed	-11.2936
▁គឹម	-11.2936
បាទ	-11.2936
▁parameters	-11.2937
▁patterns	-11.2937
ហ្	-11.2938
អាចបង្កើន	-11.294
EU	-11.2942
UR	-11.2943
ដែលបង្ហាញពី	-11.2944
បំណងប្រាថ្នា	-11.2944
▁mix	-11.2946
▁isn	-11.2947
ប្រមុខ	-11.2947
ទទួលរង	-11.2948
wall	-11.2948
ផ្លា	-11.2949
ប្លាស្មា	-11.295
▁២៧	-11.2951
ភាពខុសគ្នារវាង	-11.2953
លីង	-11.2955
ស្ថាប័នពាក់ព័ន្ធ	-11.2955
ចាយ	-11.2955
បញ្ចាំង	-11.2956
ចំនួន២	-11.2957
▁និងក្រុមហ៊ុន	-11.2957
▁Mill	-11.2958
▁Che	-11.2959
▁thank	-11.2959
ART	-11.296
២៥០	-11.2961
▁Nov	-11.2962
ត្រលប់ទៅ	-11.2962
craft	-11.2963
▁យើងក៏	-11.2964
▁summons	-11.2965
▁NGOs	-11.2965
ភរិយា	-11.2965
▁purity	-11.2965
ឱ	-11.2967
យ៉ាងជិតស្និទ្ធ	-11.2967
▁Award	-11.2968
▁hurt	-11.2968
connect	-11.2969
▁Select	-11.2969
▁performed	-11.2974
3/4	-11.2976
រើ	-11.2976
▁Band	-11.2977
ការចូល	-11.2977
▁ជាការពិត	-11.2978
▁ជាក់ស្ដែង	-11.2978
ហ៊	-11.2981
▁pipeline	-11.2981
ខ្ញុំមិនអាច	-11.2982
fully	-11.2987
▁treated	-11.2989
gon	-11.299
សង្វាក់	-11.299
avi	-11.2991
Tech	-11.2991
ប្រទេសឥណ្ឌា	-11.2994
ទាក់	-11.2994
សួស្តី	-11.2996
ឧបករណ៏	-11.2996
កង្វល់	-11.2996
រ៉ាំរ៉ៃ	-11.2996
▁Oknha	-11.2996
▁centuries	-11.2996
▁college	-11.2996
▁flexibility	-11.2996
ព្រិល	-11.2996
▁countertop	-11.2996
▁sit	-11.2997
▁dreams	-11.2998
▁rare	-11.2999
គ្នា។	-11.3
▁boosting	-11.3001
ជាព្រះ	-11.3003
ស្មើគ្នា	-11.3003
ដុតនំ	-11.3005
▁coal	-11.3005
ចាំបាច់សម្រាប់	-11.3006
ដ៏គួរឱ្យ	-11.3007
សប្បាយចិត្ត	-11.3007
ចេតនា	-11.3008
៥៤	-11.3008
▁Sch	-11.301
▁timely	-11.3012
▁កែម	-11.3013
ក្នុងកម្មវិធី	-11.3015
▁preserve	-11.3015
មីង	-11.3017
▁ប្តូ	-11.3018
▁silent	-11.3019
including	-11.302
▁2-3	-11.302
▁វិញ្ញាបនប័ត្រ	-11.3022
កុំឱ្យ	-11.3023
អានបន្ថែម	-11.3023
ean	-11.3024
លើពិភពលោក	-11.3026
▁Myanmar	-11.3026
ឆ្អឹងខ្នង	-11.3027
▁duration	-11.3027
▁throw	-11.3027
▁Device	-11.3027
▁blanket	-11.3028
▁និងវាយតម្លៃ	-11.3029
▁Choose	-11.3029
▁នាឡិកា	-11.3031
rim	-11.3032
etc	-11.3034
lash	-11.3036
ដកចេញ	-11.3036
▁silicone	-11.3036
KM	-11.3037
▁រួមជាមួយនឹង	-11.3037
នាក់ទៀត	-11.3039
▁ជនជាប់ចោទ	-11.3041
MX	-11.3044
▁តើវា	-11.3044
▁52	-11.3046
▁fourth	-11.3048
ced	-11.3049
ទៀងទាត់	-11.3049
ដើរតួនាទី	-11.3051
flex	-11.3054
ហឺត	-11.3054
ខេត្តកំពង់ស្ពឺ	-11.3055
▁230	-11.3056
កំពង់	-11.3056
បណ្តឹង	-11.3056
ចក្រ	-11.3057
ទស្សនាវដ្តី	-11.3057
លើកស្ទួយ	-11.3057
▁quartz	-11.3057
▁speech	-11.3057
▁extrusion	-11.3057
ច្រកទ្វារ	-11.3058
គ្រឿងទេស	-11.3059
▁discovered	-11.3061
▁tracking	-11.3062
សូមពិនិត្យមើល	-11.3062
▁Kra	-11.3064
▁beer	-11.3066
មុត	-11.3067
ខេត្តតាកែវ	-11.3068
ការទាក់ទាញ	-11.3073
បានរៀបរាប់	-11.3074
ក្នុងចិត្ត	-11.3075
ែរ	-11.3077
▁habits	-11.3078
▁SMT	-11.3079
បានរាយការណ៍ថា	-11.3079
OK	-11.3081
▁លោកបណ្ឌិត	-11.3081
ឡើង។	-11.3082
stra	-11.3083
▁រដ្ឋលេខាធិការ	-11.3084
ប្រាកដជា	-11.3087
នំបុ័ង	-11.3088
ពត៌មាន	-11.3088
សម្រង់	-11.3088
▁Family	-11.3088
▁Mexico	-11.3088
ហុងកុង	-11.3088
▁dawn	-11.3089
ផ្កាឈូក	-11.3089
▁tranquility	-11.3089
col	-11.3089
▁សូមចងចាំថា	-11.3089
▁Twitch	-11.309
▁spent	-11.309
មានច្រើន	-11.3091
rpm	-11.3092
ដែនដី	-11.3093
stop	-11.3095
ចរិត	-11.3095
ផលិតចេញពី	-11.3096
សម្រាប់អាជីវកម្ម	-11.3099
▁positioning	-11.3101
:38	-11.3102
fect	-11.3105
និពន្ធ	-11.3107
ការងារធ្វើ	-11.3111
▁Egypt	-11.3113
រ៉ូម	-11.3113
3.5	-11.3115
មួយណា	-11.3116
▁killed	-11.3117
អ្វីដែលជា	-11.3118
ញៀន	-11.3118
អន្តោប្រវេសន៍	-11.3118
ម្ដាយ	-11.3119
ស្តង់	-11.3119
▁Credit	-11.3119
▁distributor	-11.3119
គន្លង	-11.3119
▁spindle	-11.3119
ដោយគ្រាន់តែ	-11.3119
អូរ	-11.3121
▁ETH	-11.3122
ងាប់	-11.3122
ចៀសវាង	-11.3124
▁Nan	-11.3124
មេត្តា	-11.3125
កម្មវិធីរុករក	-11.3126
▁Vir	-11.3127
▁insert	-11.3129
គឺដើម្បី	-11.3129
ដើរតួជា	-11.313
ហាងកាហ្វេ	-11.3131
▁circumstances	-11.3132
▁plugin	-11.3133
8.1	-11.3134
ប្រើដើម្បី	-11.3136
បានឲ្យដឹងថា	-11.3136
▁96	-11.3139
ប្រសាសន៍	-11.3139
▁tooth	-11.314
face	-11.3144
២០២៥	-11.3144
cri	-11.3145
▁បានបញ្ជាក់	-11.3146
▁china	-11.3147
SN	-11.3148
ស្វាយចន្ទី	-11.3149
▁ជ្រើស	-11.3149
បង្វែរ	-11.315
▁configuration	-11.315
▁definitely	-11.315
▁indispensable	-11.315
កំពុងធ្វើ	-11.315
▁grammar	-11.315
▁MeCan	-11.315
អគ្គីសនី	-11.315
▁clip	-11.3152
▁mod	-11.3153
▁Hosting	-11.3153
▁savings	-11.3153
▁exposed	-11.3154
បោក	-11.3159
kan	-11.316
▁paste	-11.316
បង់ថ្លៃ	-11.316
ព័ត៌មានអំពី	-11.316
សំខាន់មួយ	-11.3162
កាំ	-11.3163
▁distributed	-11.3163
UC	-11.3164
បាប	-11.3166
▁Dimension	-11.3167
សារៈសំខាន់នៃ	-11.3167
name	-11.317
អចិន្ត្រៃយ៍	-11.3172
▁customize	-11.3174
▁protocols	-11.3174
▁mixing	-11.3176
cell	-11.3176
ពេញលេញ។	-11.3178
▁Run	-11.318
អ្នកអាចជ្រើសរើស	-11.3181
កាលពី១០ឆ្នាំមុន	-11.3181
សំណឹក	-11.3181
ដាច់ខាត	-11.3181
ដើម្បីឱ្យមាន	-11.3181
▁peak	-11.3183
UB	-11.3184
▁relationships	-11.3184
▁Pri	-11.3185
ila	-11.3186
shop	-11.3187
▁គ្រូ	-11.3189
▁Xi	-11.319
▁yields	-11.3191
▁Bay	-11.3192
បន្ទប់គេង	-11.3193
បានលើកឡើងថា	-11.3193
ច្រេះ	-11.3194
▁(5	-11.3195
▁celebrated	-11.3196
ត្រូវអនុវត្ត	-11.3197
▁decades	-11.3199
▁adapter	-11.32
ncy	-11.3201
ដល់ប្រជាពលរដ្ឋ	-11.3201
▁ទោះបី	-11.3202
▁ភាគរយនៃ	-11.3203
▁AND	-11.3204
ក្រសួងយុត្តិធម៌	-11.3205
ites	-11.3205
phe	-11.3205
ខ្នាតធំ	-11.3207
LAN	-11.321
sea	-11.3211
ការសន្ទនា	-11.3212
អង្	-11.3212
អេល	-11.3212
▁fabrics	-11.3212
ល្បិច	-11.3212
▁tensile	-11.3212
▁brief	-11.3212
▁flooring	-11.3213
▁variant	-11.3214
place	-11.3215
▁bitter	-11.3216
▁ខ្ញុំជា	-11.3216
uous	-11.3216
gov	-11.3217
ប្រសើរជាងមុន	-11.3217
នៅជុំវិញពិភពលោក	-11.3217
ែង	-11.3219
▁Connector	-11.3223
លើកទី១	-11.3224
[...]
