<pad>	0
<unk>	0
<s>	0
</s>	0
<2en>	0
<2km>	0
▁	-2.39852
.	-3.77492
,	-3.84205
▁the	-4.17602
▁and	-4.44618
▁to	-4.50499
▁of	-4.54474
s	-4.66066
។	-4.66214
▁និង	-4.84862
▁in	-5.12885
▁a	-5.23903
-	-5.24145
▁The	-5.24808
▁for	-5.44576
ing	-5.53326
▁Cambodia	-5.82582
▁is	-5.8652
’	-5.89069
▁with	-5.92235
▁(	-6.10842
:	-6.11089
▁on	-6.21077
)	-6.22405
កម្ពុជា	-6.22687
ed	-6.27275
▁from	-6.30414
▁ដែល	-6.36243
នេះ	-6.38958
បាន	-6.39149
▁by	-6.40521
▁that	-6.41629
ដែល	-6.49396
▁ការ	-6.5404
របស់	-6.548
▁បាន	-6.55905
នៃ	-6.6093
ក្នុង	-6.63586
ពី	-6.64585
▁as	-6.6477
▁has	-6.6572
▁are	-6.685
សម្រាប់	-6.72618
▁លោក	-6.73938
ly	-6.76798
នៅ	-6.83589
▁Royal	-6.83678
▁ដោយ	-6.88468
▁ហើយ	-6.91812
▁at	-6.92097
▁ដើម្បី	-6.92384
▁A	-6.92654
▁ឬ	-6.93177
▁will	-6.93686
ជា	-6.94886
▁be	-6.96851
ការ	-6.98288
▁Ministry	-6.99501
មាន	-7.0116
▁៖	-7.01426
▁Penh	-7.03046
▁Cambodian	-7.03079
▁ជា	-7.03478
▁Phnom	-7.04194
▁“	-7.04929
ដោយ	-7.0707
ថា	-7.07348
▁ហ៊ុន	-7.07573
▁development	-7.11713
▁ក្នុង	-7.14124
▁មាន	-7.1607
▁this	-7.16584
▁its	-7.1705
▁over	-7.17231
▁an	-7.17294
▁Hun	-7.17538
▁or	-7.17767
▁Minister	-7.1786
▁national	-7.18588
▁new	-7.2012
និង	-7.2246
▁National	-7.23068
▁all	-7.23863
មួយ	-7.24958
ឱ្យ	-7.25004
▁គឺ	-7.26438
ទៅ	-7.28177
▁their	-7.28947
ចំនួន	-7.29121
▁His	-7.29286
▁public	-7.29569
លើ	-7.30913
ដល់	-7.33403
d	-7.35147
៕	-7.35864
▁នៅ	-7.36463
លោក	-7.36621
▁ឯកឧត្តម	-7.36845
/	-7.38659
▁have	-7.3906
ដើម្បី	-7.39317
e	-7.40875
សេដ្ឋកិច្ច	-7.41345
▁Government	-7.41673
'	-7.42231
▁was	-7.42463
នឹង	-7.43775
▁economic	-7.44291
ស	-7.45152
▁សែន	-7.46861
▁Samdech	-7.47417
▁Sen	-7.48108
▁agricultural	-7.48787
នៅក្នុង	-7.49872
▁government	-7.505
”	-7.51695
▁million	-7.52736
▁health	-7.5311
▁នឹង	-7.53992
ជាតិ	-7.5403
▁not	-7.54098
▁must	-7.55011
▁his	-7.5516
៖	-7.55745
ហិរញ្ញវត្ថុ	-7.57283
»	-7.58152
y	-7.58825
S	-7.58845
▁international	-7.58907
ថ្មី	-7.59396
▁នៃ	-7.59615
▁shall	-7.59629
នូវ	-7.60459
%	-7.62312
been	-7.62488
អន្តរជាតិ	-7.62604
ក្នុងការ	-7.62849
▁១	-7.62911
▁This	-7.63598
▁គឺជា	-7.64023
ក	-7.64082
រ	-7.64587
ប	-7.64933
▁through	-7.65577
▁Khmer	-7.66046
▁her	-7.66098
t	-7.66984
▁into	-7.68056
▁«	-7.68469
▁កម្ពុជា	-7.68556
▁sector	-7.69147
th	-7.69555
▁citizens	-7.70478
▁financial	-7.72811
តាម	-7.72827
▁high	-7.73011
▁សម្រាប់	-7.7304
▁also	-7.73041
▁land	-7.7309
▁ប៉ុន្តែ	-7.73554
▁២	-7.7406
▁growth	-7.75748
ជាមួយ	-7.76731
▁investment	-7.77191
ជាង	-7.77612
▁it	-7.77912
នៅកម្ពុជា	-7.78958
▁He	-7.79068
ត្រូវ	-7.79282
al	-7.7946
▁Prime	-7.7972
▁but	-7.79805
ត្រូវបាន	-7.79996
▁can	-7.80052
▁Mr	-7.80316
▁like	-7.80377
ប្រកបដោយ	-7.8099
ការងារ	-7.81531
▁market	-7.81643
មក	-7.81735
ទាំងអស់	-7.81908
នោះ	-7.81956
មិន	-7.83086
▁In	-7.83164
▁under	-7.83299
អាច	-7.83576
រាជរដ្ឋាភិបាល	-7.83872
▁ត្រូវ	-7.84933
អ្នក	-7.85199
▁stated	-7.85479
▁during	-7.85621
▁Kingdom	-7.85699
ជាច្រើន	-7.85771
▁Excellency	-7.86014
ចំពោះ	-7.86295
▁authorities	-7.87063
▁ensure	-7.87518
▁៣	-7.88461
▁S	-7.88637
▁ASEAN	-7.88682
របស់ខ្លួន	-7.8996
▁ត្រូវបាន	-7.90185
ក្រុមហ៊ុន	-7.90406
១៩	-7.90792
▁support	-7.90846
),	-7.91114
ឲ្យ	-7.9149
ន	-7.91773
បច្ចេកវិទ្យា	-7.92585
▁ក៏	-7.94004
▁enhance	-7.94421
▁រាជរដ្ឋាភិបាល	-7.95248
ម	-7.95326
គឺ	-7.95377
ផងដែរ។	-7.96019
▁global	-7.96144
ទាំង	-7.96282
ពាណិជ្ជកម្ម	-7.9682
E	-7.96852
ធ្វើ	-7.97475
▁Techo	-7.97558
▁after	-7.97585
▁"	-7.98037
▁people	-7.98084
▁Preah	-7.98599
▁while	-7.99051
▁ទៅ	-7.99125
▁China	-7.99241
▁cooperation	-8.01128
១	-8.01516
បន្ត	-8.01591
▁ជាពិសេស	-8.01932
?	-8.0249
▁H	-8.03479
ប្រើប្រាស់	-8.03753
អាមេរិក	-8.04077
▁ពី	-8.0519
▁តែ	-8.05406
▁U	-8.06587
ខ្មែរ	-8.0682
▁two	-8.07438
▁All	-8.07518
▁law	-8.07941
ភាព	-8.08364
▁trade	-8.09018
▁year	-8.09173
▁COVID	-8.09398
.”	-8.09476
▁province	-8.09664
▁products	-8.10477
▁ភ្នំពេញ	-8.11705
▁infrastructure	-8.12031
នានា	-8.12115
▁៤	-8.12227
-19	-8.1234
▁within	-8.12493
▁including	-8.12831
▁key	-8.13429
▁Bank	-8.13432
a	-8.13453
▁ដូចជា	-8.13766
▁មិន	-8.14293
ទឹក	-8.15397
er	-8.15816
មួយចំនួន	-8.1603
▁King	-8.16095
▁៥	-8.16134
▁project	-8.162
▁peace	-8.16268
▁officials	-8.16554
ខ្ពស់	-8.16738
▁អ្នក	-8.16943
កំពុង	-8.17716
▁future	-8.1774
▁legal	-8.17831
▁នេះ	-8.17941
ក៏	-8.18107
n	-8.18777
ច្រើន	-8.1908
ត	-8.19389
▁more	-8.19562
២	-8.20234
ដី	-8.20837
▁របស់	-8.20847
ដែលមាន	-8.21113
▁អាច	-8.21414
ចិន	-8.2143
▁years	-8.21559
▁first	-8.21699
▁ឆ្នាំ	-8.21807
▁students	-8.21877
es	-8.22009
▁life	-8.22146
▁និងការ	-8.2229
▁ដល់	-8.23016
ហើយ	-8.2357
▁D	-8.23571
▁International	-8.23888
"	-8.23894
▁Kampong	-8.23995
វិញ	-8.24133
▁civil	-8.24139
▁C	-8.24271
គម្រោង	-8.24316
▁due	-8.24427
▁billion	-8.24541
ដ៏	-8.24646
▁military	-8.2475
▁quality	-8.2476
▁official	-8.2484
▁who	-8.24952
អំពី	-8.25011
▁policy	-8.2507
▁were	-8.25396
ផងដែរ	-8.2563
▁human	-8.25922
ង	-8.26026
ល្អ	-8.26045
▁security	-8.26232
ផ្នែក	-8.26534
▁projects	-8.26617
ទីផ្សារ	-8.26626
▁**	-8.26662
▁rice	-8.26935
▁profound	-8.27037
ប្រជាពលរដ្ឋ	-8.27095
▁institutions	-8.27189
▁ខណៈ	-8.27458
▁one	-8.27502
៣	-8.27523
▁he	-8.27704
អាជីវកម្ម	-8.2844
យើង	-8.28682
▁which	-8.2892
ឆ្នាំ	-8.29053
▁near	-8.29203
រដ្ឋាភិបាល	-8.29219
▁system	-8.29252
▁1	-8.29457
នោះទេ	-8.30163
▁sustainable	-8.30293
ទេ	-8.30573
៥	-8.30671
មនុស្ស	-8.31126
ប្រមាណ	-8.31696
▁ក្រុមហ៊ុន	-8.31704
នៃព្រះរាជាណាចក្រ	-8.31911
▁long	-8.32062
▁services	-8.32487
▁demand	-8.32845
▁តាមរយៈ	-8.33061
តំបន់	-8.33191
▁education	-8.33232
ប្រទេស	-8.33722
▁Chinese	-8.33767
▁between	-8.33967
▁water	-8.33976
▁ancient	-8.34052
ពលរដ្ឋ	-8.34151
▁construction	-8.34187
ប្រព័ន្ធ	-8.34251
▁business	-8.34581
▁youth	-8.34677
▁digital	-8.34838
in	-8.34868
▁B	-8.34982
ព័ត៌មាន	-8.35035
**	-8.35295
▁export	-8.35908
▁management	-8.35937
គ្នា	-8.36129
អត្រានុកូលដ្ឋាន	-8.36142
▁ដ៏	-8.36243
▁workers	-8.37367
▁court	-8.3749
ខ្លួន	-8.37777
▁P	-8.37842
st	-8.37933
▁against	-8.38
▁continue	-8.38309
▁Dr	-8.38354
▁RFA	-8.38371
▁production	-8.38536
▁crucial	-8.38663
▁ដែលជា	-8.39096
▁countries	-8.39453
▁Majesty	-8.39783
ម្នាក់	-8.39863
ជំនាញ	-8.39875
r	-8.39909
ចូល	-8.40059
▁foreign	-8.40249
ous	-8.40287
▁ម៉ាណែត	-8.41457
▁three	-8.41511
ប្រតិបត្តិការ	-8.41621
▁other	-8.41839
▁economy	-8.42069
▁only	-8.42103
ផ្លូវ	-8.42192
បន្ថែម	-8.4229
i	-8.42311
រចនាសម្ព័ន្ធ	-8.42367
▁meeting	-8.42504
សិក្សា	-8.42548
▁ស	-8.42563
យក	-8.42779
លក់	-8.42788
ឡើង	-8.42818
▁community	-8.43023
▁rights	-8.43618
▁per	-8.43691
រឿង	-8.44216
k	-8.4463
▁social	-8.44875
ទៅកាន់	-8.45217
▁Manet	-8.45545
▁ថា	-8.45654
▁food	-8.45757
ច្បាប់	-8.45975
▁regional	-8.45982
▁5	-8.46195
រាជធានីភ្នំពេញ	-8.46429
▁use	-8.46475
តម្លៃ	-8.46499
o	-8.46949
យុទ្ធសាស្ត្រ	-8.47202
▁about	-8.47244
▁work	-8.47386
នាយករដ្ឋមន្ត្រី	-8.47547
▁2	-8.48073
ទៀត	-8.48235
ខ្លាំង	-8.48315
តែ	-8.48338
▁challenges	-8.48358
សកម្មភាព	-8.48362
យ	-8.4837
▁measures	-8.48403
▁committed	-8.4871
ដាក់	-8.48741
▁ចំនួន	-8.48775
▁across	-8.49037
▁ក៏ដូចជា	-8.49244
អាស៊ាន	-8.49531
▁party	-8.49621
▁may	-8.49967
គ្រប់គ្រង	-8.50214
ជិត	-8.50591
▁time	-8.50671
▁By	-8.5107
▁local	-8.51233
▁I	-8.51623
▁noted	-8.51779
▁emphasized	-8.51947
▁No	-8.51984
កសិកម្ម	-8.52001
សហប្រតិបត្តិការ	-8.52023
m	-8.52456
ល	-8.52506
▁ឱ្យ	-8.52579
▁President	-8.52592
៤	-8.52625
▁training	-8.52671
▁នៅក្នុង	-8.52934
▁2023,	-8.53044
គ្រួសារ	-8.53102
កម្មវិធី	-8.53199
▁continues	-8.53305
យ៉ាង	-8.53456
▁strengthen	-8.5348
▁Siem	-8.53622
▁3	-8.53625
▁Province	-8.53707
ជូន	-8.53858
▁ព្រមទាំង	-8.53903
▁farmers	-8.54
វា	-8.54001
ប្រសិទ្ធភាព	-8.5428
▁added	-8.54286
ចូលរួម	-8.54392
បន្ថែមទៀត	-8.54433
▁Reap	-8.5444
តាមរយៈ	-8.54508
ខេត្ត	-8.54729
▁further	-8.5473
▁stability	-8.55079
ទទួលបាន	-8.55208
▁markets	-8.55223
ថ្ងៃ	-8.55229
រវាង	-8.55293
▁remains	-8.55295
▁we	-8.55393
បង្កើត	-8.55402
ផ្សេងៗ	-8.5546
ឡើងវិញ	-8.55571
ance	-8.55756
▁tourism	-8.56344
▁Decree	-8.56378
espite	-8.564
▁January	-8.5645
ក្រុម	-8.56506
គោលនយោបាយ	-8.5666
រដ្ឋមន្ត្រី	-8.5666
▁promote	-8.57145
▁ប្រទេស	-8.57337
▁10	-8.57348
se	-8.57357
▁៦	-8.57429
▁society	-8.57612
g	-8.57775
▁they	-8.57818
បញ្ហា	-8.58127
▁implementation	-8.58337
▁prices	-8.5878
▁ដោយសារ	-8.58937
▁them	-8.58992
សាធារណៈ	-8.59128
ជ	-8.59247
ឌីជីថល	-8.59258
មន្ត្រី	-8.59271
▁New	-8.59304
៦	-8.59358
c	-8.59377
អភិវឌ្ឍន៍	-8.59431
ពេល	-8.59591
▁past	-8.59612
▁Court	-8.59684
ផលិត	-8.5983
ពិភពលោក	-8.60233
ទៅលើ	-8.60313
▁plan	-8.60434
ក្នុងស្រុក	-8.60584
សហគមន៍	-8.60985
ចេញ	-8.60993
ផលិតផល	-8.61034
អនុវត្ត	-8.61092
▁It	-8.61354
▁តាម	-8.61397
▁skills	-8.61506
យុវជន	-8.61916
សង្គម	-8.62048
▁Development	-8.62201
C	-8.62224
▁F	-8.62243
▁E	-8.62511
▁ឆ្នាំ២០២៣	-8.62511
▁heart	-8.62913
▁យើង	-8.6347
ៗ	-8.63494
on	-8.63529
ដូចជា	-8.63531
▁registration	-8.63619
▁both	-8.63639
▁ខណៈដែល	-8.63855
▁technology	-8.63893
▁role	-8.63941
ដំណើរការ	-8.64153
▁priority	-8.64271
▁2024,	-8.64553
▁plans	-8.64559
▁ដូច្នេះ	-8.64698
▁areas	-8.64859
សុខភាព	-8.65056
▁issues	-8.65134
▁ពលរដ្ឋ	-8.65345
an	-8.65532
▁2023	-8.65537
▁children	-8.65757
▁Sam	-8.66366
).	-8.66438
▁ដែលមាន	-8.66478
▁ឆ្នាំ២០២៤	-8.66682
▁these	-8.66975
ក្រសួង	-8.67066
▁company	-8.67069
▁such	-8.67472
ការអភិវឌ្ឍ	-8.6788
▁opportunities	-8.6796
▁upon	-8.68173
ជួយ	-8.68322
វ	-8.68424
គេ	-8.68432
▁K	-8.68599
▁boost	-8.68685
របស់លោក	-8.69051
▁policies	-8.6908
▁being	-8.69191
គាំទ្រ	-8.6923
▁To	-8.69286
រៀបចំ	-8.69365
បច្ចេកទេស	-8.6954
▁district	-8.69599
កន្លែង	-8.69672
▁if	-8.69798
▁មក	-8.69911
▁រដ្ឋមន្ត្រី	-8.70045
របស់កម្ពុជា	-8.70179
ការគ្រប់គ្រង	-8.70233
▁without	-8.70312
▁family	-8.70356
ផ្សព្វផ្សាយ	-8.70569
▁Deputy	-8.70682
ការពារ	-8.7094
▁បន្ទាប់ពី	-8.7097
សរុប	-8.71043
▁total	-8.71046
▁budget	-8.71174
ខ្លួនឯង	-8.71205
▁4	-8.71257
▁world	-8.7144
▁Civil	-8.71442
▁Health	-8.71545
▁Party	-8.71545
▁exports	-8.71655
នៃការ	-8.7178
▁many	-8.72151
▁សម្តេចតេជោ	-8.72345
▁aims	-8.72395
▁យុវជន	-8.72722
នយោបាយ	-8.7286
ជាមួយនឹង	-8.72914
▁Education	-8.72938
ទីតាំង	-8.7297
ចិត្ត	-8.73004
វិនិយោគ	-8.73024
▁7	-8.73083
ដូច	-8.73097
B	-8.73173
រថយន្ត	-8.73236
៨	-8.73268
▁នូវ	-8.73318
▁before	-8.7334
▁ទាំង	-8.73367
▁data	-8.73542
កូន	-8.73715
ថ្មីៗ	-8.73945
ប្រភេទ	-8.74008
▁most	-8.74164
term	-8.74226
en	-8.74318
▁sectors	-8.74333
▁along	-8.74729
ទី	-8.74866
លើកកម្ពស់	-8.74916
ពួកគេ	-8.75009
យកចិត្តទុកដាក់	-8.75272
នេះ។	-8.75294
▁ព្រោះ	-8.75401
▁Public	-8.75425
▁៧	-8.75549
អ	-8.75619
▁no	-8.7568
ណា	-8.75833
h	-8.76084
▁គម្រោង	-8.76112
ដែលបាន	-8.76135
ការប្រើប្រាស់	-8.76161
ផ្ទះ	-8.76618
▁ភាគរយ	-8.76682
អាជ្ញាធរ	-8.76826
A	-8.76908
1	-8.77121
▁should	-8.77189
▁report	-8.77279
ធ្វើការ	-8.77286
▁documents	-8.77337
▁ceremony	-8.77339
▁nation	-8.7737
▁Angkor	-8.77435
▁daily	-8.77514
▁capital	-8.77573
▁លើ	-8.77576
ចេញពី	-8.77647
▁especially	-8.77817
▁natural	-8.77881
សន្តិភាព	-8.77958
▁urged	-8.77985
▁reduce	-8.77985
▁For	-8.78073
ទទួល	-8.78165
បរិស្ថាន	-8.78358
គឺជា	-8.78613
▁companies	-8.78658
ធំ	-8.78675
គ្រប់	-8.78686
▁private	-8.78734
កិច្ច	-8.78837
▁potential	-8.78856
បំផុត	-8.78887
៧	-8.79082
▁She	-8.79088
▁regulations	-8.79093
ion	-8.79165
▁access	-8.79211
▁ភ្នំពេញ៖	-8.79452
រដ្ឋ	-8.79459
▁major	-8.79697
ers	-8.79783
▁case	-8.79784
វៀតណាម	-8.80049
▁state	-8.80132
▁riel	-8.80148
▁issued	-8.80426
▁constitute	-8.80581
▁promoting	-8.80694
▁standards	-8.81122
▁safety	-8.81148
▁include	-8.8136
▁បើ	-8.81412
ដើម	-8.81463
កា	-8.81557
▁Vietnam	-8.8164
▁កំពុង	-8.81859
ក្នុងតំបន់	-8.81888
ក៏បាន	-8.82043
▁program	-8.82074
ព្រឹត្តិការណ៍	-8.82221
▁attract	-8.8224
(	-8.82367
▁On	-8.82556
ស្ថានភាព	-8.82574
ទីក្រុង	-8.82744
ទិញ	-8.82876
▁highlighted	-8.83135
▁ក្នុងនោះ	-8.83171
វិស័យ	-8.8329
សំខាន់ៗ	-8.83343
ដែរ	-8.83473
▁Council	-8.83582
កិច្ចព្រមព្រៀង	-8.83864
ជីវិត	-8.83882
2	-8.84062
គោលដៅ	-8.847
▁building	-8.84789
▁technical	-8.84893
p	-8.84924
or	-8.85153
▁via	-8.85202
▁An	-8.85257
ទាំងនេះ	-8.8526
3	-8.8531
▁tons	-8.85378
▁investors	-8.85463
ករណី	-8.85671
បើក	-8.85692
▁cases	-8.85797
▁she	-8.85904
▁ព្រះរាជាណាចក្រ	-8.85958
▁political	-8.85985
ី	-8.86014
▁However	-8.86151
▁ចំពោះ	-8.86158
ទាំងនោះ	-8.8632
▁ខែមករា	-8.86341
▁accord	-8.86352
▁AI	-8.86535
▁ក្រសួង	-8.86618
លេខ	-8.86641
▁ព្រះ	-8.86733
▁our	-8.86758
ប្រ	-8.86801
▁paramount	-8.86869
▁well	-8.86878
▁study	-8.87167
ជំរុញ	-8.87175
▁relevant	-8.87302
▁information	-8.87497
▁ង	-8.87629
▁អាជ្ញាធរ	-8.87637
b	-8.87665
▁programs	-8.8784
▁ព្រះមហាក្សត្រ	-8.88288
ច	-8.88292
▁efforts	-8.88368
▁សុខា	-8.88775
▁increase	-8.88789
▁opposition	-8.88908
នាង	-8.88936
▁families	-8.88958
តម្រូវការ	-8.89248
▁resources	-8.89317
▁promulgated	-8.89336
▁domestic	-8.89447
សុវត្ថិភាព	-8.89771
▁actively	-8.8983
រួមគ្នា	-8.89888
▁According	-8.89974
ទំនាក់ទំនង	-8.89983
សិទ្ធិមនុស្ស	-8.90001
កំណើនសេដ្ឋកិច្ច	-8.9026
▁visit	-8.90418
▁Over	-8.90665
▁vari	-8.90777
ឧស្សាហកម្ម	-8.90917
▁នាយករដ្ឋមន្ត្រី	-8.90948
ផែនការ	-8.91011
▁members	-8.91078
▁urban	-8.91087
▁Foreign	-8.91195
▁expand	-8.9131
ផ្តល់	-8.91403
▁modern	-8.91446
ធនាគារ	-8.9151
▁climate	-8.91694
▁maintain	-8.91817
▁ពេល	-8.91834
▁mind	-8.91845
▁World	-8.91877
▁un	-8.92089
▁Thailand	-8.92126
▁G	-8.92241
ប្រើ	-8.92329
D	-8.92331
ផ្ទាល់	-8.92444
▁enhanc	-8.9251
កសិករ	-8.92585
▁ក្រោយ	-8.92631
▁announced	-8.92766
ផ្សេងទៀត	-8.92835
ថាមពល	-8.9295
▁ដែលបាន	-8.93024
មានការ	-8.93078
ose	-8.93078
អភិវឌ្ឍ	-8.93223
▁2022,	-8.93405
▁Sok	-8.93517
▁energy	-8.93553
ឯកសារ	-8.93554
ា	-8.93572
▁R	-8.93576
▁event	-8.93596
R	-8.9367
▁four	-8.93781
▁Law	-8.93839
ទេសចរណ៍	-8.93868
▁តើ	-8.93876
ស្ថាប័ន	-8.93915
▁up	-8.94037
▁Japan	-8.9411
▁ចិត្ត	-8.94198
based	-8.94276
▁ensuring	-8.94327
ថៃ	-8.94392
▁Ms	-8.9451
▁you	-8.94592
l	-8.94618
▁strategic	-8.94869
▁supply	-8.94872
▁2021	-8.94885
▁Economy	-8.94924
it	-8.95082
▁៨	-8.9511
▁Kem	-8.95137
បុរាណ	-8.95252
▁framework	-8.95423
ក្រោយ	-8.9546
▁provinces	-8.95547
▁សម	-8.9558
▁2024	-8.95611
▁months	-8.95645
▁benefits	-8.95755
▁មួយ	-8.95769
▁M	-8.96011
▁among	-8.96049
▁ប្រធាន	-8.96065
អប់រំ	-8.96115
▁businesses	-8.96286
▁established	-8.96327
កំណត់	-8.96329
▁កម្មវិធី	-8.96365
▁toward	-8.96552
គ្មាន	-8.96653
ក្រោម	-8.96665
ស្	-8.96722
▁small	-8.96854
ant	-8.96964
▁forest	-8.97193
▁activities	-8.9727
ផលិតកម្ម	-8.9738
▁procedures	-8.97437
▁Assembly	-8.97457
▁វា	-8.97562
វប្បធម៌	-8.97615
▁Kong	-8.97626
ប្រកាស	-8.97649
▁General	-8.97728
▁income	-8.97861
សិស្ស	-8.9789
ត្រួតពិនិត្យ	-8.98119
កុមារ	-8.98234
ស្តីពី	-8.98371
f	-8.98432
▁As	-8.98514
▁five	-8.9867
▁face	-8.98803
▁full	-8.99077
▁Association	-8.99127
▁ភាព	-8.99162
នៅតែ	-8.99187
អាហារូបករណ៍	-8.9919
▁រ	-8.99242
របស់ពួកគេ	-8.99349
▁additional	-8.99353
ជាដើម។	-8.9963
▁Sihanouk	-8.997
▁progress	-8.99867
▁re	-8.99966
▁Agriculture	-8.99976
ឱ្យបាន	-8.99994
▁defense	-9.0003
▁real	-9.00074
▁provide	-9.00091
▁essential	-9.00094
▁women	-9.00132
▁សូម	-9.00156
▁others	-9.00205
▁6	-9.00525
បទប្បញ្ញត្តិ	-9.00563
▁vital	-9.00653
បក្សប្រឆាំង	-9.00716
...	-9.00757
ផ្លូវការ	-9.00819
▁Department	-9.00826
▁non	-9.00839
▁now	-9.01027
▁O	-9.01098
រក	-9.011
▁environmental	-9.01124
▁research	-9.01143
▁address	-9.01156
ដោយសារ	-9.01165
▁some	-9.01361
▁become	-9.01443
ដាំ	-9.01526
ភូមិ	-9.01527
ធម្មជាតិ	-9.01565
ប្រវត្តិសាស្ត្រ	-9.01693
▁គេ	-9.01773
▁Sokha	-9.01797
▁Management	-9.01854
ឥណទាន	-9.0198
ទិន្នន័យ	-9.01981
▁នោះ	-9.02282
▁១០	-9.02414
ប្រទេសកម្ពុជា	-9.02423
▁than	-9.02561
▁path	-9.02863
មកពី	-9.03253
▁communities	-9.03288
នាំចេញ	-9.03358
កាន់តែ	-9.03431
▁improve	-9.03526
▁knowledge	-9.03532
ប្រាក់	-9.03538
ដោះស្រាយ	-9.03574
▁value	-9.03604
នា	-9.03744
ខ្ញុំ	-9.03745
F	-9.03802
▁creating	-9.03857
▁continued	-9.03863
▁Youth	-9.03863
▁nationwide	-9.03886
ខិតខំប្រឹងប្រែង	-9.03901
ខែ	-9.03901
re	-9.04001
រៀន	-9.04008
ចង់	-9.04121
រហូតដល់	-9.04122
យោធា	-9.04144
ខ្លះ	-9.04157
កែច្នៃ	-9.04477
ប្រជាជន	-9.04619
▁self	-9.04799
▁Asia	-9.04926
សាលា	-9.04959
▁tourists	-9.04978
មូលដ្ឋាន	-9.05016
រួម	-9.05058
ចុះ	-9.05202
▁ធ្វើ	-9.0541
៩	-9.05494
▁border	-9.05496
▁បច្ចុប្បន្ន	-9.05532
▁efficiency	-9.0561
▁strengthening	-9.05667
▁urges	-9.05698
បច្ចុប្បន្ន	-9.05706
P	-9.05958
តុលាការ	-9.05961
▁remain	-9.06033
សត្វ	-9.06053
▁morning	-9.06074
▁សុខ	-9.06084
year	-9.06147
ការវិនិយោគ	-9.06373
▁laws	-9.06406
▁សម្ដេចតេជោ	-9.0641
▁implemented	-9.06463
▁រាល់	-9.0658
សម្រាប់ការ	-9.06609
▁Thipadei	-9.06658
អាហារ	-9.0673
មុន	-9.06738
ព្រះ	-9.06977
▁Koh	-9.07037
▁2022	-9.07046
▁និងមាន	-9.07067
▁លានដុល្លារ	-9.07621
7	-9.07677
▁had	-9.07751
▁change	-9.07807
▁20	-9.07963
▁avoid	-9.08002
▁Road	-9.08016
▁provincial	-9.08192
តា	-9.0835
▁school	-9.08361
រូប	-9.08418
▁nations	-9.08465
▁registry	-9.08521
▁road	-9.08554
▁bilateral	-9.08613
▁ដុល្លារ	-9.08635
ធ្វើឱ្យ	-9.08688
▁effective	-9.08724
com	-9.08882
ដំណាំ	-9.0899
កម្លាំង	-9.09078
រដ្ឋបាល	-9.09172
វិជ្ជាជីវៈ	-9.09189
ទុក	-9.09216
▁ឆ្នាំ២០២២	-9.09239
ធំៗ	-9.09324
មុខ	-9.09344
កម្រិត	-9.09469
▁វិនិយោគ	-9.09498
▁State	-9.09552
▁October	-9.09566
▁យោងតាម	-9.09571
▁early	-9.09695
able	-9.09757
▁resilience	-9.09783
▁help	-9.09799
▁8	-9.09808
▁city	-9.09817
កម្ពុជា។	-9.09905
H	-9.09916
ស្រាវជ្រាវ	-9.09976
M	-9.10019
▁រួមមាន	-9.10049
▁រង្ស៊ី	-9.10055
▁collaboration	-9.10146
សម្រេច	-9.1016
▁area	-9.10297
សហរដ្ឋអាមេរិក	-9.10302
▁large	-9.10495
ទៅដល់	-9.10532
ពេលវេលា	-9.10688
▁មន្ត្រី	-9.10693
សាងសង់	-9.10707
▁operations	-9.10796
▁could	-9.10999
▁US	-9.11006
▁cultural	-9.11025
▁December	-9.11147
ស៊ី	-9.11196
▁oil	-9.11253
▁revenue	-9.11276
▁កឹម	-9.11342
▁Year	-9.11352
▁using	-9.11656
▁partners	-9.11672
▁ជាមួយ	-9.11674
▁United	-9.11759
▁រដ្ឋាភិបាល	-9.11828
ពាក់ព័ន្ធ	-9.11854
លុយ	-9.11942
▁systems	-9.12038
▁group	-9.12093
▁strong	-9.12118
▁yet	-9.12172
▁current	-9.12226
▁commune	-9.12304
ព្រះរាជាណាចក្រ	-9.12427
▁ទី	-9.12454
▁គ	-9.12478
▁Land	-9.12551
ជាបន្តបន្ទាប់	-9.12904
K	-9.12924
ជប៉ុន	-9.12977
▁ministry	-9.13008
▁risks	-9.13134
ផ្ទាល់ខ្លួន	-9.13403
▁ក្នុងការ	-9.13415
▁parties	-9.1348
ប៉ុណ្ណោះ	-9.1353
ផ្គត់ផ្គង់	-9.13587
▁Finance	-9.13691
▁Authorities	-9.1398
▁strategy	-9.1398
អារម្មណ៍	-9.13992
បង្ហាញ	-9.14048
សំខាន់	-9.14151
ក្រុមប្រឹក្សា	-9.14232
▁leaders	-9.14237
▁capacity	-9.14321
▁ឲ្យ	-9.14361
▁when	-9.1437
ation	-9.14423
សុខភាពសាធារណៈ	-9.14448
▁media	-9.14615
▁approximate	-9.14675
អាកាសធាតុ	-9.14705
▁Day	-9.15018
រយៈពេល	-9.15021
4	-9.15025
▁February	-9.15095
រោងចក្រ	-9.15156
ព្រះមហាក្សត្រ	-9.15158
អតិថិជន	-9.15176
▁៩	-9.15196
ត្រី	-9.15201
▁country	-9.15241
ក៏ដោយ	-9.15291
សមត្ថភាព	-9.15451
បែប	-9.15468
▁strictly	-9.15545
▁ក្រុម	-9.1564
▁Battambang	-9.1566
▁spirit	-9.15875
ដ	-9.15883
▁March	-9.15905
▁តំបន់	-9.16062
▁Dur	-9.16108
▁free	-9.16338
រស់នៅ	-9.16366
▁credit	-9.16442
▁day	-9.16559
ប្រកបដោយចីរភាព	-9.16602
5	-9.16651
▁ន	-9.16667
ផ្ដល់	-9.16707
▁down	-9.17077
▁power	-9.17079
ព្រៃ	-9.17246
▁Director	-9.17338
របស់អ្នក	-9.17413
▁ដោយឡែក	-9.17589
ពីរ	-9.17675
▁interest	-9.17682
▁Provincial	-9.17692
ហេដ្ឋា	-9.17883
ការអនុវត្ត	-9.17889
▁ក៏បាន	-9.17892
▁conducted	-9.17926
▁estate	-9.17935
តែងតែ	-9.17993
▁held	-9.18011
▁significant	-9.18148
នៅលើ	-9.18152
មួយនេះ	-9.18167
▁USD	-9.18449
អង្គការ	-9.18576
ជាផ្លូវការ	-9.1859
របស់យើង	-9.18629
▁ព្រះរាជក្រឹត្យ	-9.18734
សិទ្ធិ	-9.18884
▁personal	-9.19023
▁ជាមួយនឹង	-9.19112
▁2023.	-9.19221
▁Committee	-9.19288
▁primary	-9.19398
▁កាលពី	-9.19504
▁days	-9.19528
▁received	-9.19544
▁deep	-9.19651
▁healthcare	-9.19659
▁Russia	-9.19665
ic	-9.19809
ម៉ោង	-9.19859
▁election	-9.2004
ឡើយ	-9.20069
កិច្ចប្រជុំ	-9.20144
▁hope	-9.20155
▁compar	-9.2019
▁T	-9.20223
▁Mekong	-9.20231
ស្ត្រី	-9.20233
▁meet	-9.203
▁post	-9.20302
▁University	-9.20425
▁officially	-9.20522
▁ប្រសិនបើ	-9.20534
▁prevent	-9.20705
ចាប់ផ្តើម	-9.20862
▁fields	-9.20888
▁increased	-9.20983
▁Rainsy	-9.21032
បរទេស	-9.21051
▁ចំណែក	-9.21147
▁ផ្លូវ	-9.2119
ត្រូវតែ	-9.21224
ណាមួយ	-9.2123
▁Secretary	-9.21235
កើនឡើង	-9.21264
ក្នុងវិស័យ	-9.21426
▁បន្ត	-9.21452
▁forces	-9.21461
▁kingdom	-9.21473
ជាតិ។	-9.21479
▁still	-9.21844
▁May	-9.21873
▁District	-9.21915
▁protection	-9.22039
▁around	-9.22052
ក្រសួងសេដ្ឋកិច្ច	-9.22148
▁night	-9.22241
គ្រឿង	-9.22302
ថ្លៃ	-9.22355
▁July	-9.2238
លើកទឹកចិត្ត	-9.22386
បងប្អូន	-9.22569
វិស័យកសិកម្ម	-9.22695
▁illegal	-9.2276
▁good	-9.22995
▁since	-9.23001
▁robust	-9.23047
▁particularly	-9.23162
▁លើសពីនេះ	-9.23199
▁12	-9.23308
▁ខេត្ត	-9.23415
ដំបូង	-9.23439
▁shared	-9.23527
▁banking	-9.23558
ថវិកា	-9.23578
I	-9.23632
▁campaign	-9.23634
▁នាង	-9.23739
ចាប់	-9.23798
គួរ	-9.23991
កម្មករ	-9.23996
▁approved	-9.23999
▁loans	-9.24015
ថ្នាក់	-9.24026
▁ខ្លួន	-9.24049
កម្ម	-9.24142
២០	-9.24169
▁sun	-9.24172
▁vast	-9.24229
▁clean	-9.24245
ចំណេះដឹង	-9.24252
▁jobs	-9.24321
▁village	-9.24332
▁UN	-9.24418
នោះទេ។	-9.2444
ចំណូល	-9.24542
▁review	-9.24625
▁your	-9.24716
."	-9.24757
អា	-9.24804
ជាប់	-9.24939
សន្តិសុខ	-9.24999
▁leadership	-9.25177
មួយដែល	-9.252
▁residents	-9.25393
▁tax	-9.25398
▁និងជា	-9.25409
▁២០	-9.2548
សមាជិក	-9.25538
▁old	-9.2571
▁Co	-9.25752
▁factory	-9.25755
▁នាក់	-9.25801
ផង	-9.25813
▁temple	-9.25864
លើក	-9.25973
ស្រូវ	-9.25979
រង	-9.2598
▁ឡើង	-9.26122
ស្រុក	-9.26239
កាត់	-9.26292
ប់	-9.2634
សារ	-9.26577
គ	-9.26609
បញ្ជូន	-9.26635
▁River	-9.26704
ប្រជាធិបតេយ្យ	-9.26962
ផលិតផលកសិកម្ម	-9.27009
បង្កើន	-9.27053
▁green	-9.27138
▁Norodom	-9.27205
▁led	-9.27278
▁debt	-9.27313
▁period	-9.27375
កិច្ចសហប្រតិបត	-9.2738
▁ទោះបីជា	-9.27526
▁Interior	-9.2753
▁nature	-9.27602
▁there	-9.27646
ពិសេស	-9.27658
គាត់	-9.27684
▁អ្នកស្រី	-9.2777
▁Cham	-9.27892
▁June	-9.27995
▁សេចក្តី	-9.28056
▁generations	-9.28063
▁Meanchey	-9.28072
L	-9.28208
▁activists	-9.28221
6	-9.28343
ដើរ	-9.28429
▁Arm	-9.28494
▁wisdom	-9.28618
▁$1	-9.28652
របស់ក្រុមហ៊ុន	-9.28703
▁Economic	-9.28765
អនាគត	-9.28778
▁V	-9.28852
un	-9.29029
▁traditional	-9.29074
▁significantly	-9.29112
▁expressed	-9.29113
▁លោកជំទាវ	-9.29122
មាស	-9.29156
ពង្រឹង	-9.29171
▁សម្តេចធិបតី	-9.29208
▁achieve	-9.29212
▁low	-9.29312
ឈ្មោះ	-9.29393
▁service	-9.29394
▁prepare	-9.29435
▁even	-9.29466
▁ក្រោម	-9.29501
សា	-9.29523
នីមួយៗ	-9.29525
▁11	-9.2957
បិទ	-9.29631
▁d	-9.29645
▁និងហិរញ្ញវត្ថុ	-9.29677
▁birth	-9.29822
▁costs	-9.29828
▁1.	-9.30022
to	-9.30058
▁critical	-9.30159
▁receive	-9.30424
▁ប្រជាពលរដ្ឋ	-9.30786
វិបត្តិ	-9.30807
▁release	-9.30808
ក់	-9.30846
▁create	-9.30919
▁City	-9.30931
▁principles	-9.31028
ch	-9.31179
ការសិក្សា	-9.31233
▁next	-9.31281
ស្វែងរក	-9.31448
▁fundamental	-9.31468
ive	-9.3149
▁direct	-9.31498
▁police	-9.31506
▁កញ្ញា	-9.31541
បញ្ហាប្រឈម	-9.31547
▁fully	-9.31578
ចាក់វ៉ាក់សាំង	-9.31766
▁individuals	-9.31781
▁currently	-9.31909
សេវា	-9.31948
▁លោកស្រី	-9.31989
▁រួមទាំង	-9.32001
នី	-9.32004
និរន្តរភាព	-9.32006
សុខាភិបាល	-9.3209
ជាដើម	-9.32164
ចំណុច	-9.32302
▁livelihoods	-9.32309
មានសារៈសំខាន់	-9.32494
កូវីដ	-9.32532
ដឹកជញ្ជូន	-9.32549
▁Forces	-9.32594
បន្ទាប់ពី	-9.3264
▁second	-9.32645
▁out	-9.32648
▁stipulated	-9.32657
▁former	-9.32789
▁prosperity	-9.32829
T	-9.32924
▁ជាមួយគ្នានេះ	-9.32957
▁leading	-9.3296
▁ចិន	-9.33067
ចរាចរណ៍	-9.33117
▁០	-9.33124
▁Every	-9.33471
▁often	-9.33477
G	-9.33481
▁Commerce	-9.33582
▁reported	-9.33617
▁experts	-9.33645
បៃតង	-9.33685
▁job	-9.33721
▁protect	-9.33734
▁order	-9.33878
W	-9.33878
▁each	-9.33906
▁Korea	-9.33933
▁certificate	-9.34037
ដៃ	-9.34086
ក្រុមការងារ	-9.34095
▁develop	-9.34227
មិនបាន	-9.34266
ach	-9.34377
▁15	-9.34438
នៅតាម	-9.34495
របស់ខ្លួន។	-9.347
ព	-9.34729
▁September	-9.3473
រូបនេះ	-9.34745
▁fish	-9.34747
▁online	-9.34793
▁តាមរយៈការ	-9.34829
១០	-9.34862
សង្កាត់	-9.34896
គ្រប់គ្រាន់	-9.34961
▁understanding	-9.34977
ផ្សារ	-9.35168
▁history	-9.35178
▁Defense	-9.35201
▁9	-9.35207
បែបនេះ	-9.35214
▁rising	-9.35302
▁agriculture	-9.35338
▁PM	-9.35446
ត្រៀម	-9.35456
ក្តី	-9.35491
អស់	-9.35491
▁take	-9.35517
▁identity	-9.35529
Y	-9.35571
▁ដូច	-9.3558
▁បើតាម	-9.35598
▁provided	-9.35635
▁rate	-9.3576
8	-9.35775
▁working	-9.35828
▁vision	-9.35835
កំណើន	-9.35887
មើល	-9.35896
▁aim	-9.35932
w	-9.36013
ប្រាក់ចំណូល	-9.36213
ជ្រើសរើស	-9.36221
ប្រេង	-9.36295
▁Citizens	-9.36297
▁ដើម្បីរក្សា	-9.36341
ទៅតាម	-9.36358
▁contribute	-9.36416
ទំនិញ	-9.36501
▁commitment	-9.36524
ញ	-9.36576
▁rural	-9.36591
am	-9.36617
▁numerous	-9.36788
ខាង	-9.36811
ទ	-9.36964
▁L	-9.36983
គ្រាប់	-9.37004
កិច្ចការ	-9.37032
វិធានការ	-9.37062
▁light	-9.37145
▁*	-9.37194
▁goals	-9.37265
▁last	-9.37348
▁conditions	-9.37414
អ្វី	-9.37431
▁justice	-9.37506
▁following	-9.37624
▁2024.	-9.3768
ចាស់	-9.37739
▁higher	-9.37771
គុណភាព	-9.37832
ឆ្លងកាត់	-9.37852
▁supporting	-9.37907
▁2.	-9.3795
▁aid	-9.38009
បទពិសោធន៍	-9.38126
▁importance	-9.38189
អត្ថប្រយោជន៍	-9.3823
▁decision	-9.38288
កាត់បន្ថយ	-9.3838
ច្បាស់លាស់	-9.38493
▁តុលាការ	-9.38568
▁ទើប	-9.38595
▁resolve	-9.38607
le	-9.38612
ធ្វើដំណើរ	-9.387
▁labor	-9.38707
▁annual	-9.38794
ដែលជា	-9.38805
▁rates	-9.39087
▁comprehensive	-9.39194
ខេត្តព្រះសីហនុ	-9.3924
▁Governor	-9.39274
▁និងនេសាទ	-9.39517
▁sky	-9.39527
បណ្តុះបណ្តាល	-9.39578
▁traffic	-9.39599
▁Group	-9.39681
▁សីហមុនី	-9.39721
ភាគច្រើន	-9.3975
u	-9.39775
▁competent	-9.39845
ទៅនឹង	-9.39944
សមុទ្រ	-9.39949
side	-9.39951
កាលពី	-9.39951
▁man	-9.39972
ស្នើសុំ	-9.39988
▁highly	-9.40005
▁royal	-9.40171
សិល្បៈ	-9.40425
ary	-9.40477
▁AMS	-9.40562
▁death	-9.40587
▁relations	-9.40663
▁until	-9.40746
▁Her	-9.40833
▁ធនាគារជាតិនៃ	-9.40889
កិច្ចប្រជុំកំពូល	-9.40916
និស្សិត	-9.40948
▁would	-9.41035
at	-9.41036
The	-9.41073
មិនអាច	-9.41087
▁control	-9.41095
▁School	-9.41125
បញ្ចប់	-9.41202
▁EU	-9.41205
▁November	-9.41325
▁South	-9.41397
ធុរកិច្ច	-9.41417
▁waste	-9.4142
ចំណាយ	-9.41443
▁មនុស្ស	-9.41477
ចុះបញ្ជី	-9.4148
រក្សា	-9.41576
▁impact	-9.4165
▁productivity	-9.41656
▁ដែលមិន	-9.41701
▁mental	-9.41711
▁culture	-9.41781
ir	-9.41849
អឺរ៉ុប	-9.41952
▁ក្រសួងសុខាភិបាល	-9.41986
▁processing	-9.41989
▁delegation	-9.4199
ដឹកនាំ	-9.4202
▁19	-9.42027
ថ្ម	-9.42064
▁banks	-9.42134
▁groups	-9.42217
សាលារៀន	-9.42242
▁At	-9.42301
ជន	-9.42352
▁states	-9.42403
នៅពេល	-9.42475
ness	-9.42485
ធ្លាក់ចុះ	-9.42527
▁Kim	-9.42534
▁After	-9.42536
▁August	-9.42556
▁build	-9.42557
▁We	-9.42594
▁innovation	-9.42602
▁inflation	-9.42617
▁recent	-9.42632
គំនិត	-9.42802
គោរព	-9.42829
ផ្លាស់ប្តូរ	-9.4286
▁Constitution	-9.42954
▁នាំ	-9.42985
▁own	-9.42988
▁date	-9.42991
▁pivotal	-9.42996
being	-9.43001
ព្រះករុណាព្រះបាទ	-9.4304
មេ	-9.43056
▁dated	-9.4315
▁goods	-9.43177
គណៈកម្មាធិការ	-9.43208
▁clear	-9.43211
x	-9.43215
ឱ្យប្រើប្រាស់	-9.43217
ចាំបាច់	-9.43299
▁him	-9.43312
▁ខែ	-9.43376
▁member	-9.43453
ការផ្លាស់ប្តូរ	-9.43473
▁us	-9.43531
▁beauty	-9.43545
ធនធានមនុស្ស	-9.43624
▁Sihamoni	-9.4363
▁រុក្ខាប្រមាញ់	-9.43652
តាមដាន	-9.43694
▁unwavering	-9.43884
ឃុំ	-9.43915
▁Cambodians	-9.44012
មិនទាន់	-9.44023
ate	-9.44077
▁គោលនយោបាយ	-9.44162
ឡើយ។	-9.44162
▁បានលើកឡើងថា	-9.44169
▁provid	-9.44204
រុស្ស៊ី	-9.44212
ចាប់ខ្លួន	-9.44214
▁urge	-9.44286
អង្គរ	-9.44438
ang	-9.44464
ជំងឺកូវីដ	-9.44536
▁action	-9.4457
ra	-9.44596
Cambodia	-9.44695
មានសមត្ថកិច្ច	-9.44712
▁request	-9.44766
▁fostering	-9.44774
▁requires	-9.44803
▁participation	-9.45039
▁Investment	-9.45039
▁where	-9.45088
ri	-9.45135
ឆ្លង	-9.45146
សំណង់	-9.45178
▁organized	-9.45306
អគារ	-9.45353
▁discuss	-9.45486
ឯកឧត្តម	-9.45566
លទ្ធផល	-9.45582
ភ្នំពេញ	-9.45648
ក្បាល	-9.45684
day	-9.45692
ity	-9.45705
▁ក	-9.4573
▁investments	-9.45732
ចាប់ពី	-9.4576
▁establish	-9.45855
ត្រឹមត្រូវ	-9.46066
ប្រកបដោយចីរភាព។	-9.46215
▁100	-9.46255
▁Additionally	-9.46306
▁implement	-9.46351
▁do	-9.464
វិទ្យាសាស្ត្រ	-9.46403
អគ្គិសនី	-9.46409
el	-9.46441
ពិតប្រាកដ	-9.46477
គណបក្ស	-9.46521
▁produce	-9.46596
▁crisis	-9.46644
▁agreement	-9.46664
ស្នើ	-9.46729
▁home	-9.46797
ក្រ	-9.47091
▁អ្នកជំនាញ	-9.47171
▁adhere	-9.47175
ដែលអាច	-9.47271
ទ្វេភាគី	-9.47318
កាន់តែច្រើន	-9.47355
▁amid	-9.4747
គ្រោះថ្នាក់	-9.47502
▁responsible	-9.47526
ទី២	-9.47546
▁success	-9.47637
▁អង្គការ	-9.47647
មានចំនួន	-9.47662
▁Bat	-9.47754
▁ធនាគារ	-9.4777
▁ដោយសារតែ	-9.47789
▁Ambassador	-9.47829
▁Ta	-9.47836
▁30	-9.47922
សមត្ថកិច្ច	-9.4799
រកឃើញ	-9.4801
U	-9.48026
▁បច្ចេកវិទ្យា	-9.48091
ment	-9.48104
▁exchange	-9.48113
▁planning	-9.48146
▁Labor	-9.48184
V	-9.4823
ប្រកួតប្រជែង	-9.48263
មិនមាន	-9.48305
ក្នុងរយៈពេល	-9.48308
▁២០២៣	-9.48314
ស្លាប់	-9.48325
▁every	-9.48327
▁Sub	-9.48361
▁បង្កើត	-9.48526
▁meticulously	-9.48557
ទំនើប	-9.48607
▁RFI	-9.48663
▁Wat	-9.48705
ភ្ញៀវទេសចរ	-9.4875
▁Thai	-9.48794
▁encouraged	-9.48795
សៀវភៅ	-9.48796
▁product	-9.48805
▁និងមធ្យម	-9.48807
▁Svay	-9.48828
▁th	-9.48854
▁2022.	-9.4892
ចុងក្រោយ	-9.4892
ទី១	-9.48924
▁seek	-9.48948
▁impacts	-9.4897
សកល	-9.49043
▁ជំនាញ	-9.49087
▁Re	-9.49132
▁present	-9.49211
ដំណោះស្រាយ	-9.49226
បណ្តាញ	-9.49251
កូរ៉េ	-9.49257
គ្រោង	-9.49263
▁administration	-9.49302
▁foster	-9.49352
ពីការ	-9.49368
▁gold	-9.49374
ក្រុង	-9.49458
គិត	-9.49522
te	-9.49548
▁vibrant	-9.49569
ក្ដី	-9.49614
ត្រូវការ	-9.49622
▁បានឱ្យដឹងថា	-9.49648
ប្រហែល	-9.49655
ពួកគាត់	-9.49744
ទៅជា	-9.49777
▁needs	-9.49891
បារាំង	-9.49944
ទំហំ	-9.49991
ដីធ្លី	-9.49993
បរិយាបន្ន	-9.50115
្	-9.50115
ធនធាន	-9.50243
▁regarding	-9.50289
រួមមាន	-9.50292
▁Tourism	-9.50322
▁heritage	-9.50382
រាល់	-9.50423
ប្តេជ្ញាចិត្ត	-9.50654
▁ខែធ្នូ	-9.50658
▁នា	-9.50727
តំណាង	-9.50745
ពន្ធ	-9.50756
▁process	-9.50808
មានភាព	-9.50813
▁return	-9.50818
ហិរញ្ញប្បទាន	-9.50818
▁end	-9.50861
▁region	-9.50869
សារព័ត៌មាន	-9.50871
សេចក្ដីថ្លៃថ្នូរ	-9.50928
▁demands	-9.50945
ការលើកកម្ពស់	-9.50982
▁causing	-9.51019
▁resource	-9.51128
ទាំងអស់។	-9.5113
▁living	-9.51202
▁master	-9.51232
▁នៅពេល	-9.5132
▁launched	-9.51358
▁ពាន់លានដុល្លារ	-9.51371
▁៕	-9.51424
២នាក់	-9.51477
ជួប	-9.51488
▁suffering	-9.51536
scale	-9.51557
ជំនួយ	-9.51614
ពង្រីក	-9.51686
▁ជីវិត	-9.51723
▁force	-9.51764
បានមានប្រសាសន៍ថា	-9.51769
▁និងកីឡា	-9.51842
ung	-9.51852
▁signed	-9.51965
នៅក្នុងប្រទេស	-9.52024
ol	-9.52058
នៃកម្ពុជា	-9.52085
▁made	-9.52181
▁intricate	-9.52213
▁serves	-9.52217
▁environment	-9.52246
9	-9.52305
អ្នកប្រើប្រាស់	-9.52384
▁3.	-9.524
បុគ្គលិក	-9.52432
▁April	-9.5244
▁តម្លៃ	-9.52483
ស្របតាម	-9.52606
ប្រឆាំង	-9.52716
▁14	-9.52723
▁transport	-9.52731
វិស័យទេសចរណ៍	-9.52743
វត្ត	-9.52757
▁farming	-9.52992
▁appeal	-9.53036
▁With	-9.53124
▁Institute	-9.53235
▁travel	-9.53259
ដែរ។	-9.53322
កងទ័ព	-9.53347
▁learning	-9.53479
ហេដ្ឋារចនាសម្ព័ន	-9.5348
ស្ពាន	-9.53597
▁era	-9.53599
▁integrity	-9.53656
▁Chea	-9.5369
▁Summit	-9.53797
កម្ចី	-9.539
▁detained	-9.53902
▁materials	-9.5403
ការពារជាតិ	-9.54069
បោះឆ្នោត	-9.54168
▁fiscal	-9.54173
▁implementing	-9.54177
ឧបករណ៍	-9.54184
សំខាន់ក្នុងការ	-9.54207
▁Kampot	-9.54213
▁entire	-9.54246
ពូជ	-9.54298
ការបោះឆ្នោត	-9.54426
N	-9.54432
▁diseases	-9.54438
▁យ៉ាង	-9.54502
▁ពិសេស	-9.54541
▁document	-9.54548
ជំងឺ	-9.54552
▁schools	-9.54583
ក្រសួងអប់រំ	-9.54711
▁ប	-9.54771
▁ឧប	-9.54777
▁Vietnamese	-9.54796
▁week	-9.54862
▁People	-9.54892
▁exam	-9.54915
ធានា	-9.54972
▁focus	-9.5498
▁Miss	-9.55025
▁positive	-9.55055
ប្រចាំឆ្នាំ	-9.55061
▁gentle	-9.55072
ពីសំណាក់	-9.55124
ដ៏ជ្រាលជ្រៅ	-9.55157
កសាង	-9.55187
▁part	-9.55201
ទាំងពីរ	-9.55207
nd	-9.55209
▁rise	-9.55256
▁J	-9.55308
▁roads	-9.55349
បី	-9.55361
យុត្តិធម៌	-9.5541
កំពូល	-9.55422
▁Financial	-9.55586
▁price	-9.55595
ត្រឹម	-9.5567
ហានិភ័យ	-9.55714
▁ជួយ	-9.55715
eby	-9.55944
as	-9.55963
▁reached	-9.5598
▁behind	-9.5598
▁disease	-9.56045
▁strategies	-9.56076
ជេរប្រមាថដល់	-9.56079
▁results	-9.56159
ផ្សាយតែ	-9.56181
▁Games	-9.56219
▁យ	-9.56261
▁បានបញ្ជាក់ថា	-9.56261
▁យើងខ្ញុំនឹង	-9.56268
មតិនៅក្នុង	-9.5629
មតិណា	-9.56327
អ្នកបញ្ចូល	-9.56389
est	-9.564
អត្ថបទនេះ៖	-9.56412
សហគ្រាស	-9.56445
▁car	-9.56453
▁សមត្ថកិច្ច	-9.56497
▁កំណត់ចំណាំចំពោះ	-9.56508
បង្រៀន	-9.56554
លី	-9.56575
▁top	-9.56654
ពិនិត្យ	-9.56725
▁Kandal	-9.56831
▁provides	-9.56844
ក្រសួងកសិកម្ម	-9.56874
ក៏មាន	-9.56877
▁stakeholders	-9.56895
▁true	-9.56895
ប្រជាជនកម្ពុជា	-9.56901
▁leaves	-9.56904
និយាយ	-9.56904
▁វិស័យ	-9.56947
reflecting	-9.56984
▁populace	-9.56992
▁solutions	-9.57064
អំណាច	-9.57108
ម្ចាស់	-9.57132
អ្នកដទៃប៉ុណ្ណោះ។	-9.5714
ry	-9.57207
▁maintaining	-9.57365
▁align	-9.57372
▁ministries	-9.5738
▁trees	-9.5739
ជាន់ខ្ពស់	-9.57394
ur	-9.5749
រូបភាព	-9.5752
គោលការណ៍	-9.57572
លក្ខខណ្ឌ	-9.57587
*	-9.57678
ថ្នាក់ដឹកនាំ	-9.57681
បក្ស	-9.5769
▁$2	-9.57785
▁accused	-9.57802
អចលនទ្រព្យ	-9.57862
ដែលកំពុង	-9.57872
ឃើញ	-9.57881
▁agreements	-9.57944
ចិញ្ចឹម	-9.57945
ព្រៃឈើ	-9.57948
▁practices	-9.57964
កន្លងមក	-9.58001
▁Heng	-9.58006
ដំណើរ	-9.58079
▁លាន	-9.58169
ចាប់ផ្ដើម	-9.5823
▁មានប្រសាសន៍ថា	-9.58231
General	-9.58278
id	-9.58357
អន្តរជាតិ។	-9.58366
ro	-9.58537
▁Community	-9.58551
តូច	-9.58588
▁Prey	-9.58628
▁child	-9.5864
▁evidence	-9.58653
ឈើ	-9.58674
ឯកជន	-9.58765
ការអប់រំ	-9.58778
រាជធានី	-9.58806
▁same	-9.5895
ដល់ទៅ	-9.59053
បាត់បង់	-9.59111
▁ពោលគឺ	-9.59141
▁Technology	-9.59147
▁golden	-9.59165
▁expansion	-9.59246
▁required	-9.59337
សុំ	-9.59416
បុគ្គល	-9.59448
ផល	-9.59473
ដោះស្រាយបញ្ហា	-9.59491
▁draft	-9.59545
upreme	-9.59559
ពង្រឹងសមត្ថភាព	-9.59586
▁Nations	-9.59769
របស់ព្រះអង្គ	-9.59788
▁severe	-9.59817
ចេះ	-9.59823
li	-9.59874
រដ្ឋសភា	-9.59881
ទូទាំងប្រទេស	-9.59888
នៅតែបន្ត	-9.59909
il	-9.59911
ជី	-9.59975
▁expanding	-9.5998
ទាំងស្រុង	-9.60042
is	-9.60258
បន្លែ	-9.60341
▁mutual	-9.60343
សម្របសម្រួល	-9.6038
▁ហេង	-9.60415
ចាក់	-9.60462
កើតឡើង	-9.60539
▁hectares	-9.60589
ឆ្នាំ២០២៣	-9.60713
▁transparency	-9.60744
ឱកាស	-9.60771
▁Thom	-9.60849
▁rose	-9.60851
▁NEC	-9.60868
ភាពជាដៃគូ	-9.6088
របាយការណ៍	-9.6103
▁war	-9.61049
▁គួរ	-9.61067
ក្នុងចំណោម	-9.61081
▁ការងារ	-9.61111
▁provisions	-9.61135
០	-9.61228
ការចំណាយ	-9.61237
▁young	-9.61422
ត្រូវបានអនុវត្ត	-9.61426
▁developing	-9.61516
ជោគជ័យ	-9.6158
ស្ដីពី	-9.61582
ដ៏រឹងមាំ	-9.61591
ច្បាប់ស្តីពី	-9.61599
▁Chhnang	-9.61604
សមិទ្ធផល	-9.61673
បណ្ឌិត	-9.61689
បាន។	-9.61753
្តិការអន្តរជាតិ	-9.61837
▁ដោយ៖	-9.61908
▁គាត់	-9.6194
ប្រពៃណី	-9.62053
ប្រចាំថ្ងៃ	-9.62136
▁Article	-9.62163
ស្តង់ដារ	-9.62166
នីតិវិធី	-9.6219
ការនាំចេញ	-9.62197
ទើប	-9.62226
▁vehicles	-9.62329
▁air	-9.62347
បេក្ខជន	-9.62418
មូលនិធិ	-9.62445
ផងដែរ៕	-9.62529
បំណុល	-9.62579
▁ល	-9.6258
ឬ	-9.6264
age	-9.62647
សង្គ្រាម	-9.62657
▁ពួកគេ	-9.62667
▁Notably	-9.62751
▁strict	-9.62815
ធម្មតា	-9.62842
▁improving	-9.6288
▁staff	-9.62881
▁began	-9.62932
▁sales	-9.6296
សភា	-9.62969
up	-9.63001
▁application	-9.63007
▁customers	-9.6305
▁២០២២	-9.63198
▁Chan	-9.63244
▁Facebook	-9.63279
ទ្រព្យសម្បត្តិ	-9.63295
▁found	-9.63302
ជាប្រចាំ	-9.6331
ដា	-9.63344
សេចក្តី	-9.63347
na	-9.63389
ប្រឡង	-9.63432
et	-9.63534
មជ្ឈមណ្ឌល	-9.6362
▁issue	-9.63627
▁bank	-9.63655
▁arrested	-9.63779
▁need	-9.63832
▁គ្រប់	-9.63839
សំឡេង	-9.63929
▁used	-9.63952
ស្មារតី	-9.63976
▁sustainability	-9.64055
▁facilitate	-9.64059
▁according	-9.64099
អនាម័យ	-9.64126
▁នរោត្តម	-9.64137
▁High	-9.64145
▁ស្រុក	-9.64199
▁six	-9.64247
▁special	-9.64258
ul	-9.6427
▁Water	-9.64279
ខាងលើ	-9.64305
▁ជំរុញ	-9.6433
▁ការអភិវឌ្ឍ	-9.64382
ត្រឹមតែ	-9.64444
▁Boromneath	-9.64487
ស្រី	-9.64503
ស្នាដៃ	-9.64517
▁ខែតុលា	-9.64558
ប្រសិទ្ធភាព។	-9.64594
ther	-9.64814
អ្នកជំនាញ	-9.64829
ជនសង្ស័យ	-9.64888
យោធពលខេមរភូមិន្ទ	-9.64966
▁ខែកុម្ភៈ	-9.64987
▁អ្នកនាំពាក្យ	-9.65038
ពេញ	-9.6506
ដូចគ្នា	-9.65084
ខុសច្បាប់	-9.651
▁set	-9.65109
▁glorious	-9.65115
AI	-9.65216
៣០	-9.65219
ធ្វើជា	-9.65313
▁existing	-9.6532
▁រហូតដល់	-9.65385
▁កិច្ច	-9.65428
▁teachers	-9.65437
▁ដែលអាច	-9.65483
um	-9.65561
▁any	-9.65564
▁CNRP	-9.65605
អង្គ	-9.65711
0	-9.65837
▁prevail	-9.6596
▁Stung	-9.65964
▁money	-9.65972
▁Police	-9.66014
▁ខែមីនា	-9.6602
▁dispute	-9.66092
▁អ	-9.66137
▁បញ្ហា	-9.66298
ភ្នែក	-9.66376
អូស្ត្រាលី	-9.66438
▁another	-9.6646
▁cultivation	-9.66494
នៅក្នុងតំបន់	-9.66535
បញ្ជាក់ថា	-9.66699
អាម៉េរិក	-9.66704
វីដេអូ	-9.66725
▁inter	-9.6682
▁magnificent	-9.66865
▁risk	-9.66871
▁events	-9.66902
ស្អាត	-9.66924
ដ៏អស្ចារ្យ	-9.67006
▁capabilities	-9.67026
របស់ប្រជាពលរដ្ឋ	-9.67046
▁student	-9.67102
▁reflect	-9.67115
មន្ទីរពេទ្យ	-9.67135
នគរ	-9.67174
▁កិច្ចសហប្រតិបត	-9.67193
▁រដ្ឋមន្រ្តី	-9.67214
អត្រាការប្រាក់	-9.67222
▁does	-9.67354
▁prison	-9.67494
▁ខែឧសភា	-9.67506
វិនិយោគិន	-9.67547
▁sub	-9.67615
▁academic	-9.67617
បា	-9.67623
▁ខែវិច្ឆិកា	-9.67661
▁Center	-9.67673
បង្ហាញពី	-9.67684
ខេត្តសៀមរាប	-9.67691
O	-9.67751
គឺជាអាទិភាពចម្បង	-9.67794
one	-9.67852
បាត់	-9.67959
▁technologies	-9.68049
មកដល់	-9.68079
▁Pursu	-9.68103
ចម្រុះ	-9.6814
នៅតំបន់	-9.6814
គ្រឿងញៀន	-9.68145
៣នាក់	-9.68217
▁Environment	-9.68239
ន់	-9.68508
ធ្ងន់ធ្ងរ	-9.68535
▁Speu	-9.68537
សមាគម	-9.68561
ត្រូវបានរៀបចំឡើង	-9.68624
ថ្នាក់ជាតិ	-9.68633
▁enterprises	-9.68636
រដ្ឋធម្មនុញ្ញ	-9.68687
▁competitiveness	-9.68703
រួមចំណែក	-9.68743
សាច់	-9.68879
អង្គភាព	-9.68963
▁bridge	-9.69067
ជីវភាព	-9.69113
ទូទៅ	-9.69197
រួច	-9.6923
▁reforms	-9.69232
▁authority	-9.69248
▁Affairs	-9.69302
▁resilient	-9.69328
ការិយាល័យ	-9.6936
ឱ្យមាន	-9.69366
▁សម្តេច	-9.69415
សេវាកម្ម	-9.69499
▁crises	-9.69521
20	-9.69552
នាំចូល	-9.69568
▁very	-9.69631
▁ថ្ងៃ	-9.6964
សង្គ្រោះជាតិ	-9.69745
ប៉ុណ្ណោះទេ	-9.69761
▁ត្រូវតែ	-9.69826
▁driving	-9.69852
ភាគី	-9.69871
▁cannot	-9.6997
decree	-9.70006
▁Construction	-9.70017
▁disputes	-9.70061
ប្រមាណជា	-9.70067
ក្រសួងការពារជាតិ	-9.7009
ក្លាយជា	-9.70117
ភ្នំ	-9.70124
▁grow	-9.70141
im	-9.70172
ពេញលេញ	-9.70181
ទទួលយក	-9.70187
អនុញ្ញាតឱ្យ	-9.7022
រាជរដ្ឋាភិបាល។	-9.70304
▁expected	-9.70355
▁head	-9.70364
▁Riel	-9.70405
រីកចម្រើន	-9.70419
▁arrest	-9.70431
អាទិភាព	-9.70434
គ្រូ	-9.70444
▁love	-9.70496
សុខុមាលភាព	-9.70561
ប្រាប់	-9.70569
▁competition	-9.70573
▁third	-9.70622
កោះ	-9.70638
▁Digital	-9.70638
ម៉ាស៊ីន	-9.70732
▁១៥	-9.70736
▁partner	-9.70741
▁industrial	-9.70785
▁Some	-9.70989
ជើង	-9.7102
ដែលត្រូវ	-9.71057
▁co	-9.71126
▁assistance	-9.7114
▁so	-9.71142
level	-9.71229
លួច	-9.71248
▁2018	-9.71271
▁response	-9.71294
▁candidates	-9.71302
តិច	-9.71318
▁ប្រកាស	-9.71326
រី	-9.71393
J	-9.71452
▁physical	-9.71462
▁commercial	-9.71532
ine	-9.71555
▁They	-9.71575
▁factories	-9.71689
▁benefit	-9.71696
▁task	-9.71699
ណាស់	-9.71709
▁funds	-9.71824
▁18	-9.71898
រឹងមាំ	-9.71946
▁eyes	-9.71949
▁សេដ្ឋកិច្ច	-9.71959
ឆ្លុះបញ្ចាំងពី	-9.71984
▁external	-9.72022
▁sweet	-9.72035
▁If	-9.72092
▁tales	-9.72243
ច្រើនជាង	-9.72317
▁Business	-9.72354
ទាមទារ	-9.72355
▁studies	-9.72419
▁Th	-9.72481
ការរៀបចំ	-9.72543
រឿងរ៉ាវ	-9.7259
ចំ	-9.72634
បរិយាកាស	-9.72734
បំពេញ	-9.72735
ដោយផ្ទាល់	-9.72758
យ៉ាងខ្លាំង	-9.72855
ត្រ	-9.72875
ខ្សែ	-9.72899
ហ	-9.72899
យុទ្ធនាការ	-9.7291
▁ខែកក្កដា	-9.72959
▁W	-9.73137
▁lives	-9.7318
អង្ករ	-9.73327
បទល្មើស	-9.73337
សកម្មជន	-9.73349
▁ដើម្បីលើកកម្ពស់	-9.73366
ចំពោះការ	-9.73374
បញ្ជាក់	-9.73392
បានកើនឡើង	-9.73396
▁offers	-9.73408
▁Li	-9.73441
▁ប្រព័ន្ធ	-9.73453
អត្តសញ្ញាណ	-9.73473
▁right	-9.73499
▁happiness	-9.73557
▁សុ	-9.73578
▁multiple	-9.73615
**:	-9.73671
▁met	-9.73913
សេដ្ឋកិច្ចជាតិ	-9.73914
រា	-9.73941
បង្កើតឡើង	-9.73996
ទាក់ទាញ	-9.7401
▁Forum	-9.74032
▁Sun	-9.74055
បង្ក	-9.74062
ជនរងគ្រោះ	-9.74062
លេង	-9.74066
▁N	-9.74147
ឲ្យបាន	-9.74228
▁protest	-9.74258
ព្រំដែន	-9.7427
▁prince	-9.74294
▁2020	-9.74358
គំនិតផ្តួចផ្តើម	-9.74481
ការធ្វើ	-9.74566
ផ្	-9.74577
▁ឃុំ	-9.74605
▁levels	-9.74625
លទ្ធភាព	-9.74655
▁ចុះ	-9.74666
ណ	-9.747
▁13	-9.74913
▁age	-9.74942
▁establishment	-9.74959
▁០០០	-9.74987
▁status	-9.74997
▁Apsara	-9.75055
តាមរយៈការ	-9.75062
▁ទទួល	-9.75102
▁season	-9.75164
▁preparing	-9.75171
▁confidence	-9.75211
▁Japanese	-9.75231
▁committee	-9.75259
▁Through	-9.7526
▁scholarships	-9.75349
us	-9.75441
ពាក់ព័ន្ធនឹង	-9.75552
▁joint	-9.75557
អនុស្សាវរីយ៍	-9.75619
▁Banteay	-9.75649
▁suspects	-9.75669
▁spokesperson	-9.75695
ប្រឆាំងនឹង	-9.75717
របស់នាង	-9.75759
ការប្តេជ្ញាចិត្ត	-9.75786
ម្ហូបអាហារ	-9.75809
ist	-9.75812
ថ្មីមួយ	-9.7586
▁trust	-9.75916
▁respect	-9.75973
▁ទទួលបាន	-9.75984
▁21	-9.75996
▁annually	-9.76037
បន្ទាយមានជ័យ	-9.76042
▁reduc	-9.7607
កត្តា	-9.76122
ម៉ូតូ	-9.76148
ដឹក	-9.7617
ចាប់អារម្មណ៍	-9.76257
សង្គមស៊ីវិល	-9.76264
ខាងមុខ	-9.76297
▁២០២៤	-9.76306
▁បង្ហាញ	-9.76326
ឡាវ	-9.76334
សាកលវិទ្យាល័យ	-9.76339
▁Ministers	-9.76391
▁anniversary	-9.76463
lo	-9.76469
ក្រសួងការងារ	-9.76487
▁សង្កាត់	-9.76585
ភ្លើង	-9.76587
▁mechanisms	-9.76681
▁បរទេស	-9.76718
▁sovereignty	-9.76753
ប្រាសាទ	-9.76803
បើ	-9.76812
economic	-9.7682
▁Human	-9.76849
▁river	-9.76986
ជំរុញឱ្យ	-9.77005
▁របាយការណ៍	-9.77046
▁initiatives	-9.77058
ផ្កា	-9.77108
▁leader	-9.77139
▁passed	-9.77167
▁say	-9.77174
▁Singapore	-9.77193
▁1,	-9.77303
▁Works	-9.77356
ប៉ះពាល់	-9.77398
យន្តការ	-9.77411
▁ចេញ	-9.77451
ព្រះរាជក្រឹត្យ	-9.77463
ការផ្គត់ផ្គង់	-9.77495
ទាំងមូល	-9.77561
▁house	-9.77561
និងហិរញ្ញវត្ថុ	-9.77621
▁រយៈពេល	-9.77633
និយម	-9.7768
ទាប	-9.77712
▁Two	-9.77761
ធ្វើឲ្យ	-9.77772
ទិដ្ឋភាព	-9.77775
់	-9.77788
▁GDP	-9.77833
អាន	-9.77843
▁2014	-9.77854
▁fresh	-9.77871
▁recovery	-9.77895
▁អញ្ជើញ	-9.77946
ចំណីអាហារ	-9.77964
ទប់ស្កាត់	-9.77988
ទឹកស្អាត	-9.77989
▁effectively	-9.77992
▁4.	-9.78002
▁ជាង	-9.78013
▁ស្តីពី	-9.78024
▁open	-9.78027
▁promotion	-9.78061
▁mandated	-9.78104
▁concerning	-9.78112
▁និងលើកកម្ពស់	-9.78154
ent	-9.78168
អតីត	-9.7818
▁operational	-9.78195
តាំងពី	-9.78218
មហា	-9.78221
ដ៏សំខាន់	-9.78307
▁pre	-9.78344
▁Village	-9.78354
▁b	-9.78424
▁ខែមិថុនា	-9.78475
សរុបចំនួន	-9.78599
កីឡា	-9.78623
▁Fisheries	-9.7866
▁female	-9.78684
▁representatives	-9.78695
▁និងសំណង់	-9.78696
▁safeguard	-9.78754
▁advanced	-9.78772
គ្រប់រូប	-9.78956
លើការ	-9.78971
ការប្រែប្រួល	-9.79008
នឹងត្រូវ	-9.79038
កំណែទម្រង់	-9.79043
▁បង្ហាញពី	-9.79102
រំ	-9.79117
ដៃគូ	-9.79137
ព្យាបាល	-9.79161
អាចនឹង	-9.79225
▁objective	-9.79231
▁payment	-9.79261
▁European	-9.7928
▁Administration	-9.79324
▁enduring	-9.79326
ប្រមូល	-9.79351
នេះដែរ	-9.79353
▁seeking	-9.79367
China	-9.79387
សក្តានុពល	-9.79414
លើសពី	-9.79429
ve	-9.79535
▁friendly	-9.79588
ធ	-9.79651
▁១២	-9.79709
យកទៅ	-9.7971
▁Many	-9.79781
ឈប់	-9.79818
គ្រឹះស្ថាន	-9.79877
ជម្លោះ	-9.79974
▁medical	-9.80054
▁supports	-9.80062
▁Rieng	-9.80118
v	-9.80181
▁plant	-9.80186
▁related	-9.80282
▁សម្ដេច	-9.80303
របស់គាត់	-9.8043
សរសេរ	-9.80434
▁officers	-9.8044
មានប្រសិទ្ធភាព	-9.80461
ខ្	-9.80484
ប្រធាន	-9.80514
ម៉ា	-9.80531
▁cross	-9.80548
មានតម្លៃ	-9.80589
ព្រះរាជ	-9.80696
▁lead	-9.807
▁administrative	-9.80785
ការសម្រេចចិត្ត	-9.80839
ខេត្តកំពង់ឆ្នាំង	-9.80882
សម្រេចចិត្ត	-9.80998
ar	-9.81028
តវ៉ា	-9.81097
▁មុន	-9.81107
▁សិក្សា	-9.81115
អនុវត្តគោលនយោបាយ	-9.81133
▁stone	-9.81146
▁experience	-9.81159
អ៊ុយក្រែន	-9.81279
អន្តរាគមន៍	-9.81331
▁parents	-9.81331
▁addressing	-9.81362
▁លី	-9.81371
អាស៊ី	-9.8143
ភាគីពាក់ព័ន្ធ	-9.81451
▁crops	-9.81463
▁និងដឹកជញ្ជូន	-9.81495
ក៏អាច	-9.81528
បេះដូង	-9.81532
ak	-9.81598
ពិត	-9.81674
▁ខែកញ្ញា	-9.81689
សម្ភារៈ	-9.81712
ជុំវិញ	-9.8172
ដដែល	-9.81756
rd	-9.81769
▁និងការអភិវឌ្ឍ	-9.81784
▁ties	-9.81846
សាកល្បង	-9.8185
▁ដោយមាន	-9.81864
ស្វាយ	-9.81921
▁គ្មាន	-9.81939
▁festival	-9.81956
គន្លឹះ	-9.81979
▁partnerships	-9.8198
▁office	-9.82055
▁awareness	-9.82076
ដក	-9.8212
▁កើនឡើង	-9.82175
៥០	-9.82234
▁CO	-9.8224
▁កាល	-9.82306
▁និងនវានុវត្តន៍	-9.82334
ប្រជារាស្ត្រ	-9.82386
▁ចូលរួម	-9.82411
▁Pursat	-9.82425
man	-9.82498
▁៣០	-9.82513
▁faces	-9.82514
▁បង្កើតបានជា	-9.82538
▁orders	-9.82556
income	-9.82565
បន្តិច	-9.82603
▁plays	-9.82624
▁gracious	-9.82651
▁care	-9.82704
▁រៀបចំ	-9.8275
ti	-9.82769
សម្រេចបាននូវ	-9.82863
សម្លៀកបំពាក់	-9.82909
ការស្រាវជ្រាវ	-9.8292
ផលប៉ះពាល់	-9.83003
▁stood	-9.8309
▁monitoring	-9.83091
▁ដើម្បីធានា	-9.83117
សំ	-9.83171
▁poor	-9.8321
▁រួច	-9.8335
▁involved	-9.83352
ឃាត់ខ្លួន	-9.83392
បន្ទប់	-9.83414
▁សំឡេង	-9.83436
ខុស	-9.83478
▁increasing	-9.8348
បឹង	-9.83504
▁loan	-9.83539
▁presided	-9.83551
▁territorial	-9.83595
eng	-9.83616
▁methods	-9.83626
▁Sar	-9.83629
ឯករាជ្យ	-9.83636
ឆ្លើយតប	-9.83741
▁Code	-9.83759
លិខិត	-9.8378
▁Kratie	-9.83798
▁រក	-9.83819
me	-9.83861
ឺ	-9.83974
▁CEO	-9.83975
old	-9.83975
em	-9.84173
វិ	-9.84225
ong	-9.84259
សម្តេចតេជោ	-9.84314
អេឡិចត្រូនិក	-9.84315
▁submitted	-9.84316
ងាយស្រួល	-9.84337
▁ឆ្នាំ២០២១	-9.84347
ទិសដៅ	-9.84394
tr	-9.84407
ដើរតួនាទីយ៉ាង	-9.84438
▁recently	-9.84467
មានការកើនឡើង	-9.84579
▁loss	-9.84649
Senior	-9.84695
ប្រចាំ	-9.84738
ផ្លូវចិត្ត	-9.84744
▁ចាប់ពី	-9.84751
ដែរថា	-9.8478
ដំណាក់កាល	-9.84928
▁reform	-9.85024
▁requiring	-9.8506
▁once	-9.85061
អភិរក្ស	-9.85119
▁inclusive	-9.85124
▁នៅពេលដែល	-9.85164
▁completed	-9.85178
▁ខែមេសា	-9.85178
▁de	-9.85182
▁leaving	-9.85188
ការផលិត	-9.85197
ដង	-9.85269
▁នឹងត្រូវ	-9.85286
▁helps	-9.85325
បរិយាប័ន្ន	-9.85374
ឆ្នាំ២០២២	-9.85386
ប៉ុន្មាន	-9.85432
://	-9.85447
ia	-9.85448
ប្រទេសទាំងពីរ	-9.85482
▁scent	-9.85549
▁owner	-9.85553
▁Sa	-9.8557
▁says	-9.85631
ការយល់ដឹង	-9.85655
ក្រសួងមហាផ្ទៃ	-9.85659
ter	-9.85668
▁ប្រាក់	-9.85681
▁Ch	-9.85698
▁final	-9.85794
អាថ៌កំបាំង	-9.85839
ខ	-9.8585
▁CPP	-9.85886
▁ចូល	-9.85895
ឆ្លើយតបទៅនឹង	-9.85896
សិស្សានុសិស្ស	-9.86014
អ្នកវិនិយោគ	-9.86049
ដោះលែង	-9.86055
ម្	-9.86149
▁socio	-9.8616
▁drug	-9.86169
រ៉ា	-9.86221
▁judicial	-9.86222
▁Science	-9.86257
▁legacy	-9.86286
▁body	-9.86288
▁times	-9.86301
ិ	-9.86311
▁manage	-9.86343
▁organize	-9.86354
▁claims	-9.86378
ចែករំលែក	-9.86389
ឆ្នាំ២០២៤	-9.86402
ជំនួស	-9.86405
▁Transport	-9.86417
▁play	-9.86418
▁forests	-9.86444
មី	-9.86492
អោយ	-9.86531
▁internal	-9.86549
▁Europe	-9.86631
▁imports	-9.86697
ឹម	-9.86699
▁បើក	-9.86707
មន្ត្រីជាន់ខ្ពស់	-9.86761
▁collaborate	-9.86783
ស្រឡាញ់	-9.86803
▁dollars	-9.86948
▁Social	-9.87026
ដ៏សំខាន់មួយ	-9.87032
នគរបាល	-9.87048
▁ការអនុវត្ត	-9.87116
រាត្រី	-9.8713
វ៉ាក់សាំង	-9.87175
▁deaths	-9.87193
▁ព្រះអង្គ	-9.87269
ណែនាំ	-9.87301
▁Forestry	-9.87333
▁ក្រសួងអប់រំ	-9.87368
សូម	-9.87374
▁confirmed	-9.87374
▁Women	-9.87381
ting	-9.87385
▁claim	-9.87467
▁mitigate	-9.87524
▁resolution	-9.87528
▁woman	-9.8754
នាយករដ្ឋមន្រ្តី	-9.87545
▁form	-9.87573
▁ជាក់ស្ដែង	-9.87576
វឌ្ឍនភាព	-9.87596
មាត់	-9.87605
▁prepared	-9.87623
▁individual	-9.8764
▁Australia	-9.87643
▁collection	-9.87669
▁សហគមន៍	-9.87675
ទី៣	-9.87716
កម្សាន្ត	-9.87719
យប់	-9.87731
ទាក់ទង	-9.87735
គណបក្សប្រជាជន	-9.87741
ho	-9.8781
វិធី	-9.87869
ភ្ញៀវ	-9.8787
▁ក្រៅពី	-9.8787
ទាក់ទងនឹង	-9.87878
▁comply	-9.87924
▁Bun	-9.87941
▁deeply	-9.87954
បណ្តាប្រទេស	-9.87966
▁ខែសីហា	-9.87993
▁freedom	-9.88042
▁Global	-9.88046
ទាំងឡាយ	-9.88059
▁Senate	-9.88079
la	-9.88174
▁contributing	-9.88188
less	-9.8825
ទន្លេ	-9.88306
▁បេក្ខជន	-9.88322
▁នាយករដ្ឋមន្រ្តី	-9.8836
▁announces	-9.88395
ភ្ជាប់	-9.88397
▁One	-9.88398
▁certificates	-9.88416
ក្នុងតំបន់។	-9.88443
▁Authority	-9.88453
គ្រូបង្រៀន	-9.88488
ការពិត	-9.88579
▁១១	-9.88689
សម្រេចបាន	-9.88699
▁prioritize	-9.88713
▁just	-9.88717
▁offering	-9.88729
អនុម័ត	-9.88738
ថែរក្សា	-9.88744
អាយុ	-9.88773
▁responsibility	-9.88787
▁connect	-9.88797
ផ្តល់នូវ	-9.88827
វិធីសាស្ត្រ	-9.88827
▁sent	-9.88839
▁team	-9.88847
▁Urban	-9.88851
កើត	-9.88887
▁សមាគម	-9.88894
▁200	-9.88905
ទឹកដី	-9.88959
▁prior	-9.88976
▁microfinance	-9.89012
មា	-9.89051
អះអាងថា	-9.89079
▁ត្រូវបានប្រកាស	-9.89089
▁apply	-9.89117
ad	-9.89129
ful	-9.8915
▁India	-9.89168
▁25	-9.89181
▁So	-9.89287
១៨	-9.893
▁serve	-9.8932
▁threats	-9.89402
▁រូប	-9.89425
▁ធ្វើឱ្យ	-9.89501
▁Vihear	-9.89521
▁ឬក៏	-9.89625
▁imperative	-9.89655
ស្រ្តី	-9.89671
▁meters	-9.89674
▁entrepreneurs	-9.89831
រាជ	-9.89865
▁និងកំពុង	-9.89872
▁យ៉ាងណាមិញ	-9.89924
វាយតម្លៃ	-9.8993
▁Hong	-9.89961
▁short	-9.89992
▁literacy	-9.90059
▁practice	-9.90061
របស់ចិន	-9.90119
ការត្រួតពិនិត្យ	-9.90144
ខ្វះ	-9.90194
▁achiev	-9.90194
▁rich	-9.90232
នាំ	-9.90257
▁maintenance	-9.90262
▁Agricultural	-9.90262
ce	-9.90275
▁រាជធានីភ្នំពេញ	-9.90282
▁treatment	-9.9033
ជួយដល់	-9.90382
▁citizen	-9.90393
▁Opposition	-9.90397
▁better	-9.90415
▁ឯកឧត្ដម	-9.90419
▁opening	-9.90439
▁សិស្ស	-9.90477
▁several	-9.90482
▁មិនមែន	-9.90489
នារី	-9.90491
គ្រប់ប្រភេទ	-9.90534
១២	-9.90537
▁16	-9.90636
▁breeze	-9.90668
ទុន	-9.90675
rs	-9.90689
ព្រឹក	-9.90707
សម្តេច	-9.90756
▁ច្រើន	-9.90805
z	-9.90834
▁និងអន្តរជាតិ	-9.90858
hi	-9.9093
ma	-9.90941
▁participate	-9.90957
សហភាពអឺរ៉ុប	-9.90964
▁obstacles	-9.90965
▁gratitude	-9.91008
▁industry	-9.91013
▁developed	-9.91068
out	-9.91073
ក្រសួងសុខាភិបាល	-9.91103
▁សម្រេច	-9.91107
សាធារណៈ។	-9.91124
▁សម្ដេចធិបតី	-9.91133
បុរស	-9.91211
គម្រោងអភិវឌ្ឍន៍	-9.91248
▁senior	-9.91281
▁Trade	-9.91283
ជាអ្នក	-9.9129
ដឹងថា	-9.91295
10	-9.91396
វិជ្ជមាន	-9.91397
▁place	-9.91413
▁ម	-9.91415
ចលនា	-9.91421
▁tech	-9.91469
ចុង	-9.91512
▁Veng	-9.91569
នឹងអាច	-9.91574
de	-9.91589
ស្រស់	-9.91614
▁organizations	-9.91639
អង្គការសហប្រជា	-9.91646
នៅឡើយ	-9.91687
▁art	-9.91691
▁late	-9.91691
▁projected	-9.91891
▁នៅព្រឹកថ្ងៃទី	-9.91893
▁De	-9.9191
▁conduct	-9.91915
របស់ពួកគេ។	-9.91966
▁កាន់	-9.9197
ជានិច្ច	-9.9198
▁Cooperation	-9.92035
▁ទី២	-9.92107
សេចក្តីព្រាង	-9.92115
▁journey	-9.92121
▁ក្នុងចំណោម	-9.9214
ទម្លាប់	-9.92162
▁$3	-9.92179
▁អំពី	-9.92192
បេសកកម្ម	-9.92208
រួចរាល់	-9.92236
▁my	-9.92252
▁encourages	-9.92311
▁mere	-9.92322
▁គង់	-9.92331
▁ផ្តល់	-9.92369
១៥	-9.92377
▁Bo	-9.92446
▁trafficking	-9.92449
ប្រភព	-9.92463
ចោល	-9.92505
▁vocational	-9.92676
របស់អង្គការ	-9.92681
▁ព្រះអង្គម្ចាស់	-9.92711
ministerial	-9.92726
ម៉ឺន	-9.92766
▁អភិបាល	-9.92773
រិះគន់	-9.92963
សម្ដេចព្រះបរមនាថ	-9.93003
▁ខ្ញុំ	-9.9304
▁Currently	-9.93064
៤នាក់	-9.93099
វិស័យឯកជន	-9.93145
មន្រ្តី	-9.93165
▁Under	-9.93212
▁ក្នុងឱកាស	-9.9322
▁http	-9.93246
អត្រា	-9.93254
▁always	-9.93281
ពិតជា	-9.93348
▁criminal	-9.93351
សម្រស់	-9.93389
ដឹង	-9.93454
▁largest	-9.93524
លើស	-9.9358
រាងកាយ	-9.93647
ផ្សេងៗទៀត	-9.93675
របស់វា	-9.93707
ភ្លាមៗ	-9.93709
បណ្តា	-9.9372
ក្នុងប្រទេស	-9.93737
មានកំណើន	-9.93783
▁allocated	-9.93787
▁vaccination	-9.9381
កន្លងទៅនេះ	-9.93877
▁honor	-9.93903
▁១០០	-9.93923
rom	-9.93951
▁globally	-9.9397
ក្រសួងបរិស្ថាន	-9.93977
ha	-9.94028
▁ក្រុមប្រឹក្សា	-9.9409
ជំរុញឲ្យ	-9.94135
ចក្ខុវិស័យ	-9.94152
▁enforcement	-9.94194
▁understand	-9.94216
▁lower	-9.94217
ធ្លាក់	-9.94225
បទ	-9.94256
▁zones	-9.94284
ើ	-9.94308
▁achievements	-9.94343
ចូលចិត្ត	-9.94371
ដ៏ធំល្វឹងល្វើយ	-9.94403
▁rule	-9.94412
ខេត្តបាត់ដំបង	-9.94429
ខិតខំ	-9.94439
ចំនួន២	-9.94469
▁decline	-9.94527
▁governance	-9.9455
រីករាយ	-9.94599
▁marriage	-9.94613
▁Asian	-9.94623
ពិបាក	-9.94636
▁Festival	-9.94684
បដិសេធ	-9.94744
▁Office	-9.94834
▁Moha	-9.94871
▁registered	-9.94872
សារពើពន្ធ	-9.94897
▁Oknha	-9.94963
ក្មេង	-9.94963
កំ	-9.94985
កសិផល	-9.95031
«	-9.95072
គោលបំណង	-9.95078
▁លោកបណ្ឌិត	-9.95152
▁electricity	-9.95185
▁ស្រី	-9.95224
▁explore	-9.95259
ភាសា	-9.95293
កៅស៊ូ	-9.9532
▁លើក	-9.95328
▁gain	-9.95362
▁Trump	-9.95393
▁tranquility	-9.95398
▁vehicle	-9.95447
quality	-9.95458
▁finance	-9.95495
អ្នកដទៃ	-9.95502
វិញ្ញាបនបត្រ	-9.95543
▁statement	-9.95558
រង់ចាំ	-9.95613
▁2015	-9.95632
▁tree	-9.95663
មេដឹកនាំ	-9.95671
យុទ្ធសាស្រ្ត	-9.95679
ដ៏ខ្ពង់ខ្ពស់	-9.95743
ដាំដុះ	-9.95763
▁ស្របតាម	-9.9578
▁central	-9.95885
▁beyond	-9.95892
ទស្សនា	-9.95913
▁ដើម្បីឱ្យ	-9.95927
▁starting	-9.95947
ក្តីសង្ឃឹម	-9.95963
ស្រា	-9.9597
ល្អប្រសើរ	-9.9599
ទទួលស្គាល់	-9.96004
armed	-9.96229
▁share	-9.9625
ឥណ្ឌា	-9.96262
អ្នកគាំទ្រ	-9.96289
▁ADB	-9.96356
▁making	-9.96357
▁motorcycle	-9.96387
▁guidelines	-9.96394
▁ករណី	-9.96443
ក្រុមគ្រួសារ	-9.96517
▁Takeo	-9.96542
▁សូមបញ្ជាក់ថា	-9.96555
▁ស្ថាប័ន	-9.9657
▁lost	-9.96613
ការប្រកួតប្រជែង	-9.96624
▁ទន្ទឹមនឹងនេះ	-9.96671
▁Mondulkiri	-9.96682
▁model	-9.96696
ប៉ះពាល់ដល់	-9.96701
▁make	-9.96714
▁affairs	-9.96725
តែមួយ	-9.96729
▁adherence	-9.9676
ចូលរួមយ៉ាងសកម្ម	-9.96844
▁រដ្ឋលេខាធិការ	-9.96941
▁secure	-9.96954
▁president	-9.96972
▁truth	-9.96989
▁40	-9.97015
១៧	-9.97025
▁Ben	-9.97036
▁lack	-9.97036
▁institution	-9.97107
២០២៣	-9.97112
▁ongoing	-9.97135
កណ្តាល	-9.97142
ឆ្នាំនេះ	-9.97155
អ្វីដែល	-9.97189
ចំនួន៣	-9.97256
ផ្លែ	-9.97284
▁Ukraine	-9.97316
▁ដើម្បីបង្កើន	-9.97332
យន្តហោះ	-9.97373
▁2019	-9.97445
▁អាជីវកម្ម	-9.97548
ដទៃទៀត	-9.97557
bringing	-9.9757
duly	-9.97611
▁detention	-9.97624
ដើម្បីធានាបាននូវ	-9.97624
▁crop	-9.97837
ថ្មីនេះ	-9.97881
▁advance	-9.97988
▁back	-9.98013
គំរូ	-9.98041
▁Sihanoukville	-9.98066
ies	-9.98113
50	-9.98313
▁អាមេរិក	-9.98443
▁scholarship	-9.98455
▁regularly	-9.98458
គោល	-9.98466
ផ្សេង	-9.98482
▁jasmine	-9.985
ne	-9.98528
វេទិកា	-9.98535
លើវិស័យ	-9.98537
ex	-9.98654
ការអភិវឌ្ឍន៍	-9.98673
ជាក់ស្តែង	-9.98676
▁never	-9.98722
បាយ	-9.98756
▁SEA	-9.98756
បានបញ្ជាក់ថា	-9.9879
▁subject	-9.98809
▁១៣	-9.98854
▁ទៀត	-9.98855
អ្នកសារព័ត៌មាន	-9.98877
▁supported	-9.98906
បញ្ចេញ	-9.98913
សេដ្ឋកិច្ចពិសេស	-9.98935
ហ្វេសប៊ុក	-9.9894
▁ស្ថិតនៅ	-9.98978
ព្យាយាម	-9.98999
អាពាហ៍ពិពាហ៍	-9.99006
មិនមែន	-9.99061
ប្រទេសថៃ	-9.99096
▁beautiful	-9.99122
ពានរង្វាន់	-9.9916
▁Rescue	-9.99163
យូរ	-9.99175
បរិញ្ញាបត្រ	-9.99184
ការបង្កើត	-9.99235
▁show	-9.99271
▁Sap	-9.99303
▁Commune	-9.99339
ក្រុងព្រះសីហនុ	-9.99344
បំផ្លាញ	-9.9935
គម្រោងវិនិយោគ	-9.99376
▁Special	-9.99385
ធនធានធម្មជាតិ	-9.99392
▁elections	-9.99406
ឥទ្ធិពល	-9.99429
▁independence	-9.99492
▁charges	-9.99527
▁យក	-9.99536
▁represent	-9.99563
ការបរទេស	-9.99623
▁month	-9.99625
គ្រោះមហន្តរាយ	-9.99679
របស់ប្រទេស	-9.99749
▁Federation	-9.99835
▁workshop	-9.99857
▁បញ្ជាក់ថា	-9.99868
កសិកម្មទំនើប	-9.9987
ថត	-9.99887
▁conservation	-9.99904
ការគាំទ្រ	-9.99922
▁complete	-9.99951
▁continuously	-9.99976
▁តែងតែ	-10.0004
រយៈពេលវែង	-10.0005
ភូមិសាស្ត្រ	-10.0008
ការកសាង	-10.0014
ពាក្យ	-10.0017
▁diverse	-10.0028
២៥	-10.0029
▁integration	-10.0029
▁left	-10.003
ស្ថាប័នពាក់ព័ន្ធ	-10.0031
ab	-10.0033
វ័យ	-10.0034
ក្របខណ្ឌ	-10.0035
អាជីវករ	-10.0038
កញ្ញា	-10.0043
▁pertain	-10.0043
ប្រទេសចិន	-10.0046
▁violence	-10.005
លើកទឹកចិត្តដល់	-10.0054
▁though	-10.0056
▁មិនត្រឹមតែ	-10.0067
border	-10.0068
▁ancestors	-10.0073
▁chief	-10.0073
ធានានូវ	-10.0073
▁suspect	-10.008
▁educational	-10.008
អ្នកស្រី	-10.0084
▁poverty	-10.0088
▁issuance	-10.0088
កំណើត	-10.009
▁located	-10.0095
មហាសេនាបតីតេជោ	-10.0097
ពុក	-10.0098
▁require	-10.0099
អាជ្ញាធរមូលដ្ឋាន	-10.01
▁experiences	-10.0105
ផ្អាក	-10.011
ដល់ប្រជាពលរដ្ឋ	-10.0112
ling	-10.0115
តែង	-10.0119
ru	-10.0122
▁$4	-10.0123
▁hearing	-10.0125
▁abroad	-10.0125
រដ្ឋមន្រ្តី	-10.0131
▁yields	-10.0131
សណ្ឋាគារ	-10.0133
ស្របច្បាប់	-10.0135
ប្រមាណជាង	-10.0137
▁ទឹក	-10.0138
▁safe	-10.0139
▁then	-10.0149
បម្រើ	-10.0151
ដ៏ធំ	-10.016
▁Head	-10.0161
▁monetary	-10.0163
▁factors	-10.0166
▁Russian	-10.0169
▁focusing	-10.0173
▁book	-10.0174
▁successfully	-10.0181
ating	-10.0182
▁concerns	-10.0192
ឆ្ពោះទៅរក	-10.0195
កូរ៉េខាងត្បូង	-10.0198
▁Treng	-10.0201
▁Al	-10.0201
បន្តថា	-10.0202
័	-10.0204
▁monthly	-10.0206
ជាក់លាក់	-10.0216
▁property	-10.0217
ដំឡើង	-10.0219
▁sell	-10.022
ស្ថិរភាព	-10.0223
សាធារណជន	-10.0226
ចំណេញ	-10.0236
រំពឹងថា	-10.0237
▁unique	-10.0239
ប៉ុណ្ណោះ។	-10.0245
▁press	-10.0252
▁propose	-10.0253
co	-10.0255
▁Any	-10.0256
នៅថ្ងៃនេះ	-10.0262
▁Three	-10.0262
▁Training	-10.027
▁fuel	-10.0274
▁17	-10.0276
▁how	-10.028
▁Justice	-10.0285
ors	-10.0289
▁pure	-10.0293
ខ្យល់	-10.0296
▁temples	-10.0297
▁Tonle	-10.0301
▁វិធានការ	-10.0306
សីលធម៌	-10.0308
ឌី	-10.0312
▁Plan	-10.0317
▁princess	-10.0317
▁Te	-10.0321
បានដាក់ចេញនូវ	-10.0324
▁Post	-10.0327
ស្បែក	-10.0331
នានា។	-10.0339
រុក្ខជាតិ	-10.0344
សេដ្ឋកិច្ច។	-10.0344
▁stress	-10.035
▁submit	-10.035
▁ទី១	-10.0352
▁compassion	-10.0353
តួនាទី	-10.0357
▁សុទ្ធតែ	-10.0358
ការគំរាមកំហែង	-10.0363
ប្រជុំ	-10.0364
ផលប្រយោជន៍	-10.0369
▁forms	-10.0371
▁SMEs	-10.0373
របស់រដ្ឋាភិបាល	-10.0376
ដោយសារតែ	-10.0377
▁Municipal	-10.0377
▁great	-10.0379
ជាការ	-10.0386
ខេត្តកោះកុង	-10.0392
អត្តសញ្ញាណប័ណ្ណ	-10.0393
▁Vi	-10.0396
▁50	-10.0403
លំនៅឋាន	-10.0405
national	-10.0407
ចែក	-10.0409
▁Understanding	-10.0411
តភ្ជាប់	-10.0412
ប្រទេសជាតិ	-10.0413
ករ	-10.0414
▁Note	-10.0415
ta	-10.0416
ពន្ធដារ	-10.0417
▁exported	-10.0417
▁techniques	-10.0417
បរិមាណ	-10.0418
បណ្ណ	-10.0419
ស្គាល់	-10.0429
ឧបសគ្គ	-10.043
កិច្ចសហការ	-10.0433
ក្នុងមួយថ្ងៃ	-10.0433
ទន្លេមេគង្គ	-10.0437
▁sense	-10.044
បុណ្យ	-10.0443
▁safeguarding	-10.0444
ឯក	-10.0445
▁fear	-10.0446
▁ស៊ុន	-10.0447
▁forum	-10.0448
▁គិតត្រឹម	-10.0448
▁soil	-10.0448
▁France	-10.0451
កាន់	-10.0454
▁គឺជាកាតព្វកិច្ច	-10.0454
▁cycle	-10.0455
បញ្ចូល	-10.0456
▁Life	-10.0458
▁ឡី	-10.0463
▁join	-10.047
▁launch	-10.0472
▁judgment	-10.0478
រូបិយវត្ថុ	-10.048
▁site	-10.0486
▁Experts	-10.0494
▁today	-10.0498
ជាងមុន	-10.05
▁និងសុវត្ថិភាព	-10.0508
លែង	-10.0516
▁prescribed	-10.0518
▁expenses	-10.0518
យ៉ា	-10.0519
វាយ	-10.0529
▁និស្សិត	-10.053
▁memories	-10.0533
រហូត	-10.0534
គណៈកម្មការ	-10.0538
ថែមទៀត	-10.054
▁pay	-10.0541
▁cities	-10.0542
កំពុងតែ	-10.0544
▁immense	-10.0545
▁កើត	-10.0546
សកម្ម	-10.0548
▁ជប៉ុន	-10.0556
▁Capital	-10.0557
▁Strategy	-10.0557
▁enabl	-10.0561
កំពង់ផែ	-10.0565
ស្ថាបត្យកម្ម	-10.0567
កញ្ចប់	-10.0568
១១	-10.0569
វគ្គ	-10.057
អតីតកាល	-10.0572
▁Peace	-10.0572
▁testament	-10.0581
▁close	-10.0585
ill	-10.0591
▁និងឯកជន	-10.0596
▁ផល	-10.0604
▁Planning	-10.0605
នៅឆ្នាំ	-10.0605
▁Project	-10.0612
▁expanded	-10.0616
▁throughout	-10.0618
▁ក្រសួងកសិកម្ម	-10.0618
ក្របខ័ណ្ឌ	-10.0628
▁forth	-10.0629
ឈរ	-10.0633
វត្ថុ	-10.0635
នេះគឺ	-10.0635
▁Policy	-10.0636
រសជាតិ	-10.064
▁២៥	-10.0644
នវានុវត្តន៍	-10.0646
គួរឱ្យកត់សម្គាល់	-10.0649
អូ	-10.0652
▁Airport	-10.0652
▁owners	-10.0653
ល់	-10.0653
▁prevention	-10.0656
បច្ចុប្បន្នភាព	-10.0658
▁កែម	-10.0661
ភស្តុតាង	-10.0664
▁French	-10.0668
▁គឺមានសារៈសំខាន់	-10.0669
សណ្តាប់ធ្នាប់	-10.067
មានបញ្ហា	-10.0673
នៅទូទាំងប្រទេស	-10.0674
▁improved	-10.0677
▁Union	-10.0679
▁អត្ថបទ៖	-10.068
▁sanctions	-10.0682
▁និងអភិវឌ្ឍន៍	-10.0682
▁emergency	-10.0684
▁existence	-10.0684
▁contributed	-10.0689
▁tasks	-10.069
រស់	-10.0691
▁ដើម្បីជំរុញ	-10.0691
▁example	-10.0692
ត្រូវបានគេ	-10.0692
ដំណើរទស្សនកិច្ច	-10.0692
tic	-10.0695
ពាណិជ្ជកម្មសេរី	-10.0696
▁welfare	-10.07
មន្ត្រីរាជការ	-10.0703
▁រដ្ឋបាល	-10.0704
ដើម្បីលើកកម្ពស់	-10.0706
នឹងបន្ត	-10.0708
▁distant	-10.0708
កង	-10.0716
ខាងមុខនេះ	-10.0723
▁housing	-10.0724
▁skill	-10.0725
អំពើពុករលួយ	-10.0728
ត្រៀមខ្លួន	-10.0738
ជូនប្រជាពលរដ្ឋ	-10.0742
▁result	-10.0742
តម្រូវឱ្យ	-10.0742
▁reading	-10.0747
ថ្មី។	-10.0752
▁dance	-10.0754
សហគ្រាសធុនតូច	-10.0757
បណ្ដុះបណ្ដាល	-10.0759
ស្ថានទូត	-10.0763
បានឱ្យដឹងថា	-10.0771
ច្បាស់	-10.0772
ស្វាយចន្ទី	-10.0776
អាក្រក់	-10.0778
ត្រូវបានធ្វើឡើង	-10.0779
សហការ	-10.078
▁hold	-10.0782
▁កាលពីថ្ងៃទី	-10.0783
រំលឹក	-10.0788
▁visitors	-10.079
▁conference	-10.0796
ការផ្សព្វផ្សាយ	-10.0802
▁walls	-10.0803
ធ្វើការងារ	-10.0803
សន្តិសុខស្បៀង	-10.0803
បណ្ឌិតសភាចារ្យ	-10.0804
▁spread	-10.0805
កាល	-10.0805
▁តំណាង	-10.0806
▁Appeal	-10.0812
ឆ្នាំ២០២១	-10.0814
▁regular	-10.0817
▁soul	-10.0824
ទៅកាន់ទីផ្សារ	-10.0826
សេ	-10.0826
វិស័យហិរញ្ញវត្ថុ	-10.0835
▁facing	-10.0837
សុ	-10.0839
▁reports	-10.0845
▁ប៊ុន	-10.0847
aimed	-10.0847
▁signature	-10.0853
▁dawn	-10.0853
,"	-10.0853
▁upcoming	-10.0854
ច្បាប់ជាធរមាន។	-10.0856
ស្ថិតនៅក្នុង	-10.0857
គ្រប់ជ្រុងជ្រោយ	-10.0858
សហគ្រិន	-10.0859
▁thank	-10.0859
▁Program	-10.086
▁ruling	-10.0861
កុំ	-10.0862
▁worth	-10.0863
លំបាក	-10.0864
រត់	-10.0864
មានសមត្ថភាព	-10.0865
▁និងបាន	-10.0868
ពន្លឿន	-10.0869
▁lotus	-10.0869
របស់ពិភពលោក	-10.0872
▁គួរបញ្ជាក់ថា	-10.0872
របៀប	-10.0874
sa	-10.0877
▁discussions	-10.0879
១៤	-10.0883
ក្រសួងរៀបចំដែនដី	-10.0891
▁ប្រ	-10.0892
ធ្លាប់	-10.0894
▁caused	-10.0899
ជនជាតិចិន	-10.0901
តូចៗ	-10.0903
ទិន្នផល	-10.0908
▁Scholarship	-10.0909
ពិភាក្សា	-10.0909
វី	-10.0912
▁personnel	-10.0918
នេះបាន	-10.0919
▁តោន	-10.092
▁allowing	-10.0922
▁សំដៅ	-10.0942
▁5.	-10.0943
១៣	-10.0949
▁holds	-10.095
ian	-10.0952
រក្សាសន្តិភាព	-10.0952
៥នាក់	-10.0954
▁attended	-10.0957
ហាង	-10.0959
▁regime	-10.0959
▁Me	-10.0959
▁sorrow	-10.0961
ទ្រង់	-10.0962
មិនសូវ	-10.0964
ប្រាក់រៀល	-10.0981
ប្រធានបទ	-10.0985
ការបណ្តុះបណ្តាល	-10.0985
▁បញ្ញា	-10.099
▁ស្មើនឹង	-10.0992
មធ្យោបាយ	-10.0993
ការកាត់បន្ថយ	-10.0994
ជំងឺរាតត្បាត	-10.0996
ac	-10.1003
យកមក	-10.1007
ប្រាសាទបុរាណ	-10.1007
▁មានចំនួន	-10.101
▁possess	-10.1011
ម្ចាស់អាជីវកម្ម	-10.1011
▁១៤	-10.1017
ពិ	-10.1018
▁What	-10.1025
▁announcement	-10.1025
គោ	-10.1027
▁ក្រោយពី	-10.1029
▁influence	-10.1034
▁praised	-10.1034
វ័យក្មេង	-10.1034
▁ព្រះរាជរដ្ឋ	-10.1035
▁អតីត	-10.1036
▁generation	-10.1036
សម័យ	-10.1038
▁protected	-10.1041
▁ចាន់	-10.1041
ចន្លោះពី	-10.1049
▁Prek	-10.1051
ស្ម័គ្រចិត្ត	-10.1054
▁chain	-10.1055
▁នគរូបនីយកម្ម	-10.1056
▁diplomatic	-10.1058
សេចក្ដី	-10.1068
តាមប្រព័ន្ធ	-10.1071
▁silent	-10.1071
▁situation	-10.1072
បង្ហាញថា	-10.1077
សង្ឃឹមថា	-10.108
ect	-10.1082
នគរូបនីយកម្ម	-10.1084
នឹងទទួលបាន	-10.1085
▁theme	-10.1086
▁active	-10.1088
▁English	-10.109
ខាងក្រៅ	-10.109
ជាមធ្យម	-10.1099
ទំនុកចិត្ត	-10.11
▁historical	-10.11
▁seven	-10.1113
អាជីព	-10.1118
▁បង្កើន	-10.1119
ថែទាំ	-10.1122
▁ដី	-10.1126
ខ្ពស់។	-10.1132
អង់គ្លេស	-10.1136
▁king	-10.1138
ប្រកួត	-10.1138
▁exceed	-10.1143
▁គិត	-10.1146
▁uphold	-10.1147
▁participated	-10.1149
▁រហូត	-10.1149
គ្រឹះស្ថានមីក្រូ	-10.115
▁បន្តថា	-10.1153
ដោយខ្លួនឯង	-10.1155
▁attention	-10.1158
▁con	-10.1158
▁start	-10.1163
▁principle	-10.1164
▁partnership	-10.1164
▁ពិត	-10.1165
▁effectiveness	-10.1168
▁Pa	-10.1171
កងកម្លាំង	-10.1173
ចូលមក	-10.1176
▁គឹម	-10.1182
រារាំង	-10.1191
▁science	-10.1192
▁និ	-10.1192
នំ	-10.1197
▁duty	-10.12
▁States	-10.1201
▁spending	-10.1207
▁live	-10.1207
▁joy	-10.1214
សហប្រជាជាតិ	-10.1215
ព្រឹទ្ធសភា	-10.1215
▁វិនិយោគិន	-10.1216
▁Photo	-10.1216
សំណុំរឿង	-10.1221
ចោទ	-10.1222
▁ក្នុងរយៈពេល	-10.1223
▁chains	-10.1228
▁៤០	-10.123
▁ទីផ្សារ	-10.1232
▁assist	-10.1235
▁ការលើកកម្ពស់	-10.124
▁learn	-10.1241
ស្នាក់នៅ	-10.1242
នាពេលបច្ចុប្បន្ន	-10.1246
▁វ	-10.1248
▁countless	-10.125
ប្រាសាទអង្គរវត្ត	-10.1262
ប្តេជ្ញា	-10.1268
គ្រឹះស្ថានធនាគារ	-10.127
▁tourist	-10.1274
▁fire	-10.1274
tnews	-10.1279
▁រោងចក្រ	-10.1281
▁single	-10.1284
ផ្ទៃក្នុង	-10.1285
vi	-10.1288
ស្វាគមន៍	-10.1297
▁San	-10.1301
ការពង្រឹង	-10.1302
▁pro	-10.1302
ភាគ	-10.1303
▁inclusion	-10.1309
vodh	-10.131
mo	-10.1314
ជួសជុល	-10.1317
▁setting	-10.1319
▁First	-10.1324
ស្លឹក	-10.1325
▁combat	-10.1329
▁exquisite	-10.1332
របស់ប្រជាជន	-10.1335
▁growing	-10.1337
▁Beyond	-10.134
អតិផរណា	-10.1346
លោកស្រី	-10.135
សញ្ញា	-10.1351
▁moment	-10.1351
▁professional	-10.1357
▁Industry	-10.1361
▁selling	-10.1362
po	-10.1363
យ៉ាងជ្រាលជ្រៅ	-10.1366
អំពាវនាវ	-10.137
សមស្រប	-10.1373
សង់	-10.1374
carrying	-10.1375
▁much	-10.1378
ថ	-10.1378
▁goal	-10.138
▁Krom	-10.138
▁encourage	-10.1387
▁strengthened	-10.1394
ទោស	-10.1394
មន្ទីរ	-10.1395
▁ស៊ី	-10.1398
បានល្អ	-10.1402
ទៅក្នុង	-10.1405
ត្រជាក់	-10.141
▁hygiene	-10.1412
▁network	-10.1415
▁សា	-10.1418
▁indispensable	-10.142
▁vulnerable	-10.142
និន្នាការ	-10.1423
ាភិបាលកម្ពុជា	-10.1425
▁phenomena	-10.1429
▁affected	-10.1434
▁Laos	-10.1434
ដាក់ពាក្យ	-10.1434
▁foundation	-10.1436
▁Vice	-10.1436
អាវុធ	-10.1436
▁dense	-10.1438
▁music	-10.1438
▁adoption	-10.1439
▁១៨	-10.1445
▁sources	-10.1447
លា	-10.145
ចង់បាន	-10.1452
▁SME	-10.1452
▁៥០	-10.1452
▁compliance	-10.1453
▁interests	-10.1455
▁released	-10.1457
▁wild	-10.1463
▁whe	-10.1471
ប្រយុទ្ធប្រឆាំង	-10.1472
ស្ថិតក្នុង	-10.1473
▁sustain	-10.1478
▁rapid	-10.1478
▁និងអាច	-10.148
ស្នើឲ្យ	-10.1482
សវនាការ	-10.1484
ដែលយើង	-10.1486
▁និងបង្កើន	-10.1487
ម្តេចមហាបវរធិបតី	-10.1489
▁Indonesia	-10.1492
▁បានប្រកាស	-10.1493
អ្នកដំណើរ	-10.1495
មានឱកាស	-10.1497
▁regulatory	-10.1499
▁nationals	-10.1502
▁Khmum	-10.1507
▁អចលនទ្រព្យ	-10.1507
▁transportation	-10.1509
កាកសំណល់	-10.1509
▁កសិករ	-10.1511
ជនជាតិ	-10.1512
ចំណី	-10.1517
ទឹកជំនន់	-10.1519
private	-10.152
កិត្តិយស	-10.1522
▁content	-10.1523
▁advancing	-10.1524
សហជីព	-10.1529
អត់	-10.1532
▁capable	-10.1533
ទស្សនៈ	-10.1533
បង់	-10.1536
ជាមួយគ្នា	-10.1538
▁successful	-10.1539
ដើម្បីធានា	-10.154
វិទ្យាស្ថាន	-10.1548
ឡ	-10.1549
មណ្ឌល	-10.1551
▁records	-10.1551
▁១៦	-10.1552
▁Malaysia	-10.1552
ជួយឱ្យ	-10.1555
▁medium	-10.1559
▁ក្រសួងមហាផ្ទៃ	-10.1559
ផងដែរថា	-10.1562
ឡើងថ្លៃ	-10.1565
▁Organization	-10.1567
▁what	-10.1567
▁see	-10.1568
17	-10.1569
ព្រហ្មទណ្ឌ	-10.158
សហការជាមួយ	-10.1586
កំពុងត្រូវបាន	-10.1587
▁rubber	-10.159
ដែលត្រូវបាន	-10.1591
▁Korean	-10.1591
%)	-10.1591
លើកទី១	-10.1594
▁directly	-10.1594
▁ផលិតផល	-10.1598
▁c	-10.1601
▁obligation	-10.1604
▁cost	-10.1605
ងាយ	-10.1616
ប្រកបដោយគុណភាព	-10.1618
▁person	-10.1619
▁ក្នុងគោលបំណង	-10.1619
អនុ	-10.162
សាលាដំបូង	-10.162
▁language	-10.1621
▁investigation	-10.1622
▁seeds	-10.1633
ig	-10.1636
ជាផ្លូវការ។	-10.1637
▁ក្រុមការងារ	-10.1638
▁faced	-10.1639
▁forward	-10.1644
ពិធី	-10.1644
▁appeals	-10.1648
ខេត្តក្រចេះ	-10.1659
ចាំ	-10.166
▁គ្នា	-10.1673
នៅកម្ពុជា។	-10.1676
ឈ្នះ	-10.1677
ទេសចរ	-10.1678
បំពាក់	-10.168
▁ផែនការ	-10.1684
▁p	-10.1687
របស់ក្រសួង	-10.1691
▁ex	-10.1692
ized	-10.1692
related	-10.1693
នោះគឺ	-10.1696
កុំព្យូទ័រ	-10.1699
▁already	-10.1699
ុ	-10.1701
▁Research	-10.1706
ការនាំចូល	-10.1707
ប៉ា	-10.1709
វិធីសាស្រ្ត	-10.171
▁limited	-10.1712
គេហទំព័រ	-10.1713
គាំទ្រដល់	-10.1716
ព្រះសង្ឃ	-10.1718
ផ្លាស់ប្ដូរ	-10.172
▁target	-10.1723
▁linked	-10.1723
▁សន្តិភាព	-10.1726
▁step	-10.1727
គឺចាំបាច់សម្រាប់	-10.1729
បានសម្រេច	-10.1732
▁Market	-10.1734
▁funding	-10.1739
▁want	-10.1748
▁diversification	-10.1761
ជួល	-10.1763
▁Regard	-10.1767
ពលករ	-10.1772
▁cash	-10.1779
▁Kheng	-10.178
ខេត្តកំពង់ធំ	-10.178
វែង	-10.1792
▁pressure	-10.1792
▁Military	-10.1797
▁គឺជាគន្លឹះ	-10.1797
▁centers	-10.1797
▁invest	-10.1798
▁discipline	-10.1799
▁23	-10.1801
នេះត្រូវបាន	-10.1801
មានភារកិច្ច	-10.1802
សេដ្ឋកិច្ចឌីជីថល	-10.1804
យ៉ាងច្រើន	-10.1805
សេរីភាព	-10.1806
បានទទួល	-10.1811
▁Ma	-10.1814
ot	-10.182
▁collective	-10.1821
▁Ratanakiri	-10.1826
ជម្រើស	-10.1827
▁number	-10.1828
ពុំ	-10.1832
មេរៀន	-10.1835
ដើម្បីបង្កើន	-10.1838
សន្សំ	-10.1838
▁បច្ចុប្បន្ននេះ	-10.1839
▁Sustainable	-10.1841
កម្ពុជាបាន	-10.1843
ក្នុងសហគមន៍	-10.1843
យ៉ាងសកម្ម	-10.1843
▁leads	-10.1844
ពិធីបុណ្យ	-10.1846
▁ទ្រង់បាន	-10.1847
▁fell	-10.185
▁centuries	-10.185
▁stories	-10.185
▁ទុក្ខ	-10.1853
▁efficient	-10.1858
លឿន	-10.186
▁Keo	-10.186
12	-10.1863
▁express	-10.1866
▁highest	-10.1867
នៅរាជធានីភ្នំពេញ	-10.1868
ដែលមានស្រាប់	-10.187
▁កា	-10.1871
ធ្វើសកម្មភាព	-10.1874
▁cause	-10.1876
▁True	-10.1878
តោន	-10.1884
▁កំណើន	-10.1887
វិភាគ	-10.189
▁កម្លាំង	-10.189
សិន	-10.1893
▁Kep	-10.1896
អនឡាញ	-10.1897
ះ	-10.1903
▁ដាក់	-10.1904
▁front	-10.1908
▁empire	-10.1913
▁2016	-10.1914
▁equitable	-10.1922
▁កង	-10.1923
▁dry	-10.1924
យ៉ាងឆាប់រហ័ស	-10.1924
នាវា	-10.1926
នៅពេលដែល	-10.1927
ut	-10.1929
ated	-10.1929
▁ម្ចាស់	-10.193
▁Environmental	-10.1936
ភាពយន្ត	-10.1943
▁ឆ្នាំ២០២៥	-10.1944
រដូវ	-10.1945
អគ្គ	-10.1953
គី	-10.1953
បង្កើតឡើងដើម្បី	-10.1954
▁enter	-10.1955
▁payments	-10.1955
▁ប្រជាជន	-10.1955
▁designated	-10.1959
បំពេញទស្សនកិច្ច	-10.1959
▁នាព្រឹកថ្ងៃទី	-10.1964
ចុះឈ្មោះ	-10.1965
ប្រុងប្រយ័ត្ន	-10.1968
▁deem	-10.1968
▁ធម្មជាតិ	-10.1969
▁stop	-10.197
ោ	-10.197
អាកាស	-10.197
▁users	-10.1974
▁recognized	-10.198
ization	-10.1984
▁producing	-10.1988
ខ្នង	-10.1991
៦នាក់	-10.1994
▁friendship	-10.1995
▁includes	-10.1998
▁population	-10.2001
▁Chh	-10.2004
▁Report	-10.2004
ក្រៅ	-10.2012
ប្រយោជន៍	-10.2012
▁LTD	-10.2013
▁presented	-10.2015
▁filled	-10.2015
ប្រតិបត្តិ	-10.2016
ប្រគល់	-10.2019
ការលក់	-10.2021
និ	-10.2022
▁Park	-10.2023
▁នៅតែ	-10.2027
time	-10.2031
40	-10.2033
▁សង្គមស៊ីវិល	-10.2035
▁Un	-10.2039
▁Innovation	-10.204
▁achieved	-10.2045
res	-10.2046
▁យ៉ាងណាក៏ដោយ	-10.2047
ក្នុងការជំរុញ	-10.2047
សួរ	-10.2049
▁sufficient	-10.2049
▁Hospital	-10.2049
បំណង	-10.2053
▁Ltd	-10.2054
▁Say	-10.2055
▁garment	-10.2056
▁block	-10.2059
ខ្មែរ។	-10.2061
▁proper	-10.2065
▁រវាង	-10.2066
▁least	-10.2068
▁St	-10.2068
▁បើទោះបីជា	-10.2071
ជានិច្ច។	-10.2074
▁ដែលធ្វើឱ្យ	-10.2083
ស្តីពីការ	-10.2087
ជាថ្មី	-10.2087
▁មិនថា	-10.2088
▁formal	-10.2089
▁2025.	-10.2089
▁ឆ្នាំ២០២៣នេះ	-10.2093
▁អភិវឌ្ឍ	-10.2093
ថ្នាំ	-10.2095
លក្ខណៈ	-10.2099
ដុំ	-10.2099
មិនត្រឹមតែ	-10.2102
▁organization	-10.2102
▁offer	-10.2106
▁preserve	-10.2107
អភិវឌ្ឍន៍កម្ពុជា	-10.2109
▁មានការ	-10.211
តិចតួច	-10.2111
ទូទាត់	-10.2112
សែន	-10.2113
ទទួលបន្ទុក	-10.2117
▁hours	-10.2117
បង្	-10.2123
▁expect	-10.2131
▁ស្ដាប់	-10.214
▁receiving	-10.2141
▁cool	-10.2142
▁គណៈកម្មាធិការ	-10.2143
ដែលមិន	-10.2144
វត្ថុធាតុដើម	-10.2147
កាយ	-10.2149
ផ្តោតលើ	-10.215
៦០	-10.215
▁pledged	-10.2157
ពណ៌	-10.2157
▁24	-10.2158
▁above	-10.216
បណ្ដាញ	-10.216
វត្តមាន	-10.2164
បានលើកឡើងថា	-10.2167
▁popular	-10.2168
អាណត្តិ	-10.2174
▁និងអ្នក	-10.2178
▁EBA	-10.2179
ll	-10.218
២៤	-10.2182
ty	-10.2184
លានរៀល	-10.2184
▁ប្រមាណ	-10.2185
យល់	-10.2186
▁initiative	-10.2186
▁hearts	-10.2187
▁opportunity	-10.2188
▁Ley	-10.2191
បាញ់	-10.2206
ពិព័រណ៍	-10.2206
▁innovative	-10.2206
▁beneath	-10.2206
▁oversee	-10.2207
▁assets	-10.2208
កសិដ្ឋាន	-10.221
៧០	-10.2213
ប៊ី	-10.2213
ក្រៅប្រទេស	-10.2215
▁consistently	-10.2219
ranking	-10.2222
▁intervention	-10.2224
ថ្ងៃនេះ	-10.2225
ថ្នាក់បរិញ្ញាបត្	-10.2226
▁source	-10.2227
សញ្ញាបត្រ	-10.2227
▁types	-10.2227
សាខា	-10.2228
▁នស	-10.2232
▁ដឹង	-10.2232
▁fair	-10.2233
▁victims	-10.2236
សម្ព័ន្ធ	-10.2237
▁និងវាយតម្លៃ	-10.2238
មុនពេល	-10.224
មួយចំនួនទៀត	-10.2241
▁compensation	-10.2243
▁mobile	-10.2243
១៦	-10.2246
សម	-10.2249
▁again	-10.225
បានបង្ហាញថា	-10.225
▁video	-10.2252
▁dialogue	-10.2253
▁push	-10.2253
របស់មនុស្ស	-10.2258
▁វិញ	-10.2259
▁UK	-10.2259
▁ក្រៅពីនេះ	-10.2261
តួលេខ	-10.2262
ចន្លោះ	-10.2263
▁Candlelight	-10.2271
▁hidden	-10.2271
ផ្សាយ	-10.2272
ay	-10.2272
ទូរស័ព្ទ	-10.2273
ទីភ្នាក់ងារ	-10.2276
▁exams	-10.2279
បានធ្លាក់ចុះ	-10.2281
មួយទៀត	-10.2282
បំបែក	-10.2286
បញ្ជា	-10.2289
ជនបទ	-10.2291
▁ខេង	-10.2291
▁សកម្មភាព	-10.2293
កង់	-10.2295
កែប្រែ	-10.2295
តម្លាភាព	-10.2303
▁វិ	-10.2306
▁earn	-10.2307
▁respond	-10.2307
▁ក្រុង	-10.231
▁Do	-10.2314
ផ្នែកហិរញ្ញវត្ថុ	-10.2315
▁driven	-10.2316
▁center	-10.2322
▁dollar	-10.2322
▁2025	-10.2322
▁level	-10.2324
ជំនាន់	-10.2325
▁fees	-10.2325
▁specific	-10.2327
▁While	-10.2328
▁sacred	-10.2328
▁glow	-10.2328
▁mountain	-10.2329
COVID	-10.2334
ធា	-10.2337
ធនាគារជាតិនៃ	-10.2338
តំណែង	-10.2339
▁monks	-10.234
▁reach	-10.2344
▁youths	-10.2344
▁Myanmar	-10.2346
គ្រាន់តែ	-10.2348
យានយន្ត	-10.2355
កម្លាំងពលកម្ម	-10.2357
Boeung	-10.2362
កិច្ចការងារ	-10.2364
▁penalties	-10.2365
▁urging	-10.2365
▁សមាជិក	-10.2367
ប្រវត្តិ	-10.2367
ឆ្នាំមុន	-10.2368
បង្ក្រាប	-10.2377
▁skilled	-10.2381
ទទួលខុសត្រូវ	-10.2382
▁unity	-10.2389
▁cornerstone	-10.2394
▁ទោះ	-10.2395
▁ច	-10.2399
▁NS	-10.2408
បំផុត។	-10.2409
▁Sports	-10.2409
▁dark	-10.2412
▁exercise	-10.2413
សម្ដែង	-10.2416
▁Thus	-10.2419
ប្រែប្រួល	-10.2425
ស្រ	-10.2429
ខណ្ឌ	-10.2429
▁soft	-10.243
▁ឱកាស	-10.2431
នាំមកនូវ	-10.2432
គ្រាប់ស្វាយចន្ទី	-10.2433
ដាច់	-10.2435
▁ការវិនិយោគលើ	-10.2436
▁increasingly	-10.2439
▁earth	-10.2442
ការទូត	-10.2443
ca	-10.2452
▁outcomes	-10.2453
៧នាក់	-10.2457
ions	-10.2467
ក្បែរ	-10.2469
▁១៧	-10.2469
ial	-10.2474
មុខរបរ	-10.2478
មធ្យម	-10.2478
▁necessary	-10.2479
▁macroeconomic	-10.2479
នៅប្រទេស	-10.2481
▁1,000	-10.2481
▁accuse	-10.2482
ការការពារ	-10.2492
▁ឯកឧត្តមបណ្ឌិត	-10.2492
អធិបតេយ្យភាព	-10.2493
der	-10.2494
គួរតែ	-10.2496
▁quarter	-10.2497
ជំងឺឆ្លង	-10.2497
ble	-10.2498
▁points	-10.2498
▁register	-10.2499
ដ៏ទូលំទូលាយ	-10.25
០០០	-10.2501
▁died	-10.2502
▁ប្រចាំ	-10.2506
op	-10.251
ឆា	-10.2512
▁When	-10.2516
▁main	-10.2521
មកលើ	-10.2522
បញ្ឈប់	-10.2526
▁evening	-10.2526
ស្មើ	-10.2527
▁ដែលនឹង	-10.2529
line	-10.2535
មានសិទ្ធិ	-10.2536
▁ចេះ	-10.2537
▁អាហារូបករណ៍	-10.2541
វិស័យធនាគារ	-10.2546
▁2025,	-10.255
ភាគហ៊ុន	-10.2553
▁evaluation	-10.2556
▁reduction	-10.2556
វិទ្យាសាស្រ្ត	-10.2556
ជាក់ស្ដែង	-10.2558
សម្តែង	-10.256
▁focuses	-10.2561
▁blood	-10.2566
▁ពិធី	-10.2569
▁គ្រួសារ	-10.2573
▁approval	-10.2576
▁previously	-10.2576
▁smart	-10.2576
▁towering	-10.2585
▁heavy	-10.2586
ការធ្វើដំណើរ	-10.2586
▁assess	-10.2586
mi	-10.2587
ពោរពេញដោយ	-10.2591
▁នេះបើតាម	-10.2595
▁សាលា	-10.2598
សមរម្យ	-10.2598
We	-10.2598
រាប់	-10.2599
▁reserves	-10.26
គុណ	-10.2603
▁creation	-10.2605
Decree	-10.2606
che	-10.2623
▁proposed	-10.2623
▁Dharma	-10.2624
▁destiny	-10.2626
ពន្លឺ	-10.2629
▁Phase	-10.263
▁ដំណើរ	-10.2632
▁liberation	-10.2633
ek	-10.2633
សកល។	-10.2639
ពិចារណា	-10.264
▁adopt	-10.2642
ក្រីក្រ	-10.2642
▁Rights	-10.2642
▁yield	-10.2644
▁discussed	-10.2646
▁Ra	-10.2656
▁ផ្នែក	-10.2657
▁studying	-10.2658
▁drive	-10.266
ជំនឿ	-10.2663
▁Y	-10.2664
▁ភូមិ	-10.2668
ពលរដ្ឋខ្មែរ	-10.2668
19	-10.2676
▁save	-10.2676
កំណត់ត្រា	-10.2677
ញ្ញាសិប្បនិម្មិត	-10.2678
រួចហើយ	-10.2679
តេជោ	-10.2681
នោះ។	-10.2682
▁trial	-10.2683
លទ្ធភាពទទួលបាន	-10.2685
▁appointed	-10.2687
មួយរូប	-10.2688
▁communication	-10.2692
មូលដ្ឋានគ្រឹះនៃ	-10.2692
ជំងឺកូវីដ១៩	-10.2697
ទិវា	-10.2697
▁កិច្ចព្រមព្រៀង	-10.27
▁below	-10.2706
អាល្លឺម៉ង់	-10.2709
សម្ដេច	-10.271
▁villages	-10.271
មកកាន់	-10.2711
▁giant	-10.2711
ិន	-10.2712
ទា	-10.2713
▁consumer	-10.2715
▁កុំ	-10.2716
គ្នាទៅវិញទៅមក	-10.2718
▁renowned	-10.2723
សម្លាប់	-10.2725
AC	-10.2727
បែងចែក	-10.273
▁ហើយក៏	-10.273
▁base	-10.2731
▁មុននឹង	-10.2733
▁civilization	-10.2733
ប្រជាកសិករ	-10.2735
▁neighbor	-10.274
ភាពធន់	-10.2743
ទស្សនកិច្ច	-10.2743
អវិជ្ជមាន	-10.2743
ism	-10.2747
▁accountability	-10.275
15	-10.2762
ទៅមុខ	-10.2763
ៃ	-10.2764
មិត្តភាព	-10.2765
▁included	-10.2767
អំពើ	-10.2768
▁requests	-10.2769
▁connectivity	-10.277
▁criticize	-10.2773
▁extend	-10.2774
▁away	-10.2775
▁economies	-10.278
▁raw	-10.278
▁flowers	-10.278
ខេត្តត្បូងឃ្មុំ	-10.2782
▁sites	-10.2782
▁ចាប់	-10.2785
បុក	-10.2789
▁shortages	-10.2789
▁actions	-10.2791
សំរាម	-10.2792
▁spiritual	-10.2792
▁ជាប់	-10.2792
▁teaching	-10.2796
▁vegetables	-10.2799
▁Bridge	-10.28
▁រីឯ	-10.28
កើតមាន	-10.2801
▁core	-10.2802
▁maintained	-10.2804
▁ឃាត់ខ្លួន	-10.2806
កម្រិតខ្ពស់	-10.2807
ការដឹកជញ្ជូន	-10.2808
▁ទៅកាន់	-10.2809
ប្រកាន់ខ្ជាប់នូវ	-10.2809
វិន័យ	-10.2815
បញ្ជាក់ពី	-10.2816
៍	-10.2817
▁(1	-10.2821
tion	-10.2823
land	-10.2827
រកត	-10.2827
រៀបចំផែនការ	-10.2828
▁Microfinance	-10.2829
▁plastic	-10.2829
Phnom	-10.2831
ជាច្រើនទៀត	-10.2836
ក្រៅប្រព័ន្ធ	-10.2836
កុំឱ្យ	-10.284
▁និងស្ថិរភាព	-10.2845
ចំនួន៤	-10.2847
▁គណៈកម្មការ	-10.285
ព្រែក	-10.2853
គូ	-10.2853
ទ្រព្យ	-10.2856
▁trillion	-10.2859
ជារៀងរាល់ឆ្នាំ	-10.286
គីឡូម៉ែត្រ	-10.2864
សេវាហិរញ្ញវត្ថុ	-10.2865
30	-10.2872
កាហ្វេ	-10.2875
▁Prosecutor	-10.2878
▁lake	-10.2879
លើកស្ទួយ	-10.2879
▁Analysts	-10.2883
បំ	-10.2886
របប	-10.2887
ទេសភាព	-10.2888
▁pride	-10.2889
▁2017	-10.2889
the	-10.2899
▁បានថ្លែងថា	-10.2899
▁បានបង្ហាញថា	-10.2899
▁units	-10.2907
▁pandemic	-10.2908
▁បន្ទាប់មក	-10.2913
▁reveal	-10.2915
គីឡូក្រាម	-10.2915
▁beings	-10.2916
▁said	-10.2918
▁defend	-10.2919
▁await	-10.2919
▁យុទ្ធនាការ	-10.292
ភ្លៀង	-10.2922
ប្រចាំកម្ពុជា	-10.2922
ហា	-10.2923
▁general	-10.2925
ចប់	-10.2926
យាង	-10.2932
ជាន់	-10.2938
▁ក៏មាន	-10.2942
ភាពក្រីក្រ	-10.2947
ea	-10.2949
▁គឺជាមូលដ្ឋាន	-10.2953
ize	-10.2956
សាច់ប្រាក់	-10.2957
ព្រោះ	-10.2957
▁publicly	-10.2959
ស្ថិតនៅ	-10.2965
▁អគ្គនាយក	-10.2967
▁fruit	-10.2967
ការបង្កើន	-10.2967
ការសាងសង់	-10.2968
៤០	-10.2968
ស្នាមញញឹម	-10.2969
▁mission	-10.297
month	-10.2972
▁Free	-10.2972
▁ផលិត	-10.2972
ទេ។	-10.2973
0,000	-10.2977
▁come	-10.298
ត្រូវមាន	-10.298
រិទ្ធ	-10.2981
▁១៩	-10.2982
▁Company	-10.2988
▁told	-10.2989
▁applications	-10.2992
▁ខាង	-10.2996
▁២០២១	-10.2998
▁expert	-10.3005
▁Both	-10.3005
▁exceeding	-10.3006
▁ចាប់តាំងពី	-10.3006
▁promotes	-10.3014
▁សហគ្រាស	-10.3018
ធម៌	-10.3019
មុខងារ	-10.3019
▁កាន់តែ	-10.302
ការរីកចម្រើន	-10.3021
▁ទាំងឡាយ	-10.3024
▁injured	-10.3024
▁buy	-10.3025
▁consider	-10.3029
សុទ្ធតែ	-10.3032
គណនី	-10.3034
chum	-10.3035
ជាច្រើន។	-10.3035
មន្ត្រីជំនាញ	-10.3036
▁bear	-10.304
▁និងបណ្តុះបណ្តាល	-10.3042
▁នាយក	-10.3045
▁firmly	-10.3047
▁ultimate	-10.3047
va	-10.3048
▁អា	-10.3049
មុខវិជ្ជា	-10.305
ក្រសួងការបរទេស	-10.3053
▁Pro	-10.3053
ទ្រទ្រង់	-10.3054
ពេក	-10.3057
▁Temple	-10.3059
▁សារ	-10.3062
ម៉ឺនដុល្លារ	-10.3065
ory	-10.3065
កូ	-10.3068
▁becoming	-10.3078
ស៊ីជម្រៅ	-10.3079
▁អនុប្រធាន	-10.3079
▁equipment	-10.3079
▁គាត់បាន	-10.3085
▁customer	-10.3086
សក្ដានុពល	-10.3087
▁Key	-10.3096
រៀប	-10.3096
តស៊ូ	-10.3097
▁truly	-10.3099
▁ការសិក្សា	-10.3104
▁palm	-10.311
ង់	-10.311
▁meat	-10.3112
ក្នុងការអភិវឌ្ឍ	-10.3113
ver	-10.3113
▁me	-10.3115
ទៀតផង។	-10.3117
▁moon	-10.312
បង្ហោះ	-10.3123
ក្នុងមួយឆ្នាំ	-10.3123
▁22	-10.3124
ok	-10.3124
▁ព្រះរាជ	-10.3124
ជាពិសេស	-10.3125
▁average	-10.3129
ឈាម	-10.313
▁roles	-10.3132
▁Po	-10.3133
▁២០០	-10.3135
▁invaluable	-10.314
▁sold	-10.3143
ឡាន	-10.3143
▁បានថ្លែង	-10.3147
▁IMF	-10.3148
▁habits	-10.3148
▁phytosanitary	-10.315
▁shade	-10.315
▁ឃើញ	-10.3158
02	-10.3158
កាតព្វកិច្ច	-10.316
▁យុទ្ធសាស្ត្រ	-10.3162
ice	-10.3162
បំភ្លឺ	-10.3162
ជួញដូរ	-10.3165
▁best	-10.3168
▁និងបច្ចេកវិទ្យា	-10.3169
▁verification	-10.3171
សប្តាហ៍	-10.3172
▁villagers	-10.3172
ម្តាយ	-10.3174
បានបង្ហាញពី	-10.3175
▁transform	-10.3178
ចំណាយពេល	-10.3182
▁Promot	-10.3186
បញ្ជី	-10.3187
▁Vocational	-10.3191
▁gradually	-10.3193
នៅសាកលវិទ្យាល័យ	-10.32
▁tranquil	-10.3201
▁common	-10.3202
▁Republic	-10.3202
▁Chhay	-10.3202
▁appointment	-10.3202
ard	-10.3203
▁shows	-10.3209
▁card	-10.3209
ទាំងអស់គ្នា	-10.3211
coming	-10.3212
សម្រាក	-10.3215
វិទ្យាល័យ	-10.3218
▁កម្មករ	-10.322
▁Empire	-10.3222
▁items	-10.3222
▁attend	-10.3223
▁stands	-10.3223
da	-10.3225
▁electric	-10.3227
ឆ្នាំ២០១៩	-10.3228
▁association	-10.3231
18	-10.3231
▁ការបង្កើត	-10.3232
▁democracy	-10.3232
ថយចុះ	-10.3239
▁platform	-10.3241
ឧកញ៉ា	-10.3247
▁financing	-10.3248
រក្សាទុក	-10.3251
ខ្ចី	-10.3252
▁compete	-10.3253
លាតសន្ធឹង	-10.3255
▁imported	-10.3256
▁និងលោក	-10.3256
▁infectious	-10.3257
outheast	-10.3259
ជនបរទេស	-10.3264
បន្ទាប់	-10.3265
គណបក្សសង្គ្រោះ	-10.3266
▁Meeting	-10.3268
▁slowly	-10.327
នាយកដ្ឋាន	-10.328
j	-10.328
▁published	-10.3282
▁American	-10.3285
អបអរសាទរ	-10.3287
▁homes	-10.3288
មួយកន្លែង	-10.3288
ភ	-10.329
▁រួម	-10.3292
ហិរញ្ញវត្ថុ។	-10.3292
▁serene	-10.3293
▁previous	-10.3293
ប្រតិភូ	-10.3295
២០២៤	-10.3296
អនុវត្តន៍	-10.3297
លម្អិត	-10.33
13	-10.33
▁drop	-10.3303
▁ប្រភេទ	-10.3307
ជាងគេ	-10.3311
ឱ្យកាន់តែ	-10.3313
pe	-10.3313
▁conflict	-10.3314
▁council	-10.3315
▁រឿង	-10.3315
ដោយគ្មាន	-10.3317
យូ	-10.3317
ដ៏មានតម្លៃ	-10.3322
▁protests	-10.3329
kh	-10.333
▁សាយ	-10.3332
ច្នៃ	-10.3333
▁humanitarian	-10.3336
▁utmost	-10.3336
▁Hang	-10.3337
ត្	-10.3343
ភាសាអង់គ្លេស	-10.3345
ប្រទេសជប៉ុន	-10.3346
▁mirror	-10.3346
សាន	-10.3352
▁26	-10.3352
ge	-10.3356
▁presence	-10.3357
▁childhood	-10.3357
ក្នុងពេល	-10.3357
ហ៊ុន	-10.3358
ក្នុងឆ្នាំ	-10.3358
▁decided	-10.3359
ច្បាប់ស្ដីពី	-10.3359
ស្តារ	-10.336
▁f	-10.3361
di	-10.3363
ប្រព្រឹត្ត	-10.3364
បានអនុម័ត	-10.3367
variably	-10.3367
▁undergo	-10.3371
ការប្រកួត	-10.3373
ប្ដឹង	-10.3378
ប្ដេជ្ញា	-10.338
ប្រភេទនេះ	-10.3386
អ្នកជំងឺ	-10.3387
▁farm	-10.3394
min	-10.3397
ប៉	-10.3399
▁clarified	-10.34
▁newly	-10.3402
▁generate	-10.3403
ក៏ដោយ។	-10.3403
កិច្ចសន្យា	-10.3406
យ៉ាងណា	-10.3411
70	-10.3421
▁engagement	-10.3421
▁chair	-10.3421
▁introduced	-10.3423
▁ដែលត្រូវបាន	-10.3425
▁Su	-10.3429
សិប្បកម្ម	-10.343
▁decisions	-10.3434
បង្ការ	-10.3435
រំលោភ	-10.344
▁original	-10.344
round	-10.3443
ប្រកាសឱ្យប្រើ	-10.3443
ow	-10.3444
▁later	-10.3445
ការកែច្នៃ	-10.3445
មើលឃើញ	-10.3448
▁enjoy	-10.3451
▁Lim	-10.3452
▁comments	-10.3463
▁establishing	-10.3463
▁possesses	-10.3465
ផ	-10.3473
▁thousands	-10.3477
▁rain	-10.3478
លិខិតឆ្លងដែន	-10.3482
Pacific	-10.3483
▁managing	-10.3483
▁សេង	-10.3484
មានកាតព្វកិច្ច	-10.3487
▁ពន្លឺ	-10.3493
ការទទួលខុសត្រូវ	-10.3495
▁fishing	-10.3496
▁ធ្លាប់	-10.35
▁marks	-10.3501
នាពេលអនាគត	-10.3501
▁raise	-10.3501
ពិន្ទុ	-10.3505
ូ	-10.3505
▁complaint	-10.3506
eat	-10.3508
គណបក្សភ្លើងទៀន	-10.3508
▁remained	-10.3509
▁mine	-10.351
▁offenses	-10.3511
២១	-10.3512
ហ៊ាន	-10.3513
▁grand	-10.3514
ip	-10.3515
បួន	-10.3521
▁RCEP	-10.3523
ចំណាប់អារម្មណ៍	-10.3529
អំពីការ	-10.3531
▁Commander	-10.3538
▁ជូន	-10.3539
ំ	-10.3541
ជាសាធារណៈ	-10.3552
អញ្ជើញ	-10.3554
volving	-10.3556
ap	-10.3557
▁architecture	-10.3557
សម្	-10.3557
សិង្ហបុរី	-10.3558
ផលិតភាព	-10.3563
ក្នុងកម្មវិធី	-10.3563
កាប់	-10.3566
ផ្សារទំនើប	-10.3567
▁inauguration	-10.3567
▁Near	-10.357
▁whisper	-10.357
ខេត្តស្ទឹងត្រែង	-10.3573
តំណាងរាស្ត្រ	-10.3575
▁និងជំរុញ	-10.3576
▁ឯ	-10.3577
ខួប	-10.3577
RKT	-10.3578
▁Residents	-10.3582
ឃ្លាំង	-10.3587
សម្រាប់អ្នក	-10.3587
ខ្មៅ	-10.3589
▁reduced	-10.3589
▁promoted	-10.3594
▁activity	-10.36
ពេលនេះ	-10.36
▁serving	-10.3602
ក្ដីសង្ឃឹម	-10.3603
អ្វីមួយ	-10.3606
អូរ	-10.3606
▁vendors	-10.3609
▁modernization	-10.3612
▁សូមជម្រាបថា	-10.3612
ប្រែក្លាយ	-10.3612
ទូលំទូលាយ	-10.3615
សំបុត្រ	-10.3617
11	-10.3619
long	-10.3625
iv	-10.3627
sh	-10.363
ផ្ទុះ	-10.3631
អ្នកមាន	-10.3633
ដ៏ធំធេង	-10.3633
រោង	-10.3634
ការកើនឡើងនៃ	-10.3637
ខេត្តពោធិ៍សាត់	-10.364
▁revealed	-10.3641
សត្វព្រៃ	-10.3642
សេដ្ឋកិច្ចជាតិ។	-10.3642
ប្រាក់ដុល្លារ	-10.3645
ដើមឈើ	-10.3645
▁phase	-10.3646
▁transformation	-10.3647
អាចជួយ	-10.3648
ដ្ឋាន	-10.3649
វ៉ា	-10.3651
▁religious	-10.3653
ទទួលបានការ	-10.3657
▁flower	-10.3658
សញ្ជាតិខ្មែរ	-10.3658
រ៉ូ	-10.366
ឱសថ	-10.3663
▁silk	-10.3664
▁because	-10.3664
ទទួលទាន	-10.3664
កើន	-10.3668
ការចោទប្រកាន់	-10.3672
▁far	-10.3674
▁flow	-10.3674
ដូង	-10.3676
ធានារ៉ាប់រង	-10.3678
ចែកចាយ	-10.3679
▁Ly	-10.3682
អង្គុយ	-10.3684
ផ្លូវល្បឿនលឿន	-10.3685
▁know	-10.3686
▁ម៉ានី	-10.3686
▁០០១	-10.3687
▁concerned	-10.3689
▁host	-10.3695
ព្រមាន	-10.3695
▁did	-10.3698
នុ	-10.37
$	-10.3707
ឆ្លងដែន	-10.3708
▁doses	-10.3711
▁គ្រាន់តែ	-10.3713
▁film	-10.3713
▁amendment	-10.3721
▁firms	-10.3722
▁stable	-10.3729
▁usage	-10.373
លានដុល្លារ	-10.3731
▁Recently	-10.3732
lu	-10.3733
ញ៉ាំ	-10.3734
ចាត់វិធានការ	-10.3742
▁enable	-10.3745
ផលិតផលក្នុងស្រុក	-10.3745
▁lessons	-10.3745
ួន	-10.3756
▁gather	-10.3756
▁កន្លែង	-10.3757
មិនឲ្យ	-10.3758
▁sanitation	-10.3761
▁រថយន្ត	-10.3761
ទាមទារឲ្យ	-10.3762
ពិភាក្សាការងារ	-10.3765
free	-10.3765
▁savings	-10.377
▁formulated	-10.3773
ប្រព្រឹត្តទៅ	-10.3774
▁bring	-10.3775
▁agreed	-10.3775
▁inner	-10.3778
ដែលគេ	-10.3781
បក្សកាន់អំណាច	-10.3783
25	-10.3783
ព្រះពុទ្ធសាសនា	-10.3783
▁គ្រោង	-10.3784
▁2021.	-10.3786
ឆ្នើម	-10.379
▁peacekeeping	-10.3794
▁field	-10.3795
នេះនឹង	-10.3797
▁grant	-10.3801
▁ដើម្បីការពារ	-10.3803
សម្អាត	-10.3804
នៅថ្ងៃ	-10.3807
ក្រហម	-10.3808
▁volume	-10.3815
▁Security	-10.3815
កាលពីពេលថ្មីៗនេះ	-10.3818
រក្សាបាននូវ	-10.3819
បច្ចុប្បន្ននេះ	-10.3819
▁Four	-10.3823
▁changes	-10.3824
សម្រាប់មនុស្ស	-10.3824
▁damage	-10.3824
ឆ្ងាយ	-10.3828
▁multi	-10.3829
បានចេញ	-10.383
នូវការ	-10.3832
ស្នូល	-10.3833
ឆាប់	-10.3834
▁accounts	-10.3842
អនុវត្តតាម	-10.3843
ព្រ	-10.3843
▁drugs	-10.3845
ចោទប្រកាន់	-10.3847
▁Even	-10.385
▁monarch	-10.3854
បានបន្ត	-10.3854
ដែក	-10.3854
ច្បាប់។	-10.3855
មិត្ត	-10.3857
ធាតុ	-10.3859
ដុត	-10.3859
14	-10.3864
▁ចង់	-10.3865
ទ្រ	-10.3869
សម្តេចព្រះបរមនាថ	-10.387
▁representative	-10.3875
ឡា	-10.388
▁នេះបើយោងតាម	-10.3881
យ៉ាងម៉ឺងម៉ាត់	-10.3883
ទូក	-10.3883
▁5,	-10.3887
របស់រដ្ឋ	-10.3887
no	-10.3888
ួ	-10.3888
▁Da	-10.389
▁Port	-10.3892
▁enveloped	-10.3895
ខ្លី	-10.3896
▁០១	-10.3896
▁preparation	-10.3897
កម្មវិធីសិក្សា	-10.3897
making	-10.3898
បានច្រើន	-10.3898
▁occasion	-10.3903
ហៅ	-10.3904
នឹងក្លាយជា	-10.3907
ខេត្តកំពត	-10.3913
សំណួរ	-10.3914
តម្រូវការទីផ្សារ	-10.3918
▁highlight	-10.3925
ប្រធានាធិបតី	-10.3926
វិស័យអប់រំ	-10.3932
▁celebrate	-10.3935
meter	-10.3943
▁កត្តា	-10.3947
▁សរុប	-10.3951
ប័ណ្ណ	-10.3952
សាសនា	-10.3955
▁ethics	-10.3958
សង	-10.3958
▁employees	-10.396
▁mandate	-10.396
▁household	-10.3964
▁shadows	-10.3965
▁supreme	-10.3966
ទុនវិនិយោគ	-10.3966
ផ្ដល់ជូន	-10.3967
▁និងកិច្ច	-10.3975
ទុនបម្រុង	-10.3975
akin	-10.3977
▁account	-10.3978
ដំណឹង	-10.3979
▁ធៀបនឹង	-10.3982
▁wife	-10.3985
▁vote	-10.3986
ជំ	-10.3989
▁crimes	-10.3991
▁រយៈ	-10.3995
▁Inter	-10.3997
ki	-10.3998
▁murder	-10.4002
▁fund	-10.4008
ម៉ាក	-10.4009
គណបក្សនយោបាយ	-10.4009
▁timely	-10.4013
▁ទោះបីជាមាន	-10.4015
មានលក្ខណៈ	-10.4015
ក្នុងអំឡុងពេល	-10.4015
▁hit	-10.4015
▁stressed	-10.4018
▁begin	-10.4019
ឆ្នាំ២០២៥	-10.4024
ដែលបានកំណត់	-10.4024
ចៅក្រម	-10.4024
▁transfer	-10.403
▁requirements	-10.4034
មេឃ	-10.4035
▁industries	-10.4036
▁basis	-10.4036
▁ស្នើ	-10.4039
▁ឯកឧត្តមឧបនាយក	-10.4041
លំនៅដ្ឋាន	-10.4042
▁combating	-10.4043
▁ចុះថ្ងៃទី១	-10.4045
ខ្ពស់ក្នុងការ	-10.4049
▁union	-10.4049
មានសមត្ថកិច្ច។	-10.4049
ឥណ្ឌូនេស៊ី	-10.4055
▁surface	-10.4058
▁Red	-10.4061
សន្យា	-10.4062
ទី៤	-10.4069
សាល	-10.4078
▁explained	-10.408
ផ្អែកលើ	-10.4081
▁purchasing	-10.4081
▁expressway	-10.4081
16	-10.4082
វិទ្យា	-10.4082
hu	-10.4084
ជីវ	-10.4086
▁300	-10.4088
ប្រឈម	-10.4089
ប្រជាជនខ្មែរ	-10.4089
ធនាគារកណ្តាល	-10.4089
ខេត្តកែប	-10.4091
ដ៏ធំមួយ	-10.4094
▁gas	-10.4094
▁ការគ្រប់គ្រង	-10.4099
ខេត្តកំពង់ចាម	-10.4102
នៅតែមាន	-10.4103
▁Contact	-10.4103
▁preserving	-10.4103
2%	-10.4104
▁និងវិបុលភាព	-10.4106
▁university	-10.4107
នៅលើទីផ្សារ	-10.4107
ប្តូរ	-10.4113
ទៅរក	-10.4114
▁frameworks	-10.4124
▁Effective	-10.4125
▁Information	-10.4125
ត្រឹមតែប៉ុណ្ណោះ	-10.4131
ទុក្ខ	-10.4134
ទាមទារឱ្យ	-10.4134
មែន	-10.4135
▁ត	-10.4136
▁root	-10.4137
▁បានមានប្រសាសន៍	-10.4138
les	-10.414
កាត់បន្ថយការ	-10.4147
ប្រដាប់អាវុធ	-10.4148
▁coastal	-10.4148
កែ	-10.4151
▁severely	-10.4151
ច្រក	-10.4152
ផ្ទាល់ពីបរទេស	-10.4153
▁strength	-10.4153
▁ដំណើរការ	-10.4154
CMA	-10.4157
▁mountains	-10.4158
▁patients	-10.4158
កូវីដ១៩	-10.4159
▁warns	-10.4159
ប្រទេសវៀតណាម	-10.416
នាក់	-10.4161
ការតភ្ជាប់	-10.4163
ring	-10.4164
រយៈពេលវែង។	-10.4164
ភាពតានតឹង	-10.4167
▁certain	-10.4168
▁networks	-10.417
▁buildings	-10.4178
សុខភាពសាធារណៈ។	-10.418
អាស៊ីអាគ្នេយ៍	-10.418
ជាសកល	-10.4181
▁governor	-10.4181
រៀនសូត្រ	-10.4181
su	-10.4182
▁និងក្រុមហ៊ុន	-10.4185
▁restore	-10.4187
ចូលរៀន	-10.4189
ខេត្តព្រះវិហារ	-10.4189
▁zone	-10.419
ទម្រង់	-10.4192
▁ឆ្នាំ២០២៤នេះ	-10.4196
▁dis	-10.4198
▁warned	-10.4203
04	-10.4205
លើកទឹកចិត្តឱ្យ	-10.4206
ផ្ទេរ	-10.4208
បណ្តោះអាសន្ន	-10.4209
▁brings	-10.4212
ស្ថាន	-10.4213
ទី៥	-10.4213
នោះឡើយ	-10.4214
▁ទេ	-10.4216
ធានាបាននូវ	-10.4216
▁expertise	-10.4216
▁បន្ថែមពីនេះ	-10.4217
▁ពាណិជ្ជកម្ម	-10.4225
២៧	-10.4226
▁ទីក្រុង	-10.423
▁ក្របខ័ណ្ឌច្បាប់	-10.4231
▁called	-10.4231
ចាត់ទុក	-10.4233
▁soon	-10.4233
លើកទី២	-10.4236
ទូរទស្សន៍	-10.4239
▁Grand	-10.4239
▁obtain	-10.4242
▁អគារ	-10.4245
▁ទន្ទឹមគ្នានេះ	-10.4245
ហេតុផល	-10.4246
per	-10.4248
សម្ពាធ	-10.4248
ខួរក្បាល	-10.425
ក្	-10.425
▁ease	-10.4255
▁27	-10.4255
▁find	-10.4265
ily	-10.4265
ផ្ទុក	-10.4268
▁component	-10.427
្ត	-10.4271
▁currency	-10.4273
នៅក្រៅប្រទេស	-10.4274
▁រដ្ឋ	-10.4277
ប្រាជ្ញា	-10.4281
រាយការណ៍	-10.4282
▁Technical	-10.4284
▁duties	-10.4284
▁participants	-10.4284
▁sound	-10.4286
សេចក្តីសុខ	-10.4286
▁allow	-10.4288
led	-10.429
ប្រសិនបើ	-10.4292
▁Kh	-10.4292
ក្រុងភ្នំពេញ	-10.4296
▁officer	-10.4297
▁គឺមាន	-10.4299
ts	-10.43
▁red	-10.4301
ចា	-10.4301
កែលម្អ	-10.4301
សង្ស័យ	-10.4301
៨០	-10.4306
ស្ទឹង	-10.4307
ដែលទទួលបាន	-10.4308
គិតថា	-10.431
ឃុំខ្លួន	-10.431
មីក្រូ	-10.4311
▁ដូច្នេះហើយ	-10.4311
គ្រឹះ	-10.4313
មិនមែនជា	-10.4313
▁completion	-10.4319
▁ពីព្រោះ	-10.4325
▁តុលាការកំពូល	-10.4327
ប្រយុទ្ធ	-10.4328
▁គាំទ្រ	-10.4332
om	-10.4333
▁Srey	-10.4334
បានបន្សល់ទុកនូវ	-10.4335
▁buyers	-10.4338
ally	-10.4344
ស្ងប់ស្ងាត់	-10.4345
២៨	-10.4346
ត់	-10.4347
បន្តទៀត	-10.4349
▁ត្រូវបានដាក់ចេញ	-10.4349
ការគោរព	-10.4349
▁celebrated	-10.435
ចូលរួមក្នុង	-10.4351
▁vaccine	-10.4351
▁permanent	-10.4353
▁campaigns	-10.4354
▁Ni	-10.4354
ប្រៀបដូចជា	-10.4356
ឱ្យបានត្រឹមត្រូវ	-10.4359
នៅទូទាំង	-10.436
▁hub	-10.4363
ស្តង់ដា	-10.4364
▁half	-10.4365
▁houses	-10.4367
ណាស់សម្រាប់ការ	-10.4369
បន្ទុក	-10.4372
ដើម្បីឆ្លើយតបនឹង	-10.4373
ៅ	-10.4373
▁mother	-10.4374
▁emerging	-10.4376
▁etched	-10.4376
▁Rice	-10.4378
▁ពិភពលោក	-10.4378
បានបង្កើត	-10.4379
▁producers	-10.438
ត្រូវអនុវត្ត	-10.4382
ជួយសង្គ្រោះ	-10.4387
ចល័ត	-10.4388
▁Si	-10.4388
ចូលទៅក្នុង	-10.4395
ព្រះអង្គ	-10.4395
ប្ដេជ្ញាចិត្ត	-10.4396
សុខភាពផ្លូវចិត្ត	-10.4397
▁alone	-10.44
AN	-10.4405
▁$7	-10.4408
▁insurance	-10.4411
▁Fund	-10.4411
ផែនការមេ	-10.4413
▁ទុក	-10.4413
កន្លងមកនេះ	-10.4416
▁នេះជា	-10.4416
ការចូលរួម	-10.4417
ពិនិត្យមើល	-10.4417
▁និងកាត់បន្ថយ	-10.442
ជាលើកដំបូង	-10.442
ខ្នាតតូច	-10.4421
▁anti	-10.4422
pa	-10.4425
ស៊ើបអង្កេត	-10.4426
▁traditions	-10.4426
▁bonds	-10.4426
ន៍	-10.443
របស់កម្ពុជា។	-10.4432
▁session	-10.4433
▁identify	-10.4434
▁employment	-10.4435
ដ៏ស្ងប់ស្ងាត់	-10.4436
▁ដែលកំពុង	-10.4439
សង្គ្រោះ	-10.444
ical	-10.4441
វេជ្ជសាស្ត្រ	-10.4442
▁ថែមទាំង	-10.4442
ya	-10.4443
▁epidemiologic	-10.4446
ជូនដល់	-10.445
▁កើន	-10.4454
▁activist	-10.4456
▁sports	-10.4457
វិជ្ជា	-10.4462
23	-10.4462
▁ស្ថិត	-10.4463
▁granted	-10.4466
▁valid	-10.4468
▁Paris	-10.4469
▁ដើម្បីពង្រឹង	-10.4477
ke	-10.4479
▁ស្ថានភាព	-10.448
▁graceful	-10.4481
uk	-10.4484
អ្នកផលិត	-10.4486
មូលហេតុ	-10.4487
បានធ្វើឲ្យ	-10.4488
▁ស្ថិរភាព	-10.4489
▁គណបក្ស	-10.4493
ខាងលើនេះ	-10.4495
▁2,	-10.4498
មានតម្រូវការ	-10.4503
▁excellent	-10.4504
ភារកិច្ច	-10.4504
▁teacher	-10.4504
អ្នកចូលរួម	-10.4506
បូ	-10.4513
▁multilateral	-10.4515
ខាងក្រោម	-10.4517
តុ	-10.4517
ពាក់ព័ន្ធទាំងអស់	-10.4518
ទណ្ឌកម្ម	-10.4518
ទាញ	-10.4524
មកកម្ពុជា	-10.4524
ហូរ	-10.4525
នរោត្ដម	-10.4527
▁Buddhist	-10.4527
▁Listen	-10.4528
▁aligned	-10.4529
bar	-10.4529
ដាក់ឱ្យដំណើរការ	-10.453
▁វិច្ឆិកា	-10.4532
បញ្ញា	-10.4532
សម្រួល	-10.4533
qu	-10.4534
▁ពាន់	-10.4537
▁locations	-10.4539
▁contact	-10.4539
-19.	-10.4539
ចាប់យក	-10.455
▁strive	-10.4551
▁ផ្ទះ	-10.4556
▁accelerate	-10.4556
▁stay	-10.4559
ឧត្តម	-10.456
គណិតវិទ្យា	-10.4563
▁Energy	-10.4563
▁injuries	-10.4563
▁Regional	-10.4564
▁echoed	-10.4564
២៣	-10.4565
ក្នុងគោលបំណង	-10.4566
▁journalists	-10.4567
អាកាសយានដ្ឋាន	-10.457
▁deliver	-10.4574
ពុកម្តាយ	-10.4575
24	-10.4576
ចម្បង	-10.4576
ថ្ងៃទី	-10.4578
▁អាយុ	-10.4578
▁raised	-10.4581
▁សំខាន់	-10.4582
▁គ្រឹះស្ថាន	-10.4582
▁calls	-10.4583
▁និយាយ	-10.4584
▁built	-10.4584
ភ្នាក់ងារ	-10.4584
▁manufacturing	-10.4586
ខ្លឹមសារ	-10.4588
ci	-10.459
▁នៃការ	-10.4595
▁ហាក់ដូចជា	-10.4598
▁Regular	-10.4598
▁declaration	-10.4598
▁perform	-10.46
▁កិច្ចប្រជុំ	-10.4604
ចាកចេញពី	-10.4604
▁ផ្ដល់	-10.4604
▁អត្ថបទ	-10.4605
▁ប្រើប្រាស់	-10.4606
05	-10.4608
និយាយថា	-10.4608
តែងតាំង	-10.4614
▁2030	-10.4615
ម៉ាឡេស៊ី	-10.4615
▁immediately	-10.4618
▁transforming	-10.462
ហ្វ	-10.4621
▁train	-10.4623
▁outside	-10.4624
reaching	-10.4625
នឹងធ្វើឱ្យ	-10.4626
▁មករា	-10.4627
▁rigorously	-10.4628
សន្និសីទ	-10.463
ភាពជោគជ័យ	-10.463
នៃប្រទេស	-10.4632
▁horizon	-10.4633
ក្នុងការអនុវត្ត	-10.4637
នៅមុខ	-10.4637
ទៅវិញ	-10.464
▁surveillance	-10.4645
▁rather	-10.4645
ថ្មីៗនេះ	-10.4646
គណៈ	-10.4646
ka	-10.4649
ក៏ដូចជា	-10.4652
▁លោកបន្តថា	-10.4653
▁$5	-10.4653
▁regions	-10.4655
▁បណ្ឌិត	-10.4656
៨នាក់	-10.4656
▁Embassy	-10.4657
ហ្វីលីពីន	-10.4657
រះ	-10.4658
▁necessitate	-10.4659
▁ahead	-10.4659
▁missions	-10.4664
▁នាំមកនូវ	-10.4665
ee	-10.4669
បោះ	-10.467
27	-10.4671
ភាពស្ងប់ស្ងាត់	-10.4672
▁Se	-10.4674
ទឹកប្រាក់	-10.4676
ភាពស្ងប់ស្ងាត់នៃ	-10.4677
រយ	-10.4677
ដ៏សម្បូរបែប	-10.4682
មតិ	-10.4684
ear	-10.4684
ចរចា	-10.4684
អ្នកដែល	-10.4685
អំពាវនាវឲ្យ	-10.4687
ប្រព័ន្ធធនាគារ	-10.4699
ចម្រៀង	-10.4699
▁និងភាព	-10.4702
យល់ថា	-10.4703
▁32	-10.4703
▁meetings	-10.4704
ប្តឹង	-10.4705
▁became	-10.4705
រូបិយប័ណ្ណ	-10.4707
ប្រមុខ	-10.4707
មិនឱ្យ	-10.4714
▁២៣	-10.4716
▁Message	-10.4717
ការផ្តល់	-10.472
▁hard	-10.4726
គ្រូពេទ្យ	-10.4731
▁act	-10.4736
ស្រែ	-10.4736
kg	-10.4743
ឱ្យបានច្រើន	-10.4744
▁Poipet	-10.4747
លិច	-10.4748
៩០	-10.4752
បុរី	-10.4757
▁peaceful	-10.4758
▁មុខ	-10.4765
▁Long	-10.4766
▁mid	-10.4767
រងគ្រោះ	-10.4769
▁($	-10.477
ត្រូវបានពង្រឹង	-10.477
នៅលើពិភពលោក	-10.4772
ចេញផ្សាយ	-10.4773
វគ្គបណ្តុះបណ្តាល	-10.4776
▁continuous	-10.4777
▁validity	-10.4777
មិនល្អ	-10.4777
▁បានបង្ហាញ	-10.4778
ដឹងពី	-10.4778
អនុញ្ញាតឲ្យ	-10.4781
ម៉ឺនរៀល	-10.4783
ឈ្មួញ	-10.4788
▁remote	-10.4788
▁way	-10.4791
▁possessed	-10.4792
▁created	-10.4797
ភី	-10.4797
▁បាននិយាយថា	-10.4797
ភេសជ្ជៈ	-10.4799
▁depend	-10.4799
▁60	-10.48
ដ៏សំខាន់សម្រាប់	-10.4801
▁struggle	-10.4803
ស្តាប់	-10.4804
▁Mo	-10.4806
យក្ស	-10.4808
មានបំណង	-10.4808
▁Ka	-10.481
ពាក់	-10.4814
▁និងជាប្រធាន	-10.4817
ធី	-10.4821
▁គឺជាការ	-10.4822
វាសនា	-10.4825
▁សៀមរាប	-10.4827
ជូនពលរដ្ឋ	-10.4827
ក៏ត្រូវ	-10.4834
▁won	-10.4837
▁Former	-10.4838
▁mechanism	-10.4839
ចង្វាក់	-10.4841
▁២២	-10.4842
២៦	-10.4845
ចាប់តាំងពី	-10.4846
▁ប្រើ	-10.4847
ចំការ	-10.4847
▁easy	-10.4849
បាក់	-10.485
▁fans	-10.4854
▁sharing	-10.4855
▁ចាន់ថុល	-10.4861
▁Food	-10.4861
▁Master	-10.4861
បំពេញការងារ	-10.4861
ការធ្វើពិពិធកម្ម	-10.4865
ប្រាំ	-10.4865
ឃ	-10.4867
▁Rouge	-10.4873
26	-10.4874
▁allows	-10.4876
ភាពប្រកួតប្រជែង	-10.4878
ជឿជាក់ថា	-10.4879
ដែលបានកំណត់។	-10.4879
▁balance	-10.4882
be	-10.4882
22	-10.4883
ផ្ទៀងផ្ទាត់	-10.4883
សម្គាល់	-10.4884
▁emphasizing	-10.4885
កណ្ដាល	-10.4887
▁provision	-10.4897
▁cut	-10.4898
អញ្ជើញជាអធិបតី	-10.4901
▁fruits	-10.4903
ការអភិវឌ្ឍហេដ្ឋា	-10.4904
នាំឱ្យ	-10.4906
and	-10.4908
▁ការវិនិយោគ	-10.4909
▁Academy	-10.4909
▁Chair	-10.491
▁sign	-10.4914
▁Seng	-10.4915
លើពិភពលោក	-10.4915
ចុះហត្ថលេខា	-10.4916
60	-10.4918
ក្រឹត្យលេខ	-10.4918
▁៦០	-10.4919
តម្លៃប្រេង	-10.492
▁ឌិត	-10.4922
▁processed	-10.4923
មានសិទ្ធិទទួលបាន	-10.4924
▁សំណង់	-10.4925
យុវជនកម្ពុជា	-10.4926
គ្រប់គ្នា	-10.493
ការអនុវត្តច្បាប់	-10.4931
ប៊	-10.4931
សុភមង្គល	-10.4934
០២	-10.4942
បាត	-10.4945
បេតិកភណ្ឌ	-10.4947
os	-10.4951
ural	-10.4952
សហព័ន្ធ	-10.4952
▁predict	-10.4952
ត្រង់	-10.4953
▁plants	-10.4953
ការចុះបញ្ជី	-10.4956
ខែធ្នូ	-10.4957
ជ្រៅ	-10.4959
▁clients	-10.4963
▁interview	-10.4963
bo	-10.4966
ភាគរយ	-10.4969
ក្នុងការរៀបចំ	-10.4971
ជាបន្តបន្ទាប់។	-10.4974
▁observed	-10.4974
គឺជាកត្តាចាំបាច់	-10.4979
មនុស្សធម៌	-10.4982
សារធាតុ	-10.4983
▁planting	-10.4984
▁សំ	-10.4985
វិញ។	-10.4987
មកវិញ	-10.4991
▁ដឹកនាំ	-10.4992
▁books	-10.4994
▁Since	-10.4998
ted	-10.4999
ឆន្ទៈ	-10.4999
សំណើ	-10.4999
ទារក	-10.5
▁ក្រសួងការងារ	-10.5
▁bachelor	-10.5007
ឡើងវិញ។	-10.5008
▁believe	-10.5011
▁emerged	-10.5011
▁painting	-10.5018
▁Daily	-10.502
act	-10.5023
▁សុវណ្ណ	-10.5023
វាលស្រែ	-10.5024
ពាន់លានដុល្លារ	-10.5024
ជាមូលដ្ឋាន	-10.5026
កាន់តែប្រសើរ	-10.5029
▁តូច	-10.5031
▁AM	-10.5031
▁organic	-10.5032
▁design	-10.5036
ចំនួន៥	-10.5037
▁ឆ្នាំ២០២២នេះ	-10.5038
បានប្រកាស	-10.5039
ចេក	-10.504
▁មជ្ឈមណ្ឌល	-10.5043
▁alcohol	-10.5044
ឱ្យដឹងថា	-10.5046
▁port	-10.505
CC	-10.505
០១	-10.5051
ទម្លាក់	-10.5051
▁steadfastly	-10.5053
រូបថត	-10.5054
▁consumption	-10.5057
▁Children	-10.5059
ច្រើនជាងគេ	-10.5062
▁វៀតណាម	-10.5064
▁wildlife	-10.5069
▁illuminat	-10.5072
7%	-10.5078
ei	-10.5078
▁initial	-10.5082
▁500	-10.5082
ដុល្លារអាមេរិក	-10.5087
៣ឆ្នាំ	-10.5088
ការព្យាករណ៍	-10.5088
▁អភិវឌ្ឍន៍	-10.5092
ba	-10.5092
tor	-10.5093
សត្វល្អិត	-10.5099
ning	-10.5103
▁planned	-10.5103
▁Criminal	-10.5106
វែងឆ្ងាយ	-10.5106
▁លោកឧកញ៉ា	-10.5109
▁ណា	-10.5112
wa	-10.5116
វិទ្យុអាស៊ីសេរី	-10.5119
▁prioritizes	-10.512
គេង	-10.5125
▁ជាក់ស្តែង	-10.5126
សម្ភារ	-10.5129
▁Central	-10.5131
▁similar	-10.5132
ឧបត្ថម្ភ	-10.5133
▁ដើម្បីកាត់បន្ថយ	-10.5133
▁សីហា	-10.5136
ែ	-10.5138
ការបាត់បង់	-10.5139
ai	-10.5139
ក្នុងមួយ	-10.514
នាំគ្នា	-10.514
មាន់	-10.5145
▁seen	-10.5148
តិ	-10.5151
កិច្ចពិភាក្សា	-10.5152
ខែមករា	-10.5153
ការកំណត់	-10.5155
ខែកក្កដា	-10.5157
▁Ti	-10.5157
▁Building	-10.5157
ដែលអ្នក	-10.5157
▁welcomed	-10.5161
បានរួមចំណែក	-10.5163
ក្រសួងទេសចរណ៍	-10.5164
▁sugar	-10.5168
ត្រា	-10.517
▁focused	-10.517
ni	-10.5181
▁saw	-10.5182
កសិ	-10.5183
▁ចំណូល	-10.5184
▁Agreement	-10.5187
▁សាកលវិទ្យាល័យ	-10.5187
ដុះ	-10.5187
កសិកម្ម។	-10.5189
យ៉ាងខ្ជាប់ខ្ជួន	-10.519
08	-10.519
ផ្តោត	-10.5192
▁ordered	-10.5192
▁Culture	-10.5194
CS	-10.5195
06	-10.5198
▁15,	-10.5199
▁position	-10.5203
ឹ	-10.5205
▁ព	-10.5205
អ៊ីស្រាអែល	-10.5206
▁preservation	-10.5206
▁quiet	-10.5207
ជ័យ	-10.5207
ជូនដំណឹង	-10.5216
▁ឡើយ	-10.5216
មានការចូលរួមពី	-10.5217
ជំនាញវិជ្ជាជីវៈ	-10.5217
យ៉ាងហោចណាស់	-10.5219
▁adorn	-10.522
▁Germany	-10.5221
▁មកពី	-10.5222
មានលទ្ធភាព	-10.5224
▁ដោយក្នុងនោះ	-10.5226
▁remaining	-10.5226
28	-10.5227
មេធាវី	-10.523
▁speech	-10.5231
middle	-10.5231
ph	-10.5232
▁Ro	-10.5236
▁Registry	-10.5244
ចាស់ៗ	-10.5245
▁teams	-10.5245
▁losses	-10.5249
▁informal	-10.5255
▁បរទេស៖	-10.5257
▁repair	-10.5257
បន្ទាន់	-10.5258
ពិគ្រោះយោបល់	-10.5258
ខេត្តមណ្ឌលគិរី	-10.5258
ខេត្តឧត្តរមានជ័យ	-10.5259
នេសាទ	-10.5259
ៈ	-10.5259
យ៉ាងសំខាន់	-10.5264
២២	-10.5267
គួរឲ្យ	-10.5268
កោះហៅ	-10.527
ក្រសួងឧស្សាហកម្ម	-10.5271
បឋម	-10.5274
▁ជាដើម	-10.5275
▁blossoms	-10.5277
▁គីម	-10.5281
▁East	-10.5281
▁irrigation	-10.5282
គ្រា	-10.5286
កាន់តែខ្លាំង	-10.5287
ឃើញថា	-10.5289
នៅភ្នំពេញ	-10.5289
របស់រុស្ស៊ី	-10.5289
▁News	-10.529
អត្ថបទ	-10.5292
▁បានប្រាប់	-10.5299
▁ល្អ	-10.5299
▁វិទ្យាសាស្ត្រ	-10.5301
▁pagoda	-10.5301
▁visited	-10.5301
សមាគមមីក្រូហិ	-10.5303
បង្កើនសមត្ថភាព	-10.5304
▁genuine	-10.5307
▁adheres	-10.5313
▁matter	-10.5314
▁បន្ថែមថា	-10.5315
▁Enhanc	-10.5317
▁3,	-10.5318
បើកបរ	-10.532
▁arises	-10.532
ល្បឿន	-10.5323
▁Time	-10.5324
បន្ថែមទៀត។	-10.5324
ប្លែក	-10.5329
ens	-10.5331
▁enhanced	-10.5332
ដ៏ទន់ភ្លន់	-10.5337
ទឹកភ្លៀង	-10.5345
▁4,	-10.5346
ទទួលបានជោគជ័យ	-10.5347
▁28	-10.535
▁ការស្រាវជ្រាវ	-10.535
▁វត្ថុ	-10.535
រ៉ែ	-10.5353
▁Serey	-10.5358
▁worry	-10.5358
ចុងក្រោយនេះ	-10.5358
លើកដំបូង	-10.5361
ដាក់ឱ្យអនុវត្ត	-10.5362
កោតសរសើរ	-10.5363
▁ទិន្នន័យ	-10.5363
▁សាងសង់	-10.5364
▁airport	-10.5366
▁Export	-10.5367
▁ជនជាប់ចោទ	-10.537
បដិសណ្ឋារកិច្ច	-10.537
▁guidance	-10.537
▁arts	-10.537
▁Ensur	-10.5371
▁petition	-10.5373
បែក	-10.5374
▁Sea	-10.5377
▁letter	-10.5379
ដើម្បីការពារ	-10.5379
ពោរពេញទៅដោយ	-10.538
សរសើរ	-10.5383
IC	-10.5386
ខែកញ្ញា	-10.5389
ចូលរួមចំណែក	-10.539
▁phone	-10.5391
សុទ្ធ	-10.5392
▁6.	-10.5395
▁proceed	-10.5395
▁flows	-10.5396
▁ឈុន	-10.5396
▁Son	-10.5398
▁Lake	-10.5399
រមណីយដ្ឋាន	-10.5399
នឹងមាន	-10.5399
▁transactions	-10.5399
▁សត្វ	-10.5401
ទ្ធិ	-10.5402
▁បទប្បញ្ញត្តិ	-10.5403
▁Ph	-10.5404
▁landscape	-10.5404
▁និងបទប្បញ្ញត្តិ	-10.5405
ឡាយព្រះហស្តលេខា	-10.5406
▁mango	-10.5406
ចងក្រង	-10.5409
▁Palace	-10.5409
▁ព្រឹត្តិការណ៍	-10.5411
រងរបួស	-10.5411
▁តារា	-10.5412
សញ្ជាតិ	-10.5413
មានគោលបំណង	-10.5416
យើងមាន	-10.5418
▁Chanthol	-10.5421
លុប	-10.5422
▁informed	-10.5423
ddar	-10.5424
▁ដើម	-10.5431
▁courage	-10.5432
ការកើនឡើង	-10.5434
▁craving	-10.5434
▁widely	-10.544
▁raising	-10.5442
▁VOA	-10.5442
មិនត្រូវ	-10.5444
ព្រមទាំង	-10.5446
សំបុត្រកំណើត	-10.5446
វត្តអារាម	-10.5447
កន្លងទៅ	-10.5449
ទីកន្លែង	-10.5452
▁followed	-10.5453
▁Green	-10.5454
fi	-10.5458
ក្មេងស្រី	-10.5461
របៀបវារៈ	-10.5464
▁កក្កដា	-10.5471
នាពេលអនាគត។	-10.5472
គុណតម្លៃ	-10.5472
ផ្ទៃដី	-10.5474
▁reign	-10.548
▁ឧស្សាហកម្ម	-10.5482
ផ្សារភ្ជាប់	-10.5482
▁ទ្រង់	-10.5484
ពេលខ្លះ	-10.5493
ដូច្នេះ	-10.5497
▁coconut	-10.5499
▁ថៃ	-10.5501
▁investing	-10.5504
សមធម៌	-10.5506
▁hero	-10.5508
ឲ្យមាន	-10.5509
អាចទទួលបាន	-10.551
▁និងប្រជាជន	-10.5511
▁residential	-10.5512
ឈុត	-10.5512
▁Chamber	-10.5512
សាកសួរ	-10.5514
▁pursue	-10.5517
ការដាំដុះ	-10.5519
▁born	-10.5521
ឿន	-10.5521
សំណង	-10.5524
▁នាយកដ្ឋាន	-10.5524
ចរន្ត	-10.5524
▁factor	-10.5528
ដោយការ	-10.5529
ចុះពិនិត្យ	-10.5529
ដ៏ល្អ	-10.5535
▁degree	-10.5536
ស្ថានីយ	-10.5537
ជាសមាជិក	-10.5538
ដែលមិនអាច	-10.5538
ស្តុក	-10.5547
son	-10.5549
▁crude	-10.555
Meanwhile	-10.555
having	-10.5551
អន្តរក្រសួង	-10.5553
សន្	-10.556
▁trans	-10.5562
▁solar	-10.5564
▁worldwide	-10.5564
PA	-10.5565
▁concluded	-10.5565
ការប្រឡង	-10.5566
▁បណ្តុះបណ្តាល	-10.5574
០៤	-10.5578
4%	-10.5581
▁km	-10.5581
ដោយមិន	-10.5584
ការប្រុងប្រយ័ត្ន	-10.5585
នៅដើម	-10.5587
ការលើកទឹកចិត្ត	-10.5588
q	-10.559
▁Kang	-10.559
១០០	-10.5592
▁ពាក់ព័ន្ធនឹង	-10.5593
ran	-10.5594
របស់ពលរដ្ឋ	-10.5595
izing	-10.5595
▁2014.	-10.5597
សេវាសាធារណៈ	-10.56
▁societal	-10.5602
នោះដែរ	-10.5605
សុខសន្តិភាព	-10.5607
ton	-10.5608
▁difficult	-10.561
ការអភិរក្ស	-10.5612
▁fertilizer	-10.5613
▁star	-10.5615
▁grandeur	-10.5616
▁signing	-10.562
មានទំហំ	-10.5621
ែល	-10.5623
ប្រពន្ធ	-10.5624
ដ៏ស្រស់ស្អាត	-10.5626
ការចាក់វ៉ាក់សាំង	-10.5627
ណូ	-10.5627
▁tapestry	-10.5629
▁majestically	-10.5629
▁Chairman	-10.5629
ជាបន្ទាន់	-10.5629
អាណាព្យាបាល	-10.563
ទូត	-10.563
▁មើល	-10.5631
ពីចម្ងាយ	-10.5632
មានតួនាទី	-10.5633
ពិភពលោក។	-10.5635
មហាជន	-10.5638
▁Be	-10.5639
ever	-10.5642
ការរស់នៅ	-10.5644
▁decades	-10.5644
ities	-10.5644
▁hues	-10.5646
មីន	-10.5646
-19,	-10.5648
▁ប្រាប់	-10.5652
ទាំងមូល។	-10.5652
ដុល្លារ	-10.5653
ក្រមសីលធម៌	-10.5655
ដែលធ្លាប់	-10.5658
▁follow	-10.5658
អ្វីខ្លះ	-10.5658
▁career	-10.5658
▁words	-10.5658
▁trends	-10.5658
▁monitor	-10.566
▁ឯកអគ្គរដ្ឋទូត	-10.5661
នេះមាន	-10.5661
This	-10.5663
▁complex	-10.5667
▁Pich	-10.5668
▁valuable	-10.5668
រំលាយ	-10.5671
បានរៀបចំ	-10.5673
ner	-10.5673
ល្ងាច	-10.5674
ឯករាជ្យភាព	-10.5674
ុន	-10.5677
▁clearly	-10.5678
▁considered	-10.5679
▁App	-10.5681
ខាងមុខ។	-10.5681
ជោគវាសនា	-10.5687
▁ពាក់ព័ន្ធនឹងការ	-10.5688
សម្ពោធ	-10.569
នៅចំពោះមុខ	-10.5692
▁លិខិត	-10.5692
មាត្រា	-10.5695
ឆ្	-10.5697
អាហារូបត្ថម្ភ	-10.5699
ជ្រូក	-10.5701
រយៈពេលដូចគ្នា	-10.5701
បារម្ភ	-10.5701
ិក	-10.5708
▁ទី៣	-10.5719
្រ	-10.572
▁integral	-10.5721
ខែតុលា	-10.5725
សៀមរាប	-10.5726
▁បានឲ្យដឹងថា	-10.5726
ប្រុស	-10.5727
▁sleep	-10.5729
ilateral	-10.5733
ស្ដាប់	-10.5734
▁advised	-10.5735
6%	-10.5739
ការទូទាត់	-10.5739
គម្រោងហេដ្ឋា	-10.5741
▁halt	-10.5742
បំណុលសាធារណៈ	-10.5746
▁Kak	-10.5747
▁$6	-10.5747
▁recognition	-10.5747
▁La	-10.5748
▁ចម្រើន	-10.5759
ហាមឃាត់	-10.5759
សាមគ្គីភាព	-10.5759
▁equivalent	-10.576
CAMBODIA	-10.576
▁facilities	-10.576
ជំនួប	-10.5761
▁seeks	-10.5761
វិបត្តិកូវីដ	-10.5761
តម្រូវ	-10.5764
▁Ang	-10.5764
ម្ដង	-10.5766
រឹង	-10.577
▁Good	-10.5772
ក្លិន	-10.5773
ទាំងអស់ត្រូវ	-10.5774
សាង	-10.5774
AR	-10.5778
លុបបំបាត់	-10.5779
ប្រាក់ចំណេញ	-10.5781
ខែវិច្ឆិកា	-10.5781
▁ក្រសួងសាធារណការ	-10.5784
អេកូឡូស៊ី	-10.5785
នៅខេត្តព្រះសីហនុ	-10.5786
▁Analysis	-10.5787
▁Though	-10.5787
▁ធ្វើឲ្យ	-10.5787
មរណភាព	-10.5791
កំពុងដំណើរការ	-10.5792
▁Australian	-10.5792
រ៉ុង	-10.5797
ending	-10.5798
អ្នកទិញ	-10.5798
▁entitl	-10.58
▁kg	-10.5801
▁sole	-10.5802
▁កម្ម	-10.5803
▁ចំណុច	-10.5803
▁រៀន	-10.581
▁taxes	-10.5811
▁award	-10.5811
8%	-10.5811
▁Strict	-10.5813
ប្រសើរ	-10.5814
▁ការប្រើប្រាស់	-10.582
▁01	-10.5822
ត្ត	-10.5822
លើកឡើងថា	-10.5822
បានកំណត់	-10.5827
គួរឱ្យ	-10.583
មានអារម្មណ៍	-10.5834
▁endeavors	-10.5836
▁drainage	-10.584
យឺតៗ	-10.584
▁Im	-10.5841
ឆ្នេរ	-10.5846
ធ្វើបាតុកម្ម	-10.5848
▁Follow	-10.5853
▁investor	-10.5855
ប្រសិទ្ធភាពនៃ	-10.5856
▁underway	-10.5857
▁rapidly	-10.5858
▁cover	-10.5858
ប្រជាសហគមន៍	-10.5861
ទទួលបាននូវ	-10.5863
អ៊ី	-10.5864
▁played	-10.5866
ស្លា	-10.5866
ny	-10.5868
3%	-10.587
▁លើកឡើងថា	-10.5872
បេ	-10.5877
▁កម្ពុជាបាន	-10.5877
យ៉ាងណាក៏ដោយ	-10.5877
បរិ	-10.5877
▁director	-10.588
▁afternoon	-10.588
គណៈប្រតិភូ	-10.588
ផ្ទៃ	-10.5881
▁គឺដើម្បី	-10.5885
▁Pre	-10.5892
▁Memorandum	-10.5894
▁jurisdiction	-10.5894
▁varieties	-10.5894
▁grew	-10.5894
មួយ។	-10.5894
▁គណៈប្រតិភូ	-10.5896
▁slightly	-10.5896
ស្ទើរតែ	-10.5899
ល្បី	-10.59
ប្រឹក្សា	-10.59
▁ទោះបី	-10.5904
77	-10.5905
▁បានបង្ហាញពី	-10.5909
▁$8	-10.5909
▁ហុង	-10.5912
កិច្ចសន្ទនា	-10.5915
▁ការធ្វើ	-10.5918
ទង្វើ	-10.5921
▁assessment	-10.5922
end	-10.5925
ខ្វះខាត	-10.5926
ថា៖	-10.5929
សព	-10.5929
ស្ថាបនា	-10.593
បណ្តុះ	-10.5933
មើលឃើញថា	-10.5933
ត្រូវបានប្រកាស	-10.5936
ថាជា	-10.5936
▁អនុវត្ត	-10.5938
▁យល់	-10.5938
កម្មសិទ្ធិ	-10.5938
▁II	-10.594
75	-10.5943
▁aged	-10.5944
▁mandatory	-10.5948
▁feel	-10.595
ដ៏រស់រវើក	-10.5952
▁Para	-10.5953
▁Canada	-10.5954
រីក	-10.5956
បញ្ហានេះ	-10.5957
▁allocation	-10.5961
អចិន្ត្រៃយ៍	-10.5962
▁TVET	-10.5962
បានធ្វើ	-10.5963
តម្រូវឱ្យមាន	-10.5964
ខាងក្នុង	-10.5965
CI	-10.5966
បណ្តាញសង្គម	-10.5968
▁ខេមបូឌា	-10.5971
ទូទាំង	-10.5974
▁engineering	-10.5975
▁Interview	-10.5975
រថយន្តអគ្គិសនី	-10.5977
សិក្សាទុតិយភូមិ	-10.5978
▁harm	-10.598
រូបរាង	-10.598
ត្រូវបានដាក់ចេញ	-10.5988
▁OPEC	-10.5988
▁means	-10.5988
▁simple	-10.5989
សហ	-10.5993
តាំង	-10.5994
ជំនាញបច្ចេកទេស	-10.5995
បង្កើនផលិតភាព	-10.5995
ng	-10.5996
សម្ដេចតេជោ	-10.5996
ចំណង	-10.5998
រដូវកាល	-10.6
▁curb	-10.6003
នេះមានគោលបំណង	-10.6006
៥ឆ្នាំ	-10.6012
▁flood	-10.6012
ជំរុញការអភិវឌ្ឍ	-10.6022
សម្រាប់ឆ្នាំ	-10.6024
រសៀល	-10.6025
▁send	-10.6026
ជនល្មើស	-10.6029
▁friends	-10.6033
លាង	-10.6034
▁requested	-10.6034
▁surged	-10.6035
សិក្ខាសាលា	-10.6036
ara	-10.604
▁transformed	-10.604
ប៉ូលិស	-10.6042
▁took	-10.6043
▁collected	-10.6044
ម្តង	-10.6049
ជំរុញការ	-10.6052
ខ្លាច	-10.6057
▁ទេសចរណ៍	-10.6059
រហូតទៅដល់	-10.6062
▁distribution	-10.607
បឹងទន្លេសាប	-10.607
red	-10.6076
,500	-10.6077
▁highlights	-10.6077
cor	-10.6078
▁ច្បាប់	-10.608
កត់សម្គាល់	-10.608
ធ្វើជាម្ចាស់ផ្ទះ	-10.6081
តាមការ	-10.6084
tra	-10.6086
▁seal	-10.6091
▁ទីណា	-10.6092
*,	-10.6094
taking	-10.6094
▁Cross	-10.6097
▁square	-10.6097
▁Jayavarman	-10.6097
▁បានអញ្ជើញ	-10.6097
,”	-10.6101
▁stringent	-10.6101
សូត្រ	-10.6104
មិនទាន់មាន	-10.6105
building	-10.6105
ការដាក់	-10.6108
In	-10.6109
កម្មករនិយោជិត	-10.6111
ចីរភាព	-10.6111
ដទៃ	-10.6112
▁feed	-10.6115
នៅខេត្ត	-10.6117
ដូនតា	-10.612
▁less	-10.6123
លើកឡើង	-10.6131
១នាក់	-10.6132
ខេត្តរតនគិរី	-10.6133
ក្នុងទីក្រុង	-10.6136
ក្រៅពី	-10.6136
របស់អាមេរិក	-10.614
បានបញ្ចប់	-10.614
▁app	-10.6142
សារៈសំខាន់នៃ	-10.6143
▁protecting	-10.6143
▁តុលា	-10.6144
▁កុមារ	-10.6145
គ្រឹះសម្រាប់	-10.6145
អត្ថន័យ	-10.6146
▁ជន	-10.6147
▁Product	-10.6151
▁Prince	-10.6151
▁summit	-10.6152
ពង្រឹងកិច្ចសហ	-10.6152
▁efficacy	-10.6153
គោលដៅអភិវឌ្ឍន៍	-10.6153
ស្ទើរ	-10.6155
រចនាសម្ព័ន្ធ។	-10.6156
ខេត្តកណ្តាល	-10.6157
ations	-10.616
លើគ្រប់វិស័យ	-10.6162
អ្នកនយោបាយ	-10.6163
ដៃគូអភិវឌ្ឍន៍	-10.6163
ស្ករ	-10.6165
▁concern	-10.6165
▁តាំង	-10.6168
▁Mao	-10.6169
▁ហ	-10.6171
ចង	-10.6172
ត្រូវតែអនុលោមតាម	-10.6177
ence	-10.618
▁ceremonies	-10.618
▁enlightenment	-10.618
ក្នុងរយៈពេលកំណត់	-10.618
▁wooden	-10.6181
០០	-10.6182
ទេស	-10.6184
▁ស្របពេលដែល	-10.6184
▁cultivate	-10.6184
ស្រាប់	-10.6186
ទម្ងន់	-10.6193
គណបក្សប្រឆាំង	-10.6194
យ៉ាងហ្មត់ចត់	-10.6194
សហគមន៍កសិកម្ម	-10.6197
▁permits	-10.6199
▁អគ្គនាយកដ្ឋាន	-10.6199
ជីវិតប្រចាំថ្ងៃ	-10.6202
អេ	-10.6204
▁Man	-10.6206
▁កន្លងមក	-10.6209
គណៈរដ្ឋមន្ត្រី	-10.6209
▁ID	-10.6211
ពា	-10.6213
▁eight	-10.6215
ការសម្របសម្រួល	-10.6218
តាមបទប្បញ្ញត្តិ	-10.622
▁excessive	-10.6221
ពុកម្ដាយ	-10.6222
▁spend	-10.6224
ប្រមូលផ្តុំ	-10.6224
គ្រប់រូប។	-10.6229
ជ័យជម្នះ	-10.6233
ឆ្លាតវៃ	-10.6233
ភា	-10.6234
▁verify	-10.6235
▁Real	-10.6235
▁wind	-10.6236
▁returned	-10.6237
ដើម្បីពិនិត្យ	-10.6242
ure	-10.6246
ប្លាស្ទិក	-10.6249
ឌ	-10.625
ងាកមក	-10.6252
▁news	-10.6252
០៥	-10.6258
នេះថា	-10.6262
ខេត្តស្វាយរៀង	-10.6264
▁call	-10.6265
▁សកម្មជន	-10.6266
ជំនាន់ក្រោយ។	-10.6266
▁ផ្សារ	-10.6267
▁silently	-10.6268
▁ហាក់	-10.6269
អំណោយផល	-10.6275
ធម្មនុញ្ញ	-10.6277
ជ័យលាភី	-10.6282
ខ្ពស់បំផុត	-10.6286
▁killed	-10.6287
▁អ្នកឧកញ៉ា	-10.6289
ឆ្លើយតបនឹង	-10.629
ish	-10.6293
សម្បត្តិ	-10.6294
ពាន់	-10.6295
ដែលពោរពេញដោយ	-10.6295
យ៉ាងម៉ឺងម៉ាត់នូវ	-10.6298
ភរិយា	-10.6298
he	-10.6298
ផ្លូវជាតិលេខ	-10.6299
▁consequences	-10.63
វិនិយោគលើ	-10.6301
ual	-10.6301
▁course	-10.6302
▁កុម្ភៈ	-10.6303
ស្រលាញ់	-10.6305
តារា	-10.6305
អត្រាប្តូរប្រាក់	-10.6306
ស៊ីហ្គេម	-10.6307
▁noble	-10.6307
ដើមទុន	-10.6308
▁soldiers	-10.6308
▁Tina	-10.6308
ជាទៀងទាត់	-10.6309
តែម្ដង	-10.6314
ប្រចាំខែ	-10.6314
កីឡាករ	-10.6316
ស្ដារ	-10.6317
ម្ដាយ	-10.6319
▁Monday	-10.632
▁Kra	-10.6324
ហេតុ	-10.6325
៦៨	-10.6326
៤៤	-10.6326
ផ្លូវថ្នល់	-10.6328
ហាក់	-10.6328
ឧត្តមសិក្សា	-10.633
▁equity	-10.6333
▁carvings	-10.6333
រញ្ញវត្ថុកម្ពុជា	-10.6333
បានចាប់ផ្តើម	-10.6338
កម្ពុជាប្តេជ្ញា	-10.6339
▁អ្នកវិភាគ	-10.6343
ឆេះ	-10.6343
ប្រជាពលរដ្ឋ។	-10.6345
៩នាក់	-10.6346
ភោជនីយដ្ឋាន	-10.6347
ឥតឈប់ឈរ	-10.6347
ឡូ	-10.6347
នៅក្នុងវិស័យ	-10.6349
បានរកឃើញ	-10.6351
▁fr	-10.6353
ទៅវិញទៅមក	-10.6354
សិក្សាស្រាវជ្រាវ	-10.6357
▁អស់	-10.6357
ick	-10.6357
នៃក្រុមហ៊ុន	-10.6358
គីឡូ	-10.636
▁Chi	-10.6361
▁និងវិជ្ជាជីវៈ	-10.6363
▁improvement	-10.6368
▁cast	-10.6372
▁reliance	-10.6375
▁2,000	-10.6376
វីរបុរស	-10.6378
ត្រឡប់	-10.6379
▁truck	-10.638
ត្រូវធ្វើ	-10.638
ey	-10.6383
ខេត្តតាកែវ	-10.6387
by	-10.6388
កំហុស	-10.6389
▁Ancient	-10.6389
ដែន	-10.6391
ល្អៗ	-10.6392
▁ចុះថ្ងៃទី០	-10.6392
▁ពិតជា	-10.6393
▁meaning	-10.6393
ឯកទេស	-10.6396
▁និងមិន	-10.6396
ទាន	-10.6398
មានដូចជា	-10.6398
នៅតែជា	-10.64
all	-10.64
▁29	-10.6401
▁transition	-10.6405
ែន	-10.6407
ship	-10.641
▁Credit	-10.6413
ពេទ្យ	-10.6416
សម្រាប់គម្រោង	-10.6418
▁Joint	-10.6418
▁here	-10.6419
▁បានរាយការណ៍ថា	-10.6426
ការគិត	-10.6426
▁accept	-10.6429
សភាពាណិជ្ជកម្ម	-10.643
ជួបជុំគ្នា	-10.6431
ព្រួយបារម្ភ	-10.6431
▁species	-10.6432
▁Charter	-10.6432
▁គ្រឿង	-10.6433
▁violations	-10.6433
▁ចំណែកឯ	-10.6439
▁ភាគច្រើន	-10.644
ពន្លឺព្រះអាទិត្យ	-10.6442
▁welcome	-10.6445
▁recorded	-10.6446
ដែលនាំឱ្យ	-10.6446
▁hand	-10.6447
▁festivals	-10.6448
រឿងនិទាន	-10.6451
▁engage	-10.6452
▁warm	-10.6452
▁Ya	-10.6453
រោងចក្រផលិត	-10.6456
ទៀត។	-10.6457
ុង	-10.6457
ចេញទៅ	-10.6459
▁diversify	-10.646
ប្រជាមានិតចិន	-10.646
▁និងសង្គម	-10.6461
ned	-10.6462
▁ត្រឹម	-10.6462
▁Grade	-10.6462
▁resolv	-10.6464
▁reviewed	-10.6466
▁ideas	-10.6467
▁surge	-10.6467
▁voter	-10.6468
ក្នុងបញ្ជី	-10.6469
,000	-10.647
ដកហូត	-10.6472
នឹងមិន	-10.6475
▁Con	-10.6479
du	-10.648
▁Commission	-10.6484
នៅខេត្តសៀមរាប	-10.6485
អនុញ្ញាត	-10.6488
▁Capacity	-10.6489
▁clarify	-10.6489
បានបង្ហាញ	-10.6489
ទេពកោសល្យ	-10.6491
▁ខណៈពេលដែល	-10.6493
របួស	-10.6496
សេចក្តីសម្រេច	-10.6496
ការទទួលបាន	-10.6498
ខែសីហា	-10.6499
▁closing	-10.6503
ពាក់ព័ន្ធ។	-10.6503
ក្រសួងសាធារណការ	-10.6504
សួន	-10.6505
៤១	-10.6508
ជាតិអប្សរា	-10.6509
លិខិតបញ្ជាក់	-10.651
▁២៤	-10.6515
▁ប្រធានសមាគម	-10.6518
▁pledges	-10.6519
លំដាប់	-10.652
▁follows	-10.652
▁roots	-10.6522
កាន់កាប់	-10.6525
ឆ្នាំ២០១៥	-10.653
វិល	-10.653
▁colossal	-10.6531
▁ប៉ុណ្ណោះ	-10.6532
▁shares	-10.6533
21	-10.6534
▁earning	-10.6535
លើកលែង	-10.6537
▁views	-10.6544
▁resolved	-10.6544
សហរដ្ឋអាម៉េរិក	-10.6546
ក្រោយមក	-10.6547
លោកអ្នក	-10.6547
▁list	-10.6547
ិច	-10.6548
▁ones	-10.6548
omprehensive	-10.6548
ទស្សនវិស័យ	-10.6549
អាង	-10.6551
▁Pen	-10.6552
▁independent	-10.6552
▁produced	-10.6553
ពិភាក្សាអំពី	-10.6554
▁2)	-10.6555
ជាធម្មតា	-10.6556
▁technological	-10.656
ប្រតិកម្ម	-10.6564
▁10,000	-10.6564
Re	-10.657
វិស័យឧស្សាហកម្ម	-10.6571
▁អារម្មណ៍	-10.6573
ពេលដែល	-10.6574
ដីកា	-10.6577
9%	-10.6578
នាំយក	-10.658
▁exhibition	-10.6581
ប្រារព្ធ	-10.6584
ជិះ	-10.6585
ប្រេងឆៅ	-10.659
ក៏នឹង	-10.659
▁Five	-10.6597
ពាន់នាក់	-10.6597
▁details	-10.6598
កូនៗ	-10.6598
▁បរិសុទ្ធ	-10.6601
ឆ	-10.6601
over	-10.6602
▁healthy	-10.6604
វេជ្ជបណ្ឌិត	-10.6607
03	-10.6607
ណ៍	-10.6609
▁expresse	-10.6614
▁អគ្គ	-10.6615
▁husband	-10.6617
សំណល់	-10.6617
▁artistic	-10.6618
សង្គម។	-10.662
ទំនាក់ទំនងការទូត	-10.662
ueen	-10.6627
ហុងកុង	-10.6629
▁រុស្ស៊ី	-10.6632
▁website	-10.6632
ប្រហែលជា	-10.6634
ស្ងួត	-10.6635
▁son	-10.6636
សាស្ត្រ	-10.6639
▁boat	-10.6639
▁ត្រូវបានអនុវត្ត	-10.664
សគល់	-10.6641
▁subjects	-10.6644
▁បើធៀបនឹង	-10.6646
អន្តរ	-10.6648
ស្នើឱ្យ	-10.6649
▁ម៉ា	-10.6649
លាន	-10.6651
▁Biden	-10.6651
▁ពង្រឹង	-10.6652
▁sat	-10.666
▁Strengthening	-10.666
▁covering	-10.6661
interference	-10.6661
▁affordable	-10.6661
▁និងប្រព័ន្ធ	-10.6663
ឯកភាព	-10.6666
រឿងរ៉ាវនៃ	-10.6668
បណ្ដឹង	-10.6668
▁disaster	-10.6668
gu	-10.6669
▁ចំ	-10.6673
ជំរុញកំណើន	-10.6675
▁accurate	-10.6679
▁corruption	-10.668
លើកទី	-10.6681
cent	-10.6681
ចូលទៅ	-10.6686
▁Gen	-10.669
▁carried	-10.669
▁criticism	-10.669
our	-10.6691
ផ្សេងៗ។	-10.6691
29	-10.6692
ល្បីៗ	-10.6692
2021	-10.6693
▁depths	-10.6695
ទាំងអស់នេះ	-10.6696
ម្នាក់ៗ	-10.6697
មីយ៉ាន់ម៉ា	-10.6699
▁២១	-10.6701
បញ្ចប់ការសិក្សា	-10.6702
▁ឯកសារ	-10.6703
២ឆ្នាំ	-10.6704
ផ្លែឈើ	-10.6704
citing	-10.6704
▁20,	-10.6705
▁participating	-10.6705
ឆ្នាំចុងក្រោយនេះ	-10.6705
▁ពិធីបុណ្យ	-10.6713
▁ago	-10.6713
ឱ្យដឹង	-10.6713
ធានាសុវត្ថិភាព	-10.6714
▁visits	-10.6715
▁preventing	-10.6716
កើតចេញពី	-10.6716
▁កែវ	-10.6716
ពន្ធនាគារ	-10.6719
ga	-10.6719
▁Middle	-10.6719
▁meditation	-10.672
ប្លង់	-10.6723
▁Smart	-10.6726
ស្រមោល	-10.6726
ការផ្លាស់ប្ដូរ	-10.6728
ឹង	-10.673
សំដៅ	-10.6731
គ្រឿងស្រវឹង	-10.6734
▁specialized	-10.674
តាមនីតិវិធី	-10.6742
កញ្ចក់	-10.6742
▁applicants	-10.6744
តារាចម្រៀង	-10.675
ហិកតា	-10.6752
នៅថ្ងៃទី	-10.6752
ប្រឹក្សាភិបាល	-10.6754
▁tensions	-10.6755
បេក្ខភាព	-10.6756
ដោយប្រើ	-10.6758
▁firm	-10.676
ស្វែងយល់ពី	-10.6762
▁ignorance	-10.6764
▁6,	-10.6766
ក្នុងពិធី	-10.6773
រវាងកម្ពុជា	-10.6774
▁យោងតាមព្រះរាជ	-10.6774
▁៧០	-10.6775
ធម្មជាតិ។	-10.6776
ប្រេងឥន្ធនៈ	-10.6777
▁themselves	-10.6778
ឧប	-10.678
ជាង១	-10.678
ខេត្តកំពង់ស្ពឺ	-10.6781
▁មេ	-10.6783
▁កងកម្លាំង	-10.6789
▁profits	-10.6789
▁ជួប	-10.6792
▁សង្គម	-10.6796
មកហើយ	-10.6802
ខែឧសភា	-10.6804
តែម្ដង។	-10.6804
សញ្ញាបត្រមធ្យម	-10.6805
ក្លាហាន	-10.6806
▁atmosphere	-10.6807
▁Local	-10.6807
▁restrictions	-10.6807
▁៨០	-10.6808
ោះ	-10.6809
▁Men	-10.6812
រាំ	-10.6814
▁stretched	-10.6815
▁ក្រសួងការបរទេស	-10.6821
▁majestic	-10.6822
▁pepper	-10.6822
ថែទាំសុខភាព	-10.6823
យឺត	-10.6823
ត្រូវបានកំណត់	-10.6824
លូតលាស់	-10.6824
មានន័យថា	-10.6824
អនុសាសន៍	-10.6826
▁Beijing	-10.6831
▁incentives	-10.6832
២៩	-10.6832
ជាដៃគូ	-10.6834
គំនូរ	-10.6837
បានគូសបញ្ជាក់ពី	-10.6837
លាយ	-10.6837
▁ការរៀបចំ	-10.6839
▁guide	-10.684
កែប	-10.684
▁name	-10.684
មុននឹង	-10.6842
ដ៏តឹងរ៉ឹង	-10.6845
▁smile	-10.6846
ដែលពួកគេ	-10.6846
▁coffee	-10.6851
▁trading	-10.6851
▁fragrant	-10.6851
ហៅថា	-10.6852
▁adapt	-10.6854
▁diploma	-10.6855
រំដោះ	-10.6856
តំណាងឱ្យ	-10.6857
បានក្លាយជា	-10.686
▁Yu	-10.6863
01	-10.6869
▁មុនពេល	-10.688
លូ	-10.688
សម្តែងការគួរសម	-10.6881
ផ្លូវច្បាប់	-10.6882
▁accidents	-10.6884
ចុះឈ្មោះបោះឆ្នោត	-10.6887
ណាដែល	-10.6892
▁សេចក្ដី	-10.6896
ថ្កោលទោស	-10.6896
▁contemplation	-10.6896
▁passing	-10.6897
SE	-10.6903
▁ក្នុងនាមជា	-10.6904
ប្រាក់កម្ចី	-10.6905
▁eco	-10.6909
ម៉	-10.691
▁gender	-10.6911
ព្រលានយន្តហោះ	-10.6911
▁Western	-10.6911
ណាស់សម្រាប់	-10.6913
▁fall	-10.6915
ស៊ីវិល	-10.6915
រួមមាន៖	-10.6917
▁1)	-10.6919
▁ដែរ	-10.692
ASEAN	-10.6921
ឧក្រិដ្ឋកម្ម	-10.6922
▁contributes	-10.6923
ទសវត្សរ៍	-10.6923
សាលក្រម	-10.6924
▁eliminate	-10.6926
ទុក្ខសោក	-10.6926
UN	-10.6928
▁skin	-10.6929
លានតោន	-10.6934
▁លាននាក់	-10.6935
ចំណែក	-10.6936
ខែមីនា	-10.6938
ចំណាត់ថ្នាក់	-10.6938
ក្នុងសង្គម	-10.694
គយ	-10.6943
បកស្រាយ	-10.6945
ការវាយតម្លៃ	-10.6946
ដាំដំណាំ	-10.6948
▁ទីបំផុត	-10.6949
ទីផ្សារការងារ	-10.6949
ten	-10.6951
ដើម្បីពង្រឹង	-10.6952
តម្កល់	-10.6954
ចម្លើយ	-10.6955
▁remarks	-10.6955
▁organizing	-10.6955
ខុសពី	-10.6957
សកលលោក	-10.6958
បន្ថែមថា	-10.6958
គោលនយោបាយកសិកម្ម	-10.6966
of	-10.6968
▁tomorrow	-10.697
▁ឆ្លុះបញ្ចាំងពី	-10.6971
▁branches	-10.6972
យ៉ាងណាក្តី	-10.6973
orn	-10.6976
តាមបែប	-10.6979
AS	-10.6984
ping	-10.6984
▁Street	-10.6985
▁ការពង្រឹង	-10.6986
▁increases	-10.699
ប្រែ	-10.6992
▁1.5	-10.6992
▁carbon	-10.6993
fa	-10.6995
CA	-10.6998
សហការគ្នា	-10.7001
បានឃើញ	-10.7002
▁ABA	-10.7007
នោះឡើយ។	-10.7009
ក្រុមប្រឹក្សាឃុំ	-10.7011
▁សហរដ្ឋអាមេរិក	-10.7012
ស្ថិតនៅក្រោម	-10.7014
បុណ្យចូលឆ្នាំ	-10.7014
ប្រទេសជិតខាង	-10.7014
▁20,000	-10.7014
▁detain	-10.7017
ក្នុងកិច្ចប្រជុំ	-10.702
▁marking	-10.7022
▁កាត់	-10.7023
▁processes	-10.7024
រាជរដ្ឋាភិបាលបាន	-10.7025
របស់ប្រជាពលរដ្ឋ។	-10.7025
ក្នុងការដោះស្រាយ	-10.7027
▁grassroots	-10.703
▁សំអាល់	-10.7031
▁Rong	-10.7034
យល់ព្រម	-10.7035
ឧ	-10.7037
ប្រកាសថា	-10.7041
▁អ្វី	-10.7042
បានជាង	-10.7043
ដើម្បីឱ្យ	-10.7045
▁Buddhism	-10.7045
▁gently	-10.7045
we	-10.7048
កាត់បន្ថយហានិភ័យ	-10.7057
▁procedure	-10.7057
▁affecting	-10.7057
ពីរនាក់	-10.7058
ជាមួយបណ្តាប្រទេស	-10.706
បណ្ណាល័យ	-10.7061
▁internet	-10.7061
▁longer	-10.7062
យុទ្ធសាស្ត្រជាតិ	-10.7068
▁supporters	-10.7071
ក្រសួងប្រៃសណីយ៍	-10.7073
▁collaborating	-10.7076
▁guiding	-10.7076
▁nine	-10.7076
រជាន់ខ្ពស់	-10.7077
▁Samal	-10.7078
ប្រសាសន៍	-10.708
បន្ដ	-10.7085
▁electronic	-10.7087
▁story	-10.7087
▁accident	-10.7087
▁thinking	-10.7088
▁សេវាកម្ម	-10.709
▁servants	-10.7091
▁arduous	-10.7091
▁Exchange	-10.7091
▁import	-10.7092
មានឥទ្ធិពល	-10.7093
▁ជាការ	-10.7093
▁values	-10.71
របស់អតិថិជន	-10.7101
▁គឺត្រូវ	-10.7101
បានធ្វើការ	-10.7102
ជួយជំរុញ	-10.7102
មូលដ្ឋានគ្រឹះ	-10.7102
▁victim	-10.7103
▁animal	-10.7103
▁problems	-10.7104
▁មាត្រា	-10.7105
▁silence	-10.7106
▁everything	-10.7106
ពន្យល់	-10.7116
ឆ្នាំ២០២០	-10.7117
▁ភាគរយនៃ	-10.7117
▁judge	-10.7118
កង្វល់	-10.7121
▁Mother	-10.7122
▁stage	-10.7125
និយាយពី	-10.7128
របស់ប្រជាជនខ្មែរ	-10.713
▁Most	-10.7131
▁augment	-10.7136
▁hopes	-10.7137
▁បុរស	-10.7141
ឈ	-10.7141
▁ម៉ៅ	-10.7144
ការជំរុញ	-10.7145
▁ម៉	-10.7145
▁Israel	-10.7146
របស់គណបក្ស	-10.7146
០៣	-10.7147
វិស័យសុខាភិបាល	-10.7147
ស្មើនឹង	-10.7147
▁អេ	-10.7147
▁ដើម្បីទប់ស្កាត់	-10.7147
ជាមួយក្រុមហ៊ុន	-10.7148
▁competitive	-10.7151
▁subsequent	-10.7152
ber	-10.7152
▁Anti	-10.7152
▁inspected	-10.7153
▁និងការពារ	-10.7154
▁lose	-10.7155
▁reject	-10.7155
តារាស្រី	-10.7155
▁negative	-10.7155
▁Ho	-10.7157
▁បុគ្គលិក	-10.7159
▁កីឡា	-10.7162
▁sea	-10.7163
▁ever	-10.7163
អនុវត្តច្បាប់	-10.7166
▁window	-10.7167
ពង	-10.7167
▁ជាទូទៅ	-10.7169
បានទេ	-10.717
▁ថ្នាក់ដឹកនាំ	-10.7172
▁men	-10.7173
▁Van	-10.7177
▁ប៉ុន្តែវា	-10.7177
▁known	-10.7178
ការកែលម្អ	-10.7179
▁exercises	-10.7181
▁ដើម្បីស្វែងរក	-10.7182
▁analysis	-10.7182
▁logistics	-10.7182
រកឃើញថា	-10.7182
▁ច័ន្ទ	-10.7187
ួរ	-10.7188
▁craft	-10.7191
▁Tea	-10.7191
ត្រូវតែអនុវត្ត	-10.7194
▁secrets	-10.7195
ស្ថិរភាពម៉ាក្រូ	-10.7196
▁purchase	-10.7196
▁inspire	-10.7196
con	-10.7197
ស្ថាបនិក	-10.7197
កេរ្តិ៍ឈ្មោះ	-10.7198
ម៉ែន	-10.7198
ទ្រង់ទ្រាយធំ	-10.7199
ធ្វើឡើង	-10.72
ជារឿង	-10.7201
▁detailed	-10.7202
▁យោងតាមរបាយការណ៍	-10.7205
បរិភោគ	-10.7206
unt	-10.7206
▁decade	-10.7211
ថ្នាល	-10.7211
តន្ត្រី	-10.7211
របស់សម្តេចតេជោ	-10.7211
▁formidable	-10.7213
ចក្រភពអង់គ្លេស	-10.7213
▁គួរបញ្ជាក់ដែរថា	-10.7213
▁យល់ដឹង	-10.7215
ទឹកចិត្ត	-10.7215
▁vaccines	-10.7215
០០០នាក់	-10.7216
▁developers	-10.7216
▁underscored	-10.7217
ស្វែងយល់	-10.7217
▁heat	-10.7223
1%	-10.7227
▁supplies	-10.7228
▁priorities	-10.7229
អ្នកកាសែត	-10.723
រហ័ស	-10.7231
▁និងគ្រប់គ្រង	-10.7232
ភាពច្នៃប្រឌិត	-10.7233
▁causes	-10.7235
▁commerce	-10.7236
▁worker	-10.7238
way	-10.7239
▁certification	-10.7241
ជីក	-10.7243
▁universities	-10.7243
▁behavior	-10.7243
▁និងពង្រីក	-10.7246
▁contributions	-10.7247
បច្ចុប្បន្ន។	-10.7248
ពាក្យស្នើសុំ	-10.725
ទាញយក	-10.7252
អ្នកដឹកនាំ	-10.7253
▁43	-10.7254
ហាក់ដូចជា	-10.7255
07	-10.7256
▁Per	-10.7257
rought	-10.7257
▁bequeathed	-10.7259
▁false	-10.7259
▁instead	-10.7259
▁faint	-10.7259
▁3-	-10.7264
ឆ្នាំមកហើយ	-10.7268
▁គឺចាំបាច់ដើម្បី	-10.727
ផ្តល់ជូន	-10.7272
▁spaces	-10.7272
ធ្ងន់	-10.7272
មានអាយុ	-10.7272
ana	-10.7273
▁verdant	-10.7274
លុបចោល	-10.7275
សណ្ដាប់ធ្នាប់	-10.7275
មរតក	-10.7277
IP	-10.7277
▁discussion	-10.7278
▁transparent	-10.7278
▁គឺការ	-10.7278
▁founder	-10.7278
ទាំងអស់ដែល	-10.728
ability	-10.728
ខណៈ	-10.7282
សក់	-10.7285
ទំព័រ	-10.7289
កងរាជអាវុធហត្ថ	-10.729
▁prioritizing	-10.729
ចង់ឃើញ	-10.7293
▁millions	-10.7301
au	-10.7303
ដែនដី	-10.7305
▁m	-10.7305
▁verdict	-10.7305
▁dropped	-10.7305
៤៦	-10.7305
▁មានគោលបំណង	-10.7309
▁relief	-10.7309
▁ប្រធានក្រុម	-10.7313
ell	-10.7314
▁objectives	-10.7314
បក្សសង្គ្រោះជាតិ	-10.7317
▁residence	-10.7321
រងការ	-10.7321
ដែលលោក	-10.7322
ចម្លាក់	-10.7323
▁discovered	-10.7324
▁districts	-10.7328
▁showcase	-10.7329
ដល់ការ	-10.7331
សង្ឃឹម	-10.7331
ឆ្ពោះទៅកាន់	-10.7333
gone	-10.7334
ដាក់ចេញ	-10.7335
▁8,	-10.7337
▁steadfast	-10.734
▁crashed	-10.7341
▁ចក្ខុវិស័យ	-10.7342
ប្រមូលផល	-10.7343
▁expedite	-10.7345
ទីក្រុងឆ្លាតវៃ	-10.7347
▁cl	-10.7348
វិនិយោគនៅកម្ពុជា	-10.7348
ក្នុងការកសាង	-10.7348
នេះជា	-10.7348
រឹតបន្តឹង	-10.735
បាតុភូត	-10.7352
មានអ្នក	-10.7352
▁ច្បាប់ស្តីពី	-10.7355
ចងចាំ	-10.7356
▁មាស	-10.7357
▁ព្រោះវា	-10.7358
អគ្គនាយកដ្ឋាន	-10.7358
ទុំ	-10.7359
ខូចខាត	-10.7361
▁ចាប់ផ្ដើម	-10.7364
វិមាន	-10.7366
▁រូប៖	-10.7366
នៅការិយាល័យ	-10.7366
របស់ប្រជារាស្ត្រ	-10.7366
▁ប៉ែន	-10.7367
ខេត្តកណ្ដាល	-10.7369
ុត	-10.7369
▁everyone	-10.7369
▁customs	-10.737
▁stand	-10.7372
31	-10.7375
▁ពៅ	-10.7381
▁7,	-10.7382
ច្រៀង	-10.7383
▁Chhun	-10.7383
▁weekend	-10.7384
ប្រារព្ធឡើង	-10.7384
▁លោកជំទាវបណ្ឌិត	-10.7387
កាលពីឆ្នាំ	-10.7388
ចូលឆ្នាំថ្មី	-10.7388
មហាសន្និបាត	-10.7389
▁enforced	-10.7393
ការពារបរិស្ថាន	-10.7399
ក្នុងមួយខែ	-10.74
កង្វះ	-10.7402
បានចំនួន	-10.7403
ថវិការដ្ឋ	-10.7405
▁10,	-10.7406
99	-10.7407
ទី៧	-10.7407
អ៊ីនធឺណិត	-10.7409
▁បា	-10.741
័រ	-10.7413
▁adopted	-10.7413
▁purity	-10.7414
ព្រឹទ្ធបណ្ឌិត	-10.7414
មានសុវត្ថិភាព	-10.7416
▁ព្រះករុណា	-10.7421
▁mixed	-10.7424
▁beliefs	-10.7425
សមរភូមិ	-10.743
▁remarkable	-10.743
▁VII	-10.743
ផ្ញើ	-10.7433
ពល	-10.7436
ដោយឥតគិតថ្លៃ	-10.7436
46	-10.744
ជំនាន់ក្រោយ	-10.744
nother	-10.7441
ជួបជុំ	-10.7441
▁writing	-10.7444
▁មិថុនា	-10.7445
▁ហេដ្ឋា	-10.7447
▁STEM	-10.7448
▁Sena	-10.7448
▁សហការជាមួយ	-10.7448
ការរីករាលដាលនៃ	-10.7449
ប៉ះ	-10.7452
▁elevate	-10.7452
ខ្សាច់	-10.7452
ists	-10.7456
ធនាគារពិភពលោក	-10.7458
dy	-10.7459
ហ្វឹកហ្វឺន	-10.7459
▁គ្រូបង្រៀន	-10.7459
▁prioritized	-10.746
▁Va	-10.7461
▁location	-10.7461
▁discover	-10.7468
ផលិតផលខ្មែរ	-10.7472
ិត	-10.7476
កំពុងសិក្សា	-10.7476
▁evolving	-10.7477
បុរសម្នាក់	-10.7478
▁message	-10.7479
▁forever	-10.7481
ward	-10.7486
▁Strategic	-10.7487
តេ	-10.749
▁ដោយបាន	-10.749
▁stipulate	-10.7491
▁ជាមួយនឹងការ	-10.7491
ពូកែ	-10.7492
ក្នុងជីវិត	-10.7494
បាននិយាយថា	-10.7494
ជញ្ជាំង	-10.7494
នៅមិនទាន់	-10.7495
▁flights	-10.7498
▁Lo	-10.7501
▁material	-10.7502
▁កម្រិត	-10.7505
សំណូមពរ	-10.7508
▁facilitating	-10.7508
បណ្ដោះអាសន្ន	-10.7512
រាម	-10.7516
▁ថ្លែង	-10.7518
គ្រោងនឹង	-10.7518
របស់ពួកគាត់	-10.7518
▁មានន័យថា	-10.7519
▁និងពង្រឹង	-10.7519
មេឃុំ	-10.7521
ចំណងមិត្តភាព	-10.7523
អី	-10.7523
ដឹកនាំគណៈប្រតិភូ	-10.7524
ក្លែងក្លាយ	-10.7525
▁bustling	-10.7527
Vietnam	-10.7528
▁fl	-10.7528
ម្រេច	-10.753
សហគ្រិនភាព	-10.7531
▁កម្ពស់	-10.7535
▁railway	-10.754
ន្ត	-10.754
ស្បៀង	-10.7541
នាយក	-10.7541
45	-10.7551
▁Philippines	-10.7552
▁ដើម្បីទទួលបាន	-10.7554
▁retail	-10.7556
▁passport	-10.7557
▁scheduled	-10.7559
បារម្ភពី	-10.7561
▁EV	-10.7564
រាយ	-10.7565
▁ការអប់រំ	-10.7569
▁spent	-10.7572
▁vegetable	-10.7573
▁darkness	-10.7573
ដោះ	-10.7575
▁performance	-10.7575
▁driver	-10.7576
ការនាំចេញកសិផល	-10.7578
▁CGCC	-10.7578
គិតគូរ	-10.7578
▁ដែលត្រូវ	-10.7578
រាប់ពាន់	-10.7579
▁named	-10.7579
រកស៊ី	-10.7582
▁closed	-10.7584
ផ្កាយ	-10.7585
▁អង្ករ	-10.7587
▁jointly	-10.7587
▁practical	-10.7587
▁reputation	-10.7587
បានកន្លងផុតទៅ	-10.7588
រៀបចំការបោះឆ្នោត	-10.7588
▁effort	-10.7589
នឹងត្រូវបាន	-10.7592
▁timeless	-10.7592
ative	-10.7593
▁កំណែទម្រង់	-10.7595
49	-10.7597
▁តែង	-10.7598
រៀងរាល់	-10.7598
ឯកអគ្គរដ្ឋទូត	-10.7598
បង្កើនការ	-10.7599
▁Applications	-10.76
បានចាក់	-10.76
▁conflicts	-10.7605
តែម្តង	-10.7606
▁instruct	-10.7607
▁បន្ថែម	-10.761
ហោ	-10.7611
▁Le	-10.7619
▁storage	-10.7619
រាង	-10.762
▁រដ្ឋសភា	-10.7621
៣៩	-10.7621
▁9,	-10.7621
ស្ថិតិ	-10.7623
រដ្ឋបាលសាធារណៈ	-10.7624
▁Chuon	-10.7626
ឡើងទៅ	-10.7627
ច្រានចោល	-10.7635
▁victory	-10.7635
▁imbu	-10.7635
បានដើរតួនាទីយ៉ាង	-10.7636
យ៉ាងល្អិតល្អន់	-10.7636
កុំឲ្យ	-10.7638
▁internationally	-10.7638
▁off	-10.7641
▁Mu	-10.7641
ពលកម្ម	-10.7641
▁ក្នុងអំឡុងពេល	-10.7643
▁នាងបាន	-10.765
▁Mon	-10.765
mar	-10.765
▁Signature	-10.7651
▁Partnership	-10.7651
▁mangoes	-10.7655
IN	-10.7656
គិតត្រឹម	-10.7657
វិញ្ញាសា	-10.766
ទទួលបានការគាំទ្រ	-10.766
សុខ	-10.7664
▁hospital	-10.7668
▁ដូចនេះ	-10.7668
ស្រស់ស្អាត	-10.7668
▁Sin	-10.7672
▁២៦	-10.7672
▁និងអភិវឌ្ឍ	-10.7674
▁pond	-10.7675
ពិពិធកម្ម	-10.768
▁ក្របខ័ណ្ឌ	-10.7681
ជារួម	-10.7687
ខាងមុខនេះ។	-10.7689
នៅឆ្នាំនេះ	-10.7689
ត្រឹមត្រូវ។	-10.7689
▁greater	-10.7689
ពួក	-10.769
ពេញចិត្ត	-10.7692
pi	-10.7693
▁និងសេវាកម្ម	-10.7696
ពីបទ	-10.7698
សេរី	-10.77
▁cards	-10.7702
▁instructed	-10.7702
៩៥	-10.7703
▁symbol	-10.7706
ជនពិការ	-10.7707
សម័យកាល	-10.7708
▁problem	-10.7708
▁agro	-10.7708
▁លទ្ធផល	-10.771
▁ស្ពាន	-10.771
អនុក្រឹត្យលេខ	-10.771
៥៥	-10.7713
មនុស្សម្នាក់	-10.7715
▁gaze	-10.7716
ហ្វឹកហាត់	-10.7717
ប្រឈមមុខនឹង	-10.7719
▁urgent	-10.7721
ខែមិថុនា	-10.7722
▁farmer	-10.7723
▁បណ្តាលឲ្យ	-10.7724
▁go	-10.7726
oo	-10.7729
ទុនវិនិយោគប្រមាណ	-10.7729
ពិធីសារ	-10.7729
ង្គ	-10.7731
▁counsel	-10.7732
ទិស	-10.7735
មេរោគ	-10.7735
lecommunications	-10.7735
វិស័យមីក្រូ	-10.7736
▁Banking	-10.7737
▁ចំណេះដឹង	-10.7738
ប្រើប្រាស់កម្ចី	-10.7739
ខេមរភូមិន្ទ។	-10.7741
បណ្ដុះ	-10.7741
▁negotiations	-10.7741
បុ	-10.7742
ផែនដី	-10.7742
អាជ្ញាប័ណ្ណ	-10.7748
▁រួមមាន៖	-10.7748
▁questions	-10.7752
▁ខេត្តសៀមរាប	-10.7753
39	-10.7758
្យ	-10.776
១ឆ្នាំ	-10.7761
ស្រះ	-10.7761
▁couple	-10.7763
ក្រសួងវប្បធម៌	-10.7765
ជួយសម្រួលដល់	-10.7766
lin	-10.7766
ល្អ។	-10.7769
ដល់អ្នក	-10.7772
ក្រដាស	-10.7773
▁ensures	-10.7775
ធ្វើយ៉ាងណា	-10.7776
ប្រកប	-10.7777
ទាញយកសំឡេង	-10.7777
សូមថ្លែងអំណរគុណ	-10.7778
ទើបតែ	-10.7778
ដ៏ឧត្តុង្គឧត្តម	-10.778
▁Securities	-10.778
▁Maintain	-10.778
▁House	-10.778
▁carved	-10.778
▁ឆ្នាំ២០២៤។	-10.7785
▁Ba	-10.7786
AP	-10.7788
▁បញ្ជាក់	-10.7788
កាន់តែទូលំទូលាយ	-10.7788
លំហូរ	-10.7792
00	-10.7792
▁declined	-10.7795
▁flooding	-10.7795
▁patience	-10.7796
tial	-10.7799
▁cashew	-10.78
▁available	-10.7801
▁selection	-10.7802
ប្រឹងប្រែង	-10.7803
ប្រសើរឡើង	-10.7807
▁threaten	-10.7808
▁strongly	-10.7808
ការចងចាំ	-10.7809
សហភាព	-10.7811
▁ផុត	-10.7811
សាស្ត្រាចារ្យ	-10.7813
▁persist	-10.7813
▁losing	-10.7813
▁taste	-10.7813
ការចរចា	-10.7814
▁Farmers	-10.7815
រស់នៅក្នុង	-10.7816
ខាងត្បូង	-10.7821
សន្តិសុខជាតិ	-10.7822
▁line	-10.7824
▁Khuon	-10.7825
នាពេល	-10.783
កិ	-10.783
▁Min	-10.7833
68	-10.7834
និរន្តរភាព។	-10.7837
▁images	-10.784
កាលបរិច្ឆេទ	-10.784
▁នឹងបន្ត	-10.784
ath	-10.7843
ផ្សេងៗគ្នា	-10.7844
▁continuing	-10.7845
▁សិរី	-10.7847
កំពុងជំរុញ	-10.7848
▁fierce	-10.7851
ផ្តល់ជំនួយ	-10.7851
ក្រសួងយុត្តិធម៌	-10.7852
ស្បៀងអាហារ	-10.7852
▁travelers	-10.7856
ត្រឡប់មក	-10.7859
▁31,	-10.7859
រ័ត្ន	-10.786
ក្រោយពេល	-10.7865
▁white	-10.7866
៤៩	-10.787
ប៉ុស្តិ៍	-10.7872
US	-10.7876
80	-10.7877
▁ឯង	-10.7877
▁ប្រសើរ	-10.7883
▁ដោយមិន	-10.7885
អភិបាលកិច្ចល្អ	-10.7887
ចាំបាច់ត្រូវ	-10.7887
ier	-10.7888
▁បញ្ចប់	-10.7893
▁extended	-10.7893
▁វិទ្យាស្ថាន	-10.7893
ស្មៅ	-10.7894
▁enforce	-10.7894
▁ណារ៉ុន	-10.7894
▁បំផុត	-10.7895
បានផ្តល់	-10.7896
ហិង្សា	-10.7896
▁Tbo	-10.7897
▁involves	-10.79
វេ	-10.79
▁មានភារកិច្ច	-10.7901
ជំហាន	-10.7904
▁investigating	-10.7905
០៨	-10.7908
▁និងបន្ត	-10.7908
▁saving	-10.7909
ព្រះអង្គម្ចាស់	-10.7909
ជាប្រភេទ	-10.7909
▁Political	-10.791
បំបាត់	-10.7912
ដោយក្រុមហ៊ុន	-10.7912
សន្និបាត	-10.7913
៧៧	-10.7913
▁reality	-10.7915
ចៅ	-10.7916
▁desires	-10.7917
អាវ	-10.7917
អភិបាល	-10.792
▁space	-10.7921
▁ជំងឺ	-10.7922
ពុំមាន	-10.7923
▁និងអនុវត្ត	-10.7925
▁devotion	-10.7927
▁showcasing	-10.7927
ពីកម្ពុជា	-10.793
ភាពរឹងមាំ	-10.793
oc	-10.7932
▁offense	-10.7932
▁protocol	-10.7932
▁package	-10.7933
ថ្នាក់ក្រោមជាតិ	-10.7933
▁23,	-10.7934
ពោត	-10.794
▁flowed	-10.7941
▁ជាលទ្ធផល	-10.7942
▁Award	-10.7942
Simultaneously	-10.7944
century	-10.7944
utonomous	-10.7944
សង្រ្គាម	-10.7944
▁father	-10.7944
▁lush	-10.7944
▁Young	-10.7945
នាពេលនេះ	-10.7945
តូ	-10.7947
▁dedicated	-10.7947
▁និងជំនាញ	-10.7949
ព្រះនាង	-10.795
▁ឆ្លងកាត់	-10.795
សាមញ្ញ	-10.795
នៅក្នុងស្រុក	-10.7951
អភិវឌ្ឍន៍ហេដ្ឋា	-10.7954
▁recognize	-10.7954
មកដល់ពេលនេះ	-10.7955
▁witness	-10.7955
កាសែត	-10.7957
▁លឹម	-10.7962
វេន	-10.7962
▁Thong	-10.7963
▁ខេត្តព្រះសីហនុ	-10.7963
ផ្តល់សេវា	-10.7964
លក់រាយ	-10.7964
មានជម្លោះដីធ្លី	-10.7966
▁មាគ៌ា	-10.7971
▁stems	-10.7974
សល់	-10.7974
ត្បាញ	-10.7975
▁Family	-10.7977
▁cassava	-10.7977
▁speeding	-10.7977
▁prosperous	-10.7977
ជម្រៅ	-10.7978
នៅទីក្រុង	-10.7982
ពិតប្រាកដ។	-10.7982
▁និងប្រសិទ្ធភាព	-10.7983
▁ណ	-10.7986
▁២៧	-10.7988
▁symphony	-10.7993
ងាយរងគ្រោះ	-10.7994
▁អាហារ	-10.7994
▁ភា	-10.7998
▁illegally	-10.7999
៤៥	-10.8
▁ជុំវិញ	-10.8
▁២៨	-10.8001
ស្រាល	-10.8001
▁closely	-10.8001
ពលករខ្មែរ	-10.8006
នាយ	-10.8007
▁mark	-10.8008
៤៣	-10.8009
▁aroma	-10.801
សាជីវកម្ម	-10.801
▁outbreaks	-10.8012
នេះផងដែរ	-10.8014
សិ	-10.8015
ស្រួល	-10.802
let	-10.8023
▁001	-10.8023
▁America	-10.8024
51	-10.8024
គតិបណ្ឌិត	-10.8027
value	-10.8027
▁70	-10.8029
▁sp	-10.8031
▁sword	-10.8031
▁បើទោះជា	-10.8032
ពោធិ៍សាត់	-10.8032
▁បានទទួល	-10.8032
អំ	-10.8034
គោលការណ៍ណែនាំ	-10.8034
▁select	-10.8034
▁ប្រៀប	-10.8035
ជាមុន	-10.8037
▁ត្រូវតែអនុវត្ត	-10.8038
លើកទី៣	-10.8038
▁ដើម្បីជួយ	-10.8038
ខ្សែសង្វាក់	-10.804
រចនា	-10.804
ពិភព	-10.8042
▁ឈ្មោះ	-10.8047
▁tell	-10.8047
▁athletes	-10.8047
▁collect	-10.8048
▁និងភូតគាមអនាម័យ	-10.8048
kka	-10.8052
▁numbers	-10.8052
ទាំងបី	-10.8053
វាល	-10.8058
សី	-10.8058
ចាត់ការ	-10.8059
ទេវតា	-10.806
www	-10.806
▁perseverance	-10.806
▁គួរឲ្យដឹងដែរថា	-10.806
▁ដារ៉ា	-10.806
▁ពីព្រោះថា	-10.8061
mandate	-10.8064
▁Once	-10.8064
បានជួយ	-10.8066
ល្អបំផុត	-10.8067
▁អប់រំ	-10.8067
យ៉ាងតឹងរ៉ឹង	-10.8067
▁diligently	-10.8069
▁tools	-10.807
▁eye	-10.8071
ហើយ។	-10.8072
▁ពួក	-10.8073
▁ព្រះរាជអាជ្ញា	-10.8073
▁Naron	-10.8075
កាកបាទក្រហម	-10.8076
▁System	-10.8076
ចំណាយថវិកា	-10.8076
▁Applicant	-10.8077
▁ownership	-10.8077
បានផ្ដល់	-10.8078
របស់គេ	-10.8079
លើដី	-10.8079
ការរៀបចំផែនការ	-10.808
សាធារណរដ្ឋកូរ៉េ	-10.8082
▁destination	-10.8083
ខ្ពស់ជាង	-10.8085
▁400	-10.8088
ប្	-10.809
ឱ្យមានការ	-10.809
▁Mar	-10.8091
▁profit	-10.8093
▁perceive	-10.8093
▁securities	-10.8093
▁Lao	-10.8095
▁សុវត្ថិភាព	-10.8097
ប៉ះពាល់បរិស្ថាន	-10.8098
របស់កសិករ	-10.8101
▁rainy	-10.8102
.8%	-10.8102
អាណាចក្រ	-10.8102
របស់អាស៊ាន	-10.8103
▁មានប្រសាសន៍	-10.8104
▁(2	-10.8105
បូរណភាពទឹកដី	-10.811
ដល់ពលរដ្ឋ	-10.811
៤៧	-10.811
▁oneself	-10.8112
▁rare	-10.8116
88	-10.8116
▁ផ្កាឈូក	-10.8119
nor	-10.812
អរគុណ	-10.812
▁និងការវិនិយោគ	-10.8123
▁condemn	-10.8125
សាមគ្គី	-10.8125
៣១	-10.8126
▁និងគាំទ្រ	-10.8126
▁Procedure	-10.8127
▁prudent	-10.8127
▁overseas	-10.8127
កម្ពុជាក្រោម	-10.8129
▁និងអង្គការ	-10.8135
រលត់	-10.8136
▁size	-10.8137
មានគោលដៅ	-10.8138
Ch	-10.814
អំណោយ	-10.814
▁និងធ្វើ	-10.8142
▁denies	-10.8144
គ្រ	-10.8145
▁និងសេដ្ឋកិច្ច	-10.8146
ការរៀន	-10.8146
អនុសញ្ញា	-10.8148
រដូវវស្សា	-10.8149
▁shadow	-10.815
នាទី	-10.8153
ផង។	-10.8154
▁rely	-10.8154
កាលពីថ្ងៃទី	-10.8155
▁វេទិកា	-10.8159
រើស	-10.8161
▁things	-10.8163
▁Service	-10.8167
ហ្គា	-10.8169
វាលស្រែបៃតងខ្ចី	-10.8171
ផ្តន្ទាទោស	-10.8172
▁ទៀ	-10.8173
▁Ji	-10.8174
ស្ដីពីការ	-10.8176
▁fragrance	-10.8177
▁ancestr	-10.8177
▁seem	-10.818
▁ក្រសួងបរិស្ថាន	-10.818
▁hardships	-10.8181
▁Hall	-10.8184
av	-10.8184
ផែនទី	-10.8185
ប្រភពព័ត៌មានពី	-10.8187
គំរាម	-10.8189
▁sand	-10.8189
កំពង់	-10.819
ប្រើប្រាស់ដីធ្លី	-10.819
▁inspect	-10.8192
▁photos	-10.8194
▁Total	-10.8194
ការយល់ដឹងអំពី	-10.8194
▁workforce	-10.8195
▁itself	-10.8197
ចំនួនពីរ	-10.8201
មានភាពងាយស្រួល	-10.8203
▁returning	-10.8206
ធិ	-10.8207
▁architectural	-10.8211
▁ឧទាហរណ៍	-10.8211
▁ក្នុងករណី	-10.8212
០០០រៀល	-10.8212
មហាវិទ្យាល័យ	-10.8212
▁ក្រសួងយុត្តិធម៌	-10.8214
▁អតិថិជន	-10.8217
អំពាវនាវឱ្យ	-10.822
▁Ko	-10.822
ការបន្ត	-10.822
អនុវត្តគម្រោង	-10.822
គ្របដណ្តប់	-10.8221
អតីតយុទ្ធជន	-10.8223
▁Meas	-10.823
ការរំពឹងទុក	-10.823
បន្តពង្រឹង	-10.8232
ខែមេសា	-10.8233
កំពុងមាន	-10.8233
បូក	-10.8234
▁entering	-10.8235
▁បន្ទាប់	-10.8237
▁wealth	-10.824
▁command	-10.824
ទំនប់	-10.824
កន្លះ	-10.8245
ជាប់គាំង	-10.8247
66	-10.8248
▁ក្នុងនោះមាន	-10.8249
▁immediate	-10.8251
រំពឹង	-10.8251
ments	-10.8251
▁works	-10.8252
រៀង	-10.8252
ជញ្ជាំងប្រាសាទ	-10.8253
រង្វាន់	-10.8255
នៃការយោគយល់គ្នា	-10.8255
ការច្នៃប្រឌិត	-10.8257
ផ្តើម	-10.8259
បើកកិច្ចប្រជុំ	-10.8261
▁difficulties	-10.8263
▁សិល្បៈ	-10.8263
ចម្ការ	-10.8268
ដេ	-10.8269
▁hundreds	-10.827
▁artists	-10.8271
▁weight	-10.8274
▁Don	-10.8274
▁ធំ	-10.8275
ទីប្រឹក្សា	-10.8276
ល្បែង	-10.8276
តួ	-10.8276
▁keep	-10.8277
▁harvest	-10.8282
ខេត្តព្រៃវែង	-10.8284
▁determination	-10.8284
▁effect	-10.8284
ពាក់កណ្តាល	-10.8287
គេអាច	-10.8288
ខែកុម្ភៈ	-10.829
យ៉	-10.8291
▁fourth	-10.8292
ចាត់ទុកថា	-10.8293
កំពុងរៀបចំ	-10.8293
៥ភាគរយ	-10.8295
▁Am	-10.8295
▁ដើម្បីធានានូវ	-10.8296
▁3)	-10.8296
▁minor	-10.8297
មិនគួរ	-10.8299
ការអាន	-10.8302
▁attractive	-10.8303
like	-10.8309
ious	-10.8311
▁together	-10.8313
ពូជស្រូវ	-10.8313
▁Pech	-10.8314
មួយអង្គ	-10.8314
▁និងអនាម័យ	-10.8314
៕អត្ថបទ៖	-10.8315
កិច្ចសហប្រតិបត្ត	-10.8317
ជាប្រទេស	-10.8317
បំពេញតម្រូវការ	-10.8317
ដែលមានតម្លៃ	-10.8318
▁inform	-10.8319
▁delivered	-10.8324
ក្នុងឱកាស	-10.8326
សរីរាង្គ	-10.8326
នៅចុង	-10.8326
▁variant	-10.8327
ឯកសារផ្លូវការ	-10.8329
នៃសេដ្ឋកិច្ច	-10.833
អារ៉ាប៊ីសាអូឌីត	-10.833
▁NBC	-10.8332
▁repayment	-10.8334
▁mighty	-10.8335
របស់ក្រុម	-10.8337
▁ស្វែងរក	-10.8339
▁method	-10.8339
សប្បាយរីករាយ	-10.834
▁កំណត់	-10.834
▁ឆ្នាំ២០២៣។	-10.8344
▁អូន	-10.8345
mer	-10.8347
▁affix	-10.8347
▁outlined	-10.8347
▁packaging	-10.8347
▁thrive	-10.8347
▁formulation	-10.8348
▁ញ	-10.835
▁stones	-10.8352
១០នាក់	-10.8352
ងើបឡើងវិញ	-10.8353
▁31	-10.8354
▁sale	-10.8359
▁Meng	-10.836
ចម្លង	-10.836
មោទនភាព	-10.8363
ឧស្ម័ន	-10.8363
ខ្លះទៀត	-10.8364
▁commence	-10.8364
▁note	-10.8364
យ៉ាងជិតស្និទ្ធ	-10.8366
▁ធ្វើឡើង	-10.8367
GI	-10.8374
ដោយមាន	-10.8374
▁22,	-10.8375
ប្រៀបធៀប	-10.8378
ស្រុកកំណើត	-10.8381
▁expression	-10.8381
▁emotions	-10.8382
កំពុងបន្ត	-10.8382
ទីផ្សារនាំចេញ	-10.8382
កាណាដា	-10.8383
គោលនយោបាយជាតិ	-10.8384
៤២	-10.8384
▁បទ	-10.8386
នេះគឺជា	-10.8386
ប្រសិទ្ធភាពខ្ពស់	-10.8387
▁ខណ្ឌ	-10.8388
ស្ថិតស្ថេរ	-10.8389
▁noting	-10.8389
ឿ	-10.8391
ត្រឡប់មកវិញ	-10.8392
បានចូលរួម	-10.8396
បញ្ចកោណ	-10.8398
▁react	-10.8399
▁Border	-10.8399
▁កម្ពុជាមាន	-10.8401
លោកគ្រូ	-10.8403
ផ្ដោតលើ	-10.8403
▁បានរៀបចំ	-10.8405
▁check	-10.8409
សម្រាប់នាំចេញ	-10.8409
▁inspection	-10.841
▁រដ្ឋា	-10.8411
solving	-10.8412
▁seed	-10.8417
▁នាយឧត្តមសេនីយ៍	-10.842
ធន់	-10.842
ត្រូវបានប្រារព្ធ	-10.8423
ដូ	-10.8423
▁begins	-10.8424
ប្រកាន់ខ្ជាប់	-10.8425
▁Resources	-10.8427
នៅសហរដ្ឋអាមេរិក	-10.8429
▁amendments	-10.8429
ការលះបង់	-10.8429
របស់វា។	-10.8431
ការទិញ	-10.8433
▁ៗ	-10.8433
មិនចាំបាច់	-10.8435
▁ទីតាំង	-10.8435
▁គោលដៅ	-10.8436
ទៅតុលាការ	-10.8436
នៅស្រុក	-10.8437
Ukraine	-10.8438
ក្លាយទៅជា	-10.844
▁rest	-10.8441
យល់ដឹង	-10.8441
▁uses	-10.8442
បែបណា	-10.8443
អម	-10.8444
តែប៉ុណ្ណោះ	-10.8446
នេះក៏	-10.8446
▁precious	-10.8451
▁Media	-10.8451
បានជួប	-10.8452
ជាច្រើនបាន	-10.8455
▁ការចុះបញ្ជី	-10.8455
មួយសម្រាប់	-10.8456
▁guardians	-10.8456
▁ភាគី	-10.8456
លំ	-10.8457
▁stock	-10.8458
ការស្នើសុំ	-10.8459
▁lacking	-10.8459
▁gained	-10.8462
មាតិកា	-10.8465
▁approach	-10.8466
ចង់ឱ្យ	-10.8466
ប្ដូរ	-10.8468
បទពិសោធ	-10.8468
អភិវឌ្ឍន៍ជនបទ	-10.8469
មានវត្តមាន	-10.8469
▁models	-10.847
bu	-10.8471
អាយុជីវិត	-10.8472
បិត	-10.8478
ដ៏ពិសិដ្ឋ	-10.8481
▁Due	-10.8482
▁ហើយអាច	-10.8484
▁ក្រោមការដឹកនាំ	-10.8484
▁commemorate	-10.8486
▁Non	-10.8487
▁៥០០	-10.8487
▁Tax	-10.8488
▁shift	-10.849
ប្រជាជាតិ	-10.8492
47	-10.8498
ព្រលឹង	-10.8499
▁thoughts	-10.85
▁wages	-10.8502
បន្តពង្រឹងកិច្ច	-10.8503
សម្ងាត់	-10.8503
▁declared	-10.8506
អភិវឌ្ឍន៍ទីក្រុង	-10.8507
▁code	-10.8508
សិទ្ធ	-10.8508
សម្រាប់ការនាំចេញ	-10.8508
កូនប្រុស	-10.8512
▁ហង់ជួ	-10.8513
▁100%	-10.8515
▁structure	-10.8515
នៃវិស័យ	-10.8515
ទប់ទល់នឹង	-10.8516
សម្បូរ	-10.8517
ត្រូវធ្វើឡើង	-10.8517
អ័ព្ទ	-10.8521
មាតាបិតា	-10.8521
▁offered	-10.8522
▁ព្រឹក	-10.8523
ដ៏ល្អិតល្អន់	-10.8523
ទំ	-10.8523
▁អ្នកគ្រូ	-10.8524
▁killing	-10.8528
អ្នកលក់	-10.8529
▁embrace	-10.8532
ធំធេង	-10.8532
បានចុះហត្ថលេខាលើ	-10.8534
បណ្ដា	-10.8537
បំប៉ន	-10.8538
▁Donald	-10.8538
ធ្លាប់បាន	-10.8538
▁VOD	-10.8539
ម្ទេស	-10.854
អ្នកភូមិ	-10.8543
នៅកន្លែង	-10.8543
35	-10.8545
បំផុតសម្រាប់	-10.8546
មានរយៈពេល	-10.8547
ដំណាក់	-10.8547
▁insights	-10.8548
ម៉ែត្រ	-10.8549
▁Ad	-10.855
ស្ថិតក្រោម	-10.8552
ped	-10.8553
▁Sangkat	-10.8555
▁weaving	-10.8556
ដ៏វែងឆ្ងាយ	-10.8556
▁radiant	-10.8556
▁Tuol	-10.8556
ការពារជាតិ។	-10.8556
eneath	-10.8558
▁ខេត្តកំពង់ស្ពឺ	-10.8559
លើទីផ្សារ	-10.856
▁ជី	-10.856
▁ខ្យល់	-10.8562
▁សម្រាប់ការ	-10.8562
គតិយុត្ត	-10.8563
នៅសាលា	-10.8564
នៅពេលនេះ	-10.8567
ការផ្តល់សេវា	-10.8569
ភាពជាអ្នកដឹកនាំ	-10.8569
▁និងតំបន់	-10.8569
AD	-10.8572
▁Students	-10.8572
▁minimal	-10.8573
មានតែ	-10.8574
ៀង	-10.8575
របស់យើង។	-10.8575
▁Ris	-10.8578
▁operation	-10.858
ឆាប់រហ័ស	-10.8581
ចែង	-10.8585
សាំង	-10.8587
▁detect	-10.8587
ព្រះអាទិត្យ	-10.859
ជារឿយៗ	-10.8591
▁sought	-10.8591
▁earned	-10.8591
▁យើងអាច	-10.8592
ដើម្បីជំរុញ	-10.8593
▁Chey	-10.8594
ណ្ឌ	-10.8598
▁recommendations	-10.8599
ven	-10.8604
ដឹកនាំដោយ	-10.8608
▁ការនាំចេញ	-10.8608
▁និងពាណិជ្ជកម្ម	-10.8609
▁recoveries	-10.8609
east	-10.8611
ដែ	-10.8612
▁រក្សា	-10.8612
ទឹកឃ្មុំ	-10.8614
ការបណ្ដុះបណ្ដាល	-10.8614
បង្កើតការងារ	-10.8615
អាមេរិក។	-10.8615
បោះឆ្នោតជ្រើសរើស	-10.8616
▁matters	-10.8616
▁reaffirms	-10.8618
▁chirping	-10.8626
▁stimulate	-10.8626
▁fraud	-10.8626
ក្រុមអ្នក	-10.8626
cr	-10.8626
ែប្រួលអាកាសធាតុ	-10.8628
ជជែក	-10.8629
បើកដំណើរការ	-10.863
ម្នាក់ទៀត	-10.863
បានអះអាងថា	-10.8631
មធ្យមសិក្សា	-10.8633
ការណ៍	-10.8637
ប្រវែង	-10.8637
វាយប្រហារ	-10.8637
▁might	-10.8639
port	-10.8641
▁ក្រោមប្រធានបទ	-10.8646
នឹក	-10.8646
▁lawmakers	-10.8647
▁summons	-10.8647
ឆ្នាំ២០១៧	-10.8648
▁សុំ	-10.8651
▁Ha	-10.8655
សែននាក់	-10.8656
ជំនុំជម្រះ	-10.8656
▁ជាដើម។	-10.8656
ស្នេហា	-10.8657
take	-10.8657
▁appear	-10.8663
ចូលឆ្នាំខ្មែរ	-10.8664
ចំនួនជាង	-10.8666
▁Chro	-10.8671
ឃ្លាំមើល	-10.8672
▁Use	-10.8674
▁រស់	-10.8676
marked	-10.8677
គ្រួសារក្រីក្រ	-10.8679
គម្រោងនេះ	-10.868
បរិសុទ្ធ	-10.8682
ឈានដល់	-10.8685
ក្នុងឆ្នាំ២០២២	-10.8688
NA	-10.8688
គា	-10.8689
ស្សី	-10.8689
though	-10.869
សោះ	-10.8691
▁bond	-10.8692
ឱ្យប្រើប្រាស់។	-10.8693
របាយការណ៍របស់	-10.8694
▁prolonged	-10.8697
▁Saudi	-10.8697
▁Observers	-10.8697
▁expectations	-10.8697
ម្ហូប	-10.8698
▁retain	-10.8698
ការថែទាំ	-10.8698
▁12,	-10.8699
go	-10.87
ឲ្យដឹងថា	-10.87
មានអារម្មណ៍ថា	-10.8701
ប្រឈមនឹង	-10.8701
▁Engineering	-10.8701
នៅប្រទេសកម្ពុជា	-10.8705
នៅភូមិ	-10.8706
បានចូលរួមចំណែក	-10.8707
ក្នុងរង្វង់	-10.8708
បណ្ដាញសង្គម	-10.8708
▁lived	-10.871
aught	-10.8714
នៅត្រឹម	-10.8714
បរាជ័យ	-10.8715
▁មើលរូបភាពបន្ថែម	-10.8715
▁មេត្តា	-10.8716
▁Taxation	-10.8716
53	-10.8719
▁14,	-10.872
▁degrees	-10.872
ភ័យ	-10.8721
នៃប្រទេសទាំងពីរ	-10.8722
▁យុវតី	-10.8723
ដល់យុវជន	-10.8725
រដ្ឋបាលខេត្ត	-10.8727
▁girl	-10.8727
រស្មី	-10.8729
ue	-10.8729
69	-10.8731
ភាគីទាំងពីរ	-10.8732
▁Buddha	-10.8732
ទំនើបកម្ម	-10.8733
▁mindfulness	-10.8733
▁logging	-10.8733
▁upper	-10.8735
▁don	-10.8735
▁associations	-10.8735
កាន់តែមាន	-10.8735
▁ទំហំ	-10.8736
មេត្តា	-10.8739
អភិបាលខេត្ត	-10.8739
▁secondary	-10.874
ចាប់ពីថ្ងៃ	-10.8743
ដ៏រុងរឿង	-10.8744
៧៨	-10.8745
អភិបាលកិច្ច	-10.8747
ដ៏មហិមា	-10.875
របស់តុលាការ	-10.875
▁ម៉ែត្រ	-10.875
▁declining	-10.875
ខ្សែសង្វាក់តម្លៃ	-10.8753
▁sentenced	-10.8755
▁កសិកម្ម	-10.8756
▁constant	-10.8757
ក្រុមហ៊ុនចិន	-10.8757
▁bloomed	-10.8758
▁disasters	-10.8759
▁range	-10.876
▁lay	-10.8761
50,000	-10.8762
ដល់ប្រជាជន	-10.8764
▁Foundation	-10.8768
▁biodiversity	-10.8768
ច្បាប់ចម្លង	-10.877
ធ្វើពិពិធកម្ម	-10.8773
ជ្រ	-10.8774
▁ដើម្បីចូលរួម	-10.8775
▁operate	-10.8775
ធ្វើអាជីវកម្ម	-10.8777
០៧	-10.8778
២០២៥	-10.8779
ពន្យារពេល	-10.8779
▁contract	-10.8781
ហួស	-10.8781
▁primar	-10.8781
ក្នុងកម្រិត	-10.8781
▁ដែលក្នុងនោះ	-10.8782
ពពក	-10.8786
▁sanitary	-10.8786
kindness	-10.8787
▁kilograms	-10.8788
របស់ធនាគារ	-10.8791
បញ្ឈប់ការ	-10.8792
សេចក្ដីព្រាង	-10.8793
▁delivery	-10.8794
រកដំណោះស្រាយ	-10.8795
ភ្ញាក់ផ្អើល	-10.8796
ធ្វើវិសោធនកម្ម	-10.8798
នាំចេញ។	-10.8799
ទាំងក្នុង	-10.8801
សេដ្ឋកិច្ចសង្គម	-10.8802
ភាពបរិសុទ្ធ	-10.8802
▁normal	-10.8804
▁ស្ត្រី	-10.8805
ថៅកែ	-10.8805
សរុបប្រមាណ	-10.8807
ព្យាបាលជំងឺ	-10.881
▁sharp	-10.8811
ឯកភាពគ្នា	-10.8812
អំពើហិង្សា	-10.8812
នឹងកើនឡើង	-10.8813
▁suspected	-10.8813
▁parliamentary	-10.8814
សិល្បករ	-10.8815
គុណធម៌	-10.8815
▁ទំនាក់ទំនង	-10.8816
▁chemical	-10.8818
▁Google	-10.8822
▁readiness	-10.8822
ភាពរីកចម្រើន	-10.8823
▁Workers	-10.8823
ព្រះបរមរាជវាំង	-10.8825
មានជំនាញ	-10.8825
បានកើតឡើង	-10.8826
រៀល	-10.8826
▁Clean	-10.8828
▁institutional	-10.8829
អាស្រ័យលើ	-10.8832
ថមថយ	-10.8832
របស់ឯកឧត្តម	-10.8832
ផែ	-10.8833
ចូលក្នុង	-10.8833
លោកជំទាវ	-10.8834
▁ក្នុងឆ្នាំ	-10.8836
ថ្មីៗ។	-10.8837
ឯង	-10.8839
▁paid	-10.884
▁Lu	-10.8841
90	-10.8842
▁indicate	-10.8843
▁ពិចារណា	-10.8844
▁brand	-10.8844
អង្ករកម្ពុជា	-10.8845
▁ទន្ទឹមនេះ	-10.8846
ជាយុទ្ធសាស្ត្រ	-10.8846
ចំណេះដឹងផ្នែក	-10.8848
ite	-10.8848
របាំ	-10.8856
▁កន្លងទៅ	-10.8857
▁incident	-10.8858
បានរកឃើញថា	-10.886
ការងារជាមួយ	-10.886
▁ផ	-10.8861
light	-10.8863
អំឡុងពេល	-10.8864
▁integrated	-10.8864
ster	-10.8865
▁generating	-10.8866
ដ៏ថ្លៃថ្លា	-10.8868
▁Or	-10.8872
ទូទាំងប្រទេស។	-10.8872
▁rhythm	-10.8875
កាន់តែស៊ីជម្រៅ	-10.8875
▁operating	-10.8876
▁palace	-10.8876
▁Today	-10.8876
ដំឡូងមី	-10.8877
គោក	-10.8878
ប្រឡងបាក់ឌុប	-10.8879
ផលប៉ះពាល់នៃ	-10.8879
▁pain	-10.8881
▁មន្រ្តី	-10.8883
▁16,	-10.8884
▁លះបង់	-10.8885
ទីផ្សារអន្តរជាតិ	-10.8885
អនុគ្រោះពន្ធ	-10.8885
ម៉ាក្រូ	-10.8887
គម្រោងសាងសង់	-10.8888
នៅក្បែរ	-10.8889
អតីតកាលដ៏រុងរឿង	-10.8894
ធំបំផុត	-10.8894
ចាត់	-10.8899
រួមចំណែកដល់	-10.89
-20	-10.8903
myr	-10.8904
▁ដើម្បីដោះស្រាយ	-10.8904
លទ្ធិ	-10.8906
យ៉ាងម៉ឺងម៉ាត់។	-10.8906
▁West	-10.8907
ប្រជា	-10.8908
ពេញនិយម	-10.8909
▁context	-10.8909
▁leave	-10.8909
▁historic	-10.891
ក្រសួងព័ត៌មាន	-10.891
ina	-10.8911
ចម្អិន	-10.8911
▁Pailin	-10.8913
▁promulgation	-10.8913
▁directive	-10.8913
ដើម្បីកាត់បន្ថយ	-10.8914
que	-10.8914
▁gambling	-10.8915
ទប់ស្កាត់ការ	-10.8916
សប្បុរសធម៌	-10.892
ជីវភាពរស់នៅ	-10.8921
ច្រើន។	-10.8922
ឆបោក	-10.8923
វិស័យអចលនទ្រព្យ	-10.8924
បណ្តឹង	-10.8925
▁Na	-10.8927
សេវាថែទាំសុខភាព	-10.8928
ទទឹង	-10.8929
មិនរាថយ	-10.8931
▁Bayon	-10.8931
▁hospitality	-10.8932
win	-10.8933
អនុវត្តវិធានការ	-10.8935
▁ក្លាយជា	-10.8936
រៀនជំនាញ	-10.8937
▁សិស្សានុសិស្ស	-10.8937
ការពង្រីក	-10.8939
ម៉ូ	-10.8939
▁reflected	-10.894
▁វង្ស	-10.8943
▁proposal	-10.8946
តួអង្គ	-10.8949
▁abundant	-10.8949
វិធាន	-10.895
▁inaugurated	-10.8952
ក្នុងខេត្ត	-10.8954
តំណាងរាស្រ្ត	-10.8955
▁Is	-10.8956
gr	-10.8957
MA	-10.8957
▁record	-10.896
៥០នាក់	-10.8961
ជនជាតិវៀតណាម	-10.8963
ស្ថានការណ៍	-10.8966
▁too	-10.8966
▁meets	-10.8967
ឆ្អឹង	-10.8967
រំពឹងថានឹង	-10.897
entrepreneurship	-10.897
ខិត	-10.8971
ផ្ទាំង	-10.8972
សង្គមជាតិ	-10.8973
នឹងចាប់ផ្តើម	-10.8976
▁gaining	-10.8978
▁បានក្លាយជា	-10.8979
េត	-10.8982
មួយចំនួនដែល	-10.8982
▁រៀល	-10.8985
រ៉ូបូត	-10.8985
▁breathtaking	-10.8986
▁machinery	-10.8986
ដ្ឋ	-10.8986
▁យន្តការ	-10.8987
ទិញផ្ទះ	-10.8989
▁និងគ្រួសារ	-10.8991
▁រួមជាមួយនឹង	-10.8992
បានធ្វើឱ្យ	-10.8996
ច្បាប់នេះ	-10.8996
ជាក្រុម	-10.8996
ដួងចិត្ត	-10.8997
▁17,	-10.8998
▁flowing	-10.9
▁disabilities	-10.9004
▁widespread	-10.9004
បង់ពន្ធ	-10.9004
ពេជ្រ	-10.9004
RE	-10.9007
▁បានលើកឡើង	-10.9008
បម្រែបម្រួល	-10.9009
▁ជ្រាលជ្រៅ	-10.901
▁designed	-10.9013
▁criticized	-10.9015
ដាវ	-10.9019
▁candidate	-10.902
វិទ្យុ	-10.9021
▁bolster	-10.9022
▁hinder	-10.9022
គង់	-10.9022
ការធ្លាក់ចុះ	-10.9022
▁type	-10.9023
▁videos	-10.9024
ឆ្លងមេរោគកូវីដ	-10.9024
ឈឺ	-10.9027
ដំបូងគេ	-10.9033
▁ភាគ	-10.9034
78	-10.9035
▁11,	-10.9036
▁participates	-10.9037
កេរដំណែល	-10.9038
▁kilogram	-10.9038
▁មេធាវី	-10.9038
រឹបអូស	-10.9042
ថវិកាជាតិ	-10.9044
ជំហរ	-10.9048
▁remind	-10.9048
▁households	-10.905
សេដ្ឋកិច្ចរបស់	-10.9052
ភាពស្រស់ស្អាត	-10.9053
បានលើកឡើង	-10.9054
▁test	-10.9056
EN	-10.9057
កាបូប	-10.9059
▁agenda	-10.9059
មហាវិថី	-10.9059
ក្រម	-10.906
ចាយ	-10.9061
ភាសាខ្មែរ	-10.9062
▁Mi	-10.9062
▁ពិតប្រាកដ	-10.9062
▁girls	-10.9064
▁Kan	-10.9067
៦៧	-10.907
refore	-10.907
mong	-10.907
▁govern	-10.9072
▁13,	-10.9073
▁Arts	-10.9073
▁fulfill	-10.9073
▁នី	-10.9075
▁ground	-10.9076
ទ័ព	-10.9077
▁moral	-10.9078
▁canal	-10.9078
អ្នកនាំពាក្យ	-10.908
▁platforms	-10.908
ុះ	-10.908
▁meals	-10.9081
ឱ្យបានល្អ	-10.9083
រួមទាំង	-10.9084
ដែលនឹង	-10.9084
han	-10.9085
▁joined	-10.9086
▁Entrepreneurs	-10.9087
▁page	-10.9092
▁terms	-10.9092
▁daughter	-10.9096
▁solidarity	-10.9096
▁extreme	-10.9096
▁obligated	-10.9096
▁Sector	-10.9096
▁professionals	-10.9097
form	-10.9099
ផ្ដល់នូវ	-10.9099
បានបើក	-10.9101
▁ហើយការ	-10.9104
ឈានទៅ	-10.9104
▁grown	-10.9105
ញុះញង់	-10.9113
អស់រយៈពេល	-10.9113
▁cuisine	-10.9114
មើលទៅ	-10.9116
សមាជិកព្រឹទ្ធសភា	-10.9116
▁preparedness	-10.9117
ដែលខ្លួន	-10.9117
នៅក្នុងទីផ្សារ	-10.9121
ក្នុងការការពារ	-10.9124
ud	-10.9126
▁slow	-10.9126
ប៉េ	-10.9127
▁integrate	-10.9129
ទីក្រុងប៉ារីស	-10.913
▁Naga	-10.9131
▁BYD	-10.9133
▁Heritage	-10.9133
▁5-	-10.9133
▁authorized	-10.9133
▁Tbong	-10.9133
▁ការបណ្តុះបណ្តាល	-10.9134
▁usher	-10.9134
▁Telegram	-10.9134
▁seemed	-10.9135
គ្រប់គ្រងហានិភ័យ	-10.9139
ោង	-10.914
ឡេ	-10.9141
▁ready	-10.9142
មូល	-10.9142
▁investigate	-10.9144
▁ទិញ	-10.9145
▁pledge	-10.9146
▁protocols	-10.9146
បណ្តាលឲ្យ	-10.9146
លេខាធិការដ្ឋាន	-10.9147
work	-10.9148
បន្ថយ	-10.9148
អនុគ្រោះ	-10.915
▁celebration	-10.915
▁consultations	-10.9151
វាស់វែង	-10.9152
រៀបរាប់	-10.9152
ដាក់ពាក្យស្នើសុំ	-10.9156
▁hermit	-10.9156
ថ្មីសម្រាប់	-10.9157
standing	-10.9158
អរិយធម៌	-10.9158
យោធិន	-10.9159
▁overall	-10.9162
▁ថ្មីៗនេះ	-10.9163
▁collapse	-10.9164
EC	-10.9165
នៅពីក្រោយ	-10.9168
▁សម្តេចអគ្គ	-10.9168
▁លំនៅឋាន	-10.9169
អាស៊ីសេរី	-10.917
▁elderly	-10.9172
▁swiftly	-10.9175
▁អគ្គលេខាធិការ	-10.9176
ពាក់ព័ន្ធទៅនឹង	-10.9177
▁delay	-10.9179
យល់ដឹងពី	-10.918
បន្តការសិក្សា	-10.9181
ទេសរដ្ឋមន្ត្រី	-10.9182
បង	-10.9183
ក៏កំពុង	-10.9183
យល់ពី	-10.9184
ចៀសវាង	-10.9186
▁រ៉ា	-10.9187
▁applying	-10.9188
ម្សៅ	-10.9189
▁Nature	-10.9189
▁Address	-10.9192
ផ្សេងទៀត។	-10.9194
▁Funan	-10.9196
▁លោកបាន	-10.9204
▁arise	-10.9204
▁boundless	-10.9207
▁renewable	-10.9208
រងរបួសធ្ងន់	-10.9208
ប្រា	-10.9209
បានយាង	-10.9211
▁onward	-10.9213
ជម្លោះដីធ្លី	-10.9213
▁mining	-10.9214
▁នៅតាម	-10.9216
បាល	-10.9217
ah	-10.922
▁preserved	-10.922
▁30,	-10.9222
▁សួរ	-10.9225
▁melodious	-10.9226
▁temporarily	-10.9226
កម្ដៅ	-10.9226
▁extraordinary	-10.9226
▁បុរសម្នាក់	-10.9227
កម្រ	-10.923
▁titles	-10.9231
ទំនួលខុសត្រូវ	-10.9233
ការអនុវត្តគម្រោង	-10.9234
▁electrical	-10.9234
▁shifts	-10.9234
បានប្រើប្រាស់	-10.9234
បែរជា	-10.9235
▁ថ្លៃ	-10.9239
▁ខេ	-10.9241
អំណាន	-10.9244
មេគង្គ	-10.9245
▁attempt	-10.9245
▁accuracy	-10.9245
▁shimmering	-10.9245
▁adequate	-10.9245
បាទជ័យវរ្ម័នទី៧	-10.9245
្តិការរវាង	-10.9256
ប្រាក់ឈ្នួល	-10.9257
▁obligations	-10.9259
ris	-10.9261
ដែលធ្វើឱ្យ	-10.9261
▁enhancement	-10.9262
▁buying	-10.9262
▁features	-10.9263
រាប់សតវត្សរ៍	-10.9263
▁theft	-10.9263
▁maritime	-10.9264
ការណែនាំ	-10.9267
ram	-10.9268
ញ្ញ	-10.9268
▁ប្រាសាទ	-10.9268
ភាពរីករាយ	-10.9269
▁mist	-10.927
Chief	-10.9271
▁ទន្លេមេគង្គ	-10.9275
▁Cha	-10.9278
▁Sovann	-10.9278
ដល់កម្ពុជា	-10.928
ឱ	-10.9281
ធន	-10.9283
▁immunity	-10.9283
អាចត្រូវបាន	-10.9284
▁Canal	-10.9286
▁circumstances	-10.9287
មានសុពលភាព	-10.9287
▁remove	-10.9289
▁Bar	-10.9289
▁៣៥	-10.929
▁seasons	-10.9294
មុំ	-10.9295
▁បន្តបន្ទាប់	-10.9296
យូរអង្វែង	-10.9299
▁cutting	-10.9299
៦៦	-10.93
រាប់រយ	-10.9302
ក្រូច	-10.9302
ជម្រះ	-10.9302
ជលផល	-10.9302
▁stating	-10.9302
នាយទាហាន	-10.9304
យ៉ាងតិច	-10.9304
វិស័យនេះ	-10.9307
យុគសម័យ	-10.9308
▁ដីធ្លី	-10.9308
▁ព្រះអាទិត្យ	-10.931
FTA	-10.9314
នៅមាន	-10.9316
គន្លង	-10.932
▁glory	-10.932
ហោះ	-10.9324
▁ធ្នូ	-10.9325
▁ខ	-10.9326
រហូតមកដល់	-10.9326
ដ៏មាន	-10.9327
សម្តេចធិបតី	-10.9327
បាននូវ	-10.9328
ឆ្ងាយពី	-10.9328
៩៣	-10.933
ថាតើ	-10.9331
▁ស្ដីពី	-10.9333
យោបល់	-10.9335
ឆ្ងាញ់	-10.9335
▁Along	-10.9339
▁deputy	-10.9339
▁inevitably	-10.9339
▁involvement	-10.934
ប្រវត្តិសាស្រ្ត	-10.934
យុទ្ធ	-10.9341
ដ៏ស្រទន់	-10.9343
▁សហជីព	-10.9345
នៅឆ្នាំ២០២៣	-10.9352
▁ចំណាយ	-10.9353
▁ដើម្បីអាច	-10.9355
សប្បាយ	-10.9356
ប្រារព្ធទិវា	-10.9358
ផ្នត់គំនិត	-10.9358
▁BRICS	-10.9358
▁crime	-10.9359
▁បានដឹកនាំ	-10.9362
▁ឆ្ពោះ	-10.9362
ចន្ទ	-10.9363
ដ៏សំខាន់នៃ	-10.9363
ត្រូ	-10.9364
ការវាយប្រហារ	-10.9365
សុទ្ធតែជា	-10.9367
មានសកម្មភាព	-10.9369
▁ក្លិន	-10.9371
ផលក្នុងស្រុកសរុប	-10.9372
rin	-10.9372
កាត់ដេរ	-10.9375
▁Sang	-10.9376
58	-10.9376
▁ជិត	-10.9376
Private	-10.9377
▁faith	-10.9377
▁entities	-10.9377
▁consultation	-10.9379
▁stance	-10.938
នឹងប្រព្រឹត្តទៅ	-10.9382
ប្រជាពលរដ្ឋខ្មែរ	-10.9382
ទ្រី	-10.9382
▁arrived	-10.9383
អនុក្រឹត្យ	-10.9385
៨៥	-10.9385
85	-10.9386
▁Ek	-10.9388
រក្សាស្ថិរភាព	-10.939
ស្មុគស្មាញ	-10.9391
សេចក្ដីប្រកាស	-10.9392
ក្រុមហ៊ុនឯកជន	-10.9393
▁concrete	-10.9396
▁explain	-10.9397
use	-10.9397
▁ឧត្តម	-10.9397
▁improves	-10.9398
▁updated	-10.9399
វប្បធម៌ខ្មែរ	-10.9399
លើបញ្ហា	-10.9402
▁និងវិនិយោគ	-10.9402
▁prompt	-10.9404
▁Ung	-10.9405
▁បំភ្លឺ	-10.9405
កិច្ចការពារ	-10.9408
▁hospitals	-10.9413
▁gifts	-10.9413
ified	-10.9414
▁Future	-10.9415
▁movement	-10.9417
ជាប្រធាន	-10.9419
▁Dith	-10.9423
ក្នុងឆ្នាំ២០២៤	-10.9431
ការវិនិយោគលើ	-10.9432
▁បានបញ្ជាក់	-10.9433
▁Speaking	-10.9435
▁creativity	-10.9435
សមាសភាព	-10.9435
ក្នុងការផលិត	-10.9437
▁wage	-10.9438
ព្រេងនា	-10.9438
ក្នុងការចូលរួម	-10.9439
ថែម	-10.944
▁bears	-10.9441
ក៏មិន	-10.9442
▁ប្រែប្រួល	-10.9444
ពុល	-10.9444
ការលំបាក	-10.9446
ប្រារព្ធពិធី	-10.9446
ko	-10.9449
▁dreams	-10.945
▁ឈ្នះ	-10.945
▁គម្រោងនេះ	-10.945
០៦	-10.9451
iad	-10.9452
▁oversight	-10.9454
▁confront	-10.9454
▁ranks	-10.9454
54	-10.9455
▁Ru	-10.9457
ថ្ងៃទី២១	-10.9459
ួង	-10.9461
▁10%	-10.9462
មួយរបស់	-10.9463
កែវ	-10.9466
ត្រូវបានអនុម័ត	-10.9466
▁rooted	-10.9467
▁បាត់ដំបង	-10.9467
▁ក្រោមអធិបតីភាព	-10.9469
ie	-10.9469
ភ្	-10.9472
ឥរិយាបថ	-10.9473
▁Conference	-10.9473
▁choose	-10.9473
▁ស្មារតី	-10.9474
▁flavor	-10.9475
ទាំង២	-10.9479
▁pagodas	-10.9481
វិបុលភាព	-10.9484
▁Chief	-10.9485
ទូ	-10.9485
នឹងផ្តល់	-10.9486
▁ឧកញ៉ា	-10.9486
▁ក្នុងពេល	-10.9488
ម៉ូដ	-10.9489
▁កាត់បន្ថយ	-10.9491
ភាពប៉ិនប្រសប់	-10.9492
▁commodities	-10.9492
▁oath	-10.9492
▁35	-10.9494
អាចមាន	-10.9494
ពហុភាគីនិយម	-10.9494
▁faster	-10.9494
▁Leng	-10.9495
Angkor	-10.95
ទំនាក់ទំនងរវាង	-10.95
commerce	-10.9501
ជុំ	-10.9501
ជនជាតិដើមភាគតិច	-10.9502
▁4-	-10.9502
៦៩	-10.9505
bit	-10.9506
▁relationships	-10.9509
▁50%	-10.9511
▁Ki	-10.9511
រួចជាស្រេច	-10.9512
▁tale	-10.9514
▁បានធ្វើការ	-10.9517
ថ្វាយ	-10.9519
ស្ថាប័នរដ្ឋ	-10.952
កូនស្រី	-10.952
low	-10.952
▁Sothea	-10.952
56	-10.9521
យ៉ាងច្បាស់លាស់	-10.9523
tan	-10.9523
កសាងសមត្ថភាព	-10.9526
100	-10.9526
៣០នាក់	-10.9527
ការព្រួយបារម្ភ	-10.9528
▁បានគូសបញ្ជាក់ថា	-10.9528
▁ហើយវា	-10.9529
▁និងបូរណភាពទឹកដី	-10.9531
កំដៅ	-10.9531
បន្សល់ទុកនូវ	-10.9531
▁វិភាគ៖	-10.9532
▁Cultural	-10.9534
▁ពណ៌	-10.9538
ឆ្នាំ២០១៦	-10.9539
ជះឥទ្ធិពល	-10.9539
▁៣០០	-10.9539
▁Di	-10.954
៥១	-10.954
od	-10.954
CBC	-10.954
▁ban	-10.9541
▁ស្ថិតក្នុង	-10.9542
ឯកឧត្ដម	-10.9543
▁និងចិន	-10.9544
ការចាប់អារម្មណ៍	-10.9546
water	-10.9548
▁Efforts	-10.955
ock	-10.955
កម្	-10.955
វេចខ្ចប់	-10.9551
ការធានា	-10.9552
▁ភាគរយ។	-10.9553
▁electronics	-10.9554
mit	-10.9555
គ្រាប់ពូជ	-10.9555
▁Personal	-10.9555
▁targeting	-10.9559
ឃ្មុំ	-10.956
រួមបញ្ចូល	-10.956
៦៥	-10.9564
ថយ	-10.9564
▁indigen	-10.9565
កើនដល់	-10.957
▁different	-10.957
ពីលើ	-10.9571
▁ត្រី	-10.9573
▁MoU	-10.9582
▁គឺជាអាទិភាព	-10.9584
▁charge	-10.9584
▁UNESCO	-10.9585
GDP	-10.9586
យន្ត	-10.9587
▁accompani	-10.9589
▁មួយវិញទៀត	-10.9589
▁ថ្នាក់	-10.9589
ដែលជាអ្នក	-10.959
▁democratic	-10.959
▁និងផ្តល់	-10.9592
▁នគរបាល	-10.9594
▁រំដោះ	-10.9595
▁questioning	-10.9596
ថ្ងៃអង្គារ	-10.9597
ក្នុងអំឡុង	-10.9598
▁អះអាងថា	-10.96
▁ក្លាយ	-10.9602
តិចជាង	-10.9604
ៀ	-10.9606
changing	-10.9608
▁solid	-10.9608
▁warrant	-10.9608
09	-10.9609
▁29,	-10.961
▁exporters	-10.9613
តុលាការកំពូល	-10.9614
▁Omicron	-10.9614
កាបូន	-10.9614
ាណាចក្រ។	-10.9615
▁Pan	-10.9617
▁គម្រោងបង្កើត	-10.9617
លាក់បាំង	-10.962
▁$100	-10.9621
បង់ប្រាក់	-10.9621
ves	-10.9624
▁commit	-10.9626
ins	-10.9627
▁parliament	-10.9627
▁intelligence	-10.9628
▁heavily	-10.9628
▁mis	-10.9628
ឈានមុខគេ	-10.9628
▁25,	-10.9629
ពិតជាមាន	-10.9629
រុះរើ	-10.9629
▁ចក់	-10.963
▁ក្រុមយុវជន	-10.9631
plete	-10.9632
▁TV	-10.9632
▁heroes	-10.9632
▁ការពារ	-10.9633
នៅឯ	-10.9634
ជាទូទៅ	-10.9636
▁Tong	-10.9636
ការដាំ	-10.9637
សម្រាប់កសិករ	-10.9639
▁constructed	-10.9641
▁និងផ្លូវ	-10.9645
ub	-10.9645
▁intellectual	-10.9647
គ្រង	-10.965
សាលាឧទ្ធរណ៍	-10.9651
▁woven	-10.9652
▁options	-10.9653
▁bridges	-10.9653
▁license	-10.9654
៦ខែ	-10.9656
តម្លៃសមរម្យ	-10.9658
▁copy	-10.9658
ឲ្យប្រើប្រាស់	-10.9659
កៀរគរ	-10.9661
▁និងវប្បធម៌	-10.9663
ជាតិគ្រប់គ្រង	-10.9664
▁visiting	-10.9665
ple	-10.9665
▁abandon	-10.9668
ham	-10.9668
▁sides	-10.9669
បានចាប់ផ្ដើម	-10.967
“	-10.967
មួយចំនួនដូចជា	-10.967
តាមតម្រូវការ	-10.967
▁enterprise	-10.9671
▁lawyer	-10.9671
▁ប្រទេសចិន	-10.9671
សប្បាយចិត្ត	-10.9675
ឆ្ពោះទៅ	-10.9675
▁សិប្បកម្ម	-10.9679
បណ្ដាលឲ្យ	-10.9681
▁profoundly	-10.9681
ផលវិបាក	-10.9681
ទាក់	-10.9682
កំណត់គោលដៅ	-10.9684
មហិច្ឆតា	-10.9686
▁Major	-10.9686
▁Toyota	-10.9687
ផ្ទាំងគំនូរ	-10.9687
ស្វាមី	-10.9687
▁Board	-10.9687
.....	-10.9688
tech	-10.969
ជួយសម្រួល	-10.969
▁ប្រធានាធិបតី	-10.969
▁talent	-10.9691
▁flourished	-10.9691
ផ្ទៃមេឃ	-10.9694
lar	-10.9696
បេតិកភណ្ឌវប្បធម៌	-10.9696
អត្រាអតិផរណា	-10.9697
យកចិត្តទុកដាក់លើ	-10.9698
ក្មេងៗ	-10.9701
▁Officials	-10.9702
▁Mobile	-10.9706
▁documentation	-10.9711
▁dream	-10.9711
យើងបាន	-10.9711
▁Lang	-10.9711
ប្រសិទ្ធភាពនៃការ	-10.9712
▁initiated	-10.9713
រលាយ	-10.9714
៥៤	-10.9716
មេត្តាធម៌	-10.9717
រិ	-10.9719
▁warning	-10.9721
ត្រូវបានបែងចែក	-10.9722
grade	-10.9723
ium	-10.9725
បរិបទ	-10.9725
▁bitter	-10.9726
▁ethical	-10.9726
▁attachment	-10.9731
តូចមួយ	-10.9732
▁7.	-10.9732
ខាតបង់	-10.9733
resilient	-10.9736
gi	-10.9737
▁កូន	-10.9738
▁resume	-10.9739
ទាន់ពេលវេលា	-10.974
ជានិមិត្តរូបនៃ	-10.974
អុ	-10.9742
▁600	-10.9744
អំបិល	-10.9746
ទីលំនៅ	-10.9747
tourism	-10.9748
▁បានបន្តថា	-10.9748
gle	-10.9749
បទបញ្ជា	-10.975
កម្ពុជាមាន	-10.9753
ចំនួន៦	-10.9755
ទាំងអស់ត្រូវតែ	-10.9756
ជំរុញការនាំចេញ	-10.9758
ការធ្វើទំនើបកម្ម	-10.976
▁seized	-10.9761
▁collaborated	-10.9764
▁drivers	-10.9765
▁coordination	-10.9765
▁search	-10.9765
តែមួយគត់	-10.9766
▁display	-10.9766
អាយ	-10.9767
ING	-10.9768
▁battle	-10.977
▁view	-10.977
សិទ្ធិសេរីភាព	-10.9771
បង្កើតជា	-10.9772
វិញ្ញាណក្ខន្ធ	-10.9775
▁legally	-10.9776
ទុក្ខលំបាក	-10.9777
▁Bakong	-10.9781
កម្មវិធីនេះ	-10.9782
▁floods	-10.9784
ឱកាសការងារ	-10.9784
▁សូមសរសេរមក	-10.9785
វីតាមីន	-10.9785
នេះហើយ	-10.9786
des	-10.979
ទៀងទាត់	-10.9791
អគ្គស្នងការ	-10.9791
ម្យ៉ាង	-10.9791
បង្ការជំងឺកូវីដ	-10.9792
▁solemn	-10.9793
▁21,	-10.9793
អភិវឌ្ឍន៍កសិកម្ម	-10.9793
ទំហំពាណិជ្ជកម្ម	-10.9794
▁27,	-10.9797
64	-10.9799
▁Tang	-10.9803
▁cuts	-10.9803
▁អ្វីដែល	-10.9804
សមាធិ	-10.9805
រោគរាតត្បាត	-10.9805
ព្រះទ័យ	-10.9807
ក្នុងករណី	-10.9807
▁helping	-10.9807
ធានាថា	-10.9807
▁និងប្រើប្រាស់	-10.9808
▁forecast	-10.981
▁26,	-10.9812
▁stars	-10.9814
ដែលទើប	-10.9818
ធំជាងគេ	-10.9819
ថវិកាជាតិសម្រាប់	-10.982
ទប់	-10.9821
▁delegates	-10.9824
ពេលព្រឹក	-10.9824
ហាត់ប្រាណ	-10.9825
▁Domestic	-10.9825
▁Wildlife	-10.9825
risk	-10.9825
▁disrupt	-10.9825
▁signs	-10.9826
▁wastewater	-10.9826
ការចាប់ផ្តើម	-10.9827
ឡុង	-10.9829
▁អ្នកអាច	-10.9829
▁សហ	-10.983
ខ្មែរក្រោម	-10.983
ធ្វើពី	-10.9833
បណ្ដាប្រទេស	-10.9834
▁crossing	-10.9836
▁hall	-10.9837
ការដំឡើង	-10.9839
▁addition	-10.9839
▁ព្រោះថា	-10.984
▁ចាប់ផ្តើម	-10.984
ក្រោមម្លប់	-10.9841
ថ្	-10.9842
▁ព្រះសង្ឃ	-10.9843
▁demonstrate	-10.9844
▁ញឹម	-10.9846
▁collided	-10.9846
នឹងធ្វើ	-10.9846
ប្រាក់ខែ	-10.9849
អាចធ្វើបាន	-10.9855
ត្រូវបានកំណត់ដោយ	-10.9856
ជាអាទិភាព	-10.9856
ជាមួយលោក	-10.9857
san	-10.9858
▁whispered	-10.986
ផ្លូវដែក	-10.9861
▁នីតិវិធី	-10.9862
ទី៦	-10.9863
▁Customs	-10.9865
DA	-10.9868
ុក	-10.9871
▁Pov	-10.9871
▁មែន	-10.9873
យើងអាច	-10.9877
▁consumers	-10.9878
aw	-10.9878
:00	-10.988
លើផ្ទៃដី	-10.9885
▁ស្របពេល	-10.9885
▁និងសន្តិសុខ	-10.9886
បទចម្រៀង	-10.9886
ការដោះស្រាយ	-10.9887
cu	-10.989
នៅផ្ទះ	-10.9895
▁term	-10.9896
តម្រង់ទិស	-10.9897
▁You	-10.9899
mon	-10.9902
▁look	-10.9904
class	-10.9904
▁geopolitical	-10.9905
ការសន្សំ	-10.9905
▁parts	-10.9905
▁vaccinated	-10.9906
ទូទាំងព្រះរាជ	-10.9909
▁rendered	-10.9913
▁bell	-10.9913
មានការរីកចម្រើន	-10.9916
៧៥	-10.9917
ita	-10.992
ផ្តោតលើការ	-10.9921
០ដុល្លារ	-10.9923
▁សមត្ថភាព	-10.9924
សន្លឹក	-10.9924
▁មិនមាន	-10.9925
▁instance	-10.9925
▁counter	-10.9925
ក្រោយពី	-10.9926
ការពិនិត្យ	-10.9928
▁deepen	-10.9928
▁និងការងារ	-10.9929
▁ការចូលរួម	-10.9929
▁computer	-10.9931
ដាក់បញ្ចូល	-10.9932
បានចេញសេចក្តី	-10.9933
▁mingled	-10.9934
▁rep	-10.9937
ការផ្ដល់	-10.9941
79	-10.9942
▁បានសម្រេច	-10.9942
▁wise	-10.9945
▁novel	-10.9946
▁point	-10.9947
▁ក៏ប៉ុន្តែ	-10.9947
ការសម្រេច	-10.9948
បញ្ជាឲ្យ	-10.9949
.6%	-10.995
▁Kram	-10.9951
▁volunteer	-10.9951
៥៧	-10.9951
យុត្តិធម៌។	-10.9952
▁structures	-10.9953
វេលា	-10.9953
អ្នកទេសចរ	-10.9953
ហ្នឹង	-10.9954
ត្រូវតែមាន	-10.9954
មានគុណភាព	-10.9958
▁observe	-10.9958
សារៈសំខាន់	-10.996
95	-10.9961
នាម	-10.9962
▁ព្រម	-10.9964
▁coverage	-10.9966
ជៀសវាង	-10.9967
▁ករុណា	-10.9968
▁អ្នកនាង	-10.9968
▁figures	-10.9968
▁ប៉ុន្ដែ	-10.9969
ប្រចាំនៅកម្ពុជា	-10.9971
ពីអាជ្ញាធរ	-10.9972
▁lies	-10.9973
▁Data	-10.9973
នៅប្រទេសថៃ	-10.9975
អ្នកអភិវឌ្ឍន៍	-10.9976
▁អាស៊ាន	-10.9976
▁branch	-10.9983
ដោយជោគជ័យ	-10.9984
CH	-10.9988
របស់ខ្ញុំ	-10.9989
▁នឹងជួយ	-10.9992
បន្តគាំទ្រ	-10.9994
▁$9	-10.9995
បក្សភ្លើងទៀន	-10.9997
BA	-10.9998
▁កម្មវិធីនេះ	-10.9998
ធ្វើពាណិជ្ជកម្ម	-10.9999
ដាក់លក់	-11.0001
ក្នុងនាមជា	-11.0001
ស៊ីន	-11.0003
៥៨	-11.0006
▁Sreng	-11.0007
ជនជាប់ចោទ	-11.0009
▁ទំនិញ	-11.0011
▁80	-11.0012
uch	-11.0015
▁(5	-11.0017
ណាស់ក្នុងការ	-11.0019
▁rescue	-11.002
▁Sh	-11.002
សំបក	-11.0021
តឹងរ៉ឹង	-11.0021
ជាធរមាន។	-11.0022
៧៦	-11.0022
▁gaps	-11.0022
▁brilliant	-11.0026
▁hair	-11.0027
▁testing	-11.0029
បណ្ដាលឱ្យ	-11.0029
▁និងគុណភាព	-11.003
ខុសគ្នា	-11.003
ការប្រាក់	-11.003
ទ្រង់បាន	-11.0031
▁populations	-11.0033
ក្នុងទីផ្សារ	-11.0033
▁rigorous	-11.0035
វិទ្យាស្ថានជាតិ	-11.0037
ise	-11.0037
បំណិន	-11.0037
▁ទាក់ទងនឹង	-11.0038
▁ឈ	-11.0039
បានជំរុញឱ្យ	-11.0039
▁ស្តីពីការ	-11.0041
ដ៏ខ្ពង់ខ្ពស់របស់	-11.0042
អាកាសធាតុ។	-11.0042
▁preside	-11.0042
▁របាំអប្សរា	-11.0043
▁failed	-11.0044
▁wish	-11.0044
ពណ៌មាស	-11.0046
▁encouraging	-11.0046
▁memory	-11.0046
▁calm	-11.0047
▁favorable	-11.0047
បានបន្លឺឡើង	-11.0049
▁ប្រភព	-11.0055
ការបង្រៀន	-11.0055
▁មានសារៈសំខាន់	-11.0055
៨៩	-11.0057
▁28,	-11.0057
▁គម្រោងសាងសង់	-11.0058
▁ប្រធានគណបក្ស	-11.006
▁Africa	-11.0064
តាមអនឡាញ	-11.0065
▁congestion	-11.0067
▁honey	-11.0067
▁Election	-11.0068
រៀបការ	-11.0068
▁Taiwan	-11.0073
មានកម្រិត	-11.0074
▁determined	-11.0074
ព្រៃជ្រៅ	-11.0075
▁ខៀវ	-11.0079
▁ត្រៀម	-11.008
▁purposes	-11.008
បានកើនឡើងដល់	-11.0081
gen	-11.0082
▁promulgate	-11.0082
▁appropriate	-11.0084
▁issu	-11.0085
រៀបចំកម្មវិធី	-11.0086
អ្នកស្រាវជ្រាវ	-11.0086
▁Padei	-11.0087
▁insects	-11.0087
▁assert	-11.0087
តាមផ្លូវ	-11.0088
មានចំណែក	-11.0089
ការរឹតបន្តឹង	-11.0089
▁minutes	-11.009
▁tariffs	-11.0091
ការអនុលោមតាម	-11.0096
▁45	-11.0096
▁Parliament	-11.0098
▁Sophea	-11.0099
▁humanity	-11.0099
៥៦	-11.01
vis	-11.0102
បុណ្យភ្ជុំបិណ្ឌ	-11.0103
▁៣១	-11.0103
▁powerful	-11.0105
▁pass	-11.0106
▁Indigen	-11.0107
▁walked	-11.0108
59	-11.011
▁នាយកប្រតិបត្តិ	-11.0112
89	-11.0112
អង់	-11.0113
▁ហើយបាន	-11.0115
▁pillar	-11.0116
នាពេលកន្លងមក	-11.0119
ការដ្ឋាន	-11.012
▁arrive	-11.0122
▁នៅតែបន្ត	-11.0123
io	-11.0125
▁movements	-11.0127
៥៣	-11.0128
▁APSARA	-11.0128
លម្អ	-11.013
▁ខេត្តកណ្តាល	-11.0131
mat	-11.0134
▁virtue	-11.0136
▁constructing	-11.0137
▁ព្រះសីហនុ	-11.0141
ប្រចាំការ	-11.0141
រស់រវើក	-11.0142
ធ្វើតេស្ត	-11.0143
ក្នុងចិត្ត	-11.0145
ប្រកាសព័ត៌មាន	-11.0145
▁surrounding	-11.0145
▁និងជំរុញកំណើន	-11.0147
▁steps	-11.0148
▁suppress	-11.015
▁ទេព	-11.0151
នៃការប្រើប្រាស់	-11.0152
▁Skills	-11.0152
ល្បឿនលឿន	-11.0153
សមាជិកសភា	-11.0154
▁ការថែទាំ	-11.0156
▁ធនាគារពិភពលោក	-11.0158
រាប	-11.0158
▁និងទទួលបាន	-11.0158
tu	-11.0161
ដាក់ពន្ធនាគារ	-11.0161
ទ្វារ	-11.0163
▁salt	-11.0165
▁clouds	-11.0167
▁ដែលមានទីតាំង	-11.0168
▁ក្រោយពេល	-11.0168
▁congratulat	-11.0169
ទាហាន	-11.0169
ឆ្នាំ២០១៨	-11.0169
▁វប្បធម៌	-11.017
▁Jo	-11.017
កែសម្រួល	-11.0171
tha	-11.0172
សាទរ	-11.0174
▁freedoms	-11.0174
កាន់តែល្អប្រសើរ	-11.0174
បណ្តាលឱ្យ	-11.0176
▁recalled	-11.0178
៣៦	-11.0178
▁stream	-11.0179
របស់ខ្មែរ	-11.0179
កំពុងស្វែងរក	-11.0179
កត់ត្រា	-11.018
▁lesson	-11.0181
▁នឹងមាន	-11.0182
ខាងកើត	-11.0186
ការដ្ឋានសាងសង់	-11.0188
អក្សរ	-11.0189
▁captivating	-11.019
▁transmission	-11.019
▁ទូច	-11.019
នៅទីនោះ	-11.019
យា	-11.0194
▁សិង្ហបុរី	-11.0194
▁ដើម្បីគាំទ្រដល់	-11.0195
ក្រុមគ្រូពេទ្យ	-11.0195
▁និងត្រូវ	-11.0196
ផ្កាឈូក	-11.0197
៨៧	-11.0198
▁ខាងមុខនេះ	-11.0199
▁Car	-11.0199
▁endless	-11.0201
▁dried	-11.0204
សារៈសំខាន់ណាស់	-11.0204
▁casting	-11.0208
ឃាត់	-11.0208
ច្នៃប្រឌិត	-11.0209
បានបង្កើតឡើង	-11.021
ឆ្វេង	-11.021
▁dissemination	-11.021
▁North	-11.021
▁foreigners	-11.0211
▁proceedings	-11.0211
▁sunlight	-11.0211
▁hands	-11.0212
▁opened	-11.0213
email	-11.0214
▁និងថាមពល	-11.0215
ជាដើម៕	-11.0217
▁Tan	-11.0218
រួចមកហើយ	-11.022
យ៉ាងទូលំទូលាយ	-11.022
ral	-11.0221
ទៅដោយ	-11.0221
តំ	-11.0223
▁និងការអនុវត្ត	-11.0223
ជួបពិភាក្សា	-11.0224
▁ព្យាយាម	-11.0225
ដែលបាត់បង់	-11.0228
ការចូលរួមរបស់	-11.0228
ash	-11.0228
ស្លឹកឈើ	-11.023
▁ធនាគារកណ្តាល	-11.023
reflection	-11.023
▁ផ្កា	-11.023
▁chapter	-11.0231
▁Below	-11.0231
57	-11.0232
▁commenters	-11.0232
▁detected	-11.0233
▁agree	-11.0233
▁sentences	-11.0235
ប្រជែង	-11.0236
▁weapons	-11.0237
▁warmth	-11.0238
សមាហរណកម្ម	-11.0238
▁commended	-11.0238
▁launches	-11.0238
ប៉ោយប៉ែត	-11.0239
ការតាមដាន	-11.024
▁បានដាក់ចេញនូវ	-11.0241
▁exporting	-11.0241
▁How	-11.0241
▁ស្រមោល	-11.0245
▁emerge	-11.0245
កាលានុវត្តភាព	-11.0248
▁contain	-11.0249
ត្នោត	-11.025
ដ៏បរិសុទ្ធ	-11.0251
▁Hotel	-11.0252
▁important	-11.0253
ជាប្រព័ន្ធ	-11.0255
ជាមិត្ត	-11.0256
ក៏ជា	-11.0257
កាន់តែប្រសើរឡើង	-11.0258
▁មានតម្លៃ	-11.026
វិញ្ញាណ	-11.0264
▁Develop	-11.0265
▁linking	-11.0265
ការរក្សា	-11.0267
ពិធីបុណ្យអុំទូក	-11.0269
ការចិញ្ចឹម	-11.0269
▁Support	-11.0271
▁feasibility	-11.0273
ហ្គាស	-11.0273
ក្តៅ	-11.0274
▁domestically	-11.0275
▁constitutional	-11.0275
ទុកចិត្ត	-11.0275
▁communes	-11.028
▁Radio	-11.0281
អាចលក់បាន	-11.0281
▁bird	-11.0283
▁CDC	-11.0284
br	-11.0284
▁declares	-11.0286
វីរភាព	-11.0291
ចរាចរ	-11.0292
មានការអភិវឌ្ឍ	-11.0293
តុបតែង	-11.0293
▁easily	-11.0293
▁exist	-11.0294
បន្	-11.0295
▁artisans	-11.0296
កាត	-11.0297
▁male	-11.0297
៦៤	-11.0302
ស្ត	-11.0303
▁ប្រសិន	-11.0304
▁ថវិកា	-11.0304
អាហ្វ្រិក	-11.0305
▁20%	-11.0306
ភ្លាម	-11.0311
▁២៩	-11.0313
▁ព័ត៌មាន	-11.0314
សួនច្បារ	-11.0314
▁Estate	-11.0314
▁formulating	-11.0314
ដ៏ច្រើន	-11.0315
ធារាសាស្ត្រ	-11.0315
ថ្លែង	-11.0315
ជួញដូរគ្រឿងញៀន	-11.0317
▁forums	-11.0318
▁អាន	-11.0319
▁Ex	-11.0319
ចំពោះកិច្ច	-11.032
do	-11.0322
ជំនន់ទឹកភ្លៀង	-11.0322
▁leaf	-11.0323
តាមផែនការ	-11.0325
ដែលគ្មាន	-11.0325
ចូ	-11.0328
▁ហិកតា	-11.033
▁ក្រៅ	-11.033
នៅវិទ្យាស្ថាន	-11.0332
ep	-11.0332
▁few	-11.0333
▁aging	-11.0333
▁Pagoda	-11.0335
▁footwear	-11.0335
មួយក្នុងចំណោម	-11.0336
ថាមពលអគ្គិសនី	-11.0337
nal	-11.0339
ជួបសំណេះសំណាល	-11.034
▁ហៅ	-11.0341
▁Friday	-11.0341
▁កម្មកររោងចក្រ	-11.0343
▁ម៉េង	-11.0343
ER	-11.0345
▁challenge	-11.0346
សេចក្តីប្រកាស	-11.0347
សុពលភាព	-11.0348
រោងចក្រកាត់ដេរ	-11.0352
▁But	-11.0353
▁Cultivat	-11.0356
នៅឡើយទេ	-11.0357
▁timeframe	-11.0357
ល្	-11.0357
ជីវភាពរស់នៅរបស់	-11.0358
ម្សិលមិញ	-11.0358
▁speed	-11.0361
ភ្ជុំបិណ្ឌ	-11.0361
largest	-11.0362
ដល់កសិករ	-11.0362
ខេមបូឌា	-11.0362
ផលិតកម្មកសិកម្ម	-11.0363
កម្ពស់	-11.0366
▁បានធ្វើឱ្យ	-11.0366
សោភ័ណភាព	-11.0369
▁Air	-11.0369
មានភាពល្អប្រសើរ	-11.0369
▁targets	-11.0369
ants	-11.0372
▁ដើរ	-11.0373
គិតពី	-11.0374
▁38	-11.0377
▁discrimination	-11.0377
ទីក្រុងភ្នំពេញ	-11.0378
RI	-11.0379
ស្នាម	-11.0379
▁កំពត	-11.0379
▁Finally	-11.038
ដើម្បីរក្សា	-11.0381
▁ស្អាត	-11.0381
នៅអាមេរិក	-11.0384
ទទួលស្គាល់ថា	-11.0384
▁resides	-11.0384
Japan	-11.0385
មានប្រយោជន៍	-11.0385
នៃជីវិត	-11.039
នៅសល់	-11.039
ចក្រ	-11.0391
▁black	-11.0393
ឆ្នាំសិក្សា	-11.0396
តុលាការ។	-11.0397
▁bamboo	-11.0398
រឿងនេះ	-11.0399
▁origin	-11.04
vo	-11.0402
ការជ្រើសរើស	-11.0402
▁sustained	-11.0402
ថាមពលកកើតឡើងវិញ	-11.0403
▁convened	-11.0403
ក្នុងតម្លៃ	-11.0404
▁2-	-11.0405
លទ្ធផលនៃ	-11.0407
▁thorough	-11.0408
បរិស្ថាន។	-11.0411
67	-11.0411
▁Last	-11.0412
oung	-11.0412
ភព	-11.0412
ព្រហ្មទណ្ឌ។	-11.0414
កំពង់ចាម	-11.0415
▁24,	-11.0415
▁Arabia	-11.0416
rong	-11.0416
▁Vo	-11.0417
▁តំណាងរាស្ត្រ	-11.0419
ខ្នាត	-11.0419
▁Measures	-11.0419
▁judiciary	-11.0419
រឿងព្រេងនិទាន	-11.0419
▁migrant	-11.0419
▁assembly	-11.0419
▁march	-11.042
▁executed	-11.042
▁ការត្រួតពិនិត្យ	-11.0421
▁Wang	-11.0423
មួយគ្រឿង	-11.0425
ត្រីមាស	-11.0426
ក្រុងតាខ្មៅ	-11.043
▁preparations	-11.0431
65	-11.0433
▁needed	-11.0433
សម្លឹង	-11.0436
ពហុ	-11.0437
▁ឬការ	-11.0437
ដេញ	-11.0439
▁intervene	-11.0441
េះ	-11.0442
▁ទាំងពួង	-11.0444
ទ្	-11.0446
▁Prak	-11.0446
▁និងធានា	-11.045
ព្រះមហាក្សត្រ។	-11.0452
▁voice	-11.0452
ស្ងៀមស្ងាត់	-11.0453
សំណេះសំណាលជាមួយ	-11.0453
▁Ban	-11.0456
ជនសង្ស័យម្នាក់	-11.0457
ថ្ងៃទី១៧	-11.0457
▁Ga	-11.0459
បាត់បង់ជីវិត	-11.046
សាក្សី	-11.046
▁beneficial	-11.0462
ម្ដេចមហាបវរធិបតី	-11.0462
▁cessation	-11.0462
▁Changvar	-11.0462
▁overcome	-11.0462
▁merit	-11.0462
ក្រុងសៀមរាប	-11.0462
friendly	-11.0463
▁៩០	-11.0463
បើកការដ្ឋាន	-11.0463
▁ឃួ	-11.0464
▁offices	-11.0464
យើងនឹង	-11.0464
73	-11.0467
▁ability	-11.0469
▁renewed	-11.047
.9%	-11.0472
១២៣	-11.0474
ថ្មីនៃ	-11.0474
▁dam	-11.0474
▁falling	-11.0476
▁connection	-11.0478
នេ	-11.0479
សភាព	-11.0481
▁exploring	-11.0483
ពីប្រទេស	-11.0483
ពាណិជ្ជករ	-11.0483
▁សេរីភាព	-11.0484
ក្នុងស្ថានភាព	-11.0485
▁Apple	-11.0485
សំបូរ	-11.0488
ជូ	-11.049
សរុបជាង	-11.049
▁And	-11.0491
▁ឆ្នាំ២០១៨	-11.0492
អានសៀវភៅ	-11.0493
ជុំវិញពិភពលោក	-11.0495
កែទម្រង់	-11.0496
ឆ្លុះបញ្ចាំង	-11.0497
ប្រកបដោយសមធម៌	-11.0497
ជិតស្និទ្ធ	-11.05
▁Song	-11.0501
ឥត	-11.0501
នៅឡើយ។	-11.0502
កើនឡើងដល់	-11.0502
៩៨	-11.0503
▁recover	-11.0504
▁win	-11.0504
▁audio	-11.0504
ត្បូង	-11.0505
celes	-11.0505
ឆ្លងជំងឺកូវីដ	-11.0511
ក្ដៅ	-11.0514
ដែលចង់	-11.052
TI	-11.052
បុរាណ។	-11.0521
ពេលបច្ចុប្បន្ន	-11.0522
ហិ	-11.0523
▁embassy	-11.0525
▁peak	-11.0526
សហភាពសហព័ន្ធ	-11.0526
▁ត្រូវបានអនុម័ត	-11.0529
រលក	-11.053
វ៉	-11.053
▁រួមជាមួយ	-11.0533
▁esteem	-11.0533
▁និងសហប្រតិបត	-11.0534
ហោះហើរ	-11.0536
ខ្សោយ	-11.0536
▁expenditure	-11.0538
កម្ពុជាបន្ត	-11.0542
▁1-	-11.0542
ខ្ពស់ចំពោះ	-11.0542
▁stations	-11.0543
▁mysterious	-11.0547
ធុរជន	-11.0547
▁suitable	-11.0547
ធៀបទៅនឹង	-11.0549
▁Can	-11.055
កម្ពុជាកំពុង	-11.055
កំពត	-11.0551
▁rays	-11.0551
ដោយផ្អែកលើ	-11.0551
▁វី	-11.0552
យ៉ាងសកម្មក្នុង	-11.0555
គ្រប់ក្រសួង	-11.0555
សុខភាពពិភពលោក	-11.0556
ចម្ងាយ	-11.0558
▁ក្នុងពិធី	-11.056
សព្វថ្ងៃនេះ	-11.0562
▁និងបង្កើត	-11.0563
▁illuminate	-11.0563
ូត	-11.0563
▁កេរដំណែល	-11.0565
ខូច	-11.0565
យីហោ	-11.0568
▁Professor	-11.0568
ល្បែងស៊ីសង	-11.0568
▁Work	-11.0568
សម្រុក	-11.0568
▁riverbank	-11.0569
ដ៏ឈ្លាសវៃ	-11.0569
បានឱ្យដឹងទៀតថា	-11.0569
▁output	-11.0569
for	-11.057
រៀបចំដែនដី	-11.057
លាននាក់	-11.0572
លើការងារ	-11.0573
សព្វថ្ងៃ	-11.0574
▁receives	-11.0574
5,000	-11.0575
ដើម្បីធានានូវ	-11.0576
ហ្វូណនតេជោ	-11.0578
▁diligent	-11.0578
ដើម្បីទប់ស្កាត់	-11.0581
ក្នុងការបង្កើន	-11.0581
▁បច្ចេកទេស	-11.0585
81	-11.0585
មានសុខភាពល្អ	-11.0586
បានលើក	-11.0586
app	-11.0586
វិវាទ	-11.0588
ផ្ដន្ទាទោស	-11.059
▁waterfall	-11.059
▁Numer	-11.0591
ចំនួន១	-11.0591
ook	-11.0592
▁softly	-11.0594
season	-11.0595
▁Other	-11.0595
៨៨	-11.0595
នាគ	-11.0595
▁fail	-11.0596
▁affirmed	-11.0597
ដែលគាត់	-11.0597
គល់	-11.0598
▁Han	-11.06
AL	-11.06
ដំណាក់កាលទី១	-11.0604
នៃកង	-11.0605
▁សូ	-11.0605
▁valiant	-11.0611
រុញ	-11.0612
▁outstanding	-11.0612
េង	-11.0615
នគរបាលជាតិ	-11.0616
បានប្រមាណ	-11.0618
▁strengthens	-11.0619
សេដ្ឋកិច្ចសកល	-11.062
សកម្មជនបរិស្ថាន	-11.062
យ៉ាងសំខាន់ក្នុង	-11.0627
▁ព្រះអង្គបាន	-11.0628
▁19,	-11.0631
ចំពោះមុខ	-11.0632
មិត្តភក្តិ	-11.0633
▁pollution	-11.0633
▁utilization	-11.0633
▁download	-11.0633
ទំនៀមទម្លាប់	-11.0633
86	-11.0634
។ល។	-11.0635
ពេញមួយជីវិត	-11.0635
ពាក្យសម្ដី	-11.0637
៧៣	-11.064
៣៥	-11.064
▁desire	-11.064
ជនភៀសខ្លួន	-11.0641
ទៅហើយ	-11.0642
driven	-11.0643
▁CLV	-11.0643
▁read	-11.0644
ib	-11.0645
▁ចំណង	-11.0645
ប្រទេសសិង្ហបុរី	-11.0647
▁Our	-11.0649
នៃប្រព័ន្ធ	-11.065
▁let	-11.065
របស់កុមារ	-11.0652
▁spectacle	-11.0654
▁tips	-11.0654
ស្តង់	-11.0655
នៃជំងឺកូវីដ	-11.0656
▁purpose	-11.0657
ជាប់ពន្ធនាគារ	-11.0658
▁insufficient	-11.0663
gov	-11.0664
ev	-11.0667
លេច	-11.0667
កប់	-11.0667
▁ការពង្រីក	-11.0668
ទាន់	-11.0669
▁disseminate	-11.067
▁wood	-11.0673
▁(3	-11.0676
▁restoration	-11.0676
ជើងហោះហើរ	-11.0676
មានគម្រោង	-11.0676
▁និងធ្វើឱ្យ	-11.0677
ជាច្រើននាក់	-11.0678
មានស្ថិរភាព	-11.068
ក៏ត្រូវបាន	-11.068
ស្ពានអាកាស	-11.0681
ជួបប្រទះ	-11.0681
ដែលមានឈ្មោះថា	-11.0682
▁reopening	-11.0686
ពីមុន	-11.0687
▁មិនអាច	-11.0689
ងងឹត	-11.0692
អបអរ	-11.0693
ក្រោមការ	-11.0696
▁Convention	-11.0698
▁examination	-11.0698
▁brain	-11.0698
របបក្រុងភ្នំពេញ	-11.0698
ផ្ញើសារ	-11.0704
សាស្រ្ត	-11.0709
▁Gold	-11.071
▁ទ	-11.071
▁Country	-11.0711
ture	-11.0712
▁jungle	-11.0712
▁deployed	-11.0713
ការស៊ើបអង្កេត	-11.0715
▁imprisonment	-11.0719
ប្អូនៗ	-11.0721
របស់ជប៉ុន	-11.0722
ទោះបី	-11.0725
▁anxiety	-11.0725
af	-11.0727
▁ភ្ជាប់	-11.0728
▁map	-11.0729
ធ្វើយ៉ាងណាឱ្យ	-11.0729
▁reasons	-11.073
mor	-11.0732
▁Lee	-11.0734
if	-11.0736
▁កើតឡើង	-11.0736
ហូប	-11.0737
ក្នុងតំបន់អាស៊ាន	-11.0738
▁licenses	-11.0739
ដង្ហើម	-11.0739
បំភ្លឺផ្លូវ	-11.0741
▁multilateralism	-11.0742
សម្លេង	-11.0742
.4%	-11.0743
▁ព្រះនាង	-11.0744
ដ៏អាថ៌កំបាំង	-11.0746
កុង	-11.0751
▁ជាពិសេសគឺ	-11.0751
▁3,000	-11.0752
នៃអគ្គនាយកដ្ឋាន	-11.0752
▁Cam	-11.0752
ឆ្លាក់	-11.0753
ចរ	-11.0754
▁ឡាយ	-11.0754
ផ្ដាច់	-11.0758
▁run	-11.0759
នៃសាធារណរដ្ឋ	-11.0759
▁bas	-11.0762
▁disruptions	-11.0763
ការជួញដូរ	-11.0764
ហែម	-11.0766
ជាមនុស្ស	-11.0767
មហាអំណាច	-11.0768
គ្រឹះស្ថានសិក្សា	-11.0769
បទដ្ឋាន	-11.0771
តើ	-11.0773
▁troops	-11.0775
តុល្យភាព	-11.0775
ថែមទាំង	-11.0778
▁Member	-11.0778
▁bags	-11.078
អ្នកនិពន្ធ	-11.078
▁ឈាង	-11.078
កុមារី	-11.078
នឹងជួយ	-11.078
▁Exhibition	-11.0785
▁plots	-11.0785
▁orange	-11.0785
▁tradition	-11.0787
▁perpetually	-11.0788
▁តម្រូវការ	-11.079
▁Industrial	-11.079
បន្លឺឡើង	-11.0792
▁18,	-11.0792
ពង្រឹងទំនាក់ទំនង	-11.0795
កាលពីកុមារភាព	-11.0795
លោកខាងលិច	-11.0799
ដោះស្រាយវិវាទ	-11.08
oun	-11.08
▁livelihood	-11.08
វិថី	-11.0801
▁becomes	-11.0801
លើកទី៤	-11.0801
ខា	-11.0801
▁challenging	-11.0807
▁និងជួយ	-11.0808
អណ្ដែត	-11.0809
សូ	-11.081
ខ្លាំងណាស់	-11.0811
អនុស្សរណៈ	-11.0811
RCEP	-11.0811
ស្មោះត្រង់	-11.0813
នៅក្នុងសហគមន៍	-11.0815
២០២៨	-11.0816
▁ក៏ដូចជាការ	-11.0816
ដៃគូពាណិជ្ជកម្ម	-11.0817
ពីក្រុមហ៊ុន	-11.0817
▁corn	-11.0818
សោ	-11.0819
ពេ	-11.082
ម៉ឺននាក់	-11.0825
▁ឱ្យដឹងថា	-11.0825
▁ដោយមានការ	-11.0826
បង្រ្កាប	-11.0826
កងទ័ពជើងគោក	-11.0829
▁leisure	-11.0829
▁testimony	-11.0829
▁timber	-11.0829
▁entry	-11.0829
▁artistry	-11.0829
▁IT	-11.0829
មានប្រវែង	-11.0835
▁បាញ់	-11.0835
▁ព្រមាន	-11.0836
ប្រកបដោយភាព	-11.0838
▁seize	-11.0839
▁Teachers	-11.084
▁destinations	-11.0843
មួយថ្ងៃ	-11.0844
▁ហើយត្រូវ	-11.0848
សត្រូវ	-11.0849
ក្នុងកិច្ច	-11.0849
តានតឹង	-11.0849
▁Card	-11.0851
▁politics	-11.0851
▁spires	-11.0851
▁Lok	-11.0853
▁drought	-11.0853
ឆាក	-11.0853
ជាង២	-11.0853
ome	-11.0855
▁បានធ្វើ	-11.0855
២០នាក់	-11.0857
បណ្តាល	-11.0857
▁flooded	-11.0859
ូវ	-11.0859
ធុរកិច្ចថ្មី	-11.086
▁title	-11.0861
▁កំពុងត្រូវបាន	-11.0862
ខាងវិញ្ញាណ	-11.0862
▁round	-11.0862
▁និងសកម្មភាព	-11.0862
ទទួលបានចំណូល	-11.0862
បាវិត	-11.0862
ការចុះបញ្ជីកំណើត	-11.0865
នៃអង្គការ	-11.0865
បានរៀបរាប់	-11.0866
▁Go	-11.0866
▁monk	-11.0867
នាពេលខាងមុខ	-11.0867
▁cars	-11.0869
▁El	-11.087
▁និងប្រជាពលរដ្ឋ	-11.087
នៅបន្ត	-11.0872
នៃគម្រោង	-11.0872
▁municipal	-11.0872
▁ពេលវេលា	-11.0873
▁celebrations	-11.0874
របស់សិស្ស	-11.0876
▁accommodation	-11.0876
▁amount	-11.0877
ទុកដាក់	-11.0877
▁Ne	-11.0881
ក្នុងមូលដ្ឋាន	-11.0882
សិក្ខាកាម	-11.0883
រយនាក់	-11.0888
បានដាក់	-11.0892
▁វណ្ណៈ	-11.0895
▁emissions	-11.0895
▁dead	-11.0896
▁លក្ខខណ្ឌ	-11.0897
▁គោលការណ៍	-11.0898
▁selected	-11.0898
តាមរយៈកម្មវិធី	-11.0898
ប្រតិបត្តិករ	-11.0898
អាចប្រើប្រាស់	-11.0899
▁devices	-11.0899
IS	-11.0899
មួយឆ្នាំ	-11.0899
របស់សហគមន៍	-11.0899
ថ្ងៃព្រហស្បតិ៍	-11.09
▁លក់	-11.0901
ធ្វើទំនើបកម្ម	-11.0905
ដ៏អស្ចារ្យ។	-11.0905
រណ	-11.0905
▁និងក្រៅប្រទេស	-11.0907
▁impacted	-11.0907
មួយក្រុម	-11.0908
▁ask	-11.091
▁packages	-11.0911
▁Joe	-11.0911
▁ចាស់	-11.0912
បានបញ្ចេញ	-11.0913
▁stronger	-11.0915
▁ឡើយ។	-11.0916
ប្រគល់ជូន	-11.0917
▁territory	-11.0917
▁presidency	-11.0917
ដំណក់	-11.0918
▁ប្រសិនបើអ្នក	-11.0919
▁motorcycles	-11.0919
បទភ្លេង	-11.0923
▁producer	-11.0923
គម្លាត	-11.0924
ផ្អែម	-11.0924
▁think	-11.0925
ធៀបនឹង	-11.0929
ភាពក្លាហាន	-11.093
▁wants	-11.093
▁streamline	-11.0934
▁automotive	-11.0939
▁affect	-11.094
យ៉ាងម៉ត់ចត់	-11.094
▁នីតិវិធីនៃការ	-11.0942
រំលេច	-11.0942
គូរ	-11.0942
មកទស្សនា	-11.0943
៩៦	-11.0947
▁beverages	-11.0947
▁អ្នកឃ្លាំមើល	-11.0948
ហើយនោះ	-11.0948
▁rooms	-11.095
មានចំណេះដឹង	-11.0952
▁2020.	-11.0953
ទីក្រុងប៉េកាំង	-11.0955
ផ្លាស់	-11.0957
ទីផ្សារមូលបត្រ	-11.0958
▁barrel	-11.0958
អចលនវត្ថុ	-11.0958
ADB	-11.0959
▁41	-11.096
▁insult	-11.0961
98	-11.0961
▁agencies	-11.0962
▁Power	-11.0962
អភិវឌ្ឍន៍អាស៊ី	-11.0964
ពង្រីកអាជីវកម្ម	-11.0966
ទោះ	-11.0967
កាលពីពេលកន្លងទៅ	-11.0968
▁ពាក់ព័ន្ធករណី	-11.097
ចិត្តយ៉ាងមុតមាំ	-11.0972
▁meter	-11.0973
ផលចំណេញ	-11.0973
ឲ្យមានការ	-11.0973
FDI	-11.0974
ឱ្យក្លាយជា	-11.0976
ក្នុងពិធីបើក	-11.0976
34	-11.0977
រមណីយដ្ឋានអង្គរ	-11.0979
ការផ្ទៀងផ្ទាត់	-11.0979
បញ្ជាទិញ	-11.0979
ស្របតាមច្បាប់	-11.0981
▁សាសនា	-11.0981
▁Washington	-11.0984
ឈូសឆាយ	-11.0984
▁criteria	-11.0984
កម្ចាត់	-11.0984
អនុរដ្ឋលេខាធិការ	-11.0984
▁ក្នុងន័យនេះ	-11.0988
cal	-11.0988
ភាពត្រឹមត្រូវនៃ	-11.099
▁disseminated	-11.099
ទីពីរ	-11.0993
កាន់តែរីកចម្រើន	-11.0995
▁sentence	-11.0996
៣២	-11.0997
រួចទៅហើយ	-11.1
▁ទាក់ទាញ	-11.1001
រិយា	-11.1006
▁សំរិន	-11.1007
▁identified	-11.1008
▁undertake	-11.1008
ថ្មីមួយទៀត	-11.1009
ទន់	-11.1009
▁សេចក្តីប្រកាស	-11.1011
ពីបរទេស	-11.1014
▁environments	-11.1014
សេចក្តីជូនដំណឹង	-11.1015
ប្រមុខរដ្ឋ	-11.1017
▁younger	-11.1019
▁បានបន្ត	-11.1019
▁ជាអ្នក	-11.1019
ប្ប	-11.1024
▁(4	-11.1025
ក្នុងការបង្កើត	-11.1026
▁written	-11.1029
៧០០	-11.1035
ទូរស័ព្ទដៃ	-11.104
ឯ	-11.1041
ទៀតថា	-11.1042
បានបង្ហាញនូវ	-11.1045
ហ្សា	-11.1045
▁ពួកគាត់	-11.1045
▁វិបត្តិ	-11.1046
ខាត	-11.1046
ការប្រើ	-11.1048
របស់ព្រះអង្គ។	-11.1048
▁រាជធានីភ្នំពេញ។	-11.1049
▁pig	-11.1051
▁Before	-11.1051
rap	-11.1051
ក្ដីស្រឡាញ់	-11.1051
▁plains	-11.1051
▁temporary	-11.1051
▁preliminary	-11.1051
▁assessments	-11.1052
▁Impact	-11.1052
71	-11.1053
សើម	-11.1056
93	-11.1057
▁និងបច្ចេកទេស	-11.1057
ជាមូលដ្ឋានគ្រឹះ	-11.1059
ក្រមនីតិវិធី	-11.1059
▁smiles	-11.106
▁relentless	-11.1062
តម្លៃបន្ថែម	-11.1062
គឺមានសារៈសំខាន់	-11.1064
put	-11.1066
RC	-11.1071
សាធារណៈជន	-11.1072
ជ្រុង	-11.1074
▁weeks	-11.1075
▁instruments	-11.1075
ក្រអូបឈ្ងុយឈ្ងប់	-11.1076
ចេញចូល	-11.1078
ចាំបាច់សម្រាប់	-11.1078
▁infections	-11.1079
▁ដើម្បីធានាថា	-11.108
2024	-11.1081
ខុនដូ	-11.1081
ព្រះវិហារ	-11.1081
បង្ខំ	-11.1081
ខេត្តប៉ៃលិន	-11.1082
▁សៀវភៅ	-11.1082
▁មានតែ	-11.1083
▁ស្លាប់	-11.1083
▁ទាមទារ	-11.1084
mb	-11.1084
▁70%	-11.1085
ator	-11.1085
េន	-11.1085
ែង	-11.1086
▁thoroughly	-11.1086
បូជា	-11.1087
ជាងមុន។	-11.1087
គុណភាពជីវិត	-11.1087
រំខាន	-11.1088
ឆ្នាំថ្មី	-11.1091
ណាហ្គាវើលដ៍	-11.1096
▁occurred	-11.1097
៥៩	-11.1097
▁certified	-11.1098
ប្រឡាយ	-11.1099
ហាម	-11.11
▁alleviate	-11.1105
នូវគោលនយោបាយ	-11.1105
មិនដែល	-11.1105
▁turn	-11.1108
សហគ្រិនខ្មែរ	-11.1109
▁8.	-11.111
▁Ke	-11.1112
ox	-11.1112
ទៅក្រៅប្រទេស	-11.1113
▁hosted	-11.1113
▁ហេតុនេះ	-11.1115
▁department	-11.1116
fer	-11.1116
ប៊ូ	-11.1118
tain	-11.1119
ជារៀងរាល់ថ្ងៃ	-11.1119
▁Goals	-11.1119
▁chip	-11.1119
ជំទាស់	-11.1119
▁parade	-11.1121
លីត្រ	-11.1122
សន្ទុះ	-11.1125
▁track	-11.1125
ទាំង៣	-11.1128
▁Dam	-11.1129
▁foundational	-11.113
▁welcomes	-11.1133
▁Not	-11.1135
លាប	-11.1135
▁break	-11.1136
▁ភស្តុតាងទាំងអស់	-11.1137
សំខាន់ៗ។	-11.1138
▁character	-11.1138
▁delicate	-11.1142
▁impermanence	-11.1142
▁strike	-11.1142
▁beloved	-11.1142
▁បុគ្គល	-11.1144
▁awards	-11.1144
▁ខេត្តកំពត	-11.1144
ដំណាច់	-11.1146
ប្រាក់បញ្ញើ	-11.1147
ក្នុងក្របខ័ណ្ឌ	-11.1149
រូបនាង	-11.1152
ថ្ងៃទី២៩	-11.1153
▁ម៉ុង	-11.1156
នីតិកាលទី៧	-11.1156
ព្រៃឡង់	-11.1159
▁ស្វែងយល់ពី	-11.116
▁អ្នកភូមិ	-11.1162
ផែនការសកម្មភាព	-11.1162
▁គន្លឹះ	-11.1164
▁Pentagon	-11.1164
▁pristine	-11.1164
▁paper	-11.1164
hour	-11.1166
▁អនុក្រឹត្យនេះ	-11.1167
ចុះហត្ថលេខាលើ	-11.1168
▁ហូរ	-11.1168
ជាឱកាស	-11.1169
៣៣	-11.1171
តិចៗ	-11.1174
ព្យាករណ៍	-11.118
ការវិភាគ	-11.1182
ងើប	-11.1182
ចូលរួមប្រកួត	-11.1184
ចំណេះ	-11.1185
រំលឹកដល់	-11.1186
▁minimum	-11.1187
▁ACU	-11.1187
▁Brent	-11.1188
▁ខាងក្រៅ	-11.1188
បានត្រឹមត្រូវ	-11.1188
▁Banh	-11.1189
ទោះបីជា	-11.119
ack	-11.1191
▁clothing	-11.1193
ាណាចក្រកម្ពុជា។	-11.1195
ដើរតួនាទី	-11.1196
ដាក់ទណ្ឌកម្ម	-11.1198
បានឲ្យដឹងថា	-11.1198
បាននាំមកនូវ	-11.1203
▁believes	-11.1203
ភាពរុងរឿង	-11.1204
ជះ	-11.1209
ទាបជាង	-11.1209
បក	-11.121
កីឡាការិនី	-11.121
▁ស្រេង	-11.121
▁ពលរដ្ឋខ្មែរ	-11.1211
គឺជាកាតព្វកិច្ច	-11.1211
អាចធ្វើឱ្យ	-11.1212
គោលនយោបាយនេះ	-11.1215
▁distributed	-11.1215
សប្ដាហ៍	-11.1216
▁Learning	-11.1217
▁ដើម្បីទាក់ទាញ	-11.1217
សួរសុខទុក្ខ	-11.1218
ុំ	-11.1218
នីតិវិធីនៃការ	-11.1219
▁attack	-11.1219
ជីវៈចម្រុះ	-11.1221
តាកែវ	-11.1223
គត់ផ្គង់ទឹកស្អាត	-11.1224
៨៦	-11.1225
▁announce	-11.1225
ត្បូងឃ្មុំ	-11.1227
ក្រសួងពាក់ព័ន្ធ	-11.1227
▁outbreak	-11.123
នៅខេត្តបាត់ដំបង	-11.1234
ការបើក	-11.1234
▁achievement	-11.1235
▁witnesses	-11.1237
ជិះម៉ូតូ	-11.1237
ពីក្រោយ	-11.1238
down	-11.1238
▁digitalization	-11.1239
នៃកិច្ច	-11.1242
ដែលរស់នៅ	-11.1242
បញ្ជូនទៅ	-11.1244
▁សម្រេចបាន	-11.1248
▁destin	-11.1249
ជាស្ថាពរ	-11.125
▁វណ្ណ	-11.125
▁ពេជ្រ	-11.1253
ប្រមូលផ្ដុំ	-11.1254
ou	-11.1254
ដើម្បីអាច	-11.1255
ក្នុ	-11.1255
▁dedication	-11.1256
por	-11.1259
▁pests	-11.126
pro	-11.126
ida	-11.126
▁park	-11.1261
ដាក់ឱ្យ	-11.1264
▁rules	-11.1264
▁Mong	-11.1264
treat	-11.1265
▁collaborates	-11.1265
▁គឺលោក	-11.1267
▁smooth	-11.1267
▁ធម៌	-11.1267
អនាគតដ៏ភ្លឺស្វាង	-11.1267
គឺមាន	-11.1268
▁Indian	-11.1268
nt	-11.127
▁returns	-11.127
ency	-11.127
ផ្នែកសេដ្ឋកិច្ច	-11.1271
▁boosts	-11.1272
▁ពិនិត្យ	-11.1274
▁គុណភាព	-11.1274
ari	-11.1276
ការធ្លាក់ចុះនៃ	-11.1277
អន្តោប្រវេសន៍	-11.1278
ការបែងចែក	-11.1278
▁Modern	-11.1279
▁Friendship	-11.1279
▁ocean	-11.1279
Khmer	-11.1279
▁fake	-11.1279
▁encroachment	-11.128
ថ្លា	-11.1281
▁interventions	-11.1282
▁តាំងពី	-11.1282
នៅចំណុច	-11.1283
ប្រធានព្រឹទ្ធសភា	-11.1283
▁Yang	-11.1284
នៃការអភិវឌ្ឍ	-11.1284
▁Commissioner	-11.1286
▁barrels	-11.1287
បញ្ជាការដ្ឋាន	-11.1288
▁កាយ	-11.1288
▁attracted	-11.1289
កំណើននៃ	-11.1291
មកពីប្រទេស	-11.1293
កាលពីឆ្នាំមុន	-11.1296
របស់អ្នកស្រី	-11.1297
▁ឆ្នាំ២០២២។	-11.1297
▁និងផលិតផល	-11.1297
▁Enterprise	-11.1299
▁rivers	-11.1299
ផ្តួចផ្តើម	-11.13
រៀងៗខ្លួន	-11.13
ផ្សែង	-11.1302
▁forgotten	-11.1302
ការតាំងចិត្ត	-11.1302
ដូចតទៅ៖	-11.1304
គ្រប់វិស័យ	-11.1304
▁waters	-11.1305
▁និងការគ្រប់គ្រង	-11.1307
▁protesters	-11.1308
▁barriers	-11.131
ព្រះសីហនុ	-11.1311
▁equal	-11.1313
៣៧	-11.1313
បានគូសបញ្ជាក់	-11.1313
ដែលបានកំណត់ដោយ	-11.1315
ការតស៊ូ	-11.1316
▁nutrition	-11.1316
ជាលំដាប់	-11.132
ទៅបោះឆ្នោត	-11.1321
ចំណាត់ការ	-11.1323
▁storm	-11.1323
ជាប់ឆ្នោត	-11.1324
របស់យុវជន	-11.1324
▁Infrastructure	-11.1325
▁requisite	-11.1325
▁crackdown	-11.1325
▁delicious	-11.1325
▁លោកថា	-11.1326
▁brighter	-11.1327
▁purchases	-11.1329
▁ស់	-11.133
0%	-11.133
គឺជាគន្លឹះ	-11.1331
▁ត្រូវបានពង្រឹង	-11.1331
ជារៀងរហូត	-11.1332
បម្រុង	-11.1334
តម្រូវឱ្យមានការ	-11.1336
▁ពោរពេញ	-11.1337
ជួយគាំទ្រ	-11.1338
ាត	-11.1341
▁ក្នុងនាម	-11.1342
▁និងវៀតណាម	-11.1343
6,000	-11.1346
បាក់ឌុប	-11.1346
ខណ្ឌដូនពេញ	-11.1348
▁ethereal	-11.1348
វាអាច	-11.1348
យុវវ័យ	-11.1348
▁echoes	-11.1349
▁flag	-11.1349
ron	-11.135
▁fallen	-11.1351
បានដឹង	-11.1352
វាបាន	-11.1352
យ៉ាងមុតមាំក្នុង	-11.1354
បានប្តេជ្ញាចិត្ត	-11.1356
▁serious	-11.136
▁featur	-11.1367
ការបំពុល	-11.1367
▁ឈរ	-11.1368
រយៈ	-11.1369
៨២	-11.1369
▁ពាក់ព័ន្ធ	-11.137
តៃវ៉ាន់	-11.1371
▁steadily	-11.1371
▁diplomacy	-11.1372
អន្ដរជាតិ	-11.1372
ទើបអាច	-11.1373
៩៧	-11.1374
▁sprawling	-11.1374
▁drift	-11.1376
61	-11.1377
ក្នុងបេសកកម្ម	-11.1377
87	-11.1377
▁ហើយបើ	-11.1378
បានថ្លែង	-11.1379
▁ប្រព្រឹត្ត	-11.138
ឃាតកម្ម	-11.1381
ern	-11.1381
៧១	-11.1383
▁mentioned	-11.1383
ផ្សិត	-11.1384
ផ្លូវជាតិ	-11.1385
ចូលបំភ្លឺ	-11.1385
នេះ៕	-11.1386
▁ប្រាថ្នា	-11.1387
pass	-11.1389
▁suspended	-11.1389
សម្លឹងមើល	-11.1389
▁ពោល	-11.1391
សព្វ	-11.1392
▁complaints	-11.1393
▁occur	-11.1393
ងើបឡើង	-11.1395
▁splendor	-11.1395
▁Corporation	-11.1395
អាវុធហត្ថ	-11.1395
▁narratives	-11.1395
របាំង	-11.1395
▁sovereign	-11.1395
រៀបចំគោលនយោបាយ	-11.1395
នៅក្រោម	-11.1395
សន្ធិសញ្ញា	-11.1397
បទប្បញ្ញត្តិថ្មី	-11.14
▁eternally	-11.1402
ព្រះរាជសារ	-11.1402
▁Net	-11.1404
▁ស្រ	-11.1405
▁42	-11.1408
▁amended	-11.1408
DC	-11.1409
បឹងកក់	-11.141
▁អត្រា	-11.1411
▁ពិព័រណ៍	-11.1416
រយៈពេលខ្លី	-11.1416
ទូទាំងពិភពលោក	-11.1418
សីតុណ្ហភាព	-11.1418
▁profusely	-11.1418
ហៅកាត់ថា	-11.1418
▁CBRE	-11.1418
៨៤	-11.1418
▁supervision	-11.1418
aging	-11.1418
ide	-11.1419
▁ដើម្បីបង្កើត	-11.1421
ផា	-11.1421
▁directives	-11.1422
▁contracts	-11.1424
កញ្ចប់ថវិកា	-11.1425
លំហ	-11.1426
បានបញ្ជាក់	-11.1433
អ្នកស្លាប់	-11.1434
១០ឆ្នាំ	-11.1435
▁store	-11.1435
ស៊	-11.1438
គរ	-11.1439
រាប់មិនអស់	-11.1439
ef	-11.1441
▁emerald	-11.1441
▁Small	-11.1441
២០០	-11.1443
▁និងភាពធន់	-11.1443
▁២០២៥	-11.1445
ពេលនោះ	-11.1447
កាលណា	-11.1447
មិនចង់	-11.1449
▁empower	-11.1449
2020	-11.1452
ផ្លូវការរបស់	-11.1454
ត្រឡប់ទៅ	-11.1454
លិខិតអនុញ្ញាត	-11.1462
▁មធ្យម	-11.1462
នៅតែរក្សាបាននូវ	-11.1463
សូម្បីតែ	-11.1464
៦៣	-11.1465
ji	-11.1466
ក្លាយ	-11.1467
▁សុផល	-11.1468
▁graduates	-11.1469
នូ	-11.1472
មានតម្លៃថ្លៃ	-11.1472
ja	-11.1472
ឆ្នាំក្រោយ	-11.1472
ក្នុងភូមិ	-11.1473
▁threatening	-11.1474
បេតិកភណ្ឌពិភពលោក	-11.1475
អគ្គមេបញ្ជាការ	-11.1476
▁អំពើ	-11.1479
▁pressures	-11.1479
38	-11.1482
បន្ថែមលើ	-11.1483
▁តណ្ហា	-11.1486
DI	-11.1487
sangkat	-11.1488
▁commission	-11.1488
▁destruction	-11.1488
▁feedback	-11.1488
▁ម្យ៉ាងទៀត	-11.1488
▁abuse	-11.1488
▁ការិយាល័យ	-11.1488
▁Yong	-11.149
▁functions	-11.149
ព្រះរាជា	-11.1491
ហ្គេម	-11.1491
▁cancer	-11.1491
សុទ្ធតែមាន	-11.1493
EU	-11.1498
▁វាក៏	-11.1498
▁នៅតំបន់	-11.1499
ចុះហត្ថលេខាដោយ	-11.15
៧២	-11.1501
▁operators	-11.1501
ការអនុម័ត	-11.1506
ឆ្នាំ២០៣០	-11.1507
▁tens	-11.1508
▁ពេញ	-11.1512
▁emotional	-11.1512
▁សុខហួរ	-11.1512
▁warn	-11.1513
ដល់អតិថិជន	-11.1513
For	-11.1514
▁Sunday	-11.1515
▁Six	-11.1517
ពង្រឹងប្រព័ន្ធ	-11.1519
អាចធ្វើ	-11.152
សម្ភាសន៍	-11.152
យំ	-11.1522
▁ឥណ្ឌា	-11.1525
សារមន្ទីរ	-11.1527
▁៣៨	-11.1527
▁direction	-11.1527
▁ឧសភា	-11.1528
ស្ស	-11.1528
ចូលរួមជាមួយ	-11.1529
rich	-11.1529
ជាកត្តា	-11.153
ថ្លែងអំណរគុណ	-11.1532
owned	-11.1534
បរិក្ខារ	-11.1534
▁intensified	-11.1535
▁tobacco	-11.1535
▁chicken	-11.1535
ប្រទេសនេះ	-11.1536
ឈឺចាប់	-11.1537
uality	-11.1541
▁quickly	-11.1542
ថានឹង	-11.1543
មួយចំនួន។	-11.1545
បង្គោល	-11.1547
៦២	-11.1547
▁បានប្រកាសថា	-11.1547
▁opens	-11.1551
រាលដាល	-11.1554
63	-11.1556
ទណ្ឌិត	-11.1557
បោះបង់	-11.1557
បន្ធូរបន្ថយ	-11.1559
▁Study	-11.1559
ប្រមាថ	-11.1559
▁ស្ថាបនិក	-11.1559
▁photo	-11.1559
▁Stand	-11.156
▁momentum	-11.1561
MI	-11.1561
▁Touch	-11.1561
▁trained	-11.1561
នៅតែស្ថិតស្ថេរ	-11.1562
ត្រូវបានចេញផ្សាយ	-11.1564
▁reviewing	-11.1566
▁reaffirmed	-11.1566
▁forced	-11.1569
របស់អាជ្ញាធរ	-11.1569
ពូ	-11.1571
▁pillars	-11.1573
ម៉ឺងម៉ាត់	-11.1574
មានប្រមាណ	-11.1574
េ	-11.1575
▁advisor	-11.1577
បានលាតសន្ធឹង	-11.1578
ranked	-11.1581
▁៣២	-11.1581
ound	-11.1582
ប្រកបរបរ	-11.1582
ក្រូចឆ្មារ	-11.1583
▁Borvor	-11.1583
▁ratified	-11.1583
▁ព័ន្ធមុនីរ័ត្ន	-11.1583
ភ្លេង	-11.1583
▁permitted	-11.1583
▁deadline	-11.1583
ដ៏សំខាន់បំផុត	-11.1583
oul	-11.1584
សម្រាប់តែ	-11.1584
បានប្រាប់	-11.1585
▁Mean	-11.1587
ការខាតបង់	-11.1587
ត្រូវបានរកឃើញ	-11.1588
▁នាថ្ងៃទី	-11.1589
បន្ទះឈីប	-11.1591
សាកល	-11.1592
ធ្វើយុទ្ធនាការ	-11.1594
យ៉ាងខ្លាំងក្លា	-11.1594
តាមច្បាប់	-11.1594
▁steal	-11.1595
បាតុកម្ម	-11.1596
ធ្វើការជាមួយ	-11.1599
កូនចៅ	-11.1604
ក្បួន	-11.1606
ស្ថាបត្យករ	-11.1606
▁headquarters	-11.1606
▁outlook	-11.1606
▁អ៊ឹង	-11.1606
▁clinging	-11.1607
▁ជុន	-11.1607
▁brimm	-11.1607
▁Why	-11.1607
▁សុន	-11.1608
▁relie	-11.1608
▁40%	-11.1609
ពីកម្មវិធី	-11.161
Win	-11.1611
ទ្រីលានដុល្លារ	-11.1611
ជាបន្ទាន់។	-11.1612
គ្រឿងទេស	-11.1613
▁ចំរើន	-11.1613
កក់	-11.1614
▁150	-11.1614
ដូសជំរុញ	-11.1615
▁បង្កើតជា	-11.1616
ology	-11.1616
▁clearance	-11.1617
ស្ទឹងត្រែង	-11.1617
របស់បងប្អូន	-11.1618
▁គឺជាអាទិភាពមួយ	-11.1619
ក្នុងបរិបទ	-11.1619
▁ស្ងប់ស្ងាត់	-11.1621
សេចក្តីណែនាំ	-11.1626
55	-11.1626
gg	-11.1627
សព្វព្រះរាជហ	-11.1627
▁employ	-11.163
▁silver	-11.163
▁striving	-11.163
ដ៏ត្រចះត្រចង់	-11.1631
▁delays	-11.1631
ពាក់ព័ន្ធនឹងការ	-11.1633
ប្រមូលទិញ	-11.1634
▁stillness	-11.1636
ក្នុងការធ្វើ	-11.1639
▁accounting	-11.1644
▁unions	-11.1644
▁Dara	-11.1645
ភូតគាមអនាម័យ	-11.1647
ika	-11.1647
ទុកជាមុន	-11.1647
▁គ្រប់គ្រង	-11.1649
របស់ជាតិ	-11.1649
ហេតុការណ៍	-11.165
▁ប្តេជ្ញា	-11.1651
ចូលមកកម្ពុជា	-11.1652
នៅតាមបណ្តា	-11.1653
ចោទថា	-11.1654
▁mysteries	-11.1654
▁yourself	-11.1655
▁Mountain	-11.1655
style	-11.1655
▁homeland	-11.1656
▁donated	-11.1658
ST	-11.1659
ចាត់ទុកថាជា	-11.1662
បាននិងកំពុង	-11.1666
affected	-11.1667
▁Services	-11.1668
▁promptly	-11.1668
ឃាត	-11.1669
▁move	-11.1672
សិស្សនិស្សិត	-11.1674
ជាខ្លាំង	-11.1674
ink	-11.1677
ស្បែកជើង	-11.1677
សន្ធឹកសន្ធាប់	-11.1678
▁Independence	-11.1679
▁broader	-11.168
ដែលមិនទាន់	-11.1681
ផែនការអភិវឌ្ឍន៍	-11.1681
សាក	-11.1683
ឋាន	-11.1684
្ន	-11.1685
▁5,000	-11.1685
ការបញ្ជាក់	-11.1688
កាស	-11.1689
លេ	-11.169
ឆ្នេរសមុទ្រ	-11.1691
▁ឧត្តមសេនីយ៍ឯក	-11.1692
▁នៅតែជា	-11.1693
▁ministers	-11.1696
▁3000	-11.1697
ដោ	-11.1697
ន្ធ	-11.1697
▁33	-11.1698
▁locally	-11.1698
សាធារណៈប្រកបដោយ	-11.1698
ប្រចាំប្រទេស	-11.1701
ភេរវកម្ម	-11.1701
វាគ្មិន	-11.1702
▁restrict	-11.1702
ចម្លែក	-11.1702
▁Democracy	-11.1702
ចូលនិវត្តន៍	-11.1703
វិសាមញ្ញ	-11.1703
រឹតតែ	-11.1704
៧៤	-11.1708
អត់ធ្មត់	-11.1708
rit	-11.1709
▁charged	-11.171
▁និងសហគមន៍	-11.1711
បានក្លាយទៅជា	-11.1712
ធានាប្រសិទ្ធភាព	-11.1713
និទាន	-11.1714
▁ជនជាតិដើមភាគតិច	-11.1714
នៅទីតាំង	-11.1714
ព្យុះភ្លៀង	-11.1715
▁ប្រទេសកម្ពុជា	-11.1715
▁replace	-11.1716
ទេវកថា	-11.1718
.5%	-11.1719
ទូលាយ	-11.172
២ភាគរយ	-11.172
ណែនាំដល់	-11.1721
▁មេសា	-11.1722
wi	-11.1722
៤៨	-11.1723
នេះឡើង	-11.1724
▁Registration	-11.1726
▁cooperate	-11.1726
▁harmony	-11.1726
▁Tep	-11.1726
អ្វីៗទាំងអស់	-11.1726
▁សេវា	-11.1726
ការងារបានចំនួន	-11.1727
មានប្រសាសន៍ថា៖	-11.1728
▁publish	-11.1731
មកត្រឹម	-11.1732
7,000	-11.1734
លើកលែងទោស	-11.1736
សំខាន់បំផុត	-11.1737
▁ដំបូង	-11.1737
សាធារណរដ្ឋ	-11.1738
▁ខេត្តបាត់ដំបង	-11.1738
▁2015.	-11.1739
▁unit	-11.174
▁Sim	-11.174
មួយនេះ។	-11.1741
rith	-11.1742
វិស័យអាទិភាព	-11.1742
ព័ត៌មានបន្ថែម	-11.1744
▁តម្រូវ	-11.1747
រជ្ជកាល	-11.175
▁expanse	-11.175
▁Medical	-11.175
▁Legal	-11.175
▁convert	-11.175
សុំទោស	-11.175
កម្មសិទ្ធិបញ្ញា	-11.1751
▁5%	-11.1752
ដូចគ្នា។	-11.1752
▁Factory	-11.1752
ព័ត៌មានលម្អិត	-11.1754
សូឡា	-11.1754
ដើម្បីធ្វើ	-11.1758
ច្បាប់អន្តរជាតិ	-11.1759
គឺជាអ្នក	-11.1759
១៩។	-11.1761
ries	-11.1766
▁fast	-11.1771
▁Agency	-11.1774
▁Tuesday	-11.1774
▁spanning	-11.1774
ដែលបានចុះបញ្ជី	-11.1775
▁blend	-11.1775
▁restaurants	-11.1775
▁Reserve	-11.1775
▁៤៥	-11.1776
៣ថ្ងៃ	-11.1776
រូបលោក	-11.1776
▁holiday	-11.1777
ទៅបុ	-11.1777
ob	-11.1778
▁ការផ្លាស់ប្តូរ	-11.178
▁destroyed	-11.1788
៉ូ	-11.1789
ទួល	-11.179
▁advancements	-11.179
មន្រ្តីរាជការ	-11.1791
▁ប្រតិបត្តិ	-11.1791
ឆ្នាំ២០១៤	-11.1792
ធិបតី	-11.1795
រៀបចំដោយ	-11.1796
▁Thursday	-11.1798
បើកចំហ	-11.1799
ដ៏ស្ថិតស្ថេរ	-11.1802
នៃការនាំចេញ	-11.1807
នាយករដ្ឋមន្ដ្រី	-11.1809
▁inspections	-11.181
លាក់	-11.1813
▁ក្នុងជំនួប	-11.1813
ជាប្រចាំ។	-11.1813
សម្រាប់ផលិតផល	-11.1813
▁ចេញពី	-11.1814
▁ingredients	-11.1814
▁ឡេង	-11.1816
▁drifted	-11.1818
▁invested	-11.1818
▁Eng	-11.1819
ថ្លែងការណ៍រួម	-11.1819
▁ទទួលបន្ទុក	-11.1822
▁descended	-11.1823
បានឆ្លងកាត់	-11.1824
ជូនពរ	-11.1824
ដ៏អស់កល្បជានិច្ច	-11.1825
▁គ្រោងនឹង	-11.1825
ការស្វែងរក	-11.1827
▁stages	-11.1828
មនុស្សម្នាក់ៗ	-11.1828
អូមីក្រុង	-11.183
ប្រទេសបារាំង	-11.183
▁ឆ្លុះបញ្ចាំង	-11.1831
តាមប្រព័ន្ធអនឡាញ	-11.1832
នីតិរដ្ឋ	-11.1832
tro	-11.1832
មុខងារសាធារណៈ	-11.1833
បង់ថ្លៃ	-11.1835
កំណត់ដោយច្បាប់។	-11.1837
វារីអគ្គិសនី	-11.1838
▁ផង	-11.184
▁escape	-11.1841
យល់ឃើញថា	-11.1841
របង	-11.1842
មកម្ល៉េះ	-11.1842
៦១	-11.1842
ហាល	-11.1843
ត្បិត	-11.1845
ជួបបញ្ហា	-11.1845
ក្លិនក្រអូបឈ្ងុយ	-11.1846
▁outlines	-11.1847
▁places	-11.1849
36	-11.1849
▁ecosystem	-11.185
▁reinforced	-11.1852
មួយនៃ	-11.1855
ឈរលើ	-11.1856
វិស័យការពារជាតិ	-11.1857
▁birds	-11.186
▁borders	-11.186
សម្រាប់យុវជន	-11.1861
▁និងទេសចរណ៍	-11.1862
អធិបតេយ្យភាពជាតិ	-11.1863
76	-11.1863
៧មករា	-11.1865
Mr	-11.1865
ដិ	-11.1867
▁ផ្ទុយទៅវិញ	-11.1868
▁ទៅជា	-11.1869
▁competitions	-11.187
▁elders	-11.1871
ខាងលិច	-11.1871
មាតុភូមិ	-11.1872
▁copies	-11.1872
ក្រាម	-11.1874
លេចធ្លោ	-11.1875
▁Penal	-11.1877
០៩	-11.1878
▁Pra	-11.188
បោះជំហាន	-11.188
ប្រទេសឡាវ	-11.188
▁រស់នៅ	-11.188
នៅឆ្នាំ២០២២	-11.1881
▁Pe	-11.1883
▁civility	-11.1886
រកចំណូល	-11.1887
ចំណុចនេះ	-11.1887
រដ្ឋធម្មនុញ្ញ។	-11.189
▁turned	-11.1892
ទីក្រុង។	-11.1892
▁tears	-11.1894
សង្រ្គោះជាតិ	-11.1895
ជំនួយបច្ចេកទេស	-11.1895
▁applied	-11.1896
▁depict	-11.1896
▁stabilize	-11.1896
តទៅ។	-11.1897
ដែលផលិត	-11.1899
▁ចុះថ្ងៃទី	-11.1901
ការប្រកាស	-11.1901
ប្រទេសរុស្ស៊ី	-11.1902
▁started	-11.1903
ដាក់ពង្រាយ	-11.1903
ជំនួញ	-11.1903
▁showcased	-11.1906
វាជា	-11.1906
▁ប្រឡង	-11.1907
▁Yi	-11.1908
ការពារសិទ្ធិ	-11.1909
វិស្វកម្ម	-11.1911
រងផលប៉ះពាល់	-11.1912
▁deposits	-11.1912
▁Ja	-11.1912
តាមដងផ្លូវ	-11.1914
ជំនាន់ថ្មី	-11.1915
▁Command	-11.1915
សូន្យ	-11.192
កាស៊ីណូ	-11.192
▁livestock	-11.192
បានផ្តល់នូវ	-11.1921
84	-11.1923
ខ្លាំង។	-11.1924
▁ខេត្តកំពង់ចាម	-11.1924
▁និងនិរន្តរភាព	-11.1924
នាយកប្រតិបត្តិ	-11.1926
▁singer	-11.1926
▁operates	-11.1927
គ្របដណ្ដប់	-11.1928
▁នៅថ្ងៃទី	-11.1928
អំពាវនាវដល់	-11.1929
កំពុងអភិវឌ្ឍន៍	-11.193
អគ្គលេខាធិការ	-11.1932
▁showed	-11.1934
ពន្លឿនការ	-11.1936
ric	-11.1936
▁ដុល្លារអាមេរិក	-11.1939
▁មា	-11.1939
▁Visa	-11.194
ដ៏សំខាន់ក្នុងការ	-11.1944
ភ័យខ្លាច	-11.1944
▁collaborative	-11.1945
▁denied	-11.1945
កេសរកូល	-11.1945
▁Vision	-11.1945
▁aircraft	-11.1945
ចាត់ចែង	-11.1946
រដ្ឋលេខាធិការ	-11.1946
កាប់ឈើ	-11.1946
▁សុខុន	-11.1947
តំបន់ទេសចរណ៍	-11.1947
▁Seven	-11.1948
មន្ដ្រី	-11.195
▁សូម្បីតែ	-11.195
▁station	-11.1951
gar	-11.1954
ការឆ្លើយតប	-11.1955
ពាន	-11.1956
▁WHO	-11.1957
▁ដេលី	-11.1958
▁inherent	-11.1958
uring	-11.1959
សាច់ញាតិ	-11.196
▁foods	-11.196
ហេ	-11.1962
breaking	-11.1962
▁2030.	-11.1962
ផ្សេងគ្នា	-11.1963
▁institute	-11.1963
ក្រអូប	-11.1965
▁courses	-11.1966
▁guarantee	-11.1968
▁Vong	-11.1968
៥លានដុល្លារ	-11.197
OM	-11.197
board	-11.197
កងទ័ពជើងទឹក	-11.1972
ក្នុងមួយបារ៉ែល	-11.1974
▁departments	-11.1974
▁ចូលជួប	-11.1975
ប្រទាន	-11.1976
ក្ស	-11.1976
រួម។	-11.1978
ការប្រមូល	-11.1978
▁sells	-11.1979
▁ពលរដ្ឋនៅ	-11.1979
អភិវឌ្ឍន៍ជាតិ	-11.1979
▁concealed	-11.198
មិនចេះ	-11.198
lic	-11.1982
vid	-11.1982
បណ្តាលមកពី	-11.1983
▁វិស្វកម្ម	-11.1983
▁បញ្ចេញ	-11.1986
▁Ve	-11.1988
ដ៏ត្រជាក់	-11.1989
វិស័យកសិកម្ម។	-11.1991
រួមមានដូចជា	-11.1992
8,000	-11.1994
▁ថោង	-11.1994
ប្លុក	-11.1994
▁mitigat	-11.1995
ពឹងផ្អែក	-11.1995
▁និងជំងឺ	-11.1998
វិធានការបង្ការ	-11.1998
▁discussing	-11.1999
▁ប្តេជ្ញាចិត្ត	-11.2
▁90%	-11.2002
៨១	-11.2003
ចុះបញ្ជីដីធ្លី	-11.2004
ខេ	-11.2005
▁Khan	-11.2007
សេចក្ដីសុខ	-11.2007
ពីបញ្ហា	-11.2007
ប្រមាណជិត	-11.2007
ក្នុងការសិក្សា	-11.2007
ការពឹងផ្អែកលើ	-11.2008
ព្រះរាជទាន	-11.2008
ការផ្ទេរ	-11.2008
med	-11.201
កសិកម្មប្រកបដោយ	-11.2011
▁Climate	-11.2011
▁deeper	-11.2015
ju	-11.2016
របស់បុព្វបុរស	-11.2017
ទូរសព្ទ	-11.2018
▁ពលករខ្មែរ	-11.2019
▁integrating	-11.2019
▁infant	-11.2019
ទន្លេសាប	-11.2023
▁acquisition	-11.2023
▁សត្វលោក	-11.2024
▁ដែលតែងតែ	-11.2025
បំផុសគំនិត	-11.2025
▁valued	-11.2026
ក្របខ័ណ្ឌច្បាប់	-11.2026
▁Hem	-11.2027
ក្នុងក្របខណ្ឌ	-11.2027
ថតរូប	-11.2027
RO	-11.2029
គូស	-11.2033
ប្រទេសឥណ្ឌា	-11.2035
បានសម្រេចចិត្ត	-11.2039
▁weak	-11.2043
ឆ្លើយ	-11.2043
▁Spokesperson	-11.2044
▁blessings	-11.2044
តម្លៃដីធ្លី	-11.2045
ធុង	-11.2046
▁nearby	-11.2048
ov	-11.2049
▁ជាប្រភេទ	-11.205
▁habit	-11.205
ration	-11.205
នៅទីនេះ	-11.2052
ឡើងដោយ	-11.2052
មានឈ្មោះ	-11.2055
▁ត្រូវមាន	-11.2055
▁Tra	-11.2055
ត្រៀមលក្ខណៈ	-11.2055
▁ten	-11.2057
២០២២	-11.206
▁positions	-11.206
ដំ	-11.2062
▁នៅទីក្រុង	-11.2063
កើតហេតុ	-11.2064
ក្នុងឆ្នាំ២០២៣	-11.2064
▁និងការអភិវឌ្ឍន៍	-11.2067
ណេ	-11.2068
វិស័យសំណង់	-11.2068
▁Annual	-11.2069
▁army	-11.2069
របស់បុគ្គល	-11.207
▁ដើម្បីសម្រួលដល់	-11.2072
ប្រាសាទបាយ័ន	-11.2072
ទន្ទឹងរង់ចាំ	-11.2072
▁violent	-11.2072
▁និងរក្សា	-11.2072
ព័ត៌មានវិទ្យា	-11.2073
▁decree	-11.2074
▁Pol	-11.2075
▁វ៉ា	-11.2079
▁បណ្តា	-11.208
▁My	-11.2081
nce	-11.2083
▁virtues	-11.2083
▁Official	-11.2084
ឆ្នាំ២០២៣នេះ	-11.2085
បន្សល់ទុក	-11.2085
PS	-11.2089
ឃោសនាបោះឆ្នោត	-11.209
FI	-11.2091
ស្រោចស្រព	-11.2094
វិស្វករ	-11.2094
▁accelerating	-11.2094
▁ច័ន្ទបុត្រ	-11.2094
▁holding	-11.2094
លើគម្រោង	-11.2095
សម្រាប់សិស្ស	-11.2095
បង្កឱ្យមាន	-11.2096
អាំង	-11.2096
MP	-11.2096
▁ន៍	-11.2096
ទីលាន	-11.2097
rey	-11.2098
▁animals	-11.2099
ក្នុងអត្រា	-11.21
▁30%	-11.2101
▁demonstrated	-11.2101
អេឡិចត្រូនិច	-11.2104
▁guided	-11.2104
▁ជារួម	-11.2106
▁ភ	-11.2107
▁extensive	-11.2107
▁courts	-11.211
▁scar	-11.2111
▁ការផ្តល់	-11.2111
ការព្យាបាល	-11.2112
ទៅលើការ	-11.2112
អ្នកគ្រប់គ្រង	-11.2114
គណនេយ្យ	-11.2116
ភាពជា	-11.2116
▁ពេជ	-11.2117
▁បញ្ជាក់បន្ថែមថា	-11.2118
ដ៏ស្រស់ត្រកាល	-11.2119
▁resort	-11.2119
ក្រចេះ	-11.2119
ក្រោមឆ័ត្រ	-11.2119
ជាចម្បង	-11.212
▁និងអាចបង្កើត	-11.212
បានអនុវត្ត	-11.212
ត្រង់ចំណុច	-11.212
▁ព្រះធម៌	-11.2122
▁Chandara	-11.2124
អាចប្រើ	-11.2125
▁surpass	-11.2125
▁components	-11.2125
▁ភាគីទាំងពីរបាន	-11.2127
រដ្ឋាភិបាលចិន	-11.2128
ក្នុងគ្រួសារ	-11.2129
មានការធ្លាក់ចុះ	-11.2129
▁sc	-11.213
សមាជិកគ្រួសារ	-11.2135
▁និងការលះបង់	-11.2136
ទង	-11.2137
▁នឹងប្រព្រឹត្តទៅ	-11.214
▁នាយទាហាន	-11.2141
▁និងសុខុមាលភាព	-11.2141
▁Amazon	-11.2144
▁Expressway	-11.2144
គ្រាប់បែក	-11.2145
មានចក្ខុវិស័យ	-11.2148
និយោជក	-11.2149
▁condition	-11.215
យ៉ាងលឿន	-11.215
ការអភិវឌ្ឍសង្គម	-11.215
▁Art	-11.2151
44	-11.2153
អង្គការអន្តរជាតិ	-11.2155
▁ជ្រើសរើស	-11.2157
អញ្ជើញចូលរួម	-11.216
ប៉ុន្មានថ្ងៃ	-11.216
ត្រូវដាក់ជូន	-11.2164
កាលពីមុន	-11.2167
▁និងឯកឧត្តម	-11.2169
ស្ពៃ	-11.2169
▁entertainment	-11.2169
ភូមិន្ទភ្នំពេញ	-11.2169
ឆក់	-11.2169
▁Function	-11.2169
សហគ្រិនវ័យក្មេង	-11.217
ញត្តិ	-11.2171
▁storms	-11.2171
▁ឡុង	-11.2171
▁Sophal	-11.2172
ទេសរដ្ឋមន្រ្តី	-11.2172
▁someone	-11.2175
▁2-3	-11.2175
▁បើសិនជា	-11.2176
បានផ្លាស់ប្តូរ	-11.2177
▁consult	-11.2178
ement	-11.2178
drew	-11.2179
បានមានប្រសាសន៍	-11.2181
▁employers	-11.2183
៉	-11.2183
ការរាតត្បាត	-11.2184
▁encroaching	-11.2186
សង្គមកិច្ច	-11.2187
▁respective	-11.2187
▁claimed	-11.2192
រំភើប	-11.2194
gazing	-11.2194
ដោយលោក	-11.2195
សិក្សាពី	-11.2197
បានស្លាប់	-11.2197
អត្តសញ្ញាណជាតិ	-11.2201
ថ្នាក់ទី១២	-11.2202
ថ្ងៃអាទិត្យ	-11.2202
▁បានផ្តល់	-11.2203
ដើម្បីជួយ	-11.2204
ប្រព័ន្ធទូទាត់	-11.2204
ដោយតម្លាភាព	-11.2205
ទ្វេភាគីរវាង	-11.2205
ដូស	-11.2207
▁$5.	-11.2207
១លានដុល្លារ	-11.2207
▁Lay	-11.2208
▁Parents	-11.2208
▁damaged	-11.2209
្ដ	-11.2211
ប្រព្រឹត្តទៅនៃ	-11.2211
បរិច្ចាគ	-11.2213
សាលាបឋមសិក្សា	-11.2216
ធន់នឹងអាកាសធាតុ	-11.2216
forming	-11.2218
ient	-11.2219
▁Executive	-11.2219
▁Secretariat	-11.2219
▁collateral	-11.2219
▁consecutive	-11.2219
▁demise	-11.2219
ធ្វើឱ្យប្រសើរឡើង	-11.222
▁សាលាឧទ្ធរណ៍	-11.222
▁ដង	-11.222
37	-11.2223
នៃកិច្ចព្រមព្រៀង	-11.2224
▁spirits	-11.2225
កម្លាំងចិត្ត	-11.2225
▁celebrating	-11.2227
របស់ព្រះ	-11.2227
៣៨	-11.2231
ពាក្យសុំ	-11.2233
ify	-11.2236
បង្កើតគណៈកម្មការ	-11.2236
ទិ	-11.2236
▁trucks	-11.2237
▁និងស្ថាប័ន	-11.2239
សម្បូរបែប	-11.2241
▁Bodhi	-11.2245
▁oppose	-11.2245
▁គួរជម្រាបជូនថា	-11.2245
▁សំបុត្រ	-11.2245
ព្យាបាលជាសះស្បើយ	-11.2245
៧៩	-11.2245
▁មិនទាន់	-11.2249
របរ	-11.2251
▁succeed	-11.2251
SS	-11.2253
▁Army	-11.2255
រស់នៅដោយ	-11.2255
▁ដើម្បីឲ្យ	-11.2255
គ្របដណ្តប់លើ	-11.2255
ដេក	-11.2255
បោះបង់ចោល	-11.2256
▁suspend	-11.2258
▁Unit	-11.2259
ទាំងពួង។	-11.2259
អ្នកវិភាគ	-11.226
▁រីក	-11.2261
ទីប្រជុំជន	-11.2263
▁nationality	-11.2264
▁convene	-11.2264
▁song	-11.2264
▁consideration	-11.2265
រួចផុតពី	-11.2265
បញ្ជាឱ្យ	-11.2266
▁benevolent	-11.227
▁ចំណោម	-11.227
ដឹកជញ្ជូនសាធារណៈ	-11.2271
▁Ratha	-11.2271
ផ្លូវភេទ	-11.2273
ហ្	-11.2273
sector	-11.2276
ជាតិស្តីពី	-11.2276
ដល់និស្សិត	-11.2276
១លាន	-11.2276
ប្រទេសម៉ាឡេស៊ី	-11.2277
▁latest	-11.2279
ដោយគ្មានការ	-11.228
▁ដូចជាការ	-11.2281
ងាប់	-11.2283
ប្រឡងជាប់	-11.2283
ក្នុងទំហំ	-11.2286
ជាកន្លែង	-11.2288
ម៉ឺនតោន	-11.2288
បានចុះ	-11.2288
▁ដោយសារការ	-11.2289
មនុស្សជាច្រើន	-11.2289
តម្លៃមាស	-11.2289
▁Tha	-11.2289
សរសៃ	-11.229
▁emphasizes	-11.229
▁ហើយមាន	-11.2291
ze	-11.2291
អនុវត្តកម្មវិធី	-11.2293
វង្វេង	-11.2295
អត្ថបទដែលទាក់ទង	-11.2295
ទស្សនវិជ្ជា	-11.2296
ES	-11.2296
ហួត	-11.2297
▁ជាការឆ្លើយតប	-11.2301
ឈឹម	-11.2303
ស្រក	-11.2305
អង្គភាពប្រឆាំង	-11.2307
▁80%	-11.2307
▁graduation	-11.2308
ក្នុងវេទិកា	-11.2309
depth	-11.2312
ស្នងការ	-11.2313
បានខិតខំ	-11.2314
▁សហភាពអឺរ៉ុប	-11.2315
សំណើសុំ	-11.2315
▁realm	-11.2316
▁និងពហុភាគី	-11.232
▁courtesy	-11.2321
ម្ចាស់ផ្ទះ	-11.2321
▁nothing	-11.2321
ឆមាសទី១	-11.2321
▁geographical	-11.2322
សម្រាប់ប្រជា	-11.2322
ger	-11.2324
▁២០១៩	-11.2324
▁និងមន្ត្រី	-11.2325
នៅក្នុងការ	-11.2326
ក្រុមប្រទេស	-11.2331
▁ប្រកាន់	-11.2332
របបអាហារ	-11.2332
ភាពរុងរឿងនៃ	-11.2332
▁transfers	-11.2332
ព័ត៌មានមិនពិត	-11.2335
▁standard	-11.2336
▁ខុនដូ	-11.2339
ដល់ការអភិវឌ្ឍ	-11.2343
ទំនាស់	-11.2346
ជនមានពិការភាព	-11.2346
សណ្ដែក	-11.2346
វេទិកាអ្នកស្ដាប់	-11.2346
ឥណ្ឌូណេស៊ី	-11.2346
បោះពុម្ព	-11.2347
▁yuan	-11.2347
រតនា	-11.2347
គំរាមកំហែង	-11.235
are	-11.2351
សម្រាប់កម្ពុជា	-11.2352
រថភ្លើង	-11.2353
▁blossom	-11.2355
បញ្ជាក់បន្ថែមថា	-11.2355
មានមនុស្ស	-11.2356
▁burden	-11.2357
ផ្លូវទឹក	-11.2357
▁entirely	-11.2358
អន្	-11.2359
▁វិធី	-11.2359
ជាលក្ខណៈ	-11.2359
ឹក	-11.236
នៅតាមតំបន់	-11.2361
AT	-11.2363
ចែងចាំង	-11.2363
▁ឃើញថា	-11.2366
▁seats	-11.2368
ស់ជីវិតលើត្បូង	-11.2369
▁flavors	-11.2369
ទំនងជា	-11.237
ឈូក	-11.2371
បង្ហាញខ្លួន	-11.2372
▁disabled	-11.2372
▁treaty	-11.2373
ទ្រព្យសកម្ម	-11.2373
▁micro	-11.2373
▁invited	-11.2376
heng	-11.2377
និងវិចិត្រសិល្បៈ	-11.2378
hy	-11.2379
▁យោង	-11.2384
▁container	-11.2384
▁កន្លងទៅនេះ	-11.2384
កិច្ចប្រជុំនេះ	-11.2387
▁រូបភាព	-11.2387
២លានដុល្លារ	-11.2388
ការឈឺចាប់	-11.239
ធ្វើអ្វី	-11.239
▁allocate	-11.2392
▁educate	-11.2392
តំបន់នេះ	-11.2396
▁lasting	-11.2396
ចុះត្រួតពិនិត្យ	-11.2397
▁ឆ្នាំ២០២០	-11.2397
បុគ្គលម្នាក់ៗ	-11.2398
▁literature	-11.2398
ត្រូវឆ្លងកាត់	-11.2399
រួ	-11.24
រៀបចំពិធី	-11.2401
ពិន័យ	-11.2402
▁analysts	-11.2402
▁Angkorian	-11.2403
ក្រោមអធិបតីភាព	-11.2403
មេដាយ	-11.2403
▁និងកម្មវិធី	-11.2403
▁fertilizers	-11.2403
កំពុងធ្វើការ	-11.2405
▁ស្ថិតនៅក្នុង	-11.2405
▁image	-11.2407
▁ឥឡូវនេះ	-11.2407
.3%	-11.2409
▁summoned	-11.2409
ក្នុងការទទួលបាន	-11.2411
ចាកចេញ	-11.2412
ល្វើយៗ	-11.2412
ពិសោធន៍	-11.2413
សហព័ន្ធស្រូវ	-11.2413
អ្នកទាំងពីរ	-11.2416
▁ស្ថាបត្យកម្ម	-11.2418
ងាយស្រួលក្នុងការ	-11.2418
▁unite	-11.2421
ពហុភាគី	-11.2421
▁យោ	-11.2421
មានសក្ដានុពល	-11.2422
ផ្លូវការ។	-11.2423
ព្រះករុណាជាអម្ចា	-11.2423
▁ដា	-11.2423
ឆ្លាត	-11.2423
▁uncertainty	-11.2424
▁Feder	-11.2425
នៃកម្មវិធី	-11.2428
orm	-11.2429
▁prefer	-11.243
ត្តិ	-11.2432
▁៤០០	-11.2438
ស៊ូ	-11.2441
ទូរគមនាគមន៍	-11.2442
▁ទំហំពាណិជ្ជកម្ម	-11.2445
▁samsara	-11.2449
ព្រៃព្រឹក្សា	-11.2449
▁neutrality	-11.2449
▁Ampov	-11.245
▁popularity	-11.2452
▁appearance	-11.2452
ស្នេហ៍	-11.2454
▁Book	-11.2454
96	-11.2455
ខាងជើង	-11.2457
▁90	-11.2457
52	-11.2458
របស់ធនាគារជាតិ	-11.2458
ដែលចេញដោយ	-11.2458
▁ពាក្យ	-11.2459
▁អ្វីៗ	-11.246
▁donation	-11.246
▁harvesting	-11.2461
នៅក្រៅឃុំ	-11.2462
▁បុរី	-11.2463
ile	-11.2463
ចុះផ្សាយ	-11.2463
៤ឆ្នាំ	-11.2468
កាត់ទោស	-11.2469
និងការ	-11.2469
,9	-11.2469
វិស័យកាត់ដេរ	-11.2471
បើករថយន្ត	-11.2473
▁ភព	-11.2473
លាស់	-11.2475
អូសបន្លាយ	-11.2475
▁Specifically	-11.2475
▁easier	-11.2475
▁laundering	-11.2475
▁allegations	-11.2475
លាក់ខ្លួន	-11.2478
បម្រើការងារ	-11.2479
▁ណែនាំ	-11.248
ពិនិត្យឡើងវិញ	-11.2482
▁garden	-11.2485
▁ទី៤	-11.2487
▁advancement	-11.2488
បាញ់សម្លាប់	-11.2488
rang	-11.2489
▁សុភាព	-11.2491
ឆ្នាំ២០២៤នេះ	-11.2491
▁វិជ្ជាជីវៈ	-11.2493
បង្កប់នូវ	-11.2493
mal	-11.2494
៦០០	-11.2499
▁Framework	-11.2501
▁Respect	-11.2501
▁YouTube	-11.2501
▁Bovor	-11.2501
▁Nagaworld	-11.2501
▁observers	-11.2502
អ៊	-11.2503
ជ័រ	-11.2504
▁(7	-11.2505
នៃសន្តិភាព	-11.2505
នៅមន្ទីរពេទ្យ	-11.2506
▁គួរតែ	-11.2507
ក្នុងការពង្រឹង	-11.2508
▁នៃរដ្ឋសភា	-11.2509
▁borrowing	-11.2509
កិត្តិ	-11.251
ខ្សែច្រវាក់	-11.2513
▁routes	-11.2517
▁Meta	-11.2519
មានសភាព	-11.2519
ឱ្យកាន់តែមាន	-11.252
▁Awards	-11.252
តភ្ជាប់ពី	-11.2521
▁ប្រកប	-11.2522
កំពង់ផែស្វយ័ត	-11.2522
▁struggles	-11.2522
▁objects	-11.2525
dherence	-11.2526
មហោស្រព	-11.2527
មេធាវីការពារក្តី	-11.2527
▁convenience	-11.2527
▁actress	-11.2527
▁label	-11.2527
ទឹកសាប	-11.2528
▁attach	-11.2528
មានបទពិសោធន៍	-11.253
▁ផ្លែ	-11.253
នៅតែជាអាទិភាព	-11.2531
បិទទ្វារ	-11.2532
▁នាយករដ្ឋមន្រ្ដី	-11.2532
▁kilometers	-11.2533
▁Vann	-11.2533
ជាបញ្ហា	-11.2533
MO	-11.2534
បានថ្លែងថា	-11.2534
▁ប្រឈម	-11.2536
▁និងប្រទេស	-11.2537
លើជញ្ជាំងប្រាសាទ	-11.2538
ើង	-11.254
▁ក៏ជា	-11.254
ព្	-11.2541
▁Inclusive	-11.2542
▁link	-11.2543
▁Som	-11.2545
ren	-11.2546
៥០០នាក់	-11.2546
NI	-11.2546
តប	-11.2547
ជួន	-11.2547
▁deposit	-11.2548
សកម្មជនដីធ្លី	-11.255
ដាក់ញត្តិ	-11.255
▁hotels	-11.2551
ក្នុងប្រព័ន្ធ	-11.2552
▁កិច្ចខិតខំប្រឹង	-11.2552
រៈ	-11.2553
ប្រហាក់ប្រហែល	-11.2553
▁medicine	-11.2553
▁milk	-11.2553
▁Network	-11.2554
២០៣០	-11.2557
TC	-11.2557
លាយឡំនឹង	-11.2558
ith	-11.2558
នៅក្នុងខេត្ត	-11.2559
បញ្ចប់ការ	-11.2559
បានថ្លែងបន្តថា	-11.256
មិនសូវមាន	-11.2563
តាំងតែពី	-11.2564
ជិះកង់	-11.2564
អូស្រ្តាលី	-11.2565
▁បានចូលរួម	-11.2565
▁ហើយថែមទាំង	-11.2566
▁shop	-11.2568
លើកកម្ពស់ជីវភាព	-11.2568
ថ្នាំជក់	-11.257
និទ្ទេស	-11.2571
▁Cho	-11.2572
▁allowed	-11.2574
ប្រទេសកម្ពុជា។	-11.2575
ចូលទស្សនា	-11.2575
▁island	-11.2575
cies	-11.2576
ស្ថិរភាពថ្លៃ	-11.2577
ព្យុះ	-11.2578
pl	-11.2578
ដំរី	-11.2579
▁survey	-11.258
▁clarity	-11.258
▁evil	-11.258
ថែមទៀត។	-11.258
▁deeds	-11.258
▁អាស៊ីសេរី	-11.2581
▁ឆ្នាំនេះ	-11.2581
រវាងប្រទេស	-11.2582
សំបុត្រមរណភាព	-11.2582
▁given	-11.2582
ធម្ម	-11.2583
▁wafted	-11.2584
▁cold	-11.2585
▁៣៣	-11.2585
▁សូមស្ដាប់	-11.2586
បានរីកចម្រើន	-11.2587
ទទួលរង	-11.2587
ព្រះរាជអាជ្ញា	-11.2589
▁passion	-11.2589
ផ្ត	-11.259
កំណត់អត្តសញ្ញាណ	-11.259
ហាត់	-11.259
▁weekly	-11.2592
នៃប្រទេសកម្ពុជា	-11.2593
▁Programs	-11.2595
▁recounted	-11.2596
្តិការទ្វេភាគី	-11.2597
▁politicians	-11.2597
ik	-11.2601
▁សែន៖	-11.2601
ព្យាករណ៍ថា	-11.2602
ដែលស្ថិតនៅ	-11.2605
របស់ប្រទេសចិន	-11.2605
▁$2.	-11.2606
▁Representative	-11.2606
▁pardon	-11.2606
▁broadcast	-11.2606
▁chili	-11.2606
▁farms	-11.2606
▁Bopha	-11.2607
ជាជាង	-11.2608
ចម្រើន	-11.2608
▁៣៦	-11.2608
វិបត្តិជំងឺកូវីដ	-11.261
មុខមាត់	-11.2612
▁និងផ្សព្វផ្សាយ	-11.2613
ជាអ្នកនាំពាក្យ	-11.2614
ពុ	-11.2614
ចំនួន៧	-11.2616
ផងនោះ	-11.2616
▁route	-11.2617
បានហូរ	-11.2618
cam	-11.2619
ផុស	-11.262
▁Sal	-11.2623
អាណាចក្រខ្មែរ	-11.2623
ying	-11.2623
▁burdens	-11.2624
ស្តីពីការបង្កើត	-11.2625
មិ	-11.2625
គិតគូរពី	-11.2625
ជនជាតិខ្មែរ	-11.2628
ការចូលរួមចំណែក	-11.2628
▁add	-11.2629
អះអាង	-11.263
ជ្	-11.2631
សន្តិសុខសង្គម	-11.2631
TVET	-11.2631
រាល់ថ្ងៃ	-11.2632
▁imp	-11.2632
Video	-11.2632
ទាក់ទងនឹងការ	-11.2633
យើងទាំងអស់គ្នា	-11.2633
istic	-11.2634
គណនេយ្យភាព	-11.2635
យ៉ាងពេញទំហឹង	-11.2636
▁reserve	-11.2637
រូ	-11.2645
▁និងសមត្ថភាព	-11.2647
▁ឯកអគ្គរាជទូត	-11.2648
CR	-11.2649
▁ចាប់ពីថ្ងៃទី	-11.2651
ទំនាក់ទំនងជាមួយ	-11.2652
ដែលបានចូលរួម	-11.2654
▁withdraw	-11.2655
ភាពត្រឹមត្រូវ	-11.2655
▁NGOs	-11.2656
▁ស្ងប់	-11.2657
▁spark	-11.2658
ខណ្ឌដង្កោ	-11.2659
ខឹង	-11.2661
ware	-11.2661
រយៈពេលប៉ុន្មាន	-11.2661
ក្រសួងមហាផ្ទៃ។	-11.2662
ត្រូវរៀបចំ	-11.2666
នឹងចូលរួម	-11.2666
cha	-11.2667
ប្រសិទ្ធ	-11.2668
ប្រកបដោយតម្លាភាព	-11.2671
▁ងងឹត	-11.2671
វាមាន	-11.2672
ការខូចខាត	-11.2674
មែក	-11.2674
រាល់សកម្មភាព	-11.2675
▁fo	-11.2679
យាម	-11.268
ទៅទៀត	-11.2681
ត្រូវបន្ត	-11.2683
រវាងរដ្ឋ	-11.2683
▁earlier	-11.2685
violating	-11.2685
▁ហើយក៏ជា	-11.2687
▁joining	-11.2687
▁វិស័យឯកជន	-11.2689
nu	-11.269
កិន	-11.269
ាក់	-11.269
ឋានៈ	-11.2692
▁prisoners	-11.2693
▁funded	-11.2693
មុត	-11.2694
ដ៏លំបាក	-11.2698
▁wide	-11.2701
▁Bi	-11.2702
▁ត្រូវបានគេ	-11.2702
▁វិនិ	-11.2704
▁strain	-11.2704
lot	-11.2704
តទៅ	-11.2705
ជាផ្លូវការនូវ	-11.2707
▁blooming	-11.2707
▁developments	-11.2708
ចាត់ទុកជា	-11.2708
ក្នុងឆ្នាំ២០២១	-11.2709
ជាទី	-11.271
▁considering	-11.271
ពង្រីកកិច្ចសហ	-11.2711
ម្តងទៀត	-11.2711
រទេះ	-11.2712
▁Identity	-11.2712
ដោយសន្តិវិធី	-11.2712
ញ់	-11.2713
រាប់លាននាក់	-11.2714
▁Ku	-11.2715
ស្វែងយល់អំពី	-11.2716
▁ពីបទ	-11.2716
▁almo	-11.2716
សប្បុរសជន	-11.2717
បិទខ្ទប់	-11.272
ជ្រើស	-11.2721
▁Run	-11.2723
▁gestures	-11.2726
តារាប្រុស	-11.2727
▁takes	-11.2728
ប្រជាជន។	-11.2728
ថែមទៀតផង។	-11.2729
ាំង	-11.2732
លាបពណ៌	-11.2733
▁ដែលធ្វើឲ្យ	-11.2735
ក្នុងការប្រយុទ្ធ	-11.2735
▁$10	-11.2736
ស្រង់	-11.2738
ទីផ្សារ។	-11.2738
ទុរេន	-11.2738
▁TikTok	-11.2738
▁salaries	-11.2738
បវរកញ្ញា	-11.2738
បោសសម្អាតមីន	-11.2738
មុនី	-11.2739
ពោះ	-11.274
ព័ត៌មានរបស់	-11.2741
នឹ	-11.2742
▁deploy	-11.2744
▁ទោះជា	-11.2748
លក់ដូរ	-11.2748
log	-11.2749
92	-11.275
▁choice	-11.2751
ុយ	-11.2751
ការពារធម្មជាតិ	-11.2752
លើជំនាញ	-11.2757
បង្ហាញនូវ	-11.2757
▁អវិជ្ជា	-11.2759
▁4.0	-11.2759
នឹងជំរុញ	-11.276
▁កណ្ដាល	-11.276
បានដាក់ចេញ	-11.2761
▁ការជំរុញ	-11.2762
▁ម៉ាឡេស៊ី	-11.2763
ណែនាំឱ្យ	-11.2764
ពឹង	-11.2764
េចក្តីថ្លែងការណ៍	-11.2765
ត្រកូល	-11.2765
▁Wednesday	-11.2765
▁baccalaureate	-11.2765
▁suspension	-11.2765
▁សច្ចធម៌	-11.2765
▁សំអន	-11.2765
▁persons	-11.2766
បុគ្គលដែល	-11.2767
ទៅកាន់ប្រទេស	-11.2768
បក្សប្រជាជន	-11.2768
ស្ថិតនៅភូមិ	-11.2769
▁គឺជាផ្នែកមួយ	-11.277
ខ្សឹបប្រាប់	-11.2771
▁sacrifice	-11.2771
បន្តអនុវត្ត	-11.2775
▁អ្នកជំងឺកូវីដ	-11.2776
Korea	-11.2776
សូរ	-11.2777
ទាយ	-11.2777
▁checkpoint	-11.2778
▁Ye	-11.2782
▁ចុងក្រោយ	-11.2783
vy	-11.2787
ខ្នាតធំ	-11.2787
men	-11.2787
att	-11.2787
ថ្មីរបស់	-11.2789
▁tire	-11.2791
▁principal	-11.2792
▁pork	-11.2792
▁fate	-11.2794
ដ៏រស់រវើកនៃ	-11.2795
ក្រុមហ៊ុនផលិត	-11.2796
ដ៏មុតមាំ	-11.2799
ទៅឲ្យ	-11.2799
▁Tin	-11.2801
arm	-11.2803
▁codes	-11.2804
តំបន់សេដ្ឋកិច្ច	-11.2804
▁thousand	-11.2805
ប្រក្រតី	-11.2805
មើលឃើញពី	-11.2805
▁smoothly	-11.2805
ទំហំទឹកប្រាក់	-11.2805
32	-11.2806
▁Vol	-11.2806
mp	-11.2806
▁និងឱកាស	-11.2808
▁acts	-11.2811
សសរស្តម្ភ	-11.2817
ការអត់ធ្មត់	-11.2817
▁អាកាសយានដ្ឋាន	-11.2818
អង្គរវត្ត	-11.2818
▁elements	-11.2818
▁properties	-11.2818
▁sagacious	-11.2818
ជម្រុញ	-11.2818
▁Holding	-11.2818
▁authorization	-11.2819
ភស្តុភារកម្ម	-11.2819
ស្អែកនេះ	-11.2819
ស្រូបយក	-11.2821
៥០០	-11.2822
ប្រទះឃើញ	-11.2822
១១នាក់	-11.2823
អភិវឌ្ឍសមត្ថភាព	-11.2824
▁Diploma	-11.2824
▁lifelong	-11.2825
អគ្គនាយក	-11.2826
▁ក្រសួងទេសចរណ៍	-11.2829
ជានិស្សិត	-11.2832
មួយផ្នែក	-11.2833
▁endlessly	-11.2833
ភ្នំខ្ពស់ៗ	-11.2834
យ៉ាងតឹងរ៉ឹង។	-11.2836
▁games	-11.2836
star	-11.2838
បានបន្តថា	-11.2838
**.	-11.284
hand	-11.284
▁គំនិត	-11.284
ជឿនលឿន	-11.2841
▁fled	-11.2845
▁វ៉ាន់	-11.2845
ដាច់ខាត	-11.2847
▁Madam	-11.2847
លោកិយ	-11.2847
ស្រោចទឹក	-11.2848
ផ្តល់ឱកាស	-11.2848
គីមី	-11.2849
▁gr	-11.285
ជំងឺឆ្លង។	-11.2851
ផ្តាច់	-11.2851
▁joyous	-11.2852
▁មានដូចជា	-11.2853
▁solution	-11.2859
▁Scholarships	-11.286
ឈានទៅរក	-11.2861
▁secur	-11.2862
របបលោក	-11.2862
▁ជូនដល់	-11.2863
មូលធន	-11.2865
▁defendant	-11.2865
▁dissolve	-11.2866
ស្ថិត	-11.2867
បន្ថែម។	-11.2868
▁ទិវា	-11.2869
▁differ	-11.287
នៅឆ្នាំ២០២៤	-11.287
ន្ទ	-11.2871
residing	-11.2872
ខកខាន	-11.2872
អាកាសចរណ៍	-11.2872
▁prize	-11.2872
្វ	-11.2873
[...]
